<?xml version="1.0"?>
<MethodSetup Method="BDT::k2001">
  <GeneralInfo>
    <Info name="TMVA Release" value="4.2.1 [262657]"/>
    <Info name="ROOT Release" value="6.06/01 [394753]"/>
    <Info name="Creator" value="chrisjcc"/>
    <Info name="Date" value="Tue Mar 14 01:18:42 2017"/>
    <Info name="Host" value="Linux vocms0301.cern.ch 2.6.32-642.11.1.el6.x86_64 #1 SMP Wed Nov 16 09:40:09 CET 2016 x86_64 x86_64 x86_64 GNU/Linux"/>
    <Info name="Dir" value="/nfs/dust/cms/user/chrisjcc/Moriond17v6/workSpace"/>
    <Info name="Training events" value="544725"/>
    <Info name="TrainingTime" value="2.92939399e+02"/>
    <Info name="AnalysisType" value="Classification"/>
  </GeneralInfo>
  <Options>
    <Option name="V" modified="Yes">False</Option>
    <Option name="VerbosityLevel" modified="No">Default</Option>
    <Option name="VarTransform" modified="No">None</Option>
    <Option name="H" modified="Yes">False</Option>
    <Option name="CreateMVAPdfs" modified="No">False</Option>
    <Option name="IgnoreNegWeightsInTraining" modified="No">False</Option>
    <Option name="NTrees" modified="Yes">711</Option>
    <Option name="MaxDepth" modified="Yes">2</Option>
    <Option name="MinNodeSize" modified="No">5%</Option>
    <Option name="nCuts" modified="Yes">37</Option>
    <Option name="BoostType" modified="Yes">Grad</Option>
    <Option name="AdaBoostR2Loss" modified="No">quadratic</Option>
    <Option name="UseBaggedBoost" modified="Yes">True</Option>
    <Option name="Shrinkage" modified="Yes">3.579399e-02</Option>
    <Option name="AdaBoostBeta" modified="No">5.000000e-01</Option>
    <Option name="UseRandomisedTrees" modified="No">False</Option>
    <Option name="UseNvars" modified="No">3</Option>
    <Option name="UsePoissonNvars" modified="No">True</Option>
    <Option name="BaggedSampleFraction" modified="No">2.129850e-01</Option>
    <Option name="UseYesNoLeaf" modified="No">True</Option>
    <Option name="NegWeightTreatment" modified="Yes">ignorenegweightsintraining</Option>
    <Option name="Css" modified="No">1.000000e+00</Option>
    <Option name="Cts_sb" modified="No">1.000000e+00</Option>
    <Option name="Ctb_ss" modified="No">1.000000e+00</Option>
    <Option name="Cbb" modified="No">1.000000e+00</Option>
    <Option name="NodePurityLimit" modified="No">5.000000e-01</Option>
    <Option name="SeparationType" modified="No">giniindex</Option>
    <Option name="DoBoostMonitor" modified="No">False</Option>
    <Option name="UseFisherCuts" modified="No">False</Option>
    <Option name="MinLinCorrForFisher" modified="No">8.000000e-01</Option>
    <Option name="UseExclusiveVars" modified="No">False</Option>
    <Option name="DoPreselection" modified="No">False</Option>
    <Option name="SigToBkgFraction" modified="No">1.000000e+00</Option>
    <Option name="PruneMethod" modified="No">nopruning</Option>
    <Option name="PruneStrength" modified="No">0.000000e+00</Option>
    <Option name="PruningValFraction" modified="No">5.000000e-01</Option>
    <Option name="nEventsMin" modified="No">0</Option>
    <Option name="UseBaggedGrad" modified="No">False</Option>
    <Option name="GradBaggingFraction" modified="Yes">2.129850e-01</Option>
    <Option name="UseNTrainEvents" modified="No">0</Option>
    <Option name="NNodesMax" modified="No">0</Option>
  </Options>
  <Variables NVar="8">
    <Variable VarIndex="0" Expression="median_mass_jet_jet" Label="median_mass_jet_jet" Title="median_mass_jet_jet" Unit="" Internal="median_mass_jet_jet" Type="F" Min="2.42755756e+01" Max="1.02826123e+03"/>
    <Variable VarIndex="1" Expression="R1_tag" Label="R1_tag" Title="R1_tag" Unit="" Internal="R1_tag" Type="F" Min="5.00030637e-01" Max="9.99731243e-01"/>
    <Variable VarIndex="2" Expression="mass_jet_jet_min_deltaR" Label="mass_jet_jet_min_deltaR" Title="mass_jet_jet_min_deltaR" Unit="" Internal="mass_jet_jet_min_deltaR" Type="F" Min="1.02319555e+01" Max="1.01873138e+03"/>
    <Variable VarIndex="3" Expression="btagDiscriminatorAverage_untagged" Label="btagDiscriminatorAverage_untagged" Title="btagDiscriminatorAverage_untagged" Unit="" Internal="btagDiscriminatorAverage_untagged" Type="F" Min="0.00000000e+00" Max="8.45213950e-01"/>
    <Variable VarIndex="4" Expression="H2_jet" Label="H2_jet" Title="H2_jet" Unit="" Internal="H2_jet" Type="F" Min="2.54207671e-01" Max="2.74641442e+00"/>
    <Variable VarIndex="5" Expression="ptSum_jets_leptons" Label="ptSum_jets_leptons" Title="ptSum_jets_leptons" Unit="" Internal="ptSum_jets_leptons" Type="F" Min="1.52361664e+02" Max="3.23552246e+03"/>
    <Variable VarIndex="6" Expression="mass_tag_tag_min_deltaR" Label="mass_tag_tag_min_deltaR" Title="mass_tag_tag_min_deltaR" Unit="" Internal="mass_tag_tag_min_deltaR" Type="F" Min="1.09788723e+01" Max="2.22629199e+03"/>
    <Variable VarIndex="7" Expression="pT_jet_tag_min_deltaR" Label="pT_jet_tag_min_deltaR" Title="pT_jet_tag_min_deltaR" Unit="" Internal="pT_jet_tag_min_deltaR" Type="F" Min="4.10731554e+00" Max="1.21188733e+03"/>
  </Variables>
  <Spectators NSpec="0"/>
  <Classes NClass="2">
    <Class Name="Signal" Index="0"/>
    <Class Name="Background" Index="1"/>
  </Classes>
  <Transformations NTransformations="0"/>
  <MVAPdfs/>
  <Weights NTrees="711" AnalysisType="1">
    <BinaryTree type="DecisionTree" boostWeight="1.0000000000000000e+00" itree="0">
      <Node pos="s" depth="0" NCoef="0" IVar="3" Cut="3.3363708853721619e-01" cType="1" res="3.6354784388095140e-03" rms="4.9998679757118225e-01" purity="5.0363546609878540e-01" nType="0">
        <Node pos="l" depth="1" NCoef="0" IVar="5" Cut="5.0792526245117188e+02" cType="1" res="-1.2424388527870178e-01" rms="4.8431751132011414e-01" purity="3.7575611472129822e-01" nType="0">
          <Node pos="l" depth="2" NCoef="0" IVar="-1" Cut="0.0000000000000000e+00" cType="1" res="-1.6475216252729297e-03" rms="4.4925582408905029e-01" purity="2.8052511811256409e-01" nType="-99"/>
          <Node pos="r" depth="2" NCoef="0" IVar="-1" Cut="0.0000000000000000e+00" cType="1" res="1.1867361172335222e-04" rms="4.9907961487770081e-01" purity="5.3032398223876953e-01" nType="-99"/>
        </Node>
        <Node pos="r" depth="1" NCoef="0" IVar="5" Cut="3.7913314819335938e+02" cType="1" res="1.3665489852428436e-01" rms="4.8096302151679993e-01" purity="6.3665491342544556e-01" nType="0">
          <Node pos="l" depth="2" NCoef="0" IVar="-1" Cut="0.0000000000000000e+00" cType="1" res="-1.8640178313944489e-04" rms="4.9840319156646729e-01" purity="4.6007198095321655e-01" nType="-99"/>
          <Node pos="r" depth="2" NCoef="0" IVar="-1" Cut="0.0000000000000000e+00" cType="1" res="6.4417277462780476e-04" rms="4.5148089528083801e-01" purity="7.1486037969589233e-01" nType="-99"/>
        </Node>
      </Node>
    </BinaryTree>
    <BinaryTree type="DecisionTree" boostWeight="1.0000000000000000e+00" itree="1">
      <Node pos="s" depth="0" NCoef="0" IVar="3" Cut="3.5567700862884521e-01" cType="1" res="-1.6396793071180582e-03" rms="4.9983623623847961e-01" purity="4.9819749593734741e-01" nType="0">
        <Node pos="l" depth="1" NCoef="0" IVar="5" Cut="4.2111505126953125e+02" cType="1" res="-1.2101069837808609e-01" rms="4.8492103815078735e-01" purity="3.7855377793312073e-01" nType="0">
          <Node pos="l" depth="2" NCoef="0" IVar="-1" Cut="0.0000000000000000e+00" cType="1" res="-2.1128922235220671e-03" rms="4.3324103951454163e-01" purity="2.5041911005973816e-01" nType="-99"/>
          <Node pos="r" depth="2" NCoef="0" IVar="-1" Cut="0.0000000000000000e+00" cType="1" res="-7.7390650403685868e-05" rms="4.9960571527481079e-01" purity="4.8163959383964539e-01" nType="-99"/>
        </Node>
        <Node pos="r" depth="1" NCoef="0" IVar="5" Cut="3.5280987548828125e+02" cType="1" res="1.5322233736515045e-01" rms="4.7583904862403870e-01" purity="6.5341323614120483e-01" nType="0">
          <Node pos="l" depth="2" NCoef="0" IVar="-1" Cut="0.0000000000000000e+00" cType="1" res="-2.5768659543246031e-04" rms="4.9715575575828552e-01" purity="4.4674420356750488e-01" nType="-99"/>
          <Node pos="r" depth="2" NCoef="0" IVar="-1" Cut="0.0000000000000000e+00" cType="1" res="6.4978603040799499e-04" rms="4.5021995902061462e-01" purity="7.1747452020645142e-01" nType="-99"/>
        </Node>
      </Node>
    </BinaryTree>
    <BinaryTree type="DecisionTree" boostWeight="1.0000000000000000e+00" itree="2">
      <Node pos="s" depth="0" NCoef="0" IVar="3" Cut="3.5587954521179199e-01" cType="1" res="5.6203355779871345e-04" rms="4.9967202544212341e-01" purity="5.0020241737365723e-01" nType="0">
        <Node pos="l" depth="1" NCoef="0" IVar="5" Cut="4.8694808959960938e+02" cType="1" res="-1.0967679321765900e-01" rms="4.8739063739776611e-01" purity="3.8939878344535828e-01" nType="0">
          <Node pos="l" depth="2" NCoef="0" IVar="-1" Cut="0.0000000000000000e+00" cType="1" res="-1.4905449934303761e-03" rms="4.5448383688926697e-01" purity="2.9173937439918518e-01" nType="-99"/>
          <Node pos="r" depth="2" NCoef="0" IVar="-1" Cut="0.0000000000000000e+00" cType="1" res="1.0992395982611924e-04" rms="4.9917536973953247e-01" purity="5.2856487035751343e-01" nType="-99"/>
        </Node>
        <Node pos="r" depth="1" NCoef="0" IVar="5" Cut="3.6805935668945312e+02" cType="1" res="1.4852790534496307e-01" rms="4.7721886634826660e-01" purity="6.4892649650573730e-01" nType="0">
          <Node pos="l" depth="2" NCoef="0" IVar="-1" Cut="0.0000000000000000e+00" cType="1" res="-6.0715537983924150e-05" rms="4.9979457259178162e-01" purity="4.8625215888023376e-01" nType="-99"/>
          <Node pos="r" depth="2" NCoef="0" IVar="-1" Cut="0.0000000000000000e+00" cType="1" res="6.4470915822312236e-04" rms="4.5057952404022217e-01" purity="7.1673345565795898e-01" nType="-99"/>
        </Node>
      </Node>
    </BinaryTree>
    <BinaryTree type="DecisionTree" boostWeight="1.0000000000000000e+00" itree="3">
      <Node pos="s" depth="0" NCoef="0" IVar="3" Cut="3.5587954521179199e-01" cType="1" res="-3.4267054870724678e-03" rms="4.9949100613594055e-01" purity="4.9609377980232239e-01" nType="0">
        <Node pos="l" depth="1" NCoef="0" IVar="5" Cut="3.9425656127929688e+02" cType="1" res="-1.2284217774868011e-01" rms="4.8401618003845215e-01" purity="3.7581464648246765e-01" nType="0">
          <Node pos="l" depth="2" NCoef="0" IVar="-1" Cut="0.0000000000000000e+00" cType="1" res="-2.6279296725988388e-03" rms="4.1606593132019043e-01" purity="2.2273992002010345e-01" nType="-99"/>
          <Node pos="r" depth="2" NCoef="0" IVar="-1" Cut="0.0000000000000000e+00" cType="1" res="-1.4178965648170561e-04" rms="4.9879312515258789e-01" purity="4.6718096733093262e-01" nType="-99"/>
        </Node>
        <Node pos="r" depth="1" NCoef="0" IVar="5" Cut="3.7264440917968750e+02" cType="1" res="1.5062782168388367e-01" rms="4.7644135355949402e-01" purity="6.5126246213912964e-01" nType="0">
          <Node pos="l" depth="2" NCoef="0" IVar="-1" Cut="0.0000000000000000e+00" cType="1" res="-1.1585241736611351e-04" rms="4.9933066964149475e-01" purity="4.7453314065933228e-01" nType="-99"/>
          <Node pos="r" depth="2" NCoef="0" IVar="-1" Cut="0.0000000000000000e+00" cType="1" res="6.4705859404057264e-04" rms="4.4697180390357971e-01" purity="7.2408264875411987e-01" nType="-99"/>
        </Node>
      </Node>
    </BinaryTree>
    <BinaryTree type="DecisionTree" boostWeight="1.0000000000000000e+00" itree="4">
      <Node pos="s" depth="0" NCoef="0" IVar="3" Cut="2.6668155193328857e-01" cType="1" res="-1.7985736485570669e-03" rms="4.9931976199150085e-01" purity="4.9751228094100952e-01" nType="0">
        <Node pos="l" depth="1" NCoef="0" IVar="5" Cut="4.5629586791992188e+02" cType="1" res="-1.9668067991733551e-01" rms="4.5842939615249634e-01" purity="3.0126070976257324e-01" nType="0">
          <Node pos="l" depth="2" NCoef="0" IVar="-1" Cut="0.0000000000000000e+00" cType="1" res="-2.6399074122309685e-03" rms="4.1056320071220398e-01" purity="2.1468828618526459e-01" nType="-99"/>
          <Node pos="r" depth="2" NCoef="0" IVar="-1" Cut="0.0000000000000000e+00" cType="1" res="-4.5871254405938089e-04" rms="4.9168559908866882e-01" purity="4.0949878096580505e-01" nType="-99"/>
        </Node>
        <Node pos="r" depth="1" NCoef="0" IVar="5" Cut="4.4457843017578125e+02" cType="1" res="9.6832722425460815e-02" rms="4.9009299278259277e-01" purity="5.9683662652969360e-01" nType="0">
          <Node pos="l" depth="2" NCoef="0" IVar="-1" Cut="0.0000000000000000e+00" cType="1" res="-1.0961104999296367e-04" rms="4.9898591637611389e-01" purity="4.7492828965187073e-01" nType="-99"/>
          <Node pos="r" depth="2" NCoef="0" IVar="-1" Cut="0.0000000000000000e+00" cType="1" res="6.0620787553489208e-04" rms="4.5753958821296692e-01" purity="7.0132488012313843e-01" nType="-99"/>
        </Node>
      </Node>
    </BinaryTree>
    <BinaryTree type="DecisionTree" boostWeight="1.0000000000000000e+00" itree="5">
      <Node pos="s" depth="0" NCoef="0" IVar="3" Cut="3.0915778875350952e-01" cType="1" res="-3.3207706292159855e-04" rms="4.9913761019706726e-01" purity="4.9878105521202087e-01" nType="0">
        <Node pos="l" depth="1" NCoef="0" IVar="5" Cut="4.7438879394531250e+02" cType="1" res="-1.4552329480648041e-01" rms="4.7692108154296875e-01" purity="3.5194897651672363e-01" nType="0">
          <Node pos="l" depth="2" NCoef="0" IVar="-1" Cut="0.0000000000000000e+00" cType="1" res="-2.1893121302127838e-03" rms="4.2676007747650146e-01" purity="2.3981574177742004e-01" nType="-99"/>
          <Node pos="r" depth="2" NCoef="0" IVar="-1" Cut="0.0000000000000000e+00" cType="1" res="-2.3081916879164055e-05" rms="4.9991241097450256e-01" purity="4.9420928955078125e-01" nType="-99"/>
        </Node>
        <Node pos="r" depth="1" NCoef="0" IVar="5" Cut="3.9273645019531250e+02" cType="1" res="1.1733502894639969e-01" rms="4.8557430505752563e-01" purity="6.1777794361114502e-01" nType="0">
          <Node pos="l" depth="2" NCoef="0" IVar="-1" Cut="0.0000000000000000e+00" cType="1" res="-1.1311319394735619e-04" rms="4.9907571077346802e-01" purity="4.7411099076271057e-01" nType="-99"/>
          <Node pos="r" depth="2" NCoef="0" IVar="-1" Cut="0.0000000000000000e+00" cType="1" res="5.9208553284406662e-04" rms="4.5977547764778137e-01" purity="6.9623869657516479e-01" nType="-99"/>
        </Node>
      </Node>
    </BinaryTree>
    <BinaryTree type="DecisionTree" boostWeight="1.0000000000000000e+00" itree="6">
      <Node pos="s" depth="0" NCoef="0" IVar="3" Cut="3.1112697720527649e-01" cType="1" res="7.4825889896601439e-04" rms="4.9897262454032898e-01" purity="4.9967589974403381e-01" nType="0">
        <Node pos="l" depth="1" NCoef="0" IVar="5" Cut="4.2391641235351562e+02" cType="1" res="-1.4768803119659424e-01" rms="4.7601732611656189e-01" purity="3.4909880161285400e-01" nType="0">
          <Node pos="l" depth="2" NCoef="0" IVar="-1" Cut="0.0000000000000000e+00" cType="1" res="-2.2932519204914570e-03" rms="4.2067158222198486e-01" purity="2.2984628379344940e-01" nType="-99"/>
          <Node pos="r" depth="2" NCoef="0" IVar="-1" Cut="0.0000000000000000e+00" cType="1" res="-2.2329851344693452e-04" rms="4.9732610583305359e-01" purity="4.4984027743339539e-01" nType="-99"/>
        </Node>
        <Node pos="r" depth="1" NCoef="0" IVar="5" Cut="4.1434036254882812e+02" cType="1" res="1.2103021144866943e-01" rms="4.8454907536506653e-01" purity="6.2169253826141357e-01" nType="0">
          <Node pos="l" depth="2" NCoef="0" IVar="-1" Cut="0.0000000000000000e+00" cType="1" res="-2.6331676053814590e-05" rms="4.9965667724609375e-01" purity="4.9330133199691772e-01" nType="-99"/>
          <Node pos="r" depth="2" NCoef="0" IVar="-1" Cut="0.0000000000000000e+00" cType="1" res="6.0893193585798144e-04" rms="4.5404443144798279e-01" purity="7.0914739370346069e-01" nType="-99"/>
        </Node>
      </Node>
    </BinaryTree>
    <BinaryTree type="DecisionTree" boostWeight="1.0000000000000000e+00" itree="7">
      <Node pos="s" depth="0" NCoef="0" IVar="3" Cut="3.3228603005409241e-01" cType="1" res="-1.5756831271573901e-03" rms="4.9880087375640869e-01" purity="4.9714079499244690e-01" nType="0">
        <Node pos="l" depth="1" NCoef="0" IVar="5" Cut="4.7167556762695312e+02" cType="1" res="-1.2175691127777100e-01" rms="4.8318400979042053e-01" purity="3.7474316358566284e-01" nType="0">
          <Node pos="l" depth="2" NCoef="0" IVar="-1" Cut="0.0000000000000000e+00" cType="1" res="-1.7394337337464094e-03" rms="4.4381144642829895e-01" purity="2.7027171850204468e-01" nType="-99"/>
          <Node pos="r" depth="2" NCoef="0" IVar="-1" Cut="0.0000000000000000e+00" cType="1" res="2.5671257390058599e-05" rms="4.9987855553627014e-01" purity="5.0600498914718628e-01" nType="-99"/>
        </Node>
        <Node pos="r" depth="1" NCoef="0" IVar="5" Cut="3.7763070678710938e+02" cType="1" res="1.2712338566780090e-01" rms="4.8290175199508667e-01" purity="6.2821340560913086e-01" nType="0">
          <Node pos="l" depth="2" NCoef="0" IVar="-1" Cut="0.0000000000000000e+00" cType="1" res="-3.4302735002711415e-04" rms="4.9512106180191040e-01" purity="4.3115705251693726e-01" nType="-99"/>
          <Node pos="r" depth="2" NCoef="0" IVar="-1" Cut="0.0000000000000000e+00" cType="1" res="6.2738353153690696e-04" rms="4.5433101058006287e-01" purity="7.0860344171524048e-01" nType="-99"/>
        </Node>
      </Node>
    </BinaryTree>
    <BinaryTree type="DecisionTree" boostWeight="1.0000000000000000e+00" itree="8">
      <Node pos="s" depth="0" NCoef="0" IVar="3" Cut="3.5567700862884521e-01" cType="1" res="2.2468091920018196e-03" rms="4.9860203266143799e-01" purity="5.0086814165115356e-01" nType="0">
        <Node pos="l" depth="1" NCoef="0" IVar="5" Cut="4.3866772460937500e+02" cType="1" res="-1.1382997035980225e-01" rms="4.8494407534599304e-01" purity="3.8258039951324463e-01" nType="0">
          <Node pos="l" depth="2" NCoef="0" IVar="-1" Cut="0.0000000000000000e+00" cType="1" res="-2.0439375657588243e-03" rms="4.3163073062896729e-01" purity="2.4812050163745880e-01" nType="-99"/>
          <Node pos="r" depth="2" NCoef="0" IVar="-1" Cut="0.0000000000000000e+00" cType="1" res="2.4077371563180350e-05" rms="4.9974298477172852e-01" purity="5.0530803203582764e-01" nType="-99"/>
        </Node>
        <Node pos="r" depth="1" NCoef="0" IVar="5" Cut="3.9237393188476562e+02" cType="1" res="1.5273250639438629e-01" rms="4.7529509663581848e-01" purity="6.5422016382217407e-01" nType="0">
          <Node pos="l" depth="2" NCoef="0" IVar="-1" Cut="0.0000000000000000e+00" cType="1" res="-3.0645151127828285e-05" rms="4.9994149804115295e-01" purity="4.9267512559890747e-01" nType="-99"/>
          <Node pos="r" depth="2" NCoef="0" IVar="-1" Cut="0.0000000000000000e+00" cType="1" res="6.7449139896780252e-04" rms="4.4042074680328369e-01" purity="7.3666924238204956e-01" nType="-99"/>
        </Node>
      </Node>
    </BinaryTree>
    <BinaryTree type="DecisionTree" boostWeight="1.0000000000000000e+00" itree="9">
      <Node pos="s" depth="0" NCoef="0" IVar="3" Cut="2.8741201758384705e-01" cType="1" res="1.0314104147255421e-03" rms="4.9838194251060486e-01" purity="4.9952608346939087e-01" nType="0">
        <Node pos="l" depth="1" NCoef="0" IVar="5" Cut="4.1123751831054688e+02" cType="1" res="-1.7033562064170837e-01" rms="4.6714371442794800e-01" purity="3.2478892803192139e-01" nType="0">
          <Node pos="l" depth="2" NCoef="0" IVar="-1" Cut="0.0000000000000000e+00" cType="1" res="-3.3918046392500401e-03" rms="3.8819947838783264e-01" purity="1.8496498465538025e-01" nType="-99"/>
          <Node pos="r" depth="2" NCoef="0" IVar="-1" Cut="0.0000000000000000e+00" cType="1" res="-3.3076372346840799e-04" rms="4.9459955096244812e-01" purity="4.2894077301025391e-01" nType="-99"/>
        </Node>
        <Node pos="r" depth="1" NCoef="0" IVar="5" Cut="3.9535946655273438e+02" cType="1" res="1.0965515673160553e-01" rms="4.8691803216934204e-01" purity="6.1028599739074707e-01" nType="0">
          <Node pos="l" depth="2" NCoef="0" IVar="-1" Cut="0.0000000000000000e+00" cType="1" res="-2.3877271451056004e-04" rms="4.9696257710456848e-01" purity="4.4870361685752869e-01" nType="-99"/>
          <Node pos="r" depth="2" NCoef="0" IVar="-1" Cut="0.0000000000000000e+00" cType="1" res="5.8085500495508313e-04" rms="4.6068978309631348e-01" purity="6.9359171390533447e-01" nType="-99"/>
        </Node>
      </Node>
    </BinaryTree>
    <BinaryTree type="DecisionTree" boostWeight="1.0000000000000000e+00" itree="10">
      <Node pos="s" depth="0" NCoef="0" IVar="3" Cut="3.5567700862884521e-01" cType="1" res="-1.6710627824068069e-03" rms="4.9828073382377625e-01" purity="4.9643403291702271e-01" nType="0">
        <Node pos="l" depth="1" NCoef="0" IVar="5" Cut="4.4199185180664062e+02" cType="1" res="-1.0644709318876266e-01" rms="4.8618057370185852e-01" purity="3.8890683650970459e-01" nType="0">
          <Node pos="l" depth="2" NCoef="0" IVar="-1" Cut="0.0000000000000000e+00" cType="1" res="-1.7830248689278960e-03" rms="4.4069519639015198e-01" purity="2.6457267999649048e-01" nType="-99"/>
          <Node pos="r" depth="2" NCoef="0" IVar="-1" Cut="0.0000000000000000e+00" cType="1" res="2.8717035092995502e-05" rms="4.9973881244659424e-01" purity="5.0639891624450684e-01" nType="-99"/>
        </Node>
        <Node pos="r" depth="1" NCoef="0" IVar="5" Cut="3.9319146728515625e+02" cType="1" res="1.4062136411666870e-01" rms="4.7885820269584656e-01" purity="6.4246267080307007e-01" nType="0">
          <Node pos="l" depth="2" NCoef="0" IVar="-1" Cut="0.0000000000000000e+00" cType="1" res="-3.4174416214227676e-05" rms="4.9985128641128540e-01" purity="4.9183776974678040e-01" nType="-99"/>
          <Node pos="r" depth="2" NCoef="0" IVar="-1" Cut="0.0000000000000000e+00" cType="1" res="6.4816430676728487e-04" rms="4.4698771834373474e-01" purity="7.2401744127273560e-01" nType="-99"/>
        </Node>
      </Node>
    </BinaryTree>
    <BinaryTree type="DecisionTree" boostWeight="1.0000000000000000e+00" itree="11">
      <Node pos="s" depth="0" NCoef="0" IVar="3" Cut="3.1121736764907837e-01" cType="1" res="-7.2642988525331020e-03" rms="4.9805679917335510e-01" purity="4.9068012833595276e-01" nType="0">
        <Node pos="l" depth="1" NCoef="0" IVar="5" Cut="3.9555398559570312e+02" cType="1" res="-1.5066868066787720e-01" rms="4.7358512878417969e-01" purity="3.4335008263587952e-01" nType="0">
          <Node pos="l" depth="2" NCoef="0" IVar="-1" Cut="0.0000000000000000e+00" cType="1" res="-2.7912703808397055e-03" rms="4.0338966250419617e-01" purity="2.0462957024574280e-01" nType="-99"/>
          <Node pos="r" depth="2" NCoef="0" IVar="-1" Cut="0.0000000000000000e+00" cType="1" res="-3.2165742595680058e-04" rms="4.9483585357666016e-01" purity="4.3079978227615356e-01" nType="-99"/>
        </Node>
        <Node pos="r" depth="1" NCoef="0" IVar="5" Cut="3.2702593994140625e+02" cType="1" res="1.1269187927246094e-01" rms="4.8616728186607361e-01" purity="6.1392015218734741e-01" nType="0">
          <Node pos="l" depth="2" NCoef="0" IVar="-1" Cut="0.0000000000000000e+00" cType="1" res="-7.9388450831174850e-04" rms="4.8081889748573303e-01" purity="3.6394783854484558e-01" nType="-99"/>
          <Node pos="r" depth="2" NCoef="0" IVar="-1" Cut="0.0000000000000000e+00" cType="1" res="5.2170967683196068e-04" rms="4.7166243195533752e-01" purity="6.6483414173126221e-01" nType="-99"/>
        </Node>
      </Node>
    </BinaryTree>
    <BinaryTree type="DecisionTree" boostWeight="1.0000000000000000e+00" itree="12">
      <Node pos="s" depth="0" NCoef="0" IVar="3" Cut="3.3228603005409241e-01" cType="1" res="-1.2498456053435802e-03" rms="4.9795144796371460e-01" purity="4.9646145105361938e-01" nType="0">
        <Node pos="l" depth="1" NCoef="0" IVar="5" Cut="4.2111505126953125e+02" cType="1" res="-1.3453070819377899e-01" rms="4.7846975922584534e-01" purity="3.5919252038002014e-01" nType="0">
          <Node pos="l" depth="2" NCoef="0" IVar="-1" Cut="0.0000000000000000e+00" cType="1" res="-2.0820391364395618e-03" rms="4.2985194921493530e-01" purity="2.4508772790431976e-01" nType="-99"/>
          <Node pos="r" depth="2" NCoef="0" IVar="-1" Cut="0.0000000000000000e+00" cType="1" res="-2.0275765564292669e-04" rms="4.9778705835342407e-01" purity="4.5458325743675232e-01" nType="-99"/>
        </Node>
        <Node pos="r" depth="1" NCoef="0" IVar="5" Cut="3.9576910400390625e+02" cType="1" res="1.3517990708351135e-01" rms="4.8024040460586548e-01" purity="6.3697350025177002e-01" nType="0">
          <Node pos="l" depth="2" NCoef="0" IVar="-1" Cut="0.0000000000000000e+00" cType="1" res="-8.6390158685389906e-05" rms="4.9934059381484985e-01" purity="4.7970411181449890e-01" nType="-99"/>
          <Node pos="r" depth="2" NCoef="0" IVar="-1" Cut="0.0000000000000000e+00" cType="1" res="6.4289692090824246e-04" rms="4.4860422611236572e-01" purity="7.2063630819320679e-01" nType="-99"/>
        </Node>
      </Node>
    </BinaryTree>
    <BinaryTree type="DecisionTree" boostWeight="1.0000000000000000e+00" itree="13">
      <Node pos="s" depth="0" NCoef="0" IVar="3" Cut="2.8831136226654053e-01" cType="1" res="3.5725580528378487e-03" rms="4.9771076440811157e-01" purity="5.0123918056488037e-01" nType="0">
        <Node pos="l" depth="1" NCoef="0" IVar="5" Cut="4.2031060791015625e+02" cType="1" res="-1.5607354044914246e-01" rms="4.7101137042045593e-01" purity="3.3652654290199280e-01" nType="0">
          <Node pos="l" depth="2" NCoef="0" IVar="-1" Cut="0.0000000000000000e+00" cType="1" res="-2.6466730050742626e-03" rms="4.1030538082122803e-01" purity="2.1436339616775513e-01" nType="-99"/>
          <Node pos="r" depth="2" NCoef="0" IVar="-1" Cut="0.0000000000000000e+00" cType="1" res="-2.7744407998397946e-04" rms="4.9601516127586365e-01" purity="4.3869736790657043e-01" nType="-99"/>
        </Node>
        <Node pos="r" depth="1" NCoef="0" IVar="5" Cut="3.9618807983398438e+02" cType="1" res="1.0827587544918060e-01" rms="4.8682722449302673e-01" purity="6.0926544666290283e-01" nType="0">
          <Node pos="l" depth="2" NCoef="0" IVar="-1" Cut="0.0000000000000000e+00" cType="1" res="-2.5974275195039809e-04" rms="4.9602288007736206e-01" purity="4.4309368729591370e-01" nType="-99"/>
          <Node pos="r" depth="2" NCoef="0" IVar="-1" Cut="0.0000000000000000e+00" cType="1" res="5.8276951313018799e-04" rms="4.5982298254966736e-01" purity="6.9558113813400269e-01" nType="-99"/>
        </Node>
      </Node>
    </BinaryTree>
    <BinaryTree type="DecisionTree" boostWeight="1.0000000000000000e+00" itree="14">
      <Node pos="s" depth="0" NCoef="0" IVar="3" Cut="3.1053742766380310e-01" cType="1" res="-7.7597307972609997e-03" rms="4.9746632575988770e-01" purity="4.8960548639297485e-01" nType="0">
        <Node pos="l" depth="1" NCoef="0" IVar="5" Cut="4.2106240844726562e+02" cType="1" res="-1.4796172082424164e-01" rms="4.7349324822425842e-01" purity="3.4430202841758728e-01" nType="0">
          <Node pos="l" depth="2" NCoef="0" IVar="-1" Cut="0.0000000000000000e+00" cType="1" res="-2.3164562880992889e-03" rms="4.1708996891975403e-01" purity="2.2450323402881622e-01" nType="-99"/>
          <Node pos="r" depth="2" NCoef="0" IVar="-1" Cut="0.0000000000000000e+00" cType="1" res="-2.5464227655902505e-04" rms="4.9662861227989197e-01" purity="4.4434303045272827e-01" nType="-99"/>
        </Node>
        <Node pos="r" depth="1" NCoef="0" IVar="5" Cut="3.7592004394531250e+02" cType="1" res="1.0972075909376144e-01" rms="4.8652300238609314e-01" purity="6.1136072874069214e-01" nType="0">
          <Node pos="l" depth="2" NCoef="0" IVar="-1" Cut="0.0000000000000000e+00" cType="1" res="-3.0706950929015875e-04" rms="4.9528661370277405e-01" purity="4.3444296717643738e-01" nType="-99"/>
          <Node pos="r" depth="2" NCoef="0" IVar="-1" Cut="0.0000000000000000e+00" cType="1" res="5.6430773111060262e-04" rms="4.6344539523124695e-01" purity="6.8690717220306396e-01" nType="-99"/>
        </Node>
      </Node>
    </BinaryTree>
    <BinaryTree type="DecisionTree" boostWeight="1.0000000000000000e+00" itree="15">
      <Node pos="s" depth="0" NCoef="0" IVar="3" Cut="3.3363708853721619e-01" cType="1" res="1.9724814046639949e-04" rms="4.9746152758598328e-01" purity="4.9733981490135193e-01" nType="0">
        <Node pos="l" depth="1" NCoef="0" IVar="5" Cut="4.3885665893554688e+02" cType="1" res="-1.2195366621017456e-01" rms="4.8106884956359863e-01" purity="3.7039795517921448e-01" nType="0">
          <Node pos="l" depth="2" NCoef="0" IVar="-1" Cut="0.0000000000000000e+00" cType="1" res="-1.8304348923265934e-03" rms="4.3767401576042175e-01" purity="2.5941547751426697e-01" nType="-99"/>
          <Node pos="r" depth="2" NCoef="0" IVar="-1" Cut="0.0000000000000000e+00" cType="1" res="-8.5779771325178444e-05" rms="4.9931985139846802e-01" purity="4.7855404019355774e-01" nType="-99"/>
        </Node>
        <Node pos="r" depth="1" NCoef="0" IVar="5" Cut="4.3369241333007812e+02" cType="1" res="1.3007533550262451e-01" rms="4.8144611716270447e-01" purity="6.3231194019317627e-01" nType="0">
          <Node pos="l" depth="2" NCoef="0" IVar="-1" Cut="0.0000000000000000e+00" cType="1" res="8.0615129263605922e-05" rms="4.9919557571411133e-01" purity="5.1902872323989868e-01" nType="-99"/>
          <Node pos="r" depth="2" NCoef="0" IVar="-1" Cut="0.0000000000000000e+00" cType="1" res="6.5400282619521022e-04" rms="4.4535684585571289e-01" purity="7.2718745470046997e-01" nType="-99"/>
        </Node>
      </Node>
    </BinaryTree>
    <BinaryTree type="DecisionTree" boostWeight="1.0000000000000000e+00" itree="16">
      <Node pos="s" depth="0" NCoef="0" IVar="3" Cut="3.3363708853721619e-01" cType="1" res="-5.6537967175245285e-03" rms="4.9718788266181946e-01" purity="4.9142351746559143e-01" nType="0">
        <Node pos="l" depth="1" NCoef="0" IVar="5" Cut="4.1506726074218750e+02" cType="1" res="-1.2934218347072601e-01" rms="4.7876307368278503e-01" purity="3.6260214447975159e-01" nType="0">
          <Node pos="l" depth="2" NCoef="0" IVar="-1" Cut="0.0000000000000000e+00" cType="1" res="-2.4294042959809303e-03" rms="4.1583877801895142e-01" purity="2.2256740927696228e-01" nType="-99"/>
          <Node pos="r" depth="2" NCoef="0" IVar="-1" Cut="0.0000000000000000e+00" cType="1" res="-1.3968320854473859e-04" rms="4.9848589301109314e-01" purity="4.6640628576278687e-01" nType="-99"/>
        </Node>
        <Node pos="r" depth="1" NCoef="0" IVar="5" Cut="3.9181838989257812e+02" cType="1" res="1.2545426189899445e-01" rms="4.8254564404487610e-01" purity="6.2797254323959351e-01" nType="0">
          <Node pos="l" depth="2" NCoef="0" IVar="-1" Cut="0.0000000000000000e+00" cType="1" res="-1.3624026905745268e-04" rms="4.9879711866378784e-01" purity="4.6934145689010620e-01" nType="-99"/>
          <Node pos="r" depth="2" NCoef="0" IVar="-1" Cut="0.0000000000000000e+00" cType="1" res="6.1222334625199437e-04" rms="4.5371344685554504e-01" purity="7.0987272262573242e-01" nType="-99"/>
        </Node>
      </Node>
    </BinaryTree>
    <BinaryTree type="DecisionTree" boostWeight="1.0000000000000000e+00" itree="17">
      <Node pos="s" depth="0" NCoef="0" IVar="3" Cut="3.3344718813896179e-01" cType="1" res="1.8905747856479138e-04" rms="4.9705174565315247e-01" purity="4.9712830781936646e-01" nType="0">
        <Node pos="l" depth="1" NCoef="0" IVar="5" Cut="4.5298846435546875e+02" cType="1" res="-1.3394404947757721e-01" rms="4.7724479436874390e-01" purity="3.5728180408477783e-01" nType="0">
          <Node pos="l" depth="2" NCoef="0" IVar="-1" Cut="0.0000000000000000e+00" cType="1" res="-1.9023197237402201e-03" rms="4.3446388840675354e-01" purity="2.5347194075584412e-01" nType="-99"/>
          <Node pos="r" depth="2" NCoef="0" IVar="-1" Cut="0.0000000000000000e+00" cType="1" res="-1.1735224688891321e-04" rms="4.9906709790229797e-01" purity="4.7234421968460083e-01" nType="-99"/>
        </Node>
        <Node pos="r" depth="1" NCoef="0" IVar="5" Cut="4.2009011840820312e+02" cType="1" res="1.3569779694080353e-01" rms="4.7960123419761658e-01" purity="6.3840889930725098e-01" nType="0">
          <Node pos="l" depth="2" NCoef="0" IVar="-1" Cut="0.0000000000000000e+00" cType="1" res="7.3412552410445642e-06" rms="4.9957227706909180e-01" purity="5.0111413002014160e-01" nType="-99"/>
          <Node pos="r" depth="2" NCoef="0" IVar="-1" Cut="0.0000000000000000e+00" cType="1" res="6.6122005227953196e-04" rms="4.4231790304183960e-01" purity="7.3299485445022583e-01" nType="-99"/>
        </Node>
      </Node>
    </BinaryTree>
    <BinaryTree type="DecisionTree" boostWeight="1.0000000000000000e+00" itree="18">
      <Node pos="s" depth="0" NCoef="0" IVar="3" Cut="2.8915214538574219e-01" cType="1" res="8.9351125061511993e-03" rms="4.9701079726219177e-01" purity="5.0560379028320312e-01" nType="0">
        <Node pos="l" depth="1" NCoef="0" IVar="5" Cut="4.3895532226562500e+02" cType="1" res="-1.3739790022373199e-01" rms="4.7572270035743713e-01" purity="3.5233259201049805e-01" nType="0">
          <Node pos="l" depth="2" NCoef="0" IVar="-1" Cut="0.0000000000000000e+00" cType="1" res="-1.9604228436946869e-03" rms="4.3128994107246399e-01" purity="2.4764926731586456e-01" nType="-99"/>
          <Node pos="r" depth="2" NCoef="0" IVar="-1" Cut="0.0000000000000000e+00" cType="1" res="-1.7912096518557519e-04" rms="4.9812185764312744e-01" purity="4.5817840099334717e-01" nType="-99"/>
        </Node>
        <Node pos="r" depth="1" NCoef="0" IVar="5" Cut="3.7337924194335938e+02" cType="1" res="1.0740786045789719e-01" rms="4.8667028546333313e-01" purity="6.0874545574188232e-01" nType="0">
          <Node pos="l" depth="2" NCoef="0" IVar="-1" Cut="0.0000000000000000e+00" cType="1" res="-3.4707397571764886e-04" rms="4.9405643343925476e-01" purity="4.2743116617202759e-01" nType="-99"/>
          <Node pos="r" depth="2" NCoef="0" IVar="-1" Cut="0.0000000000000000e+00" cType="1" res="5.5378058459609747e-04" rms="4.6464627981185913e-01" purity="6.8324774503707886e-01" nType="-99"/>
        </Node>
      </Node>
    </BinaryTree>
    <BinaryTree type="DecisionTree" boostWeight="1.0000000000000000e+00" itree="19">
      <Node pos="s" depth="0" NCoef="0" IVar="3" Cut="3.3363708853721619e-01" cType="1" res="9.0737128630280495e-04" rms="4.9681600928306580e-01" purity="4.9748575687408447e-01" nType="0">
        <Node pos="l" depth="1" NCoef="0" IVar="5" Cut="5.1496661376953125e+02" cType="1" res="-1.2131213396787643e-01" rms="4.8024740815162659e-01" purity="3.6918798089027405e-01" nType="0">
          <Node pos="l" depth="2" NCoef="0" IVar="-1" Cut="0.0000000000000000e+00" cType="1" res="-1.4702223706990480e-03" rms="4.4931477308273315e-01" purity="2.8325739502906799e-01" nType="-99"/>
          <Node pos="r" depth="2" NCoef="0" IVar="-1" Cut="0.0000000000000000e+00" cType="1" res="8.4614897787105292e-05" rms="4.9948835372924805e-01" purity="5.2013713121414185e-01" nType="-99"/>
        </Node>
        <Node pos="r" depth="1" NCoef="0" IVar="5" Cut="4.4035000610351562e+02" cType="1" res="1.2944018840789795e-01" rms="4.8127022385597229e-01" purity="6.3241082429885864e-01" nType="0">
          <Node pos="l" depth="2" NCoef="0" IVar="-1" Cut="0.0000000000000000e+00" cType="1" res="8.1550970207899809e-05" rms="4.9912503361701965e-01" purity="5.1966017484664917e-01" nType="-99"/>
          <Node pos="r" depth="2" NCoef="0" IVar="-1" Cut="0.0000000000000000e+00" cType="1" res="6.5494625596329570e-04" rms="4.4381418824195862e-01" purity="7.3017227649688721e-01" nType="-99"/>
        </Node>
      </Node>
    </BinaryTree>
    <BinaryTree type="DecisionTree" boostWeight="1.0000000000000000e+00" itree="20">
      <Node pos="s" depth="0" NCoef="0" IVar="3" Cut="3.3363708853721619e-01" cType="1" res="9.1732116416096687e-03" rms="4.9666863679885864e-01" purity="5.0560951232910156e-01" nType="0">
        <Node pos="l" depth="1" NCoef="0" IVar="5" Cut="3.7985137939453125e+02" cType="1" res="-1.2153434008359909e-01" rms="4.8014187812805176e-01" purity="3.6827343702316284e-01" nType="0">
          <Node pos="l" depth="2" NCoef="0" IVar="-1" Cut="0.0000000000000000e+00" cType="1" res="-2.3722243495285511e-03" rms="4.1530382633209229e-01" purity="2.2220531105995178e-01" nType="-99"/>
          <Node pos="r" depth="2" NCoef="0" IVar="-1" Cut="0.0000000000000000e+00" cType="1" res="-2.3735192371532321e-04" rms="4.9606469273567200e-01" purity="4.4425851106643677e-01" nType="-99"/>
        </Node>
        <Node pos="r" depth="1" NCoef="0" IVar="5" Cut="3.2427322387695312e+02" cType="1" res="1.4229357242584229e-01" rms="4.7749385237693787e-01" purity="6.4548081159591675e-01" nType="0">
          <Node pos="l" depth="2" NCoef="0" IVar="-1" Cut="0.0000000000000000e+00" cType="1" res="-4.6954993740655482e-04" rms="4.9132156372070312e-01" purity="4.0807494521141052e-01" nType="-99"/>
          <Node pos="r" depth="2" NCoef="0" IVar="-1" Cut="0.0000000000000000e+00" cType="1" res="5.6994118494912982e-04" rms="4.6136611700057983e-01" purity="6.9172704219818115e-01" nType="-99"/>
        </Node>
      </Node>
    </BinaryTree>
    <BinaryTree type="DecisionTree" boostWeight="1.0000000000000000e+00" itree="21">
      <Node pos="s" depth="0" NCoef="0" IVar="3" Cut="3.3335036039352417e-01" cType="1" res="9.0434346348047256e-03" rms="4.9627399444580078e-01" purity="5.0559186935424805e-01" nType="0">
        <Node pos="l" depth="1" NCoef="0" IVar="4" Cut="6.9640624523162842e-01" cType="1" res="-1.3433228433132172e-01" rms="4.7600987553596497e-01" purity="3.5518434643745422e-01" nType="0">
          <Node pos="l" depth="2" NCoef="0" IVar="-1" Cut="0.0000000000000000e+00" cType="1" res="3.8086131098680198e-04" rms="4.8667269945144653e-01" purity="6.0349690914154053e-01" nType="-99"/>
          <Node pos="r" depth="2" NCoef="0" IVar="-1" Cut="0.0000000000000000e+00" cType="1" res="-1.2866088654845953e-03" rms="4.5690864324569702e-01" purity="3.0204123258590698e-01" nType="-99"/>
        </Node>
        <Node pos="r" depth="1" NCoef="0" IVar="5" Cut="3.5634921264648438e+02" cType="1" res="1.4869874715805054e-01" rms="4.7534444928169250e-01" purity="6.5209656953811646e-01" nType="0">
          <Node pos="l" depth="2" NCoef="0" IVar="-1" Cut="0.0000000000000000e+00" cType="1" res="-1.6897784371394664e-04" rms="4.9828004837036133e-01" purity="4.6130552887916565e-01" nType="-99"/>
          <Node pos="r" depth="2" NCoef="0" IVar="-1" Cut="0.0000000000000000e+00" cType="1" res="6.2139483634382486e-04" rms="4.5132580399513245e-01" purity="7.1461445093154907e-01" nType="-99"/>
        </Node>
      </Node>
    </BinaryTree>
    <BinaryTree type="DecisionTree" boostWeight="1.0000000000000000e+00" itree="22">
      <Node pos="s" depth="0" NCoef="0" IVar="3" Cut="2.8915214538574219e-01" cType="1" res="1.4489432796835899e-02" rms="4.9632081389427185e-01" purity="5.1067960262298584e-01" nType="0">
        <Node pos="l" depth="1" NCoef="0" IVar="5" Cut="4.6232406616210938e+02" cType="1" res="-1.4003346860408783e-01" rms="4.7394368052482605e-01" purity="3.4769156575202942e-01" nType="0">
          <Node pos="l" depth="2" NCoef="0" IVar="-1" Cut="0.0000000000000000e+00" cType="1" res="-1.9011347321793437e-03" rms="4.3316280841827393e-01" purity="2.5129979848861694e-01" nType="-99"/>
          <Node pos="r" depth="2" NCoef="0" IVar="-1" Cut="0.0000000000000000e+00" cType="1" res="-1.3321377628017217e-04" rms="4.9881896376609802e-01" purity="4.6742475032806396e-01" nType="-99"/>
        </Node>
        <Node pos="r" depth="1" NCoef="0" IVar="5" Cut="4.4150280761718750e+02" cType="1" res="1.1578037589788437e-01" rms="4.8441195487976074e-01" purity="6.1751955747604370e-01" nType="0">
          <Node pos="l" depth="2" NCoef="0" IVar="-1" Cut="0.0000000000000000e+00" cType="1" res="-1.2790605978807434e-05" rms="4.9882116913795471e-01" purity="4.9460771679878235e-01" nType="-99"/>
          <Node pos="r" depth="2" NCoef="0" IVar="-1" Cut="0.0000000000000000e+00" cType="1" res="6.2295078532770276e-04" rms="4.4863808155059814e-01" purity="7.2005069255828857e-01" nType="-99"/>
        </Node>
      </Node>
    </BinaryTree>
    <BinaryTree type="DecisionTree" boostWeight="1.0000000000000000e+00" itree="23">
      <Node pos="s" depth="0" NCoef="0" IVar="3" Cut="3.3335193991661072e-01" cType="1" res="6.8520894274115562e-03" rms="4.9626073241233826e-01" purity="5.0292497873306274e-01" nType="0">
        <Node pos="l" depth="1" NCoef="0" IVar="5" Cut="4.2271789550781250e+02" cType="1" res="-1.1321749538183212e-01" rms="4.8163080215454102e-01" purity="3.7543690204620361e-01" nType="0">
          <Node pos="l" depth="2" NCoef="0" IVar="-1" Cut="0.0000000000000000e+00" cType="1" res="-1.9458194728940725e-03" rms="4.3137899041175842e-01" purity="2.4783346056938171e-01" nType="-99"/>
          <Node pos="r" depth="2" NCoef="0" IVar="-1" Cut="0.0000000000000000e+00" cType="1" res="-8.0556586908642203e-05" rms="4.9897250533103943e-01" purity="4.7808811068534851e-01" nType="-99"/>
        </Node>
        <Node pos="r" depth="1" NCoef="0" IVar="5" Cut="3.7743151855468750e+02" cType="1" res="1.3221004605293274e-01" rms="4.8004692792892456e-01" purity="6.3602817058563232e-01" nType="0">
          <Node pos="l" depth="2" NCoef="0" IVar="-1" Cut="0.0000000000000000e+00" cType="1" res="-1.4896254288032651e-04" rms="4.9850311875343323e-01" purity="4.6557980775833130e-01" nType="-99"/>
          <Node pos="r" depth="2" NCoef="0" IVar="-1" Cut="0.0000000000000000e+00" cType="1" res="6.1780685791745782e-04" rms="4.5315638184547424e-01" purity="7.1084314584732056e-01" nType="-99"/>
        </Node>
      </Node>
    </BinaryTree>
    <BinaryTree type="DecisionTree" boostWeight="1.0000000000000000e+00" itree="24">
      <Node pos="s" depth="0" NCoef="0" IVar="3" Cut="2.8915214538574219e-01" cType="1" res="1.0995417833328247e-02" rms="4.9616912007331848e-01" purity="5.0685149431228638e-01" nType="0">
        <Node pos="l" depth="1" NCoef="0" IVar="7" Cut="1.5198878479003906e+02" cType="1" res="-1.3961850106716156e-01" rms="4.7356641292572021e-01" purity="3.4711325168609619e-01" nType="0">
          <Node pos="l" depth="2" NCoef="0" IVar="-1" Cut="0.0000000000000000e+00" cType="1" res="-1.5623968793079257e-03" rms="4.4430691003799438e-01" purity="2.7421319484710693e-01" nType="-99"/>
          <Node pos="r" depth="2" NCoef="0" IVar="-1" Cut="0.0000000000000000e+00" cType="1" res="4.3954918510280550e-05" rms="4.9939435720443726e-01" purity="5.0513511896133423e-01" nType="-99"/>
        </Node>
        <Node pos="r" depth="1" NCoef="0" IVar="5" Cut="3.9576910400390625e+02" cType="1" res="1.1091489344835281e-01" rms="4.8548099398612976e-01" purity="6.1282420158386230e-01" nType="0">
          <Node pos="l" depth="2" NCoef="0" IVar="-1" Cut="0.0000000000000000e+00" cType="1" res="-7.4165451223962009e-05" rms="4.9859961867332458e-01" purity="4.7911477088928223e-01" nType="-99"/>
          <Node pos="r" depth="2" NCoef="0" IVar="-1" Cut="0.0000000000000000e+00" cType="1" res="5.6038360344246030e-04" rms="4.6273472905158997e-01" purity="6.8795436620712280e-01" nType="-99"/>
        </Node>
      </Node>
    </BinaryTree>
    <BinaryTree type="DecisionTree" boostWeight="1.0000000000000000e+00" itree="25">
      <Node pos="s" depth="0" NCoef="0" IVar="3" Cut="3.3101585507392883e-01" cType="1" res="6.2721162103116512e-03" rms="4.9602311849594116e-01" purity="5.0198370218276978e-01" nType="0">
        <Node pos="l" depth="1" NCoef="0" IVar="5" Cut="4.1204702758789062e+02" cType="1" res="-1.1172039806842804e-01" rms="4.8148420453071594e-01" purity="3.7596011161804199e-01" nType="0">
          <Node pos="l" depth="2" NCoef="0" IVar="-1" Cut="0.0000000000000000e+00" cType="1" res="-2.0170665811747313e-03" rms="4.2514586448669434e-01" purity="2.3750415444374084e-01" nType="-99"/>
          <Node pos="r" depth="2" NCoef="0" IVar="-1" Cut="0.0000000000000000e+00" cType="1" res="-8.3445731434039772e-05" rms="4.9874612689018250e-01" purity="4.7675237059593201e-01" nType="-99"/>
        </Node>
        <Node pos="r" depth="1" NCoef="0" IVar="5" Cut="3.2655590820312500e+02" cType="1" res="1.2767310440540314e-01" rms="4.8124706745147705e-01" purity="6.3164770603179932e-01" nType="0">
          <Node pos="l" depth="2" NCoef="0" IVar="-1" Cut="0.0000000000000000e+00" cType="1" res="-4.5330665307119489e-04" rms="4.9168249964714050e-01" purity="4.1027027368545532e-01" nType="-99"/>
          <Node pos="r" depth="2" NCoef="0" IVar="-1" Cut="0.0000000000000000e+00" cType="1" res="5.4019724484533072e-04" rms="4.6647223830223083e-01" purity="6.7861002683639526e-01" nType="-99"/>
        </Node>
      </Node>
    </BinaryTree>
    <BinaryTree type="DecisionTree" boostWeight="1.0000000000000000e+00" itree="26">
      <Node pos="s" depth="0" NCoef="0" IVar="3" Cut="3.5512176156044006e-01" cType="1" res="-3.1784063321538270e-04" rms="4.9566560983657837e-01" purity="4.9538153409957886e-01" nType="0">
        <Node pos="l" depth="1" NCoef="0" IVar="5" Cut="4.4739178466796875e+02" cType="1" res="-1.1168153584003448e-01" rms="4.8137947916984558e-01" purity="3.7707620859146118e-01" nType="0">
          <Node pos="l" depth="2" NCoef="0" IVar="-1" Cut="0.0000000000000000e+00" cType="1" res="-1.7941478872671723e-03" rms="4.3619263172149658e-01" purity="2.5799831748008728e-01" nType="-99"/>
          <Node pos="r" depth="2" NCoef="0" IVar="-1" Cut="0.0000000000000000e+00" cType="1" res="-6.5096901380456984e-06" rms="4.9933531880378723e-01" purity="4.9702838063240051e-01" nType="-99"/>
        </Node>
        <Node pos="r" depth="1" NCoef="0" IVar="5" Cut="3.9117105102539062e+02" cType="1" res="1.4395944774150848e-01" rms="4.7632423043251038e-01" purity="6.4865201711654663e-01" nType="0">
          <Node pos="l" depth="2" NCoef="0" IVar="-1" Cut="0.0000000000000000e+00" cType="1" res="-3.5163397114956751e-05" rms="4.9967578053474426e-01" purity="4.9087065458297729e-01" nType="-99"/>
          <Node pos="r" depth="2" NCoef="0" IVar="-1" Cut="0.0000000000000000e+00" cType="1" res="6.4516230486333370e-04" rms="4.4367176294326782e-01" purity="7.3044043779373169e-01" nType="-99"/>
        </Node>
      </Node>
    </BinaryTree>
    <BinaryTree type="DecisionTree" boostWeight="1.0000000000000000e+00" itree="27">
      <Node pos="s" depth="0" NCoef="0" IVar="3" Cut="3.5587954521179199e-01" cType="1" res="6.7461100406944752e-03" rms="4.9557760357856750e-01" purity="5.0226765871047974e-01" nType="0">
        <Node pos="l" depth="1" NCoef="0" IVar="5" Cut="4.7547573852539062e+02" cType="1" res="-1.0636292397975922e-01" rms="4.8269137740135193e-01" purity="3.8183921575546265e-01" nType="0">
          <Node pos="l" depth="2" NCoef="0" IVar="-1" Cut="0.0000000000000000e+00" cType="1" res="-1.6154750483110547e-03" rms="4.4282564520835876e-01" purity="2.6949620246887207e-01" nType="-99"/>
          <Node pos="r" depth="2" NCoef="0" IVar="-1" Cut="0.0000000000000000e+00" cType="1" res="9.4029048341326416e-05" rms="4.9894702434539795e-01" purity="5.2258527278900146e-01" nType="-99"/>
        </Node>
        <Node pos="r" depth="1" NCoef="0" IVar="5" Cut="3.7042514038085938e+02" cType="1" res="1.5286840498447418e-01" rms="4.7328978776931763e-01" purity="6.5784555673599243e-01" nType="0">
          <Node pos="l" depth="2" NCoef="0" IVar="-1" Cut="0.0000000000000000e+00" cType="1" res="-1.4778107288293540e-04" rms="4.9872615933418274e-01" purity="4.6629020571708679e-01" nType="-99"/>
          <Node pos="r" depth="2" NCoef="0" IVar="-1" Cut="0.0000000000000000e+00" cType="1" res="6.4422551076859236e-04" rms="4.4270312786102295e-01" purity="7.3212671279907227e-01" nType="-99"/>
        </Node>
      </Node>
    </BinaryTree>
    <BinaryTree type="DecisionTree" boostWeight="1.0000000000000000e+00" itree="28">
      <Node pos="s" depth="0" NCoef="0" IVar="3" Cut="3.0981987714767456e-01" cType="1" res="9.3334512785077095e-03" rms="4.9560877680778503e-01" purity="5.0455522537231445e-01" nType="0">
        <Node pos="l" depth="1" NCoef="0" IVar="5" Cut="3.4972912597656250e+02" cType="1" res="-1.2894971668720245e-01" rms="4.7616606950759888e-01" purity="3.5627868771553040e-01" nType="0">
          <Node pos="l" depth="2" NCoef="0" IVar="-1" Cut="0.0000000000000000e+00" cType="1" res="-3.1350401695817709e-03" rms="3.8934108614921570e-01" purity="1.8659316003322601e-01" nType="-99"/>
          <Node pos="r" depth="2" NCoef="0" IVar="-1" Cut="0.0000000000000000e+00" cType="1" res="-3.6967103369534016e-04" rms="4.9148169159889221e-01" purity="4.1609257459640503e-01" nType="-99"/>
        </Node>
        <Node pos="r" depth="1" NCoef="0" IVar="5" Cut="3.9376440429687500e+02" cType="1" res="1.2136654555797577e-01" rms="4.8258849978446960e-01" purity="6.2468469142913818e-01" nType="0">
          <Node pos="l" depth="2" NCoef="0" IVar="-1" Cut="0.0000000000000000e+00" cType="1" res="-4.7111840103752911e-05" rms="4.9882006645202637e-01" purity="4.8609641194343567e-01" nType="-99"/>
          <Node pos="r" depth="2" NCoef="0" IVar="-1" Cut="0.0000000000000000e+00" cType="1" res="5.8056821580976248e-04" rms="4.5756003260612488e-01" purity="7.0061755180358887e-01" nType="-99"/>
        </Node>
      </Node>
    </BinaryTree>
    <BinaryTree type="DecisionTree" boostWeight="1.0000000000000000e+00" itree="29">
      <Node pos="s" depth="0" NCoef="0" IVar="3" Cut="3.5587954521179199e-01" cType="1" res="1.2208757922053337e-02" rms="4.9529373645782471e-01" purity="5.0745654106140137e-01" nType="0">
        <Node pos="l" depth="1" NCoef="0" IVar="5" Cut="4.1177926635742188e+02" cType="1" res="-9.6548743546009064e-02" rms="4.8449775576591492e-01" purity="3.9090901613235474e-01" nType="0">
          <Node pos="l" depth="2" NCoef="0" IVar="-1" Cut="0.0000000000000000e+00" cType="1" res="-1.9481204217299819e-03" rms="4.2808783054351807e-01" purity="2.4284738302230835e-01" nType="-99"/>
          <Node pos="r" depth="2" NCoef="0" IVar="-1" Cut="0.0000000000000000e+00" cType="1" res="-9.2402624431997538e-06" rms="4.9907246232032776e-01" purity="4.9437645077705383e-01" nType="-99"/>
        </Node>
        <Node pos="r" depth="1" NCoef="0" IVar="5" Cut="4.0504251098632812e+02" cType="1" res="1.5285037457942963e-01" rms="4.7320067882537842e-01" purity="6.5817189216613770e-01" nType="0">
          <Node pos="l" depth="2" NCoef="0" IVar="-1" Cut="0.0000000000000000e+00" cType="1" res="8.3702034316956997e-05" rms="4.9927002191543579e-01" purity="5.1982861757278442e-01" nType="-99"/>
          <Node pos="r" depth="2" NCoef="0" IVar="-1" Cut="0.0000000000000000e+00" cType="1" res="6.6077237715944648e-04" rms="4.3780067563056946e-01" purity="7.4144446849822998e-01" nType="-99"/>
        </Node>
      </Node>
    </BinaryTree>
    <BinaryTree type="DecisionTree" boostWeight="1.0000000000000000e+00" itree="30">
      <Node pos="s" depth="0" NCoef="0" IVar="3" Cut="3.3298575878143311e-01" cType="1" res="1.9204937852919102e-03" rms="4.9515724182128906e-01" purity="4.9696493148803711e-01" nType="0">
        <Node pos="l" depth="1" NCoef="0" IVar="5" Cut="4.2531521606445312e+02" cType="1" res="-1.2298118323087692e-01" rms="4.7732943296432495e-01" purity="3.6252057552337646e-01" nType="0">
          <Node pos="l" depth="2" NCoef="0" IVar="-1" Cut="0.0000000000000000e+00" cType="1" res="-2.2025101352483034e-03" rms="4.2124429345130920e-01" purity="2.3156583309173584e-01" nType="-99"/>
          <Node pos="r" depth="2" NCoef="0" IVar="-1" Cut="0.0000000000000000e+00" cType="1" res="-1.1356945469742641e-04" rms="4.9857035279273987e-01" purity="4.7076958417892456e-01" nType="-99"/>
        </Node>
        <Node pos="r" depth="1" NCoef="0" IVar="5" Cut="4.0534042358398438e+02" cType="1" res="1.2975123524665833e-01" rms="4.8022666573524475e-01" purity="6.3456213474273682e-01" nType="0">
          <Node pos="l" depth="2" NCoef="0" IVar="-1" Cut="0.0000000000000000e+00" cType="1" res="1.0754663890111260e-05" rms="4.9943411350250244e-01" purity="5.0125414133071899e-01" nType="-99"/>
          <Node pos="r" depth="2" NCoef="0" IVar="-1" Cut="0.0000000000000000e+00" cType="1" res="6.1109580565243959e-04" rms="4.5022672414779663e-01" purity="7.1716129779815674e-01" nType="-99"/>
        </Node>
      </Node>
    </BinaryTree>
    <BinaryTree type="DecisionTree" boostWeight="1.0000000000000000e+00" itree="31">
      <Node pos="s" depth="0" NCoef="0" IVar="3" Cut="2.8890362381935120e-01" cType="1" res="2.0079934969544411e-02" rms="4.9525770545005798e-01" purity="5.1460808515548706e-01" nType="0">
        <Node pos="l" depth="1" NCoef="0" IVar="5" Cut="4.1105340576171875e+02" cType="1" res="-1.1979920417070389e-01" rms="4.7815811634063721e-01" purity="3.6324086785316467e-01" nType="0">
          <Node pos="l" depth="2" NCoef="0" IVar="-1" Cut="0.0000000000000000e+00" cType="1" res="-1.8221231875941157e-03" rms="4.3150961399078369e-01" purity="2.4774675071239471e-01" nType="-99"/>
          <Node pos="r" depth="2" NCoef="0" IVar="-1" Cut="0.0000000000000000e+00" cType="1" res="-1.9089599663857371e-04" rms="4.9733930826187134e-01" purity="4.5211559534072876e-01" nType="-99"/>
        </Node>
        <Node pos="r" depth="1" NCoef="0" IVar="5" Cut="3.6805935668945312e+02" cType="1" res="1.1461125314235687e-01" rms="4.8411762714385986e-01" purity="6.1690312623977661e-01" nType="0">
          <Node pos="l" depth="2" NCoef="0" IVar="-1" Cut="0.0000000000000000e+00" cType="1" res="-2.6483368128538132e-04" rms="4.9540302157402039e-01" purity="4.3903926014900208e-01" nType="-99"/>
          <Node pos="r" depth="2" NCoef="0" IVar="-1" Cut="0.0000000000000000e+00" cType="1" res="5.5114447604864836e-04" rms="4.6340766549110413e-01" purity="6.8564367294311523e-01" nType="-99"/>
        </Node>
      </Node>
    </BinaryTree>
    <BinaryTree type="DecisionTree" boostWeight="1.0000000000000000e+00" itree="32">
      <Node pos="s" depth="0" NCoef="0" IVar="3" Cut="3.1139460206031799e-01" cType="1" res="-1.1528597678989172e-03" rms="4.9491384625434875e-01" purity="4.9357461929321289e-01" nType="0">
        <Node pos="l" depth="1" NCoef="0" IVar="5" Cut="4.1123751831054688e+02" cType="1" res="-1.4394901692867279e-01" rms="4.7037908434867859e-01" purity="3.3954256772994995e-01" nType="0">
          <Node pos="l" depth="2" NCoef="0" IVar="-1" Cut="0.0000000000000000e+00" cType="1" res="-2.3754229769110680e-03" rms="4.1235172748565674e-01" purity="2.1778282523155212e-01" nType="-99"/>
          <Node pos="r" depth="2" NCoef="0" IVar="-1" Cut="0.0000000000000000e+00" cType="1" res="-3.0879600672051311e-04" rms="4.9465420842170715e-01" purity="4.3093821406364441e-01" nType="-99"/>
        </Node>
        <Node pos="r" depth="1" NCoef="0" IVar="5" Cut="3.3557318115234375e+02" cType="1" res="1.1544261127710342e-01" rms="4.8377016186714172e-01" purity="6.1934435367584229e-01" nType="0">
          <Node pos="l" depth="2" NCoef="0" IVar="-1" Cut="0.0000000000000000e+00" cType="1" res="-6.3798081828281283e-04" rms="4.8518988490104675e-01" purity="3.7999182939529419e-01" nType="-99"/>
          <Node pos="r" depth="2" NCoef="0" IVar="-1" Cut="0.0000000000000000e+00" cType="1" res="5.2936992142349482e-04" rms="4.6742287278175354e-01" purity="6.7510527372360229e-01" nType="-99"/>
        </Node>
      </Node>
    </BinaryTree>
    <BinaryTree type="DecisionTree" boostWeight="1.0000000000000000e+00" itree="33">
      <Node pos="s" depth="0" NCoef="0" IVar="3" Cut="3.3335193991661072e-01" cType="1" res="2.5604513939470053e-04" rms="4.9479153752326965e-01" purity="4.9479809403419495e-01" nType="0">
        <Node pos="l" depth="1" NCoef="0" IVar="5" Cut="5.1626324462890625e+02" cType="1" res="-1.2220874428749084e-01" rms="4.7703883051872253e-01" purity="3.6186835169792175e-01" nType="0">
          <Node pos="l" depth="2" NCoef="0" IVar="-1" Cut="0.0000000000000000e+00" cType="1" res="-1.4296228764578700e-03" rms="4.4836485385894775e-01" purity="2.8241246938705444e-01" nType="-99"/>
          <Node pos="r" depth="2" NCoef="0" IVar="-1" Cut="0.0000000000000000e+00" cType="1" res="3.3243231882806867e-05" rms="4.9959450960159302e-01" purity="5.0635272264480591e-01" nType="-99"/>
        </Node>
        <Node pos="r" depth="1" NCoef="0" IVar="5" Cut="3.8130682373046875e+02" cType="1" res="1.2689876556396484e-01" rms="4.8074132204055786e-01" purity="6.3226276636123657e-01" nType="0">
          <Node pos="l" depth="2" NCoef="0" IVar="-1" Cut="0.0000000000000000e+00" cType="1" res="-1.3567217683885247e-04" rms="4.9853777885437012e-01" purity="4.6825200319290161e-01" nType="-99"/>
          <Node pos="r" depth="2" NCoef="0" IVar="-1" Cut="0.0000000000000000e+00" cType="1" res="5.8481050655245781e-04" rms="4.5472675561904907e-01" purity="7.0748203992843628e-01" nType="-99"/>
        </Node>
      </Node>
    </BinaryTree>
    <BinaryTree type="DecisionTree" boostWeight="1.0000000000000000e+00" itree="34">
      <Node pos="s" depth="0" NCoef="0" IVar="3" Cut="3.1139460206031799e-01" cType="1" res="2.4549828376621008e-03" rms="4.9453088641166687e-01" purity="4.9697822332382202e-01" nType="0">
        <Node pos="l" depth="1" NCoef="0" IVar="5" Cut="4.5675897216796875e+02" cType="1" res="-1.4035767316818237e-01" rms="4.7108006477355957e-01" purity="3.4196701645851135e-01" nType="0">
          <Node pos="l" depth="2" NCoef="0" IVar="-1" Cut="0.0000000000000000e+00" cType="1" res="-1.9273442449048162e-03" rms="4.2672601342201233e-01" purity="2.4007286131381989e-01" nType="-99"/>
          <Node pos="r" depth="2" NCoef="0" IVar="-1" Cut="0.0000000000000000e+00" cType="1" res="-1.6576302004978061e-04" rms="4.9807992577552795e-01" purity="4.6015194058418274e-01" nType="-99"/>
        </Node>
        <Node pos="r" depth="1" NCoef="0" IVar="5" Cut="3.5041586303710938e+02" cType="1" res="1.1816988885402679e-01" rms="4.8269352316856384e-01" purity="6.2257701158523560e-01" nType="0">
          <Node pos="l" depth="2" NCoef="0" IVar="-1" Cut="0.0000000000000000e+00" cType="1" res="-4.6960904728621244e-04" rms="4.9057292938232422e-01" purity="4.0780234336853027e-01" nType="-99"/>
          <Node pos="r" depth="2" NCoef="0" IVar="-1" Cut="0.0000000000000000e+00" cType="1" res="5.5813568178564310e-04" rms="4.6306991577148438e-01" purity="6.8646436929702759e-01" nType="-99"/>
        </Node>
      </Node>
    </BinaryTree>
    <BinaryTree type="DecisionTree" boostWeight="1.0000000000000000e+00" itree="35">
      <Node pos="s" depth="0" NCoef="0" IVar="3" Cut="3.5428643226623535e-01" cType="1" res="7.8232297673821449e-03" rms="4.9449947476387024e-01" purity="5.0201070308685303e-01" nType="0">
        <Node pos="l" depth="1" NCoef="0" IVar="5" Cut="3.9623281860351562e+02" cType="1" res="-9.4826988875865936e-02" rms="4.8361921310424805e-01" purity="3.9019536972045898e-01" nType="0">
          <Node pos="l" depth="2" NCoef="0" IVar="-1" Cut="0.0000000000000000e+00" cType="1" res="-2.2644677665084600e-03" rms="4.1758048534393311e-01" purity="2.2632631659507751e-01" nType="-99"/>
          <Node pos="r" depth="2" NCoef="0" IVar="-1" Cut="0.0000000000000000e+00" cType="1" res="-3.5261546145193279e-05" rms="4.9849686026573181e-01" purity="4.8615917563438416e-01" nType="-99"/>
        </Node>
        <Node pos="r" depth="1" NCoef="0" IVar="5" Cut="3.4305773925781250e+02" cType="1" res="1.4325928688049316e-01" rms="4.7573676705360413e-01" purity="6.4953917264938354e-01" nType="0">
          <Node pos="l" depth="2" NCoef="0" IVar="-1" Cut="0.0000000000000000e+00" cType="1" res="-3.1399971339851618e-04" rms="4.9562874436378479e-01" purity="4.3428683280944824e-01" nType="-99"/>
          <Node pos="r" depth="2" NCoef="0" IVar="-1" Cut="0.0000000000000000e+00" cType="1" res="6.1082758475095034e-04" rms="4.5418179035186768e-01" purity="7.0830672979354858e-01" nType="-99"/>
        </Node>
      </Node>
    </BinaryTree>
    <BinaryTree type="DecisionTree" boostWeight="1.0000000000000000e+00" itree="36">
      <Node pos="s" depth="0" NCoef="0" IVar="5" Cut="4.0670666503906250e+02" cType="1" res="-3.1567126279696822e-04" rms="4.9431896209716797e-01" purity="4.9375692009925842e-01" nType="0">
        <Node pos="l" depth="1" NCoef="0" IVar="3" Cut="4.4165396690368652e-01" cType="1" res="-1.4651930332183838e-01" rms="4.6747377514839172e-01" purity="3.3447360992431641e-01" nType="0">
          <Node pos="l" depth="2" NCoef="0" IVar="-1" Cut="0.0000000000000000e+00" cType="1" res="-1.7110275803133845e-03" rms="4.3676051497459412e-01" purity="2.6027667522430420e-01" nType="-99"/>
          <Node pos="r" depth="2" NCoef="0" IVar="-1" Cut="0.0000000000000000e+00" cType="1" res="2.3867553682066500e-04" rms="4.9587768316268921e-01" purity="5.6101918220520020e-01" nType="-99"/>
        </Node>
        <Node pos="r" depth="1" NCoef="0" IVar="3" Cut="2.6490256190299988e-01" cType="1" res="9.1322742402553558e-02" rms="4.8860934376716614e-01" purity="5.9359347820281982e-01" nType="0">
          <Node pos="l" depth="2" NCoef="0" IVar="-1" Cut="0.0000000000000000e+00" cType="1" res="-3.8409457192756236e-04" rms="4.9185925722122192e-01" purity="4.1415253281593323e-01" nType="-99"/>
          <Node pos="r" depth="2" NCoef="0" IVar="-1" Cut="0.0000000000000000e+00" cType="1" res="5.3117837524041533e-04" rms="4.6566355228424072e-01" purity="6.7923808097839355e-01" nType="-99"/>
        </Node>
      </Node>
    </BinaryTree>
    <BinaryTree type="DecisionTree" boostWeight="1.0000000000000000e+00" itree="37">
      <Node pos="s" depth="0" NCoef="0" IVar="3" Cut="2.8853642940521240e-01" cType="1" res="2.2238534875214100e-03" rms="4.9395823478698730e-01" purity="4.9633070826530457e-01" nType="0">
        <Node pos="l" depth="1" NCoef="0" IVar="5" Cut="4.8817135620117188e+02" cType="1" res="-1.6463166475296021e-01" rms="4.6119958162307739e-01" purity="3.1538921594619751e-01" nType="0">
          <Node pos="l" depth="2" NCoef="0" IVar="-1" Cut="0.0000000000000000e+00" cType="1" res="-2.1326176356524229e-03" rms="4.2030638456344604e-01" purity="2.3070771992206573e-01" nType="-99"/>
          <Node pos="r" depth="2" NCoef="0" IVar="-1" Cut="0.0000000000000000e+00" cType="1" res="-2.3225389304570854e-04" rms="4.9712216854095459e-01" purity="4.4763979315757751e-01" nType="-99"/>
        </Node>
        <Node pos="r" depth="1" NCoef="0" IVar="5" Cut="3.7456591796875000e+02" cType="1" res="1.0809992998838425e-01" rms="4.8474061489105225e-01" purity="6.1114484071731567e-01" nType="0">
          <Node pos="l" depth="2" NCoef="0" IVar="-1" Cut="0.0000000000000000e+00" cType="1" res="-3.6230267141945660e-04" rms="4.9244993925094604e-01" purity="4.2167878150939941e-01" nType="-99"/>
          <Node pos="r" depth="2" NCoef="0" IVar="-1" Cut="0.0000000000000000e+00" cType="1" res="5.6134560145437717e-04" rms="4.6199882030487061e-01" purity="6.8863070011138916e-01" nType="-99"/>
        </Node>
      </Node>
    </BinaryTree>
    <BinaryTree type="DecisionTree" boostWeight="1.0000000000000000e+00" itree="38">
      <Node pos="s" depth="0" NCoef="0" IVar="3" Cut="3.5587954521179199e-01" cType="1" res="-2.5502850767225027e-03" rms="4.9413418769836426e-01" purity="4.9091058969497681e-01" nType="0">
        <Node pos="l" depth="1" NCoef="0" IVar="5" Cut="6.3238323974609375e+02" cType="1" res="-1.0184396058320999e-01" rms="4.8164561390876770e-01" purity="3.8176876306533813e-01" nType="0">
          <Node pos="l" depth="2" NCoef="0" IVar="-1" Cut="0.0000000000000000e+00" cType="1" res="-1.0428478708490729e-03" rms="4.6424132585525513e-01" purity="3.2178613543510437e-01" nType="-99"/>
          <Node pos="r" depth="2" NCoef="0" IVar="-1" Cut="0.0000000000000000e+00" cType="1" res="3.4051563125103712e-04" rms="4.9000495672225952e-01" purity="5.9754663705825806e-01" nType="-99"/>
        </Node>
        <Node pos="r" depth="1" NCoef="0" IVar="5" Cut="3.8060433959960938e+02" cType="1" res="1.3153649866580963e-01" rms="4.7888576984405518e-01" purity="6.3829630613327026e-01" nType="0">
          <Node pos="l" depth="2" NCoef="0" IVar="-1" Cut="0.0000000000000000e+00" cType="1" res="-1.1653111141640693e-04" rms="4.9886289238929749e-01" purity="4.7264793515205383e-01" nType="-99"/>
          <Node pos="r" depth="2" NCoef="0" IVar="-1" Cut="0.0000000000000000e+00" cType="1" res="6.1056739650666714e-04" rms="4.5122081041336060e-01" purity="7.1506005525588989e-01" nType="-99"/>
        </Node>
      </Node>
    </BinaryTree>
    <BinaryTree type="DecisionTree" boostWeight="1.0000000000000000e+00" itree="39">
      <Node pos="s" depth="0" NCoef="0" IVar="3" Cut="3.3208027482032776e-01" cType="1" res="1.3603638857603073e-02" rms="4.9388331174850464e-01" purity="5.0731837749481201e-01" nType="0">
        <Node pos="l" depth="1" NCoef="0" IVar="5" Cut="4.7085949707031250e+02" cType="1" res="-1.0667818039655685e-01" rms="4.7999888658523560e-01" purity="3.7476202845573425e-01" nType="0">
          <Node pos="l" depth="2" NCoef="0" IVar="-1" Cut="0.0000000000000000e+00" cType="1" res="-1.4589616330340505e-03" rms="4.4539684057235718e-01" purity="2.7576205134391785e-01" nType="-99"/>
          <Node pos="r" depth="2" NCoef="0" IVar="-1" Cut="0.0000000000000000e+00" cType="1" res="1.1332326721458230e-05" rms="4.9953237175941467e-01" purity="5.0014537572860718e-01" nType="-99"/>
        </Node>
        <Node pos="r" depth="1" NCoef="0" IVar="5" Cut="3.1703790283203125e+02" cType="1" res="1.3620936870574951e-01" rms="4.7741428017616272e-01" purity="6.4243578910827637e-01" nType="0">
          <Node pos="l" depth="2" NCoef="0" IVar="-1" Cut="0.0000000000000000e+00" cType="1" res="-7.5068837031722069e-04" rms="4.8171070218086243e-01" purity="3.6823499202728271e-01" nType="-99"/>
          <Node pos="r" depth="2" NCoef="0" IVar="-1" Cut="0.0000000000000000e+00" cType="1" res="5.5056286510080099e-04" rms="4.6283310651779175e-01" purity="6.8687254190444946e-01" nType="-99"/>
        </Node>
      </Node>
    </BinaryTree>
    <BinaryTree type="DecisionTree" boostWeight="1.0000000000000000e+00" itree="40">
      <Node pos="s" depth="0" NCoef="0" IVar="3" Cut="3.5557371377944946e-01" cType="1" res="-4.5407577417790890e-03" rms="4.9411928653717041e-01" purity="4.8830074071884155e-01" nType="0">
        <Node pos="l" depth="1" NCoef="0" IVar="5" Cut="4.7085949707031250e+02" cType="1" res="-9.7862891852855682e-02" rms="4.8254948854446411e-01" purity="3.8475388288497925e-01" nType="0">
          <Node pos="l" depth="2" NCoef="0" IVar="-1" Cut="0.0000000000000000e+00" cType="1" res="-1.2201324570924044e-03" rms="4.5443204045295715e-01" purity="2.9533186554908752e-01" nType="-99"/>
          <Node pos="r" depth="2" NCoef="0" IVar="-1" Cut="0.0000000000000000e+00" cType="1" res="8.3074637586832978e-06" rms="4.9929916858673096e-01" purity="5.0056266784667969e-01" nType="-99"/>
        </Node>
        <Node pos="r" depth="1" NCoef="0" IVar="5" Cut="3.5408020019531250e+02" cType="1" res="1.2527446448802948e-01" rms="4.8052662611007690e-01" purity="6.3233906030654907e-01" nType="0">
          <Node pos="l" depth="2" NCoef="0" IVar="-1" Cut="0.0000000000000000e+00" cType="1" res="-2.9025299591012299e-04" rms="4.9580094218254089e-01" purity="4.3802666664123535e-01" nType="-99"/>
          <Node pos="r" depth="2" NCoef="0" IVar="-1" Cut="0.0000000000000000e+00" cType="1" res="5.6566816056147218e-04" rms="4.5974490046501160e-01" purity="6.9576483964920044e-01" nType="-99"/>
        </Node>
      </Node>
    </BinaryTree>
    <BinaryTree type="DecisionTree" boostWeight="1.0000000000000000e+00" itree="41">
      <Node pos="s" depth="0" NCoef="0" IVar="3" Cut="3.5421895980834961e-01" cType="1" res="6.3441782258450985e-03" rms="4.9369886517524719e-01" purity="4.9978762865066528e-01" nType="0">
        <Node pos="l" depth="1" NCoef="0" IVar="5" Cut="3.9555398559570312e+02" cType="1" res="-9.6618361771106720e-02" rms="4.8214006423950195e-01" purity="3.8618317246437073e-01" nType="0">
          <Node pos="l" depth="2" NCoef="0" IVar="-1" Cut="0.0000000000000000e+00" cType="1" res="-2.3501222021877766e-03" rms="4.0937608480453491e-01" purity="2.1470291912555695e-01" nType="-99"/>
          <Node pos="r" depth="2" NCoef="0" IVar="-1" Cut="0.0000000000000000e+00" cType="1" res="-3.9240818296093494e-05" rms="4.9849537014961243e-01" purity="4.8411339521408081e-01" nType="-99"/>
        </Node>
        <Node pos="r" depth="1" NCoef="0" IVar="5" Cut="3.9549819946289062e+02" cType="1" res="1.3940702378749847e-01" rms="4.7635006904602051e-01" purity="6.4660352468490601e-01" nType="0">
          <Node pos="l" depth="2" NCoef="0" IVar="-1" Cut="0.0000000000000000e+00" cType="1" res="-1.4241358030631091e-06" rms="4.9954813718795776e-01" purity="4.9807047843933105e-01" nType="-99"/>
          <Node pos="r" depth="2" NCoef="0" IVar="-1" Cut="0.0000000000000000e+00" cType="1" res="6.2904867809265852e-04" rms="4.4498589634895325e-01" purity="7.2782486677169800e-01" nType="-99"/>
        </Node>
      </Node>
    </BinaryTree>
    <BinaryTree type="DecisionTree" boostWeight="1.0000000000000000e+00" itree="42">
      <Node pos="s" depth="0" NCoef="0" IVar="3" Cut="3.5489991307258606e-01" cType="1" res="9.0676322579383850e-03" rms="4.9364715814590454e-01" purity="5.0217491388320923e-01" nType="0">
        <Node pos="l" depth="1" NCoef="0" IVar="5" Cut="3.7318624877929688e+02" cType="1" res="-9.5514319837093353e-02" rms="4.8250567913055420e-01" purity="3.8656297326087952e-01" nType="0">
          <Node pos="l" depth="2" NCoef="0" IVar="-1" Cut="0.0000000000000000e+00" cType="1" res="-2.2046496160328388e-03" rms="4.1846591234207153e-01" purity="2.2727997601032257e-01" nType="-99"/>
          <Node pos="r" depth="2" NCoef="0" IVar="-1" Cut="0.0000000000000000e+00" cType="1" res="-1.3845144712831825e-04" rms="4.9632671475410461e-01" purity="4.6060040593147278e-01" nType="-99"/>
        </Node>
        <Node pos="r" depth="1" NCoef="0" IVar="5" Cut="3.0808273315429688e+02" cType="1" res="1.4494378864765167e-01" rms="4.7449466586112976e-01" purity="6.5238147974014282e-01" nType="0">
          <Node pos="l" depth="2" NCoef="0" IVar="-1" Cut="0.0000000000000000e+00" cType="1" res="-7.6655420707538724e-04" rms="4.8101592063903809e-01" purity="3.6380136013031006e-01" nType="-99"/>
          <Node pos="r" depth="2" NCoef="0" IVar="-1" Cut="0.0000000000000000e+00" cType="1" res="5.6950096040964127e-04" rms="4.6064975857734680e-01" purity="6.9236731529235840e-01" nType="-99"/>
        </Node>
      </Node>
    </BinaryTree>
    <BinaryTree type="DecisionTree" boostWeight="1.0000000000000000e+00" itree="43">
      <Node pos="s" depth="0" NCoef="0" IVar="3" Cut="3.3363708853721619e-01" cType="1" res="-9.4689184334129095e-04" rms="4.9342918395996094e-01" purity="4.9186709523200989e-01" nType="0">
        <Node pos="l" depth="1" NCoef="0" IVar="5" Cut="4.7085949707031250e+02" cType="1" res="-1.0781512409448624e-01" rms="4.7891148924827576e-01" purity="3.7210577726364136e-01" nType="0">
          <Node pos="l" depth="2" NCoef="0" IVar="-1" Cut="0.0000000000000000e+00" cType="1" res="-1.5023502055555582e-03" rms="4.4249540567398071e-01" purity="2.7006119489669800e-01" nType="-99"/>
          <Node pos="r" depth="2" NCoef="0" IVar="-1" Cut="0.0000000000000000e+00" cType="1" res="1.3809185475111008e-05" rms="4.9951207637786865e-01" purity="5.0072515010833740e-01" nType="-99"/>
        </Node>
        <Node pos="r" depth="1" NCoef="0" IVar="5" Cut="4.4342562866210938e+02" cType="1" res="1.1537121981382370e-01" rms="4.8257237672805786e-01" purity="6.2221843004226685e-01" nType="0">
          <Node pos="l" depth="2" NCoef="0" IVar="-1" Cut="0.0000000000000000e+00" cType="1" res="-2.4344813937204890e-05" rms="4.9830648303031921e-01" purity="4.9503535032272339e-01" nType="-99"/>
          <Node pos="r" depth="2" NCoef="0" IVar="-1" Cut="0.0000000000000000e+00" cType="1" res="6.3698599115014076e-04" rms="4.4273611903190613e-01" purity="7.3213893175125122e-01" nType="-99"/>
        </Node>
      </Node>
    </BinaryTree>
    <BinaryTree type="DecisionTree" boostWeight="1.0000000000000000e+00" itree="44">
      <Node pos="s" depth="0" NCoef="0" IVar="3" Cut="2.8831136226654053e-01" cType="1" res="1.1501652188599110e-02" rms="4.9328893423080444e-01" purity="5.0439918041229248e-01" nType="0">
        <Node pos="l" depth="1" NCoef="0" IVar="5" Cut="4.4701840209960938e+02" cType="1" res="-1.3651582598686218e-01" rms="4.6966281533241272e-01" purity="3.4067514538764954e-01" nType="0">
          <Node pos="l" depth="2" NCoef="0" IVar="-1" Cut="0.0000000000000000e+00" cType="1" res="-1.8250856082886457e-03" rms="4.2595365643501282e-01" purity="2.4004776775836945e-01" nType="-99"/>
          <Node pos="r" depth="2" NCoef="0" IVar="-1" Cut="0.0000000000000000e+00" cType="1" res="-2.0428342395462096e-04" rms="4.9710181355476379e-01" purity="4.5091760158538818e-01" nType="-99"/>
        </Node>
        <Node pos="r" depth="1" NCoef="0" IVar="5" Cut="3.5307849121093750e+02" cType="1" res="1.0853771120309830e-01" rms="4.8422074317932129e-01" purity="6.1173200607299805e-01" nType="0">
          <Node pos="l" depth="2" NCoef="0" IVar="-1" Cut="0.0000000000000000e+00" cType="1" res="-3.7022065953351557e-04" rms="4.9178257584571838e-01" purity="4.1726663708686829e-01" nType="-99"/>
          <Node pos="r" depth="2" NCoef="0" IVar="-1" Cut="0.0000000000000000e+00" cType="1" res="5.2077864529564977e-04" rms="4.6747484803199768e-01" purity="6.7309880256652832e-01" nType="-99"/>
        </Node>
      </Node>
    </BinaryTree>
    <BinaryTree type="DecisionTree" boostWeight="1.0000000000000000e+00" itree="45">
      <Node pos="s" depth="0" NCoef="0" IVar="3" Cut="3.5567700862884521e-01" cType="1" res="9.2227524146437645e-03" rms="4.9313154816627502e-01" purity="5.0207078456878662e-01" nType="0">
        <Node pos="l" depth="1" NCoef="0" IVar="5" Cut="5.4883764648437500e+02" cType="1" res="-1.0106945782899857e-01" rms="4.8067635297775269e-01" purity="3.7990745902061462e-01" nType="0">
          <Node pos="l" depth="2" NCoef="0" IVar="-1" Cut="0.0000000000000000e+00" cType="1" res="-1.1003300314769149e-03" rms="4.5955312252044678e-01" purity="3.0981704592704773e-01" nType="-99"/>
          <Node pos="r" depth="2" NCoef="0" IVar="-1" Cut="0.0000000000000000e+00" cType="1" res="1.5185633674263954e-04" rms="4.9769347906112671e-01" purity="5.3924143314361572e-01" nType="-99"/>
        </Node>
        <Node pos="r" depth="1" NCoef="0" IVar="5" Cut="4.3061676025390625e+02" cType="1" res="1.4994762837886810e-01" rms="4.7257807850837708e-01" purity="6.5794247388839722e-01" nType="0">
          <Node pos="l" depth="2" NCoef="0" IVar="-1" Cut="0.0000000000000000e+00" cType="1" res="1.3656402006745338e-04" rms="4.9788513779640198e-01" purity="5.3435170650482178e-01" nType="-99"/>
          <Node pos="r" depth="2" NCoef="0" IVar="-1" Cut="0.0000000000000000e+00" cType="1" res="6.7112874239683151e-04" rms="4.3097427487373352e-01" purity="7.5347536802291870e-01" nType="-99"/>
        </Node>
      </Node>
    </BinaryTree>
    <BinaryTree type="DecisionTree" boostWeight="1.0000000000000000e+00" itree="46">
      <Node pos="s" depth="0" NCoef="0" IVar="3" Cut="2.8890362381935120e-01" cType="1" res="1.8132537603378296e-02" rms="4.9267697334289551e-01" purity="5.1132059097290039e-01" nType="0">
        <Node pos="l" depth="1" NCoef="0" IVar="5" Cut="6.7415014648437500e+02" cType="1" res="-1.4055058360099792e-01" rms="4.6790519356727600e-01" purity="3.3577087521553040e-01" nType="0">
          <Node pos="l" depth="2" NCoef="0" IVar="-1" Cut="0.0000000000000000e+00" cType="1" res="-1.3401771429926157e-03" rms="4.4969308376312256e-01" purity="2.8740337491035461e-01" nType="-99"/>
          <Node pos="r" depth="2" NCoef="0" IVar="-1" Cut="0.0000000000000000e+00" cType="1" res="2.6647699996829033e-04" rms="4.9457490444183350e-01" purity="5.7268762588500977e-01" nType="-99"/>
        </Node>
        <Node pos="r" depth="1" NCoef="0" IVar="5" Cut="3.7429730224609375e+02" cType="1" res="1.1836026608943939e-01" rms="4.8146671056747437e-01" purity="6.2220162153244019e-01" nType="0">
          <Node pos="l" depth="2" NCoef="0" IVar="-1" Cut="0.0000000000000000e+00" cType="1" res="-2.7090706862509251e-04" rms="4.9415743350982666e-01" purity="4.3645840883255005e-01" nType="-99"/>
          <Node pos="r" depth="2" NCoef="0" IVar="-1" Cut="0.0000000000000000e+00" cType="1" res="5.7160906726494431e-04" rms="4.5867779850959778e-01" purity="6.9586694240570068e-01" nType="-99"/>
        </Node>
      </Node>
    </BinaryTree>
    <BinaryTree type="DecisionTree" boostWeight="1.0000000000000000e+00" itree="47">
      <Node pos="s" depth="0" NCoef="0" IVar="3" Cut="2.8741201758384705e-01" cType="1" res="3.5216833930462599e-03" rms="4.9298843741416931e-01" purity="4.9595856666564941e-01" nType="0">
        <Node pos="l" depth="1" NCoef="0" IVar="5" Cut="4.5298846435546875e+02" cType="1" res="-1.3602082431316376e-01" rms="4.6911439299583435e-01" purity="3.3979919552803040e-01" nType="0">
          <Node pos="l" depth="2" NCoef="0" IVar="-1" Cut="0.0000000000000000e+00" cType="1" res="-1.9182165851816535e-03" rms="4.2326268553733826e-01" purity="2.3564246296882629e-01" nType="-99"/>
          <Node pos="r" depth="2" NCoef="0" IVar="-1" Cut="0.0000000000000000e+00" cType="1" res="-1.6618441441096365e-04" rms="4.9791261553764343e-01" purity="4.5840796828269958e-01" nType="-99"/>
        </Node>
        <Node pos="r" depth="1" NCoef="0" IVar="5" Cut="4.2427459716796875e+02" cType="1" res="9.6518531441688538e-02" rms="4.8653864860534668e-01" purity="6.0002964735031128e-01" nType="0">
          <Node pos="l" depth="2" NCoef="0" IVar="-1" Cut="0.0000000000000000e+00" cType="1" res="-1.3496862084139138e-04" rms="4.9650260806083679e-01" purity="4.6459659934043884e-01" nType="-99"/>
          <Node pos="r" depth="2" NCoef="0" IVar="-1" Cut="0.0000000000000000e+00" cType="1" res="5.6698085973039269e-04" rms="4.5848497748374939e-01" purity="6.9743031263351440e-01" nType="-99"/>
        </Node>
      </Node>
    </BinaryTree>
    <BinaryTree type="DecisionTree" boostWeight="1.0000000000000000e+00" itree="48">
      <Node pos="s" depth="0" NCoef="0" IVar="3" Cut="2.8915214538574219e-01" cType="1" res="-7.8358640894293785e-03" rms="4.9262312054634094e-01" purity="4.8414775729179382e-01" nType="0">
        <Node pos="l" depth="1" NCoef="0" IVar="5" Cut="6.5997668457031250e+02" cType="1" res="-1.5349732339382172e-01" rms="4.6308887004852295e-01" purity="3.2095095515251160e-01" nType="0">
          <Node pos="l" depth="2" NCoef="0" IVar="-1" Cut="0.0000000000000000e+00" cType="1" res="-1.3568078866228461e-03" rms="4.4791102409362793e-01" purity="2.8279057145118713e-01" nType="-99"/>
          <Node pos="r" depth="2" NCoef="0" IVar="-1" Cut="0.0000000000000000e+00" cType="1" res="7.4358737037982792e-05" rms="4.9963247776031494e-01" purity="5.1615959405899048e-01" nType="-99"/>
        </Node>
        <Node pos="r" depth="1" NCoef="0" IVar="5" Cut="3.2447808837890625e+02" cType="1" res="9.1136530041694641e-02" rms="4.8748785257339478e-01" purity="5.9503483772277832e-01" nType="0">
          <Node pos="l" depth="2" NCoef="0" IVar="-1" Cut="0.0000000000000000e+00" cType="1" res="-7.4832129757851362e-04" rms="4.7977024316787720e-01" purity="3.6662936210632324e-01" nType="-99"/>
          <Node pos="r" depth="2" NCoef="0" IVar="-1" Cut="0.0000000000000000e+00" cType="1" res="4.4567725853994489e-04" rms="4.7750374674797058e-01" purity="6.4129549264907837e-01" nType="-99"/>
        </Node>
      </Node>
    </BinaryTree>
    <BinaryTree type="DecisionTree" boostWeight="1.0000000000000000e+00" itree="49">
      <Node pos="s" depth="0" NCoef="0" IVar="3" Cut="3.3298575878143311e-01" cType="1" res="3.9821635000407696e-03" rms="4.9265605211257935e-01" purity="4.9623280763626099e-01" nType="0">
        <Node pos="l" depth="1" NCoef="0" IVar="5" Cut="3.9581933593750000e+02" cType="1" res="-1.1007887870073318e-01" rms="4.7731891274452209e-01" purity="3.6734512448310852e-01" nType="0">
          <Node pos="l" depth="2" NCoef="0" IVar="-1" Cut="0.0000000000000000e+00" cType="1" res="-1.9861203618347645e-03" rms="4.2069727182388306e-01" purity="2.3079878091812134e-01" nType="-99"/>
          <Node pos="r" depth="2" NCoef="0" IVar="-1" Cut="0.0000000000000000e+00" cType="1" res="-1.7742945055942982e-04" rms="4.9606841802597046e-01" purity="4.5214027166366577e-01" nType="-99"/>
        </Node>
        <Node pos="r" depth="1" NCoef="0" IVar="5" Cut="3.7273187255859375e+02" cType="1" res="1.2334404140710831e-01" rms="4.8001685738563538e-01" purity="6.3111037015914917e-01" nType="0">
          <Node pos="l" depth="2" NCoef="0" IVar="-1" Cut="0.0000000000000000e+00" cType="1" res="-2.2914634610060602e-04" rms="4.9631118774414062e-01" purity="4.4851976633071899e-01" nType="-99"/>
          <Node pos="r" depth="2" NCoef="0" IVar="-1" Cut="0.0000000000000000e+00" cType="1" res="5.7620048755779862e-04" rms="4.5522266626358032e-01" purity="7.0565110445022583e-01" nType="-99"/>
        </Node>
      </Node>
    </BinaryTree>
    <BinaryTree type="DecisionTree" boostWeight="1.0000000000000000e+00" itree="50">
      <Node pos="s" depth="0" NCoef="0" IVar="3" Cut="2.8890502452850342e-01" cType="1" res="1.4549561776220798e-02" rms="4.9321895837783813e-01" purity="5.0610285997390747e-01" nType="0">
        <Node pos="l" depth="1" NCoef="0" IVar="5" Cut="4.2245095825195312e+02" cType="1" res="-1.1551941186189651e-01" rms="4.7549435496330261e-01" purity="3.5844650864601135e-01" nType="0">
          <Node pos="l" depth="2" NCoef="0" IVar="-1" Cut="0.0000000000000000e+00" cType="1" res="-1.6638933448120952e-03" rms="4.3448001146316528e-01" purity="2.5358292460441589e-01" nType="-99"/>
          <Node pos="r" depth="2" NCoef="0" IVar="-1" Cut="0.0000000000000000e+00" cType="1" res="-1.8993378034792840e-04" rms="4.9690493941307068e-01" purity="4.5003134012222290e-01" nType="-99"/>
        </Node>
        <Node pos="r" depth="1" NCoef="0" IVar="5" Cut="4.0282180786132812e+02" cType="1" res="1.0375774651765823e-01" rms="4.8526257276535034e-01" purity="6.0737347602844238e-01" nType="0">
          <Node pos="l" depth="2" NCoef="0" IVar="-1" Cut="0.0000000000000000e+00" cType="1" res="-9.0369132522027940e-05" rms="4.9748054146766663e-01" purity="4.7184920310974121e-01" nType="-99"/>
          <Node pos="r" depth="2" NCoef="0" IVar="-1" Cut="0.0000000000000000e+00" cType="1" res="5.5099907331168652e-04" rms="4.6205464005470276e-01" purity="6.8897575139999390e-01" nType="-99"/>
        </Node>
      </Node>
    </BinaryTree>
    <BinaryTree type="DecisionTree" boostWeight="1.0000000000000000e+00" itree="51">
      <Node pos="s" depth="0" NCoef="0" IVar="3" Cut="2.8890502452850342e-01" cType="1" res="1.6787923872470856e-02" rms="4.9227973818778992e-01" purity="5.0907349586486816e-01" nType="0">
        <Node pos="l" depth="1" NCoef="0" IVar="7" Cut="1.6339175415039062e+02" cType="1" res="-1.3542111217975616e-01" rms="4.6887674927711487e-01" purity="3.3797216415405273e-01" nType="0">
          <Node pos="l" depth="2" NCoef="0" IVar="-1" Cut="0.0000000000000000e+00" cType="1" res="-1.4333804138004780e-03" rms="4.4466242194175720e-01" purity="2.7762633562088013e-01" nType="-99"/>
          <Node pos="r" depth="2" NCoef="0" IVar="-1" Cut="0.0000000000000000e+00" cType="1" res="7.1728594775777310e-05" rms="5.0001686811447144e-01" purity="5.0758993625640869e-01" nType="-99"/>
        </Node>
        <Node pos="r" depth="1" NCoef="0" IVar="5" Cut="4.5827795410156250e+02" cType="1" res="1.1477853357791901e-01" rms="4.8197871446609497e-01" purity="6.1922675371170044e-01" nType="0">
          <Node pos="l" depth="2" NCoef="0" IVar="-1" Cut="0.0000000000000000e+00" cType="1" res="4.5203763875178993e-05" rms="4.9688515067100525e-01" purity="5.0695836544036865e-01" nType="-99"/>
          <Node pos="r" depth="2" NCoef="0" IVar="-1" Cut="0.0000000000000000e+00" cType="1" res="6.1799125978723168e-04" rms="4.4471484422683716e-01" purity="7.2720706462860107e-01" nType="-99"/>
        </Node>
      </Node>
    </BinaryTree>
    <BinaryTree type="DecisionTree" boostWeight="1.0000000000000000e+00" itree="52">
      <Node pos="s" depth="0" NCoef="0" IVar="3" Cut="2.6571482419967651e-01" cType="1" res="1.6034845262765884e-02" rms="4.9240952730178833e-01" purity="5.0793153047561646e-01" nType="0">
        <Node pos="l" depth="1" NCoef="0" IVar="5" Cut="3.5557305908203125e+02" cType="1" res="-1.4186343550682068e-01" rms="4.6640643477439880e-01" purity="3.3046808838844299e-01" nType="0">
          <Node pos="l" depth="2" NCoef="0" IVar="-1" Cut="0.0000000000000000e+00" cType="1" res="-3.3217163290828466e-03" rms="3.8047623634338379e-01" purity="1.7566104233264923e-01" nType="-99"/>
          <Node pos="r" depth="2" NCoef="0" IVar="-1" Cut="0.0000000000000000e+00" cType="1" res="-4.6947391820140183e-04" rms="4.8658090829849243e-01" purity="3.9204403758049011e-01" nType="-99"/>
        </Node>
        <Node pos="r" depth="1" NCoef="0" IVar="5" Cut="3.9521551513671875e+02" cType="1" res="9.8385035991668701e-02" rms="4.8547476530075073e-01" purity="6.0048574209213257e-01" nType="0">
          <Node pos="l" depth="2" NCoef="0" IVar="-1" Cut="0.0000000000000000e+00" cType="1" res="-2.4070795916486531e-04" rms="4.9327728152275085e-01" purity="4.3877336382865906e-01" nType="-99"/>
          <Node pos="r" depth="2" NCoef="0" IVar="-1" Cut="0.0000000000000000e+00" cType="1" res="5.3744984325021505e-04" rms="4.6314749121665955e-01" purity="6.8450963497161865e-01" nType="-99"/>
        </Node>
      </Node>
    </BinaryTree>
    <BinaryTree type="DecisionTree" boostWeight="1.0000000000000000e+00" itree="53">
      <Node pos="s" depth="0" NCoef="0" IVar="3" Cut="3.3363708853721619e-01" cType="1" res="5.3661298006772995e-03" rms="4.9192291498184204e-01" purity="4.9729436635971069e-01" nType="0">
        <Node pos="l" depth="1" NCoef="0" IVar="5" Cut="4.7325003051757812e+02" cType="1" res="-1.1104563623666763e-01" rms="4.7581586241722107e-01" purity="3.6513426899909973e-01" nType="0">
          <Node pos="l" depth="2" NCoef="0" IVar="-1" Cut="0.0000000000000000e+00" cType="1" res="-1.6583212418481708e-03" rms="4.3391785025596619e-01" purity="2.5523063540458679e-01" nType="-99"/>
          <Node pos="r" depth="2" NCoef="0" IVar="-1" Cut="0.0000000000000000e+00" cType="1" res="3.4414741094224155e-05" rms="4.9936464428901672e-01" purity="5.0460368394851685e-01" nType="-99"/>
        </Node>
        <Node pos="r" depth="1" NCoef="0" IVar="5" Cut="3.9642175292968750e+02" cType="1" res="1.2639148533344269e-01" rms="4.7901713848114014e-01" purity="6.3469225168228149e-01" nType="0">
          <Node pos="l" depth="2" NCoef="0" IVar="-1" Cut="0.0000000000000000e+00" cType="1" res="-8.4155573858879507e-05" rms="4.9853119254112244e-01" purity="4.7786584496498108e-01" nType="-99"/>
          <Node pos="r" depth="2" NCoef="0" IVar="-1" Cut="0.0000000000000000e+00" cType="1" res="6.0041132383048534e-04" rms="4.4886064529418945e-01" purity="7.1968758106231689e-01" nType="-99"/>
        </Node>
      </Node>
    </BinaryTree>
    <BinaryTree type="DecisionTree" boostWeight="1.0000000000000000e+00" itree="54">
      <Node pos="s" depth="0" NCoef="0" IVar="3" Cut="2.8835618495941162e-01" cType="1" res="7.4185896664857864e-03" rms="4.9210658669471741e-01" purity="4.9903202056884766e-01" nType="0">
        <Node pos="l" depth="1" NCoef="0" IVar="5" Cut="5.3769946289062500e+02" cType="1" res="-1.3433419167995453e-01" rms="4.6830865740776062e-01" purity="3.3757752180099487e-01" nType="0">
          <Node pos="l" depth="2" NCoef="0" IVar="-1" Cut="0.0000000000000000e+00" cType="1" res="-1.4953656354919076e-03" rms="4.4270247220993042e-01" purity="2.7184778451919556e-01" nType="-99"/>
          <Node pos="r" depth="2" NCoef="0" IVar="-1" Cut="0.0000000000000000e+00" cType="1" res="-3.0311179216369055e-05" rms="4.9962151050567627e-01" purity="4.8861047625541687e-01" nType="-99"/>
        </Node>
        <Node pos="r" depth="1" NCoef="0" IVar="5" Cut="3.9034243774414062e+02" cType="1" res="1.0059320181608200e-01" rms="4.8508027195930481e-01" purity="6.0515666007995605e-01" nType="0">
          <Node pos="l" depth="2" NCoef="0" IVar="-1" Cut="0.0000000000000000e+00" cType="1" res="-2.3590217460878193e-04" rms="4.9470201134681702e-01" purity="4.4212502241134644e-01" nType="-99"/>
          <Node pos="r" depth="2" NCoef="0" IVar="-1" Cut="0.0000000000000000e+00" cType="1" res="5.3904112428426743e-04" rms="4.6256825327873230e-01" purity="6.8659383058547974e-01" nType="-99"/>
        </Node>
      </Node>
    </BinaryTree>
    <BinaryTree type="DecisionTree" boostWeight="1.0000000000000000e+00" itree="55">
      <Node pos="s" depth="0" NCoef="0" IVar="3" Cut="3.5373789072036743e-01" cType="1" res="5.8856280520558357e-03" rms="4.9169674515724182e-01" purity="4.9770474433898926e-01" nType="0">
        <Node pos="l" depth="1" NCoef="0" IVar="5" Cut="4.8972811889648438e+02" cType="1" res="-1.0118410736322403e-01" rms="4.7854909300804138e-01" purity="3.7650427222251892e-01" nType="0">
          <Node pos="l" depth="2" NCoef="0" IVar="-1" Cut="0.0000000000000000e+00" cType="1" res="-1.3316547265276313e-03" rms="4.4686096906661987e-01" purity="2.8209182620048523e-01" nType="-99"/>
          <Node pos="r" depth="2" NCoef="0" IVar="-1" Cut="0.0000000000000000e+00" cType="1" res="5.9611396864056587e-05" rms="4.9872794747352600e-01" purity="5.1301461458206177e-01" nType="-99"/>
        </Node>
        <Node pos="r" depth="1" NCoef="0" IVar="5" Cut="3.4632971191406250e+02" cType="1" res="1.4077675342559814e-01" rms="4.7455081343650818e-01" purity="6.5039831399917603e-01" nType="0">
          <Node pos="l" depth="2" NCoef="0" IVar="-1" Cut="0.0000000000000000e+00" cType="1" res="-2.8917484451085329e-04" rms="4.9548235535621643e-01" purity="4.3559080362319946e-01" nType="-99"/>
          <Node pos="r" depth="2" NCoef="0" IVar="-1" Cut="0.0000000000000000e+00" cType="1" res="5.9354043332859874e-04" rms="4.5280057191848755e-01" purity="7.1077090501785278e-01" nType="-99"/>
        </Node>
      </Node>
    </BinaryTree>
    <BinaryTree type="DecisionTree" boostWeight="1.0000000000000000e+00" itree="56">
      <Node pos="s" depth="0" NCoef="0" IVar="3" Cut="2.8898757696151733e-01" cType="1" res="8.9952409325633198e-05" rms="4.9175593256950378e-01" purity="4.9133703112602234e-01" nType="0">
        <Node pos="l" depth="1" NCoef="0" IVar="5" Cut="4.8795367431640625e+02" cType="1" res="-1.4641043543815613e-01" rms="4.6331724524497986e-01" purity="3.2464608550071716e-01" nType="0">
          <Node pos="l" depth="2" NCoef="0" IVar="-1" Cut="0.0000000000000000e+00" cType="1" res="-1.8204678781330585e-03" rms="4.2763963341712952e-01" purity="2.4430578947067261e-01" nType="-99"/>
          <Node pos="r" depth="2" NCoef="0" IVar="-1" Cut="0.0000000000000000e+00" cType="1" res="-1.9698166579473764e-04" rms="4.9745097756385803e-01" purity="4.5204058289527893e-01" nType="-99"/>
        </Node>
        <Node pos="r" depth="1" NCoef="0" IVar="5" Cut="3.1410748291015625e+02" cType="1" res="9.6470490097999573e-02" rms="4.8609027266502380e-01" purity="6.0100060701370239e-01" nType="0">
          <Node pos="l" depth="2" NCoef="0" IVar="-1" Cut="0.0000000000000000e+00" cType="1" res="-8.6271896725520492e-04" rms="4.7404447197914124e-01" purity="3.4635907411575317e-01" nType="-99"/>
          <Node pos="r" depth="2" NCoef="0" IVar="-1" Cut="0.0000000000000000e+00" cType="1" res="4.5052025234326720e-04" rms="4.7702941298484802e-01" purity="6.4214211702346802e-01" nType="-99"/>
        </Node>
      </Node>
    </BinaryTree>
    <BinaryTree type="DecisionTree" boostWeight="1.0000000000000000e+00" itree="57">
      <Node pos="s" depth="0" NCoef="0" IVar="3" Cut="3.5489991307258606e-01" cType="1" res="1.3977183960378170e-02" rms="4.9195858836174011e-01" purity="5.0488746166229248e-01" nType="0">
        <Node pos="l" depth="1" NCoef="0" IVar="5" Cut="3.7255880737304688e+02" cType="1" res="-7.8125558793544769e-02" rms="4.8360827565193176e-01" purity="3.9896795153617859e-01" nType="0">
          <Node pos="l" depth="2" NCoef="0" IVar="-1" Cut="0.0000000000000000e+00" cType="1" res="-2.2716920357197523e-03" rms="4.1034257411956787e-01" purity="2.1505410969257355e-01" nType="-99"/>
          <Node pos="r" depth="2" NCoef="0" IVar="-1" Cut="0.0000000000000000e+00" cType="1" res="-3.6309065762907267e-05" rms="4.9675589799880981e-01" purity="4.7991436719894409e-01" nType="-99"/>
        </Node>
        <Node pos="r" depth="1" NCoef="0" IVar="5" Cut="4.2205282592773438e+02" cType="1" res="1.3855899870395660e-01" rms="4.7544434666633606e-01" purity="6.4815837144851685e-01" nType="0">
          <Node pos="l" depth="2" NCoef="0" IVar="-1" Cut="0.0000000000000000e+00" cType="1" res="1.4986444148235023e-04" rms="4.9750560522079468e-01" purity="5.3752362728118896e-01" nType="-99"/>
          <Node pos="r" depth="2" NCoef="0" IVar="-1" Cut="0.0000000000000000e+00" cType="1" res="6.1995856231078506e-04" rms="4.4162797927856445e-01" purity="7.3436301946640015e-01" nType="-99"/>
        </Node>
      </Node>
    </BinaryTree>
    <BinaryTree type="DecisionTree" boostWeight="1.0000000000000000e+00" itree="58">
      <Node pos="s" depth="0" NCoef="0" IVar="3" Cut="2.8722935914993286e-01" cType="1" res="7.1362638846039772e-03" rms="4.9136245250701904e-01" purity="4.9844971299171448e-01" nType="0">
        <Node pos="l" depth="1" NCoef="0" IVar="5" Cut="3.7847619628906250e+02" cType="1" res="-1.4304989576339722e-01" rms="4.6401768922805786e-01" purity="3.2696512341499329e-01" nType="0">
          <Node pos="l" depth="2" NCoef="0" IVar="-1" Cut="0.0000000000000000e+00" cType="1" res="-2.9254099354147911e-03" rms="3.8564017415046692e-01" purity="1.8200938403606415e-01" nType="-99"/>
          <Node pos="r" depth="2" NCoef="0" IVar="-1" Cut="0.0000000000000000e+00" cType="1" res="-4.1134352795779705e-04" rms="4.8892259597778320e-01" purity="4.0403193235397339e-01" nType="-99"/>
        </Node>
        <Node pos="r" depth="1" NCoef="0" IVar="5" Cut="4.2750018310546875e+02" cType="1" res="1.0288789868354797e-01" rms="4.8429739475250244e-01" purity="6.0778021812438965e-01" nType="0">
          <Node pos="l" depth="2" NCoef="0" IVar="-1" Cut="0.0000000000000000e+00" cType="1" res="-6.2971514125820249e-05" rms="4.9662616848945618e-01" purity="4.7911319136619568e-01" nType="-99"/>
          <Node pos="r" depth="2" NCoef="0" IVar="-1" Cut="0.0000000000000000e+00" cType="1" res="5.6456879246979952e-04" rms="4.5638284087181091e-01" purity="7.0209693908691406e-01" nType="-99"/>
        </Node>
      </Node>
    </BinaryTree>
    <BinaryTree type="DecisionTree" boostWeight="1.0000000000000000e+00" itree="59">
      <Node pos="s" depth="0" NCoef="0" IVar="3" Cut="3.3363708853721619e-01" cType="1" res="2.6047514751553535e-02" rms="4.9122864007949829e-01" purity="5.1726156473159790e-01" nType="0">
        <Node pos="l" depth="1" NCoef="0" IVar="5" Cut="4.7345574951171875e+02" cType="1" res="-8.0611348152160645e-02" rms="4.8213154077529907e-01" purity="3.9372503757476807e-01" nType="0">
          <Node pos="l" depth="2" NCoef="0" IVar="-1" Cut="0.0000000000000000e+00" cType="1" res="-1.4184678439050913e-03" rms="4.4256144762039185e-01" purity="2.7124932408332825e-01" nType="-99"/>
          <Node pos="r" depth="2" NCoef="0" IVar="-1" Cut="0.0000000000000000e+00" cType="1" res="1.6470764239784330e-04" rms="4.9775829911231995e-01" purity="5.3956872224807739e-01" nType="-99"/>
        </Node>
        <Node pos="r" depth="1" NCoef="0" IVar="5" Cut="3.2463558959960938e+02" cType="1" res="1.3761353492736816e-01" rms="4.7562721371650696e-01" purity="6.4648181200027466e-01" nType="0">
          <Node pos="l" depth="2" NCoef="0" IVar="-1" Cut="0.0000000000000000e+00" cType="1" res="-2.7449260232970119e-04" rms="4.9536153674125671e-01" purity="4.3499672412872314e-01" nType="-99"/>
          <Node pos="r" depth="2" NCoef="0" IVar="-1" Cut="0.0000000000000000e+00" cType="1" res="5.5295374477282166e-04" rms="4.6101468801498413e-01" purity="6.9094038009643555e-01" nType="-99"/>
        </Node>
      </Node>
    </BinaryTree>
    <BinaryTree type="DecisionTree" boostWeight="1.0000000000000000e+00" itree="60">
      <Node pos="s" depth="0" NCoef="0" IVar="3" Cut="2.6638859510421753e-01" cType="1" res="4.9614198505878448e-03" rms="4.9151173233985901e-01" purity="4.9550291895866394e-01" nType="0">
        <Node pos="l" depth="1" NCoef="0" IVar="5" Cut="3.0420828247070312e+02" cType="1" res="-1.5382640063762665e-01" rms="4.6007189154624939e-01" purity="3.1369227170944214e-01" nType="0">
          <Node pos="l" depth="2" NCoef="0" IVar="-1" Cut="0.0000000000000000e+00" cType="1" res="-6.3961343839764595e-03" rms="3.1581079959869385e-01" purity="1.1237037181854248e-01" nType="-99"/>
          <Node pos="r" depth="2" NCoef="0" IVar="-1" Cut="0.0000000000000000e+00" cType="1" res="-7.3319394141435623e-04" rms="4.7417294979095459e-01" purity="3.4867417812347412e-01" nType="-99"/>
        </Node>
        <Node pos="r" depth="1" NCoef="0" IVar="5" Cut="4.4060711669921875e+02" cType="1" res="8.7911687791347504e-02" rms="4.8699116706848145e-01" purity="5.9048020839691162e-01" nType="0">
          <Node pos="l" depth="2" NCoef="0" IVar="-1" Cut="0.0000000000000000e+00" cType="1" res="-7.2252369136549532e-05" rms="4.9509856104850769e-01" purity="4.7553977370262146e-01" nType="-99"/>
          <Node pos="r" depth="2" NCoef="0" IVar="-1" Cut="0.0000000000000000e+00" cType="1" res="5.4082879796624184e-04" rms="4.6154943108558655e-01" purity="6.8951725959777832e-01" nType="-99"/>
        </Node>
      </Node>
    </BinaryTree>
    <BinaryTree type="DecisionTree" boostWeight="1.0000000000000000e+00" itree="61">
      <Node pos="s" depth="0" NCoef="0" IVar="3" Cut="3.1013363599777222e-01" cType="1" res="8.6186919361352921e-03" rms="4.9143111705780029e-01" purity="4.9906063079833984e-01" nType="0">
        <Node pos="l" depth="1" NCoef="0" IVar="5" Cut="5.0810864257812500e+02" cType="1" res="-1.1555551737546921e-01" rms="4.7330567240715027e-01" purity="3.5466465353965759e-01" nType="0">
          <Node pos="l" depth="2" NCoef="0" IVar="-1" Cut="0.0000000000000000e+00" cType="1" res="-1.3375225244089961e-03" rms="4.4718340039253235e-01" purity="2.8073868155479431e-01" nType="-99"/>
          <Node pos="r" depth="2" NCoef="0" IVar="-1" Cut="0.0000000000000000e+00" cType="1" res="-3.7498200981644914e-05" rms="4.9929326772689819e-01" purity="4.8688670992851257e-01" nType="-99"/>
        </Node>
        <Node pos="r" depth="1" NCoef="0" IVar="5" Cut="3.9181838989257812e+02" cType="1" res="1.1172224581241608e-01" rms="4.8227638006210327e-01" purity="6.1895459890365601e-01" nType="0">
          <Node pos="l" depth="2" NCoef="0" IVar="-1" Cut="0.0000000000000000e+00" cType="1" res="-1.1752005229936913e-04" rms="4.9723705649375916e-01" purity="4.6750643849372864e-01" nType="-99"/>
          <Node pos="r" depth="2" NCoef="0" IVar="-1" Cut="0.0000000000000000e+00" cType="1" res="5.5666599655523896e-04" rms="4.5793253183364868e-01" purity="6.9876956939697266e-01" nType="-99"/>
        </Node>
      </Node>
    </BinaryTree>
    <BinaryTree type="DecisionTree" boostWeight="1.0000000000000000e+00" itree="62">
      <Node pos="s" depth="0" NCoef="0" IVar="3" Cut="2.6634132862091064e-01" cType="1" res="8.3723906427621841e-03" rms="4.9085319042205811e-01" purity="4.9894955754280090e-01" nType="0">
        <Node pos="l" depth="1" NCoef="0" IVar="7" Cut="1.3508164978027344e+02" cType="1" res="-1.5178020298480988e-01" rms="4.5939400792121887e-01" purity="3.1512895226478577e-01" nType="0">
          <Node pos="l" depth="2" NCoef="0" IVar="-1" Cut="0.0000000000000000e+00" cType="1" res="-1.8203548388555646e-03" rms="4.2151024937629700e-01" purity="2.3667195439338684e-01" nType="-99"/>
          <Node pos="r" depth="2" NCoef="0" IVar="-1" Cut="0.0000000000000000e+00" cType="1" res="-2.1353058400563896e-04" rms="4.9421116709709167e-01" purity="4.3780297040939331e-01" nType="-99"/>
        </Node>
        <Node pos="r" depth="1" NCoef="0" IVar="5" Cut="3.7752209472656250e+02" cType="1" res="9.1570951044559479e-02" rms="4.8602488636970520e-01" purity="5.9444355964660645e-01" nType="0">
          <Node pos="l" depth="2" NCoef="0" IVar="-1" Cut="0.0000000000000000e+00" cType="1" res="-2.7630239492282271e-04" rms="4.9081838130950928e-01" purity="4.3077123165130615e-01" nType="-99"/>
          <Node pos="r" depth="2" NCoef="0" IVar="-1" Cut="0.0000000000000000e+00" cType="1" res="4.9370242049917579e-04" rms="4.6947050094604492e-01" purity="6.6640877723693848e-01" nType="-99"/>
        </Node>
      </Node>
    </BinaryTree>
    <BinaryTree type="DecisionTree" boostWeight="1.0000000000000000e+00" itree="63">
      <Node pos="s" depth="0" NCoef="0" IVar="3" Cut="3.3271867036819458e-01" cType="1" res="1.0791769251227379e-02" rms="4.9075242877006531e-01" purity="5.0139778852462769e-01" nType="0">
        <Node pos="l" depth="1" NCoef="0" IVar="5" Cut="4.4661672973632812e+02" cType="1" res="-9.5914281904697418e-02" rms="4.7780695557594299e-01" purity="3.7647607922554016e-01" nType="0">
          <Node pos="l" depth="2" NCoef="0" IVar="-1" Cut="0.0000000000000000e+00" cType="1" res="-1.6659136163070798e-03" rms="4.3234616518020630e-01" purity="2.5255590677261353e-01" nType="-99"/>
          <Node pos="r" depth="2" NCoef="0" IVar="-1" Cut="0.0000000000000000e+00" cType="1" res="1.9058938050875440e-05" rms="4.9875149130821228e-01" purity="4.9872848391532898e-01" nType="-99"/>
        </Node>
        <Node pos="r" depth="1" NCoef="0" IVar="5" Cut="3.9576910400390625e+02" cType="1" res="1.2358209490776062e-01" rms="4.7888857126235962e-01" purity="6.3344240188598633e-01" nType="0">
          <Node pos="l" depth="2" NCoef="0" IVar="-1" Cut="0.0000000000000000e+00" cType="1" res="-1.2071929813828319e-04" rms="4.9780938029289246e-01" purity="4.7010269761085510e-01" nType="-99"/>
          <Node pos="r" depth="2" NCoef="0" IVar="-1" Cut="0.0000000000000000e+00" cType="1" res="5.9122982202097774e-04" rms="4.4926610589027405e-01" purity="7.1877139806747437e-01" nType="-99"/>
        </Node>
      </Node>
    </BinaryTree>
    <BinaryTree type="DecisionTree" boostWeight="1.0000000000000000e+00" itree="64">
      <Node pos="s" depth="0" NCoef="0" IVar="3" Cut="3.5587954521179199e-01" cType="1" res="2.3326119408011436e-03" rms="4.9075230956077576e-01" purity="4.9246338009834290e-01" nType="0">
        <Node pos="l" depth="1" NCoef="0" IVar="5" Cut="4.3626043701171875e+02" cType="1" res="-1.0104575008153915e-01" rms="4.7733324766159058e-01" purity="3.7304517626762390e-01" nType="0">
          <Node pos="l" depth="2" NCoef="0" IVar="-1" Cut="0.0000000000000000e+00" cType="1" res="-1.5217001782730222e-03" rms="4.3898826837539673e-01" purity="2.6433861255645752e-01" nType="-99"/>
          <Node pos="r" depth="2" NCoef="0" IVar="-1" Cut="0.0000000000000000e+00" cType="1" res="-8.1331010733265430e-05" rms="4.9744310975074768e-01" purity="4.7648400068283081e-01" nType="-99"/>
        </Node>
        <Node pos="r" depth="1" NCoef="0" IVar="5" Cut="4.1722906494140625e+02" cType="1" res="1.3677704334259033e-01" rms="4.7514057159423828e-01" purity="6.4776778221130371e-01" nType="0">
          <Node pos="l" depth="2" NCoef="0" IVar="-1" Cut="0.0000000000000000e+00" cType="1" res="7.3314484325237572e-05" rms="4.9847948551177979e-01" purity="5.1792353391647339e-01" nType="-99"/>
          <Node pos="r" depth="2" NCoef="0" IVar="-1" Cut="0.0000000000000000e+00" cType="1" res="6.3528073951601982e-04" rms="4.3883594870567322e-01" purity="7.3955166339874268e-01" nType="-99"/>
        </Node>
      </Node>
    </BinaryTree>
    <BinaryTree type="DecisionTree" boostWeight="1.0000000000000000e+00" itree="65">
      <Node pos="s" depth="0" NCoef="0" IVar="3" Cut="3.5308358073234558e-01" cType="1" res="1.7451692372560501e-02" rms="4.9018186330795288e-01" purity="5.0812411308288574e-01" nType="0">
        <Node pos="l" depth="1" NCoef="0" IVar="5" Cut="4.4376272583007812e+02" cType="1" res="-9.6280984580516815e-02" rms="4.7822549939155579e-01" purity="3.7731590867042542e-01" nType="0">
          <Node pos="l" depth="2" NCoef="0" IVar="-1" Cut="0.0000000000000000e+00" cType="1" res="-1.5633832663297653e-03" rms="4.3556019663810730e-01" purity="2.5713980197906494e-01" nType="-99"/>
          <Node pos="r" depth="2" NCoef="0" IVar="-1" Cut="0.0000000000000000e+00" cType="1" res="-2.5475358143012272e-06" rms="4.9837279319763184e-01" purity="4.9498975276947021e-01" nType="-99"/>
        </Node>
        <Node pos="r" depth="1" NCoef="0" IVar="5" Cut="3.7899694824218750e+02" cType="1" res="1.5591250360012054e-01" rms="4.6846073865890503e-01" purity="6.6737312078475952e-01" nType="0">
          <Node pos="l" depth="2" NCoef="0" IVar="-1" Cut="0.0000000000000000e+00" cType="1" res="-2.8309075787547044e-05" rms="4.9922555685043335e-01" purity="4.9011245369911194e-01" nType="-99"/>
          <Node pos="r" depth="2" NCoef="0" IVar="-1" Cut="0.0000000000000000e+00" cType="1" res="6.4046029001474380e-04" rms="4.3704080581665039e-01" purity="7.4233156442642212e-01" nType="-99"/>
        </Node>
      </Node>
    </BinaryTree>
    <BinaryTree type="DecisionTree" boostWeight="1.0000000000000000e+00" itree="66">
      <Node pos="s" depth="0" NCoef="0" IVar="3" Cut="2.6675775647163391e-01" cType="1" res="3.2846352551132441e-03" rms="4.9041676521301270e-01" purity="4.9315261840820312e-01" nType="0">
        <Node pos="l" depth="1" NCoef="0" IVar="4" Cut="7.3783397674560547e-01" cType="1" res="-1.5395955741405487e-01" rms="4.5800569653511047e-01" purity="3.1094896793365479e-01" nType="0">
          <Node pos="l" depth="2" NCoef="0" IVar="-1" Cut="0.0000000000000000e+00" cType="1" res="-1.4450135495280847e-05" rms="4.9420356750488281e-01" purity="4.6682521700859070e-01" nType="-99"/>
          <Node pos="r" depth="2" NCoef="0" IVar="-1" Cut="0.0000000000000000e+00" cType="1" res="-1.4218291034922004e-03" rms="4.4214493036270142e-01" purity="2.7526181936264038e-01" nType="-99"/>
        </Node>
        <Node pos="r" depth="1" NCoef="0" IVar="5" Cut="3.9162539672851562e+02" cType="1" res="8.6713545024394989e-02" rms="4.8655816912651062e-01" purity="5.8982425928115845e-01" nType="0">
          <Node pos="l" depth="2" NCoef="0" IVar="-1" Cut="0.0000000000000000e+00" cType="1" res="-3.7199363578110933e-04" rms="4.8864009976387024e-01" purity="4.1471451520919800e-01" nType="-99"/>
          <Node pos="r" depth="2" NCoef="0" IVar="-1" Cut="0.0000000000000000e+00" cType="1" res="5.0986692076548934e-04" rms="4.6601983904838562e-01" purity="6.7668241262435913e-01" nType="-99"/>
        </Node>
      </Node>
    </BinaryTree>
    <BinaryTree type="DecisionTree" boostWeight="1.0000000000000000e+00" itree="67">
      <Node pos="s" depth="0" NCoef="0" IVar="3" Cut="3.5587954521179199e-01" cType="1" res="1.4745522290468216e-02" rms="4.9077880382537842e-01" purity="5.0447934865951538e-01" nType="0">
        <Node pos="l" depth="1" NCoef="0" IVar="5" Cut="4.8892770385742188e+02" cType="1" res="-7.7543549239635468e-02" rms="4.8231905698776245e-01" purity="3.9593341946601868e-01" nType="0">
          <Node pos="l" depth="2" NCoef="0" IVar="-1" Cut="0.0000000000000000e+00" cType="1" res="-1.0850632097572088e-03" rms="4.5488694310188293e-01" purity="2.9926156997680664e-01" nType="-99"/>
          <Node pos="r" depth="2" NCoef="0" IVar="-1" Cut="0.0000000000000000e+00" cType="1" res="1.3714148371946067e-04" rms="4.9757340550422668e-01" purity="5.3319334983825684e-01" nType="-99"/>
        </Node>
        <Node pos="r" depth="1" NCoef="0" IVar="5" Cut="3.4391534423828125e+02" cType="1" res="1.3833726942539215e-01" rms="4.7455987334251404e-01" purity="6.4984190464019775e-01" nType="0">
          <Node pos="l" depth="2" NCoef="0" IVar="-1" Cut="0.0000000000000000e+00" cType="1" res="-2.1585429203696549e-04" rms="4.9720954895019531e-01" purity="4.5040896534919739e-01" nType="-99"/>
          <Node pos="r" depth="2" NCoef="0" IVar="-1" Cut="0.0000000000000000e+00" cType="1" res="5.7246291544288397e-04" rms="4.5531231164932251e-01" purity="7.0518618822097778e-01" nType="-99"/>
        </Node>
      </Node>
    </BinaryTree>
    <BinaryTree type="DecisionTree" boostWeight="1.0000000000000000e+00" itree="68">
      <Node pos="s" depth="0" NCoef="0" IVar="3" Cut="2.8890502452850342e-01" cType="1" res="1.1058952659368515e-02" rms="4.9082738161087036e-01" purity="5.0049412250518799e-01" nType="0">
        <Node pos="l" depth="1" NCoef="0" IVar="4" Cut="7.4242669343948364e-01" cType="1" res="-1.2066658586263657e-01" rms="4.7028243541717529e-01" purity="3.4421992301940918e-01" nType="0">
          <Node pos="l" depth="2" NCoef="0" IVar="-1" Cut="0.0000000000000000e+00" cType="1" res="1.2294026964809746e-04" rms="4.9465191364288330e-01" purity="4.9970561265945435e-01" nType="-99"/>
          <Node pos="r" depth="2" NCoef="0" IVar="-1" Cut="0.0000000000000000e+00" cType="1" res="-1.0861991904675961e-03" rms="4.5619875192642212e-01" purity="3.0483922362327576e-01" nType="-99"/>
        </Node>
        <Node pos="r" depth="1" NCoef="0" IVar="5" Cut="3.1463327026367188e+02" cType="1" res="9.9122472107410431e-02" rms="4.8451730608940125e-01" purity="6.0496932268142700e-01" nType="0">
          <Node pos="l" depth="2" NCoef="0" IVar="-1" Cut="0.0000000000000000e+00" cType="1" res="-1.2350897304713726e-03" rms="4.6157965064048767e-01" purity="3.1024995446205139e-01" nType="-99"/>
          <Node pos="r" depth="2" NCoef="0" IVar="-1" Cut="0.0000000000000000e+00" cType="1" res="4.5790438889525831e-04" rms="4.7423699498176575e-01" purity="6.4994639158248901e-01" nType="-99"/>
        </Node>
      </Node>
    </BinaryTree>
    <BinaryTree type="DecisionTree" boostWeight="1.0000000000000000e+00" itree="69">
      <Node pos="s" depth="0" NCoef="0" IVar="3" Cut="3.5484477877616882e-01" cType="1" res="2.5164803955703974e-03" rms="4.9068424105644226e-01" purity="4.9161481857299805e-01" nType="0">
        <Node pos="l" depth="1" NCoef="0" IVar="4" Cut="7.8819227218627930e-01" cType="1" res="-9.0796932578086853e-02" rms="4.7956660389900208e-01" purity="3.8142499327659607e-01" nType="0">
          <Node pos="l" depth="2" NCoef="0" IVar="-1" Cut="0.0000000000000000e+00" cType="1" res="1.6718335973564535e-04" rms="4.9337378144264221e-01" purity="5.1923978328704834e-01" nType="-99"/>
          <Node pos="r" depth="2" NCoef="0" IVar="-1" Cut="0.0000000000000000e+00" cType="1" res="-8.9296110672876239e-04" rms="4.6410402655601501e-01" purity="3.2838961482048035e-01" nType="-99"/>
        </Node>
        <Node pos="r" depth="1" NCoef="0" IVar="5" Cut="3.1724243164062500e+02" cType="1" res="1.2791377305984497e-01" rms="4.7732695937156677e-01" purity="6.3969111442565918e-01" nType="0">
          <Node pos="l" depth="2" NCoef="0" IVar="-1" Cut="0.0000000000000000e+00" cType="1" res="-8.2851323531940579e-04" rms="4.7935873270034790e-01" purity="3.5823029279708862e-01" nType="-99"/>
          <Node pos="r" depth="2" NCoef="0" IVar="-1" Cut="0.0000000000000000e+00" cType="1" res="5.3540751105174422e-04" rms="4.6253365278244019e-01" purity="6.8726879358291626e-01" nType="-99"/>
        </Node>
      </Node>
    </BinaryTree>
    <BinaryTree type="DecisionTree" boostWeight="1.0000000000000000e+00" itree="70">
      <Node pos="s" depth="0" NCoef="0" IVar="3" Cut="2.8858765959739685e-01" cType="1" res="4.9181068316102028e-03" rms="4.8991829156875610e-01" purity="4.9454301595687866e-01" nType="0">
        <Node pos="l" depth="1" NCoef="0" IVar="5" Cut="3.4795275878906250e+02" cType="1" res="-1.3501769304275513e-01" rms="4.6440306305885315e-01" purity="3.2957166433334351e-01" nType="0">
          <Node pos="l" depth="2" NCoef="0" IVar="-1" Cut="0.0000000000000000e+00" cType="1" res="-3.5022816155105829e-03" rms="3.6716121435165405e-01" purity="1.6082841157913208e-01" nType="-99"/>
          <Node pos="r" depth="2" NCoef="0" IVar="-1" Cut="0.0000000000000000e+00" cType="1" res="-4.5517180114984512e-04" rms="4.8475679755210876e-01" purity="3.8903668522834778e-01" nType="-99"/>
        </Node>
        <Node pos="r" depth="1" NCoef="0" IVar="5" Cut="4.1517022705078125e+02" cType="1" res="9.7718998789787292e-02" rms="4.8432397842407227e-01" purity="6.0394662618637085e-01" nType="0">
          <Node pos="l" depth="2" NCoef="0" IVar="-1" Cut="0.0000000000000000e+00" cType="1" res="-2.0500367099884897e-04" rms="4.9384480714797974e-01" purity="4.4952204823493958e-01" nType="-99"/>
          <Node pos="r" depth="2" NCoef="0" IVar="-1" Cut="0.0000000000000000e+00" cType="1" res="5.5232929298654199e-04" rms="4.5650681853294373e-01" purity="7.0174723863601685e-01" nType="-99"/>
        </Node>
      </Node>
    </BinaryTree>
    <BinaryTree type="DecisionTree" boostWeight="1.0000000000000000e+00" itree="71">
      <Node pos="s" depth="0" NCoef="0" IVar="3" Cut="3.5518479347229004e-01" cType="1" res="8.4218326956033707e-03" rms="4.8978805541992188e-01" purity="4.9802124500274658e-01" nType="0">
        <Node pos="l" depth="1" NCoef="0" IVar="5" Cut="4.8936132812500000e+02" cType="1" res="-8.4162458777427673e-02" rms="4.7943049669265747e-01" purity="3.8853561878204346e-01" nType="0">
          <Node pos="l" depth="2" NCoef="0" IVar="-1" Cut="0.0000000000000000e+00" cType="1" res="-1.3942823279649019e-03" rms="4.4254034757614136e-01" purity="2.7499416470527649e-01" nType="-99"/>
          <Node pos="r" depth="2" NCoef="0" IVar="-1" Cut="0.0000000000000000e+00" cType="1" res="1.7246781499125063e-04" rms="4.9695438146591187e-01" purity="5.4280525445938110e-01" nType="-99"/>
        </Node>
        <Node pos="r" depth="1" NCoef="0" IVar="5" Cut="3.7945193481445312e+02" cType="1" res="1.3179242610931396e-01" rms="4.7605326771736145e-01" purity="6.4391326904296875e-01" nType="0">
          <Node pos="l" depth="2" NCoef="0" IVar="-1" Cut="0.0000000000000000e+00" cType="1" res="-4.2259885958628729e-05" rms="4.9884912371635437e-01" purity="4.8698085546493530e-01" nType="-99"/>
          <Node pos="r" depth="2" NCoef="0" IVar="-1" Cut="0.0000000000000000e+00" cType="1" res="5.8191490825265646e-04" rms="4.5045119524002075e-01" purity="7.1636664867401123e-01" nType="-99"/>
        </Node>
      </Node>
    </BinaryTree>
    <BinaryTree type="DecisionTree" boostWeight="1.0000000000000000e+00" itree="72">
      <Node pos="s" depth="0" NCoef="0" IVar="3" Cut="3.1000062823295593e-01" cType="1" res="1.5579968690872192e-02" rms="4.9013200402259827e-01" purity="5.0461250543594360e-01" nType="0">
        <Node pos="l" depth="1" NCoef="0" IVar="4" Cut="6.9546049833297729e-01" cType="1" res="-9.7592987120151520e-02" rms="4.7614610195159912e-01" purity="3.6832359433174133e-01" nType="0">
          <Node pos="l" depth="2" NCoef="0" IVar="-1" Cut="0.0000000000000000e+00" cType="1" res="3.4039543243125081e-04" rms="4.8920717835426331e-01" purity="5.6982833147048950e-01" nType="-99"/>
          <Node pos="r" depth="2" NCoef="0" IVar="-1" Cut="0.0000000000000000e+00" cType="1" res="-8.2315155304968357e-04" rms="4.6550887823104858e-01" purity="3.3230268955230713e-01" nType="-99"/>
        </Node>
        <Node pos="r" depth="1" NCoef="0" IVar="5" Cut="3.8179888916015625e+02" cType="1" res="1.1149714142084122e-01" rms="4.8127722740173340e-01" purity="6.2012106180191040e-01" nType="0">
          <Node pos="l" depth="2" NCoef="0" IVar="-1" Cut="0.0000000000000000e+00" cType="1" res="-2.5875918800011277e-04" rms="4.9445453286170959e-01" purity="4.3809863924980164e-01" nType="-99"/>
          <Node pos="r" depth="2" NCoef="0" IVar="-1" Cut="0.0000000000000000e+00" cType="1" res="5.4718280443921685e-04" rms="4.5727196335792542e-01" purity="6.9964081048965454e-01" nType="-99"/>
        </Node>
      </Node>
    </BinaryTree>
    <BinaryTree type="DecisionTree" boostWeight="1.0000000000000000e+00" itree="73">
      <Node pos="s" depth="0" NCoef="0" IVar="3" Cut="2.6675775647163391e-01" cType="1" res="1.4960656873881817e-02" rms="4.8931393027305603e-01" purity="5.0490027666091919e-01" nType="0">
        <Node pos="l" depth="1" NCoef="0" IVar="5" Cut="4.6654266357421875e+02" cType="1" res="-1.4210940897464752e-01" rms="4.6015211939811707e-01" purity="3.2085269689559937e-01" nType="0">
          <Node pos="l" depth="2" NCoef="0" IVar="-1" Cut="0.0000000000000000e+00" cType="1" res="-2.3149040061980486e-03" rms="4.0911453962326050e-01" purity="2.1385636925697327e-01" nType="-99"/>
          <Node pos="r" depth="2" NCoef="0" IVar="-1" Cut="0.0000000000000000e+00" cType="1" res="-1.4968788309488446e-04" rms="4.9722528457641602e-01" purity="4.5727908611297607e-01" nType="-99"/>
        </Node>
        <Node pos="r" depth="1" NCoef="0" IVar="5" Cut="3.4589465332031250e+02" cType="1" res="9.5954224467277527e-02" rms="4.8417347669601440e-01" purity="5.9980487823486328e-01" nType="0">
          <Node pos="l" depth="2" NCoef="0" IVar="-1" Cut="0.0000000000000000e+00" cType="1" res="-6.5964384702965617e-04" rms="4.7864854335784912e-01" purity="3.6567378044128418e-01" nType="-99"/>
          <Node pos="r" depth="2" NCoef="0" IVar="-1" Cut="0.0000000000000000e+00" cType="1" res="4.8545657773502171e-04" rms="4.6993151307106018e-01" purity="6.6163128614425659e-01" nType="-99"/>
        </Node>
      </Node>
    </BinaryTree>
    <BinaryTree type="DecisionTree" boostWeight="1.0000000000000000e+00" itree="74">
      <Node pos="s" depth="0" NCoef="0" IVar="3" Cut="3.5587954521179199e-01" cType="1" res="5.7802624069154263e-03" rms="4.8978087306022644e-01" purity="4.9462854862213135e-01" nType="0">
        <Node pos="l" depth="1" NCoef="0" IVar="5" Cut="3.9535946655273438e+02" cType="1" res="-1.0110757499933243e-01" rms="4.7598436474800110e-01" purity="3.6922407150268555e-01" nType="0">
          <Node pos="l" depth="2" NCoef="0" IVar="-1" Cut="0.0000000000000000e+00" cType="1" res="-1.7264856724068522e-03" rms="4.2637249827384949e-01" purity="2.4202999472618103e-01" nType="-99"/>
          <Node pos="r" depth="2" NCoef="0" IVar="-1" Cut="0.0000000000000000e+00" cType="1" res="-1.7598428530618548e-04" rms="4.9490588903427124e-01" purity="4.5051515102386475e-01" nType="-99"/>
        </Node>
        <Node pos="r" depth="1" NCoef="0" IVar="5" Cut="4.0514126586914062e+02" cType="1" res="1.4123140275478363e-01" rms="4.7322821617126465e-01" purity="6.5354442596435547e-01" nType="0">
          <Node pos="l" depth="2" NCoef="0" IVar="-1" Cut="0.0000000000000000e+00" cType="1" res="1.1022183025488630e-04" rms="4.9863159656524658e-01" purity="5.2509212493896484e-01" nType="-99"/>
          <Node pos="r" depth="2" NCoef="0" IVar="-1" Cut="0.0000000000000000e+00" cType="1" res="6.1888794880360365e-04" rms="4.4181883335113525e-01" purity="7.3388886451721191e-01" nType="-99"/>
        </Node>
      </Node>
    </BinaryTree>
    <BinaryTree type="DecisionTree" boostWeight="1.0000000000000000e+00" itree="75">
      <Node pos="s" depth="0" NCoef="0" IVar="3" Cut="3.5557371377944946e-01" cType="1" res="4.6032480895519257e-03" rms="4.9031397700309753e-01" purity="4.9274376034736633e-01" nType="0">
        <Node pos="l" depth="1" NCoef="0" IVar="4" Cut="7.1492624282836914e-01" cType="1" res="-8.3682395517826080e-02" rms="4.8026877641677856e-01" purity="3.8657197356224060e-01" nType="0">
          <Node pos="l" depth="2" NCoef="0" IVar="-1" Cut="0.0000000000000000e+00" cType="1" res="3.6294519668444991e-04" rms="4.8627036809921265e-01" purity="5.8626514673233032e-01" nType="-99"/>
          <Node pos="r" depth="2" NCoef="0" IVar="-1" Cut="0.0000000000000000e+00" cType="1" res="-7.6624681241810322e-04" rms="4.6812728047370911e-01" purity="3.4093606472015381e-01" nType="-99"/>
        </Node>
        <Node pos="r" depth="1" NCoef="0" IVar="7" Cut="1.0207038879394531e+02" cType="1" res="1.2476617842912674e-01" rms="4.7815272212028503e-01" purity="6.3725107908248901e-01" nType="0">
          <Node pos="l" depth="2" NCoef="0" IVar="-1" Cut="0.0000000000000000e+00" cType="1" res="2.6961904495692579e-06" rms="4.9738666415214539e-01" purity="5.0628811120986938e-01" nType="-99"/>
          <Node pos="r" depth="2" NCoef="0" IVar="-1" Cut="0.0000000000000000e+00" cType="1" res="5.6992610916495323e-04" rms="4.5517009496688843e-01" purity="7.0408701896667480e-01" nType="-99"/>
        </Node>
      </Node>
    </BinaryTree>
    <BinaryTree type="DecisionTree" boostWeight="1.0000000000000000e+00" itree="76">
      <Node pos="s" depth="0" NCoef="0" IVar="3" Cut="3.3162927627563477e-01" cType="1" res="9.1104097664356232e-03" rms="4.8921102285385132e-01" purity="4.9818232655525208e-01" nType="0">
        <Node pos="l" depth="1" NCoef="0" IVar="5" Cut="4.7262606811523438e+02" cType="1" res="-1.0508746653795242e-01" rms="4.7352635860443115e-01" purity="3.6206838488578796e-01" nType="0">
          <Node pos="l" depth="2" NCoef="0" IVar="-1" Cut="0.0000000000000000e+00" cType="1" res="-1.5896736877039075e-03" rms="4.3377125263214111e-01" purity="2.5531589984893799e-01" nType="-99"/>
          <Node pos="r" depth="2" NCoef="0" IVar="-1" Cut="0.0000000000000000e+00" cType="1" res="7.6104988693259656e-06" rms="4.9893239140510559e-01" purity="4.9598410725593567e-01" nType="-99"/>
        </Node>
        <Node pos="r" depth="1" NCoef="0" IVar="5" Cut="3.9181838989257812e+02" cType="1" res="1.2544324994087219e-01" rms="4.7738000750541687e-01" purity="6.3684093952178955e-01" nType="0">
          <Node pos="l" depth="2" NCoef="0" IVar="-1" Cut="0.0000000000000000e+00" cType="1" res="-4.3168220145162195e-05" rms="4.9795454740524292e-01" purity="4.8525342345237732e-01" nType="-99"/>
          <Node pos="r" depth="2" NCoef="0" IVar="-1" Cut="0.0000000000000000e+00" cType="1" res="5.7809019926935434e-04" rms="4.5038756728172302e-01" purity="7.1602427959442139e-01" nType="-99"/>
        </Node>
      </Node>
    </BinaryTree>
    <BinaryTree type="DecisionTree" boostWeight="1.0000000000000000e+00" itree="77">
      <Node pos="s" depth="0" NCoef="0" IVar="3" Cut="3.3292666077613831e-01" cType="1" res="2.5842016562819481e-02" rms="4.8896202445030212e-01" purity="5.1503783464431763e-01" nType="0">
        <Node pos="l" depth="1" NCoef="0" IVar="5" Cut="4.1074176025390625e+02" cType="1" res="-7.8483663499355316e-02" rms="4.7963526844978333e-01" purity="3.8909843564033508e-01" nType="0">
          <Node pos="l" depth="2" NCoef="0" IVar="-1" Cut="0.0000000000000000e+00" cType="1" res="-1.7380785429850221e-03" rms="4.2420881986618042e-01" purity="2.3810614645481110e-01" nType="-99"/>
          <Node pos="r" depth="2" NCoef="0" IVar="-1" Cut="0.0000000000000000e+00" cType="1" res="2.0023324395879172e-05" rms="4.9749678373336792e-01" purity="4.9296781420707703e-01" nType="-99"/>
        </Node>
        <Node pos="r" depth="1" NCoef="0" IVar="5" Cut="3.2447808837890625e+02" cType="1" res="1.3434392213821411e-01" rms="4.7474959492683411e-01" purity="6.4601868391036987e-01" nType="0">
          <Node pos="l" depth="2" NCoef="0" IVar="-1" Cut="0.0000000000000000e+00" cType="1" res="-4.6940293395891786e-04" rms="4.9000045657157898e-01" purity="4.0155667066574097e-01" nType="-99"/>
          <Node pos="r" depth="2" NCoef="0" IVar="-1" Cut="0.0000000000000000e+00" cType="1" res="5.4471055045723915e-04" rms="4.5943486690521240e-01" purity="6.9350934028625488e-01" nType="-99"/>
        </Node>
      </Node>
    </BinaryTree>
    <BinaryTree type="DecisionTree" boostWeight="1.0000000000000000e+00" itree="78">
      <Node pos="s" depth="0" NCoef="0" IVar="3" Cut="3.5587954521179199e-01" cType="1" res="4.5347609557211399e-03" rms="4.8872229456901550e-01" purity="4.9348974227905273e-01" nType="0">
        <Node pos="l" depth="1" NCoef="0" IVar="5" Cut="6.0027099609375000e+02" cType="1" res="-1.0364767909049988e-01" rms="4.7402969002723694e-01" purity="3.6601945757865906e-01" nType="0">
          <Node pos="l" depth="2" NCoef="0" IVar="-1" Cut="0.0000000000000000e+00" cType="1" res="-1.0839917231351137e-03" rms="4.5424145460128784e-01" purity="3.0245032906532288e-01" nType="-99"/>
          <Node pos="r" depth="2" NCoef="0" IVar="-1" Cut="0.0000000000000000e+00" cType="1" res="2.3228058125823736e-04" rms="4.9477636814117432e-01" purity="5.6023573875427246e-01" nType="-99"/>
        </Node>
        <Node pos="r" depth="1" NCoef="0" IVar="5" Cut="3.9137020874023438e+02" cType="1" res="1.4189040660858154e-01" rms="4.7231692075729370e-01" purity="6.5533447265625000e-01" nType="0">
          <Node pos="l" depth="2" NCoef="0" IVar="-1" Cut="0.0000000000000000e+00" cType="1" res="1.3290771676111035e-05" rms="4.9921616911888123e-01" purity="5.0018954277038574e-01" nType="-99"/>
          <Node pos="r" depth="2" NCoef="0" IVar="-1" Cut="0.0000000000000000e+00" cType="1" res="6.1603443464264274e-04" rms="4.4156733155250549e-01" purity="7.3431742191314697e-01" nType="-99"/>
        </Node>
      </Node>
    </BinaryTree>
    <BinaryTree type="DecisionTree" boostWeight="1.0000000000000000e+00" itree="79">
      <Node pos="s" depth="0" NCoef="0" IVar="3" Cut="3.5518479347229004e-01" cType="1" res="1.5901148319244385e-02" rms="4.8888963460922241e-01" purity="5.0467151403427124e-01" nType="0">
        <Node pos="l" depth="1" NCoef="0" IVar="5" Cut="5.4883764648437500e+02" cType="1" res="-8.3613082766532898e-02" rms="4.7891196608543396e-01" purity="3.8598760962486267e-01" nType="0">
          <Node pos="l" depth="2" NCoef="0" IVar="-1" Cut="0.0000000000000000e+00" cType="1" res="-1.0004375362768769e-03" rms="4.5726552605628967e-01" purity="3.0956861376762390e-01" nType="-99"/>
          <Node pos="r" depth="2" NCoef="0" IVar="-1" Cut="0.0000000000000000e+00" cType="1" res="2.1448079496622086e-04" rms="4.9566391110420227e-01" purity="5.5476677417755127e-01" nType="-99"/>
        </Node>
        <Node pos="r" depth="1" NCoef="0" IVar="5" Cut="3.4646447753906250e+02" cType="1" res="1.4453044533729553e-01" rms="4.7132658958435059e-01" purity="6.5807890892028809e-01" nType="0">
          <Node pos="l" depth="2" NCoef="0" IVar="-1" Cut="0.0000000000000000e+00" cType="1" res="-1.9643807900138199e-04" rms="4.9713140726089478e-01" purity="4.5277875661849976e-01" nType="-99"/>
          <Node pos="r" depth="2" NCoef="0" IVar="-1" Cut="0.0000000000000000e+00" cType="1" res="5.8480515144765377e-04" rms="4.4999668002128601e-01" purity="7.1649664640426636e-01" nType="-99"/>
        </Node>
      </Node>
    </BinaryTree>
    <BinaryTree type="DecisionTree" boostWeight="1.0000000000000000e+00" itree="80">
      <Node pos="s" depth="0" NCoef="0" IVar="3" Cut="3.1053742766380310e-01" cType="1" res="1.9384810701012611e-02" rms="4.8879492282867432e-01" purity="5.0823515653610229e-01" nType="0">
        <Node pos="l" depth="1" NCoef="0" IVar="4" Cut="7.6313936710357666e-01" cType="1" res="-1.0673576593399048e-01" rms="4.7194117307662964e-01" purity="3.5677438974380493e-01" nType="0">
          <Node pos="l" depth="2" NCoef="0" IVar="-1" Cut="0.0000000000000000e+00" cType="1" res="1.7857020429801196e-04" rms="4.9296811223030090e-01" purity="5.1472181081771851e-01" nType="-99"/>
          <Node pos="r" depth="2" NCoef="0" IVar="-1" Cut="0.0000000000000000e+00" cType="1" res="-1.0435219155624509e-03" rms="4.5501208305358887e-01" purity="3.0734571814537048e-01" nType="-99"/>
        </Node>
        <Node pos="r" depth="1" NCoef="0" IVar="5" Cut="3.5326486206054688e+02" cType="1" res="1.2144828587770462e-01" rms="4.7826212644577026e-01" purity="6.3080525398254395e-01" nType="0">
          <Node pos="l" depth="2" NCoef="0" IVar="-1" Cut="0.0000000000000000e+00" cType="1" res="-2.4706244585104287e-04" rms="4.9416998028755188e-01" purity="4.3817111849784851e-01" nType="-99"/>
          <Node pos="r" depth="2" NCoef="0" IVar="-1" Cut="0.0000000000000000e+00" cType="1" res="5.4272147826850414e-04" rms="4.5975381135940552e-01" purity="6.9244509935379028e-01" nType="-99"/>
        </Node>
      </Node>
    </BinaryTree>
    <BinaryTree type="DecisionTree" boostWeight="1.0000000000000000e+00" itree="81">
      <Node pos="s" depth="0" NCoef="0" IVar="3" Cut="3.1078669428825378e-01" cType="1" res="2.1709462627768517e-02" rms="4.8826512694358826e-01" purity="5.1064854860305786e-01" nType="0">
        <Node pos="l" depth="1" NCoef="0" IVar="5" Cut="4.0963360595703125e+02" cType="1" res="-1.1040977388620377e-01" rms="4.7103598713874817e-01" purity="3.5178497433662415e-01" nType="0">
          <Node pos="l" depth="2" NCoef="0" IVar="-1" Cut="0.0000000000000000e+00" cType="1" res="-1.9159608054906130e-03" rms="4.1599020361900330e-01" purity="2.2471807897090912e-01" nType="-99"/>
          <Node pos="r" depth="2" NCoef="0" IVar="-1" Cut="0.0000000000000000e+00" cType="1" res="-1.7102669517043978e-04" rms="4.9591225385665894e-01" purity="4.4680085778236389e-01" nType="-99"/>
        </Node>
        <Node pos="r" depth="1" NCoef="0" IVar="5" Cut="3.8451257324218750e+02" cType="1" res="1.2703312933444977e-01" rms="4.7599405050277710e-01" purity="6.3729244470596313e-01" nType="0">
          <Node pos="l" depth="2" NCoef="0" IVar="-1" Cut="0.0000000000000000e+00" cType="1" res="-2.2877637820784003e-04" rms="4.9465253949165344e-01" purity="4.4338807463645935e-01" nType="-99"/>
          <Node pos="r" depth="2" NCoef="0" IVar="-1" Cut="0.0000000000000000e+00" cType="1" res="5.8571196859702468e-04" rms="4.4749411940574646e-01" purity="7.2043436765670776e-01" nType="-99"/>
        </Node>
      </Node>
    </BinaryTree>
    <BinaryTree type="DecisionTree" boostWeight="1.0000000000000000e+00" itree="82">
      <Node pos="s" depth="0" NCoef="0" IVar="3" Cut="2.4452793598175049e-01" cType="1" res="1.7955178394913673e-02" rms="4.8903355002403259e-01" purity="5.0611615180969238e-01" nType="0">
        <Node pos="l" depth="1" NCoef="0" IVar="7" Cut="1.3743826293945312e+02" cType="1" res="-1.5216657519340515e-01" rms="4.5553240180015564e-01" purity="3.0495226383209229e-01" nType="0">
          <Node pos="l" depth="2" NCoef="0" IVar="-1" Cut="0.0000000000000000e+00" cType="1" res="-1.6961354995146394e-03" rms="4.2766121029853821e-01" purity="2.4674460291862488e-01" nType="-99"/>
          <Node pos="r" depth="2" NCoef="0" IVar="-1" Cut="0.0000000000000000e+00" cType="1" res="-3.5823046346195042e-04" rms="4.8969081044197083e-01" purity="4.0717568993568420e-01" nType="-99"/>
        </Node>
        <Node pos="r" depth="1" NCoef="0" IVar="5" Cut="4.0670666503906250e+02" cType="1" res="8.6871087551116943e-02" rms="4.8528262972831726e-01" purity="5.8760714530944824e-01" nType="0">
          <Node pos="l" depth="2" NCoef="0" IVar="-1" Cut="0.0000000000000000e+00" cType="1" res="-1.8190764239989221e-04" rms="4.9193674325942993e-01" purity="4.4253095984458923e-01" nType="-99"/>
          <Node pos="r" depth="2" NCoef="0" IVar="-1" Cut="0.0000000000000000e+00" cType="1" res="4.9712497275322676e-04" rms="4.6561709046363831e-01" purity="6.7423087358474731e-01" nType="-99"/>
        </Node>
      </Node>
    </BinaryTree>
    <BinaryTree type="DecisionTree" boostWeight="1.0000000000000000e+00" itree="83">
      <Node pos="s" depth="0" NCoef="0" IVar="3" Cut="3.5373789072036743e-01" cType="1" res="7.0544406771659851e-03" rms="4.8885783553123474e-01" purity="4.9499773979187012e-01" nType="0">
        <Node pos="l" depth="1" NCoef="0" IVar="5" Cut="4.3759631347656250e+02" cType="1" res="-8.9525051414966583e-02" rms="4.7719085216522217e-01" purity="3.7834775447845459e-01" nType="0">
          <Node pos="l" depth="2" NCoef="0" IVar="-1" Cut="0.0000000000000000e+00" cType="1" res="-1.4279038878157735e-03" rms="4.3708083033561707e-01" purity="2.6343360543251038e-01" nType="-99"/>
          <Node pos="r" depth="2" NCoef="0" IVar="-1" Cut="0.0000000000000000e+00" cType="1" res="-2.4467619368806481e-05" rms="4.9788358807563782e-01" purity="4.8689657449722290e-01" nType="-99"/>
        </Node>
        <Node pos="r" depth="1" NCoef="0" IVar="5" Cut="3.0808273315429688e+02" cType="1" res="1.3142466545104980e-01" rms="4.7541189193725586e-01" purity="6.4521366357803345e-01" nType="0">
          <Node pos="l" depth="2" NCoef="0" IVar="-1" Cut="0.0000000000000000e+00" cType="1" res="-5.8282841928303242e-04" rms="4.8539102077484131e-01" purity="3.8083872199058533e-01" nType="-99"/>
          <Node pos="r" depth="2" NCoef="0" IVar="-1" Cut="0.0000000000000000e+00" cType="1" res="5.2807200700044632e-04" rms="4.6336880326271057e-01" purity="6.8433767557144165e-01" nType="-99"/>
        </Node>
      </Node>
    </BinaryTree>
    <BinaryTree type="DecisionTree" boostWeight="1.0000000000000000e+00" itree="84">
      <Node pos="s" depth="0" NCoef="0" IVar="3" Cut="2.8898757696151733e-01" cType="1" res="6.6936616785824299e-03" rms="4.8844170570373535e-01" purity="4.9480405449867249e-01" nType="0">
        <Node pos="l" depth="1" NCoef="0" IVar="5" Cut="5.1626324462890625e+02" cType="1" res="-1.2472673505544662e-01" rms="4.6478471159934998e-01" purity="3.3485400676727295e-01" nType="0">
          <Node pos="l" depth="2" NCoef="0" IVar="-1" Cut="0.0000000000000000e+00" cType="1" res="-1.4692146796733141e-03" rms="4.3367946147918701e-01" purity="2.5764897465705872e-01" nType="-99"/>
          <Node pos="r" depth="2" NCoef="0" IVar="-1" Cut="0.0000000000000000e+00" cType="1" res="-4.8544519813731313e-05" rms="4.9905496835708618e-01" purity="4.8047813773155212e-01" nType="-99"/>
        </Node>
        <Node pos="r" depth="1" NCoef="0" IVar="5" Cut="3.2447808837890625e+02" cType="1" res="9.4713948667049408e-02" rms="4.8411104083061218e-01" purity="6.0193234682083130e-01" nType="0">
          <Node pos="l" depth="2" NCoef="0" IVar="-1" Cut="0.0000000000000000e+00" cType="1" res="-8.6594989988952875e-04" rms="4.7202938795089722e-01" purity="3.4123477339744568e-01" nType="-99"/>
          <Node pos="r" depth="2" NCoef="0" IVar="-1" Cut="0.0000000000000000e+00" cType="1" res="4.5460785622708499e-04" rms="4.7345793247222900e-01" purity="6.5098345279693604e-01" nType="-99"/>
        </Node>
      </Node>
    </BinaryTree>
    <BinaryTree type="DecisionTree" boostWeight="1.0000000000000000e+00" itree="85">
      <Node pos="s" depth="0" NCoef="0" IVar="3" Cut="2.6668027043342590e-01" cType="1" res="8.8120736181735992e-03" rms="4.8825484514236450e-01" purity="4.9691373109817505e-01" nType="0">
        <Node pos="l" depth="1" NCoef="0" IVar="7" Cut="1.9278910827636719e+02" cType="1" res="-1.4751240611076355e-01" rms="4.5655566453933716e-01" purity="3.0907210707664490e-01" nType="0">
          <Node pos="l" depth="2" NCoef="0" IVar="-1" Cut="0.0000000000000000e+00" cType="1" res="-1.3533288147300482e-03" rms="4.4173109531402588e-01" purity="2.7328738570213318e-01" nType="-99"/>
          <Node pos="r" depth="2" NCoef="0" IVar="-1" Cut="0.0000000000000000e+00" cType="1" res="4.1956303903134540e-05" rms="4.9922397732734680e-01" purity="4.9830594658851624e-01" nType="-99"/>
        </Node>
        <Node pos="r" depth="1" NCoef="0" IVar="5" Cut="3.9576910400390625e+02" cType="1" res="9.0021751821041107e-02" rms="4.8441866040229797e-01" purity="5.9449636936187744e-01" nType="0">
          <Node pos="l" depth="2" NCoef="0" IVar="-1" Cut="0.0000000000000000e+00" cType="1" res="-2.3516708461102098e-04" rms="4.9092152714729309e-01" purity="4.3561497330665588e-01" nType="-99"/>
          <Node pos="r" depth="2" NCoef="0" IVar="-1" Cut="0.0000000000000000e+00" cType="1" res="5.0932232988998294e-04" rms="4.6450746059417725e-01" purity="6.7883521318435669e-01" nType="-99"/>
        </Node>
      </Node>
    </BinaryTree>
    <BinaryTree type="DecisionTree" boostWeight="1.0000000000000000e+00" itree="86">
      <Node pos="s" depth="0" NCoef="0" IVar="3" Cut="3.1078669428825378e-01" cType="1" res="1.8555428832769394e-02" rms="4.8831212520599365e-01" purity="5.0657081604003906e-01" nType="0">
        <Node pos="l" depth="1" NCoef="0" IVar="5" Cut="3.3724938964843750e+02" cType="1" res="-1.0205606371164322e-01" rms="4.7261410951614380e-01" purity="3.5853666067123413e-01" nType="0">
          <Node pos="l" depth="2" NCoef="0" IVar="-1" Cut="0.0000000000000000e+00" cType="1" res="-3.3854015637189150e-03" rms="3.6910921335220337e-01" purity="1.6294227540493011e-01" nType="-99"/>
          <Node pos="r" depth="2" NCoef="0" IVar="-1" Cut="0.0000000000000000e+00" cType="1" res="-2.8430615202523768e-04" rms="4.8863226175308228e-01" purity="4.1397511959075928e-01" nType="-99"/>
        </Node>
        <Node pos="r" depth="1" NCoef="0" IVar="5" Cut="3.2656936645507812e+02" cType="1" res="1.1750350147485733e-01" rms="4.7864285111427307e-01" purity="6.2801617383956909e-01" nType="0">
          <Node pos="l" depth="2" NCoef="0" IVar="-1" Cut="0.0000000000000000e+00" cType="1" res="-6.5119512146338820e-04" rms="4.8183619976043701e-01" purity="3.6942753195762634e-01" nType="-99"/>
          <Node pos="r" depth="2" NCoef="0" IVar="-1" Cut="0.0000000000000000e+00" cType="1" res="5.0937011837959290e-04" rms="4.6474978327751160e-01" purity="6.7816334962844849e-01" nType="-99"/>
        </Node>
      </Node>
    </BinaryTree>
    <BinaryTree type="DecisionTree" boostWeight="1.0000000000000000e+00" itree="87">
      <Node pos="s" depth="0" NCoef="0" IVar="3" Cut="3.5557371377944946e-01" cType="1" res="1.3417967595160007e-02" rms="4.8814368247985840e-01" purity="5.0132036209106445e-01" nType="0">
        <Node pos="l" depth="1" NCoef="0" IVar="4" Cut="7.7888280153274536e-01" cType="1" res="-8.5342466831207275e-02" rms="4.7780376672744751e-01" purity="3.8140904903411865e-01" nType="0">
          <Node pos="l" depth="2" NCoef="0" IVar="-1" Cut="0.0000000000000000e+00" cType="1" res="2.5821896269917488e-04" rms="4.8910826444625854e-01" purity="5.4350644350051880e-01" nType="-99"/>
          <Node pos="r" depth="2" NCoef="0" IVar="-1" Cut="0.0000000000000000e+00" cType="1" res="-9.4270787667483091e-04" rms="4.6035322546958923e-01" purity="3.2025098800659180e-01" nType="-99"/>
        </Node>
        <Node pos="r" depth="1" NCoef="0" IVar="5" Cut="4.0430267333984375e+02" cType="1" res="1.4059026539325714e-01" rms="4.7160688042640686e-01" purity="6.5572828054428101e-01" nType="0">
          <Node pos="l" depth="2" NCoef="0" IVar="-1" Cut="0.0000000000000000e+00" cType="1" res="-4.8455541445946437e-07" rms="4.9863216280937195e-01" purity="4.9852457642555237e-01" nType="-99"/>
          <Node pos="r" depth="2" NCoef="0" IVar="-1" Cut="0.0000000000000000e+00" cType="1" res="6.3103518914431334e-04" rms="4.3558013439178467e-01" purity="7.4538069963455200e-01" nType="-99"/>
        </Node>
      </Node>
    </BinaryTree>
    <BinaryTree type="DecisionTree" boostWeight="1.0000000000000000e+00" itree="88">
      <Node pos="s" depth="0" NCoef="0" IVar="5" Cut="3.8114877319335938e+02" cType="1" res="1.9947744905948639e-02" rms="4.8850807547569275e-01" purity="5.0718289613723755e-01" nType="0">
        <Node pos="l" depth="1" NCoef="0" IVar="3" Cut="3.9647662639617920e-01" cType="1" res="-1.2376377731561661e-01" rms="4.6343207359313965e-01" purity="3.3453026413917542e-01" nType="0">
          <Node pos="l" depth="2" NCoef="0" IVar="-1" Cut="0.0000000000000000e+00" cType="1" res="-1.6069106059148908e-03" rms="4.2961043119430542e-01" purity="2.4906721711158752e-01" nType="-99"/>
          <Node pos="r" depth="2" NCoef="0" IVar="-1" Cut="0.0000000000000000e+00" cType="1" res="7.9845449363347143e-05" rms="4.9856495857238770e-01" purity="5.1536142826080322e-01" nType="-99"/>
        </Node>
        <Node pos="r" depth="1" NCoef="0" IVar="3" Cut="3.5567700862884521e-01" cType="1" res="8.8939219713211060e-02" rms="4.8520627617835999e-01" purity="5.9006816148757935e-01" nType="0">
          <Node pos="l" depth="2" NCoef="0" IVar="-1" Cut="0.0000000000000000e+00" cType="1" res="9.3083281171857379e-06" rms="4.9620798230171204e-01" purity="4.8591411113739014e-01" nType="-99"/>
          <Node pos="r" depth="2" NCoef="0" IVar="-1" Cut="0.0000000000000000e+00" cType="1" res="6.0177315026521683e-04" rms="4.4552460312843323e-01" purity="7.2649955749511719e-01" nType="-99"/>
        </Node>
      </Node>
    </BinaryTree>
    <BinaryTree type="DecisionTree" boostWeight="1.0000000000000000e+00" itree="89">
      <Node pos="s" depth="0" NCoef="0" IVar="3" Cut="2.8858765959739685e-01" cType="1" res="-1.0655017103999853e-03" rms="4.8760768771171570e-01" purity="4.8622497916221619e-01" nType="0">
        <Node pos="l" depth="1" NCoef="0" IVar="4" Cut="7.4501335620880127e-01" cType="1" res="-1.3312180340290070e-01" rms="4.6119683980941772e-01" purity="3.2354792952537537e-01" nType="0">
          <Node pos="l" depth="2" NCoef="0" IVar="-1" Cut="0.0000000000000000e+00" cType="1" res="8.7613319919910282e-05" rms="4.9298611283302307e-01" purity="4.8528540134429932e-01" nType="-99"/>
          <Node pos="r" depth="2" NCoef="0" IVar="-1" Cut="0.0000000000000000e+00" cType="1" res="-1.2663567904382944e-03" rms="4.4390159845352173e-01" purity="2.8118136525154114e-01" nType="-99"/>
        </Node>
        <Node pos="r" depth="1" NCoef="0" IVar="5" Cut="3.9034243774414062e+02" cType="1" res="8.7573245167732239e-02" rms="4.8478761315345764e-01" purity="5.9541696310043335e-01" nType="0">
          <Node pos="l" depth="2" NCoef="0" IVar="-1" Cut="0.0000000000000000e+00" cType="1" res="-3.1293387291952968e-04" rms="4.9022069573402405e-01" purity="4.2418840527534485e-01" nType="-99"/>
          <Node pos="r" depth="2" NCoef="0" IVar="-1" Cut="0.0000000000000000e+00" cType="1" res="5.0162035040557384e-04" rms="4.6424284577369690e-01" purity="6.8096625804901123e-01" nType="-99"/>
        </Node>
      </Node>
    </BinaryTree>
    <BinaryTree type="DecisionTree" boostWeight="1.0000000000000000e+00" itree="90">
      <Node pos="s" depth="0" NCoef="0" IVar="3" Cut="3.7515130639076233e-01" cType="1" res="1.4501463621854782e-02" rms="4.8847150802612305e-01" purity="5.0143861770629883e-01" nType="0">
        <Node pos="l" depth="1" NCoef="0" IVar="5" Cut="4.5629586791992188e+02" cType="1" res="-6.0876928269863129e-02" rms="4.8275500535964966e-01" purity="4.0915495157241821e-01" nType="0">
          <Node pos="l" depth="2" NCoef="0" IVar="-1" Cut="0.0000000000000000e+00" cType="1" res="-1.1092061176896095e-03" rms="4.5100739598274231e-01" purity="2.9174941778182983e-01" nType="-99"/>
          <Node pos="r" depth="2" NCoef="0" IVar="-1" Cut="0.0000000000000000e+00" cType="1" res="1.3942223449703306e-04" rms="4.9595791101455688e-01" purity="5.3307408094406128e-01" nType="-99"/>
        </Node>
        <Node pos="r" depth="1" NCoef="0" IVar="5" Cut="4.6934503173828125e+02" cType="1" res="1.4020548760890961e-01" rms="4.7179055213928223e-01" purity="6.5533459186553955e-01" nType="0">
          <Node pos="l" depth="2" NCoef="0" IVar="-1" Cut="0.0000000000000000e+00" cType="1" res="2.0018736540805548e-04" rms="4.9441584944725037e-01" purity="5.5664247274398804e-01" nType="-99"/>
          <Node pos="r" depth="2" NCoef="0" IVar="-1" Cut="0.0000000000000000e+00" cType="1" res="6.6800176864489913e-04" rms="4.2251524329185486e-01" purity="7.6734918355941772e-01" nType="-99"/>
        </Node>
      </Node>
    </BinaryTree>
    <BinaryTree type="DecisionTree" boostWeight="1.0000000000000000e+00" itree="91">
      <Node pos="s" depth="0" NCoef="0" IVar="3" Cut="3.3335193991661072e-01" cType="1" res="1.2283925898373127e-02" rms="4.8767557740211487e-01" purity="4.9963322281837463e-01" nType="0">
        <Node pos="l" depth="1" NCoef="0" IVar="4" Cut="7.9637640714645386e-01" cType="1" res="-9.5657996833324432e-02" rms="4.7414371371269226e-01" purity="3.6603108048439026e-01" nType="0">
          <Node pos="l" depth="2" NCoef="0" IVar="-1" Cut="0.0000000000000000e+00" cType="1" res="1.3016350567340851e-04" rms="4.9160808324813843e-01" purity="5.0007468461990356e-01" nType="-99"/>
          <Node pos="r" depth="2" NCoef="0" IVar="-1" Cut="0.0000000000000000e+00" cType="1" res="-9.7447761800140142e-04" rms="4.5744693279266357e-01" purity="3.1275546550750732e-01" nType="-99"/>
        </Node>
        <Node pos="r" depth="1" NCoef="0" IVar="5" Cut="3.7540820312500000e+02" cType="1" res="1.2404219806194305e-01" rms="4.7618222236633301e-01" purity="6.3795900344848633e-01" nType="0">
          <Node pos="l" depth="2" NCoef="0" IVar="-1" Cut="0.0000000000000000e+00" cType="1" res="-1.9159138901159167e-04" rms="4.9537745118141174e-01" purity="4.5303779840469360e-01" nType="-99"/>
          <Node pos="r" depth="2" NCoef="0" IVar="-1" Cut="0.0000000000000000e+00" cType="1" res="5.6596542708575726e-04" rms="4.5108151435852051e-01" purity="7.1403831243515015e-01" nType="-99"/>
        </Node>
      </Node>
    </BinaryTree>
    <BinaryTree type="DecisionTree" boostWeight="1.0000000000000000e+00" itree="92">
      <Node pos="s" depth="0" NCoef="0" IVar="3" Cut="3.1121736764907837e-01" cType="1" res="1.1165274307131767e-02" rms="4.8774716258049011e-01" purity="4.9827870726585388e-01" nType="0">
        <Node pos="l" depth="1" NCoef="0" IVar="5" Cut="4.0908438110351562e+02" cType="1" res="-9.9404074251651764e-02" rms="4.7229051589965820e-01" purity="3.5931074619293213e-01" nType="0">
          <Node pos="l" depth="2" NCoef="0" IVar="-1" Cut="0.0000000000000000e+00" cType="1" res="-1.7710400279611349e-03" rms="4.2037174105644226e-01" purity="2.3177534341812134e-01" nType="-99"/>
          <Node pos="r" depth="2" NCoef="0" IVar="-1" Cut="0.0000000000000000e+00" cType="1" res="-1.3755334657616913e-04" rms="4.9554932117462158e-01" purity="4.5253616571426392e-01" nType="-99"/>
        </Node>
        <Node pos="r" depth="1" NCoef="0" IVar="5" Cut="4.3995858764648438e+02" cType="1" res="1.0544092208147049e-01" rms="4.8087179660797119e-01" purity="6.1676806211471558e-01" nType="0">
          <Node pos="l" depth="2" NCoef="0" IVar="-1" Cut="0.0000000000000000e+00" cType="1" res="-3.6283730878494680e-05" rms="4.9554547667503357e-01" purity="4.8897144198417664e-01" nType="-99"/>
          <Node pos="r" depth="2" NCoef="0" IVar="-1" Cut="0.0000000000000000e+00" cType="1" res="5.8659561909735203e-04" rms="4.4739842414855957e-01" purity="7.2172737121582031e-01" nType="-99"/>
        </Node>
      </Node>
    </BinaryTree>
    <BinaryTree type="DecisionTree" boostWeight="1.0000000000000000e+00" itree="93">
      <Node pos="s" depth="0" NCoef="0" IVar="3" Cut="3.5557371377944946e-01" cType="1" res="1.9693262875080109e-02" rms="4.8741099238395691e-01" purity="5.0720697641372681e-01" nType="0">
        <Node pos="l" depth="1" NCoef="0" IVar="5" Cut="5.5368457031250000e+02" cType="1" res="-7.2901643812656403e-02" rms="4.7929111123085022e-01" purity="3.9263951778411865e-01" nType="0">
          <Node pos="l" depth="2" NCoef="0" IVar="-1" Cut="0.0000000000000000e+00" cType="1" res="-9.3129562446847558e-04" rms="4.5802700519561768e-01" purity="3.1266102194786072e-01" nType="-99"/>
          <Node pos="r" depth="2" NCoef="0" IVar="-1" Cut="0.0000000000000000e+00" cType="1" res="2.6605842867866158e-04" rms="4.9339377880096436e-01" purity="5.6896072626113892e-01" nType="-99"/>
        </Node>
        <Node pos="r" depth="1" NCoef="0" IVar="5" Cut="3.7244558715820312e+02" cType="1" res="1.4013147354125977e-01" rms="4.7129824757575989e-01" purity="6.5622490644454956e-01" nType="0">
          <Node pos="l" depth="2" NCoef="0" IVar="-1" Cut="0.0000000000000000e+00" cType="1" res="-6.3688596128486097e-05" rms="4.9838191270828247e-01" purity="4.8070600628852844e-01" nType="-99"/>
          <Node pos="r" depth="2" NCoef="0" IVar="-1" Cut="0.0000000000000000e+00" cType="1" res="5.9214490465819836e-04" rms="4.4515284895896912e-01" purity="7.2681468725204468e-01" nType="-99"/>
        </Node>
      </Node>
    </BinaryTree>
    <BinaryTree type="DecisionTree" boostWeight="1.0000000000000000e+00" itree="94">
      <Node pos="s" depth="0" NCoef="0" IVar="3" Cut="3.5557541251182556e-01" cType="1" res="8.2652093842625618e-03" rms="4.8824390769004822e-01" purity="4.9449759721755981e-01" nType="0">
        <Node pos="l" depth="1" NCoef="0" IVar="5" Cut="4.4760379028320312e+02" cType="1" res="-7.5556352734565735e-02" rms="4.7949486970901489e-01" purity="3.8890761137008667e-01" nType="0">
          <Node pos="l" depth="2" NCoef="0" IVar="-1" Cut="0.0000000000000000e+00" cType="1" res="-1.1286285007372499e-03" rms="4.4749605655670166e-01" purity="2.8369051218032837e-01" nType="-99"/>
          <Node pos="r" depth="2" NCoef="0" IVar="-1" Cut="0.0000000000000000e+00" cType="1" res="2.7438041797722690e-05" rms="4.9781873822212219e-01" purity="4.9922659993171692e-01" nType="-99"/>
        </Node>
        <Node pos="r" depth="1" NCoef="0" IVar="5" Cut="4.0797698974609375e+02" cType="1" res="1.2280836701393127e-01" rms="4.7668731212615967e-01" purity="6.3878762722015381e-01" nType="0">
          <Node pos="l" depth="2" NCoef="0" IVar="-1" Cut="0.0000000000000000e+00" cType="1" res="-4.4409756810637191e-05" rms="4.9869695305824280e-01" purity="4.8862886428833008e-01" nType="-99"/>
          <Node pos="r" depth="2" NCoef="0" IVar="-1" Cut="0.0000000000000000e+00" cType="1" res="5.9457658790051937e-04" rms="4.4401088356971741e-01" purity="7.2967845201492310e-01" nType="-99"/>
        </Node>
      </Node>
    </BinaryTree>
    <BinaryTree type="DecisionTree" boostWeight="1.0000000000000000e+00" itree="95">
      <Node pos="s" depth="0" NCoef="0" IVar="3" Cut="3.1048917770385742e-01" cType="1" res="2.0754350349307060e-02" rms="4.8744195699691772e-01" purity="5.0799220800399780e-01" nType="0">
        <Node pos="l" depth="1" NCoef="0" IVar="5" Cut="4.7291531372070312e+02" cType="1" res="-1.0220213234424591e-01" rms="4.7119021415710449e-01" purity="3.5532614588737488e-01" nType="0">
          <Node pos="l" depth="2" NCoef="0" IVar="-1" Cut="0.0000000000000000e+00" cType="1" res="-1.3578506186604500e-03" rms="4.3757680058479309e-01" purity="2.6324325799942017e-01" nType="-99"/>
          <Node pos="r" depth="2" NCoef="0" IVar="-1" Cut="0.0000000000000000e+00" cType="1" res="-5.1562492444645613e-05" rms="4.9848374724388123e-01" purity="4.7825184464454651e-01" nType="-99"/>
        </Node>
        <Node pos="r" depth="1" NCoef="0" IVar="5" Cut="3.1771246337890625e+02" cType="1" res="1.1958378553390503e-01" rms="4.7770604491233826e-01" purity="6.3070142269134521e-01" nType="0">
          <Node pos="l" depth="2" NCoef="0" IVar="-1" Cut="0.0000000000000000e+00" cType="1" res="-4.7613561036996543e-04" rms="4.8631307482719421e-01" purity="3.9534658193588257e-01" nType="-99"/>
          <Node pos="r" depth="2" NCoef="0" IVar="-1" Cut="0.0000000000000000e+00" cType="1" res="4.9481226596981287e-04" rms="4.6646696329116821e-01" purity="6.7267280817031860e-01" nType="-99"/>
        </Node>
      </Node>
    </BinaryTree>
    <BinaryTree type="DecisionTree" boostWeight="1.0000000000000000e+00" itree="96">
      <Node pos="s" depth="0" NCoef="0" IVar="3" Cut="3.1139460206031799e-01" cType="1" res="8.4098288789391518e-03" rms="4.8674175143241882e-01" purity="4.9581560492515564e-01" nType="0">
        <Node pos="l" depth="1" NCoef="0" IVar="5" Cut="4.0973223876953125e+02" cType="1" res="-1.1019515991210938e-01" rms="4.6793958544731140e-01" purity="3.4752115607261658e-01" nType="0">
          <Node pos="l" depth="2" NCoef="0" IVar="-1" Cut="0.0000000000000000e+00" cType="1" res="-2.2414464037865400e-03" rms="4.0422782301902771e-01" purity="2.0802888274192810e-01" nType="-99"/>
          <Node pos="r" depth="2" NCoef="0" IVar="-1" Cut="0.0000000000000000e+00" cType="1" res="-1.6069652338046581e-04" rms="4.9509602785110474e-01" purity="4.4743743538856506e-01" nType="-99"/>
        </Node>
        <Node pos="r" depth="1" NCoef="0" IVar="5" Cut="4.1566757202148438e+02" cType="1" res="1.0686254501342773e-01" rms="4.8004975914955139e-01" purity="6.1891317367553711e-01" nType="0">
          <Node pos="l" depth="2" NCoef="0" IVar="-1" Cut="0.0000000000000000e+00" cType="1" res="-1.5064103354234248e-04" rms="4.9492466449737549e-01" purity="4.6127802133560181e-01" nType="-99"/>
          <Node pos="r" depth="2" NCoef="0" IVar="-1" Cut="0.0000000000000000e+00" cType="1" res="5.7226239005103707e-04" rms="4.4852539896965027e-01" purity="7.1875864267349243e-01" nType="-99"/>
        </Node>
      </Node>
    </BinaryTree>
    <BinaryTree type="DecisionTree" boostWeight="1.0000000000000000e+00" itree="97">
      <Node pos="s" depth="0" NCoef="0" IVar="3" Cut="2.8858765959739685e-01" cType="1" res="1.2738935649394989e-02" rms="4.8729646205902100e-01" purity="4.9927368760108948e-01" nType="0">
        <Node pos="l" depth="1" NCoef="0" IVar="4" Cut="7.6603066921234131e-01" cType="1" res="-1.1892612278461456e-01" rms="4.6509075164794922e-01" purity="3.3468851447105408e-01" nType="0">
          <Node pos="l" depth="2" NCoef="0" IVar="-1" Cut="0.0000000000000000e+00" cType="1" res="1.0420699254609644e-04" rms="4.9173387885093689e-01" purity="4.8839721083641052e-01" nType="-99"/>
          <Node pos="r" depth="2" NCoef="0" IVar="-1" Cut="0.0000000000000000e+00" cType="1" res="-1.1621932499110699e-03" rms="4.4760560989379883e-01" purity="2.8769004344940186e-01" nType="-99"/>
        </Node>
        <Node pos="r" depth="1" NCoef="0" IVar="5" Cut="4.2579531860351562e+02" cType="1" res="1.0010362416505814e-01" rms="4.8203229904174805e-01" purity="6.0848206281661987e-01" nType="0">
          <Node pos="l" depth="2" NCoef="0" IVar="-1" Cut="0.0000000000000000e+00" cType="1" res="-5.5871303629828617e-05" rms="4.9499475955963135e-01" purity="4.7837767004966736e-01" nType="-99"/>
          <Node pos="r" depth="2" NCoef="0" IVar="-1" Cut="0.0000000000000000e+00" cType="1" res="5.4588902276009321e-04" rms="4.5479333400726318e-01" purity="7.0442277193069458e-01" nType="-99"/>
        </Node>
      </Node>
    </BinaryTree>
    <BinaryTree type="DecisionTree" boostWeight="1.0000000000000000e+00" itree="98">
      <Node pos="s" depth="0" NCoef="0" IVar="3" Cut="3.3298575878143311e-01" cType="1" res="1.7692148685455322e-02" rms="4.8718473315238953e-01" purity="5.0445014238357544e-01" nType="0">
        <Node pos="l" depth="1" NCoef="0" IVar="5" Cut="4.2239828491210938e+02" cType="1" res="-8.5184089839458466e-02" rms="4.7544604539871216e-01" purity="3.7480616569519043e-01" nType="0">
          <Node pos="l" depth="2" NCoef="0" IVar="-1" Cut="0.0000000000000000e+00" cType="1" res="-1.5720519004389644e-03" rms="4.2586782574653625e-01" purity="2.4187755584716797e-01" nType="-99"/>
          <Node pos="r" depth="2" NCoef="0" IVar="-1" Cut="0.0000000000000000e+00" cType="1" res="-2.3028533178148791e-05" rms="4.9740320444107056e-01" purity="4.8095789551734924e-01" nType="-99"/>
        </Node>
        <Node pos="r" depth="1" NCoef="0" IVar="5" Cut="3.0646591186523438e+02" cType="1" res="1.2408185005187988e-01" rms="4.7620496153831482e-01" purity="6.3852173089981079e-01" nType="0">
          <Node pos="l" depth="2" NCoef="0" IVar="-1" Cut="0.0000000000000000e+00" cType="1" res="-6.9145095767453313e-04" rms="4.8140925168991089e-01" purity="3.6862334609031677e-01" nType="-99"/>
          <Node pos="r" depth="2" NCoef="0" IVar="-1" Cut="0.0000000000000000e+00" cType="1" res="4.9970287363976240e-04" rms="4.6551564335823059e-01" purity="6.7643541097640991e-01" nType="-99"/>
        </Node>
      </Node>
    </BinaryTree>
    <BinaryTree type="DecisionTree" boostWeight="1.0000000000000000e+00" itree="99">
      <Node pos="s" depth="0" NCoef="0" IVar="5" Cut="4.3369241333007812e+02" cType="1" res="8.5635902360081673e-03" rms="4.8697575926780701e-01" purity="4.9520647525787354e-01" nType="0">
        <Node pos="l" depth="1" NCoef="0" IVar="3" Cut="4.8581936955451965e-01" cType="1" res="-1.0194057226181030e-01" rms="4.6900749206542969e-01" purity="3.5997804999351501e-01" nType="0">
          <Node pos="l" depth="2" NCoef="0" IVar="-1" Cut="0.0000000000000000e+00" cType="1" res="-1.0148918954655528e-03" rms="4.5310980081558228e-01" purity="3.0660137534141541e-01" nType="-99"/>
          <Node pos="r" depth="2" NCoef="0" IVar="-1" Cut="0.0000000000000000e+00" cType="1" res="3.9826624561101198e-04" rms="4.8362681269645691e-01" purity="6.1822849512100220e-01" nType="-99"/>
        </Node>
        <Node pos="r" depth="1" NCoef="0" IVar="3" Cut="3.5443842411041260e-01" cType="1" res="1.0075363516807556e-01" rms="4.8248267173767090e-01" purity="6.0802322626113892e-01" nType="0">
          <Node pos="l" depth="2" NCoef="0" IVar="-1" Cut="0.0000000000000000e+00" cType="1" res="4.3316711526131257e-05" rms="4.9747088551521301e-01" purity="5.0115036964416504e-01" nType="-99"/>
          <Node pos="r" depth="2" NCoef="0" IVar="-1" Cut="0.0000000000000000e+00" cType="1" res="6.1550544342026114e-04" rms="4.3646210432052612e-01" purity="7.4391525983810425e-01" nType="-99"/>
        </Node>
      </Node>
    </BinaryTree>
    <BinaryTree type="DecisionTree" boostWeight="1.0000000000000000e+00" itree="100">
      <Node pos="s" depth="0" NCoef="0" IVar="3" Cut="2.6390656828880310e-01" cType="1" res="6.0390005819499493e-03" rms="4.8722851276397705e-01" purity="4.9187597632408142e-01" nType="0">
        <Node pos="l" depth="1" NCoef="0" IVar="4" Cut="7.3480129241943359e-01" cType="1" res="-1.3222657144069672e-01" rms="4.5821538567543030e-01" purity="3.1990554928779602e-01" nType="0">
          <Node pos="l" depth="2" NCoef="0" IVar="-1" Cut="0.0000000000000000e+00" cType="1" res="1.7770158592611551e-04" rms="4.9138662219047546e-01" purity="5.0862008333206177e-01" nType="-99"/>
          <Node pos="r" depth="2" NCoef="0" IVar="-1" Cut="0.0000000000000000e+00" cType="1" res="-1.3123089447617531e-03" rms="4.3926841020584106e-01" purity="2.7421724796295166e-01" nType="-99"/>
        </Node>
        <Node pos="r" depth="1" NCoef="0" IVar="5" Cut="3.9576910400390625e+02" cType="1" res="7.8803978860378265e-02" rms="4.8628357052803040e-01" purity="5.8237886428833008e-01" nType="0">
          <Node pos="l" depth="2" NCoef="0" IVar="-1" Cut="0.0000000000000000e+00" cType="1" res="-3.1847628997638822e-04" rms="4.8993757367134094e-01" purity="4.1753631830215454e-01" nType="-99"/>
          <Node pos="r" depth="2" NCoef="0" IVar="-1" Cut="0.0000000000000000e+00" cType="1" res="4.8129481729120016e-04" rms="4.6786135435104370e-01" purity="6.6936659812927246e-01" nType="-99"/>
        </Node>
      </Node>
    </BinaryTree>
    <BinaryTree type="DecisionTree" boostWeight="1.0000000000000000e+00" itree="101">
      <Node pos="s" depth="0" NCoef="0" IVar="3" Cut="3.5443842411041260e-01" cType="1" res="1.1511892080307007e-02" rms="4.8689714074134827e-01" purity="4.9772632122039795e-01" nType="0">
        <Node pos="l" depth="1" NCoef="0" IVar="4" Cut="7.5638848543167114e-01" cType="1" res="-8.4444262087345123e-02" rms="4.7593119740486145e-01" purity="3.7819835543632507e-01" nType="0">
          <Node pos="l" depth="2" NCoef="0" IVar="-1" Cut="0.0000000000000000e+00" cType="1" res="2.5875412393361330e-04" rms="4.8946949839591980e-01" purity="5.4196691513061523e-01" nType="-99"/>
          <Node pos="r" depth="2" NCoef="0" IVar="-1" Cut="0.0000000000000000e+00" cType="1" res="-8.4283255273476243e-04" rms="4.6172201633453369e-01" purity="3.2804107666015625e-01" nType="-99"/>
        </Node>
        <Node pos="r" depth="1" NCoef="0" IVar="5" Cut="3.4187228393554688e+02" cType="1" res="1.3516856729984283e-01" rms="4.7277745604515076e-01" purity="6.5175944566726685e-01" nType="0">
          <Node pos="l" depth="2" NCoef="0" IVar="-1" Cut="0.0000000000000000e+00" cType="1" res="-1.7216839478351176e-04" rms="4.9726089835166931e-01" purity="4.5473551750183105e-01" nType="-99"/>
          <Node pos="r" depth="2" NCoef="0" IVar="-1" Cut="0.0000000000000000e+00" cType="1" res="5.5017962586134672e-04" rms="4.5464995503425598e-01" purity="7.0596003532409668e-01" nType="-99"/>
        </Node>
      </Node>
    </BinaryTree>
    <BinaryTree type="DecisionTree" boostWeight="1.0000000000000000e+00" itree="102">
      <Node pos="s" depth="0" NCoef="0" IVar="3" Cut="2.6668155193328857e-01" cType="1" res="1.8836194649338722e-02" rms="4.8688101768493652e-01" purity="5.0498306751251221e-01" nType="0">
        <Node pos="l" depth="1" NCoef="0" IVar="4" Cut="7.8263413906097412e-01" cType="1" res="-1.2982250750064850e-01" rms="4.6042081713676453e-01" purity="3.1983914971351624e-01" nType="0">
          <Node pos="l" depth="2" NCoef="0" IVar="-1" Cut="0.0000000000000000e+00" cType="1" res="1.1353423360560555e-05" rms="4.9214780330657959e-01" purity="4.6217936277389526e-01" nType="-99"/>
          <Node pos="r" depth="2" NCoef="0" IVar="-1" Cut="0.0000000000000000e+00" cType="1" res="-1.2926314957439899e-03" rms="4.4082438945770264e-01" purity="2.7284967899322510e-01" nType="-99"/>
        </Node>
        <Node pos="r" depth="1" NCoef="0" IVar="5" Cut="3.7244558715820312e+02" cType="1" res="9.6011899411678314e-02" rms="4.8232460021972656e-01" purity="6.0109990835189819e-01" nType="0">
          <Node pos="l" depth="2" NCoef="0" IVar="-1" Cut="0.0000000000000000e+00" cType="1" res="-2.1112045214977115e-04" rms="4.9066779017448425e-01" purity="4.3571192026138306e-01" nType="-99"/>
          <Node pos="r" depth="2" NCoef="0" IVar="-1" Cut="0.0000000000000000e+00" cType="1" res="4.8917141975834966e-04" rms="4.6691477298736572e-01" purity="6.6939580440521240e-01" nType="-99"/>
        </Node>
      </Node>
    </BinaryTree>
    <BinaryTree type="DecisionTree" boostWeight="1.0000000000000000e+00" itree="103">
      <Node pos="s" depth="0" NCoef="0" IVar="3" Cut="2.8898757696151733e-01" cType="1" res="1.1674869805574417e-02" rms="4.8629575967788696e-01" purity="4.9823731184005737e-01" nType="0">
        <Node pos="l" depth="1" NCoef="0" IVar="4" Cut="6.9992160797119141e-01" cType="1" res="-1.1500547081232071e-01" rms="4.6481403708457947e-01" purity="3.3725666999816895e-01" nType="0">
          <Node pos="l" depth="2" NCoef="0" IVar="-1" Cut="0.0000000000000000e+00" cType="1" res="3.2794172875583172e-04" rms="4.8933619260787964e-01" purity="5.5225402116775513e-01" nType="-99"/>
          <Node pos="r" depth="2" NCoef="0" IVar="-1" Cut="0.0000000000000000e+00" cType="1" res="-1.0816282592713833e-03" rms="4.4985333085060120e-01" purity="2.9556417465209961e-01" nType="-99"/>
        </Node>
        <Node pos="r" depth="1" NCoef="0" IVar="5" Cut="4.1407821655273438e+02" cType="1" res="9.6026331186294556e-02" rms="4.8196187615394592e-01" purity="6.0542792081832886e-01" nType="0">
          <Node pos="l" depth="2" NCoef="0" IVar="-1" Cut="0.0000000000000000e+00" cType="1" res="-1.8899764108937234e-04" rms="4.9235323071479797e-01" purity="4.4853714108467102e-01" nType="-99"/>
          <Node pos="r" depth="2" NCoef="0" IVar="-1" Cut="0.0000000000000000e+00" cType="1" res="5.3364277118816972e-04" rms="4.5570814609527588e-01" purity="7.0210087299346924e-01" nType="-99"/>
        </Node>
      </Node>
    </BinaryTree>
    <BinaryTree type="DecisionTree" boostWeight="1.0000000000000000e+00" itree="104">
      <Node pos="s" depth="0" NCoef="0" IVar="3" Cut="2.8915214538574219e-01" cType="1" res="1.2066712602972984e-02" rms="4.8650228977203369e-01" purity="4.9860146641731262e-01" nType="0">
        <Node pos="l" depth="1" NCoef="0" IVar="4" Cut="6.8937516212463379e-01" cType="1" res="-1.1678990721702576e-01" rms="4.6418693661689758e-01" purity="3.3506542444229126e-01" nType="0">
          <Node pos="l" depth="2" NCoef="0" IVar="-1" Cut="0.0000000000000000e+00" cType="1" res="2.9169366462156177e-04" rms="4.8803645372390747e-01" purity="5.4755532741546631e-01" nType="-99"/>
          <Node pos="r" depth="2" NCoef="0" IVar="-1" Cut="0.0000000000000000e+00" cType="1" res="-1.0355836711823940e-03" rms="4.5155373215675354e-01" purity="2.9818612337112427e-01" nType="-99"/>
        </Node>
        <Node pos="r" depth="1" NCoef="0" IVar="5" Cut="3.9137020874023438e+02" cType="1" res="9.7034730017185211e-02" rms="4.8218810558319092e-01" purity="6.0643708705902100e-01" nType="0">
          <Node pos="l" depth="2" NCoef="0" IVar="-1" Cut="0.0000000000000000e+00" cType="1" res="-1.6858031449373811e-04" rms="4.9402254819869995e-01" purity="4.4988310337066650e-01" nType="-99"/>
          <Node pos="r" depth="2" NCoef="0" IVar="-1" Cut="0.0000000000000000e+00" cType="1" res="5.0801428733393550e-04" rms="4.6185651421546936e-01" purity="6.8591856956481934e-01" nType="-99"/>
        </Node>
      </Node>
    </BinaryTree>
    <BinaryTree type="DecisionTree" boostWeight="1.0000000000000000e+00" itree="105">
      <Node pos="s" depth="0" NCoef="0" IVar="3" Cut="2.6690965890884399e-01" cType="1" res="2.2064339369535446e-02" rms="4.8619827628135681e-01" purity="5.0847494602203369e-01" nType="0">
        <Node pos="l" depth="1" NCoef="0" IVar="4" Cut="7.4235743284225464e-01" cType="1" res="-1.2253056466579437e-01" rms="4.6187108755111694e-01" purity="3.2681375741958618e-01" nType="0">
          <Node pos="l" depth="2" NCoef="0" IVar="-1" Cut="0.0000000000000000e+00" cType="1" res="1.0636445222189650e-04" rms="4.9202460050582886e-01" purity="4.8914736509323120e-01" nType="-99"/>
          <Node pos="r" depth="2" NCoef="0" IVar="-1" Cut="0.0000000000000000e+00" cType="1" res="-1.1894825147464871e-03" rms="4.4641932845115662e-01" purity="2.8639426827430725e-01" nType="-99"/>
        </Node>
        <Node pos="r" depth="1" NCoef="0" IVar="5" Cut="3.7043795776367188e+02" cType="1" res="9.7713820636272430e-02" rms="4.8144990205764771e-01" purity="6.0351687669754028e-01" nType="0">
          <Node pos="l" depth="2" NCoef="0" IVar="-1" Cut="0.0000000000000000e+00" cType="1" res="-3.1284557189792395e-04" rms="4.8846790194511414e-01" purity="4.1689109802246094e-01" nType="-99"/>
          <Node pos="r" depth="2" NCoef="0" IVar="-1" Cut="0.0000000000000000e+00" cType="1" res="4.9803202273324132e-04" rms="4.6465203166007996e-01" purity="6.7496508359909058e-01" nType="-99"/>
        </Node>
      </Node>
    </BinaryTree>
    <BinaryTree type="DecisionTree" boostWeight="1.0000000000000000e+00" itree="106">
      <Node pos="s" depth="0" NCoef="0" IVar="3" Cut="2.6668155193328857e-01" cType="1" res="2.0335577428340912e-02" rms="4.8708510398864746e-01" purity="5.0575488805770874e-01" nType="0">
        <Node pos="l" depth="1" NCoef="0" IVar="4" Cut="7.4410587549209595e-01" cType="1" res="-1.1267426609992981e-01" rms="4.6556070446968079e-01" purity="3.3591380715370178e-01" nType="0">
          <Node pos="l" depth="2" NCoef="0" IVar="-1" Cut="0.0000000000000000e+00" cType="1" res="1.6558688366785645e-04" rms="4.9287843704223633e-01" purity="5.0239497423171997e-01" nType="-99"/>
          <Node pos="r" depth="2" NCoef="0" IVar="-1" Cut="0.0000000000000000e+00" cType="1" res="-1.0815255809575319e-03" rms="4.5034077763557434e-01" purity="2.9367789626121521e-01" nType="-99"/>
        </Node>
        <Node pos="r" depth="1" NCoef="0" IVar="5" Cut="3.4387423706054688e+02" cType="1" res="9.1662198305130005e-02" rms="4.8339751362800598e-01" purity="5.9683227539062500e-01" nType="0">
          <Node pos="l" depth="2" NCoef="0" IVar="-1" Cut="0.0000000000000000e+00" cType="1" res="-4.7332793474197388e-04" rms="4.8425698280334473e-01" purity="3.8956078886985779e-01" nType="-99"/>
          <Node pos="r" depth="2" NCoef="0" IVar="-1" Cut="0.0000000000000000e+00" cType="1" res="4.4897911720909178e-04" rms="4.7183126211166382e-01" purity="6.5329563617706299e-01" nType="-99"/>
        </Node>
      </Node>
    </BinaryTree>
    <BinaryTree type="DecisionTree" boostWeight="1.0000000000000000e+00" itree="107">
      <Node pos="s" depth="0" NCoef="0" IVar="3" Cut="3.5484477877616882e-01" cType="1" res="1.4328880235552788e-02" rms="4.8609623312950134e-01" purity="5.0021409988403320e-01" nType="0">
        <Node pos="l" depth="1" NCoef="0" IVar="5" Cut="4.4092047119140625e+02" cType="1" res="-7.6988078653812408e-02" rms="4.7674265503883362e-01" purity="3.8420775532722473e-01" nType="0">
          <Node pos="l" depth="2" NCoef="0" IVar="-1" Cut="0.0000000000000000e+00" cType="1" res="-1.2788455933332443e-03" rms="4.3936869502067566e-01" purity="2.6869279146194458e-01" nType="-99"/>
          <Node pos="r" depth="2" NCoef="0" IVar="-1" Cut="0.0000000000000000e+00" cType="1" res="2.7314414182910696e-05" rms="4.9672293663024902e-01" purity="4.9727186560630798e-01" nType="-99"/>
        </Node>
        <Node pos="r" depth="1" NCoef="0" IVar="5" Cut="4.0716168212890625e+02" cType="1" res="1.3362148404121399e-01" rms="4.7215509414672852e-01" purity="6.5175992250442505e-01" nType="0">
          <Node pos="l" depth="2" NCoef="0" IVar="-1" Cut="0.0000000000000000e+00" cType="1" res="1.9167482605553232e-05" rms="4.9811431765556335e-01" purity="5.0273287296295166e-01" nType="-99"/>
          <Node pos="r" depth="2" NCoef="0" IVar="-1" Cut="0.0000000000000000e+00" cType="1" res="5.9857789892703295e-04" rms="4.3850764632225037e-01" purity="7.3996073007583618e-01" nType="-99"/>
        </Node>
      </Node>
    </BinaryTree>
    <BinaryTree type="DecisionTree" boostWeight="1.0000000000000000e+00" itree="108">
      <Node pos="s" depth="0" NCoef="0" IVar="3" Cut="3.3298575878143311e-01" cType="1" res="2.0693155005574226e-02" rms="4.8702299594879150e-01" purity="5.0604486465454102e-01" nType="0">
        <Node pos="l" depth="1" NCoef="0" IVar="4" Cut="7.3974770307540894e-01" cType="1" res="-7.7607855200767517e-02" rms="4.7693130373954773e-01" purity="3.7907159328460693e-01" nType="0">
          <Node pos="l" depth="2" NCoef="0" IVar="-1" Cut="0.0000000000000000e+00" cType="1" res="2.7756919735111296e-04" rms="4.8901906609535217e-01" purity="5.4485327005386353e-01" nType="-99"/>
          <Node pos="r" depth="2" NCoef="0" IVar="-1" Cut="0.0000000000000000e+00" cType="1" res="-7.1667914744466543e-04" rms="4.6562901139259338e-01" purity="3.3539131283760071e-01" nType="-99"/>
        </Node>
        <Node pos="r" depth="1" NCoef="0" IVar="5" Cut="3.4771942138671875e+02" cType="1" res="1.2337654083967209e-01" rms="4.7614625096321106e-01" purity="6.3867872953414917e-01" nType="0">
          <Node pos="l" depth="2" NCoef="0" IVar="-1" Cut="0.0000000000000000e+00" cType="1" res="-1.3491380377672613e-04" rms="4.9677884578704834e-01" purity="4.5975461602210999e-01" nType="-99"/>
          <Node pos="r" depth="2" NCoef="0" IVar="-1" Cut="0.0000000000000000e+00" cType="1" res="5.2140594925731421e-04" rms="4.5964446663856506e-01" purity="6.9373285770416260e-01" nType="-99"/>
        </Node>
      </Node>
    </BinaryTree>
    <BinaryTree type="DecisionTree" boostWeight="1.0000000000000000e+00" itree="109">
      <Node pos="s" depth="0" NCoef="0" IVar="3" Cut="3.5587954521179199e-01" cType="1" res="5.0891982391476631e-03" rms="4.8622435331344604e-01" purity="4.9055939912796021e-01" nType="0">
        <Node pos="l" depth="1" NCoef="0" IVar="5" Cut="3.7503689575195312e+02" cType="1" res="-8.5611760616302490e-02" rms="4.7475376725196838e-01" purity="3.7534263730049133e-01" nType="0">
          <Node pos="l" depth="2" NCoef="0" IVar="-1" Cut="0.0000000000000000e+00" cType="1" res="-1.9480654736980796e-03" rms="4.1265684366226196e-01" purity="2.2099114954471588e-01" nType="-99"/>
          <Node pos="r" depth="2" NCoef="0" IVar="-1" Cut="0.0000000000000000e+00" cType="1" res="-1.3891553680878133e-04" rms="4.9230563640594482e-01" purity="4.4944757223129272e-01" nType="-99"/>
        </Node>
        <Node pos="r" depth="1" NCoef="0" IVar="5" Cut="3.8654513549804688e+02" cType="1" res="1.2519232928752899e-01" rms="4.7507074475288391e-01" purity="6.4312553405761719e-01" nType="0">
          <Node pos="l" depth="2" NCoef="0" IVar="-1" Cut="0.0000000000000000e+00" cType="1" res="-2.6140521640627412e-06" rms="4.9868294596672058e-01" purity="4.9455234408378601e-01" nType="-99"/>
          <Node pos="r" depth="2" NCoef="0" IVar="-1" Cut="0.0000000000000000e+00" cType="1" res="5.6252966169267893e-04" rms="4.4925573468208313e-01" purity="7.1876114606857300e-01" nType="-99"/>
        </Node>
      </Node>
    </BinaryTree>
    <BinaryTree type="DecisionTree" boostWeight="1.0000000000000000e+00" itree="110">
      <Node pos="s" depth="0" NCoef="0" IVar="3" Cut="2.4466720223426819e-01" cType="1" res="1.8853444606065750e-02" rms="4.8560723662376404e-01" purity="5.0519710779190063e-01" nType="0">
        <Node pos="l" depth="1" NCoef="0" IVar="4" Cut="7.4910271167755127e-01" cType="1" res="-1.5212884545326233e-01" rms="4.4796028733253479e-01" purity="2.9512265324592590e-01" nType="0">
          <Node pos="l" depth="2" NCoef="0" IVar="-1" Cut="0.0000000000000000e+00" cType="1" res="3.3580712624825537e-05" rms="4.8910865187644958e-01" purity="4.7170758247375488e-01" nType="-99"/>
          <Node pos="r" depth="2" NCoef="0" IVar="-1" Cut="0.0000000000000000e+00" cType="1" res="-1.6282714204862714e-03" rms="4.2720982432365417e-01" purity="2.4975098669528961e-01" nType="-99"/>
        </Node>
        <Node pos="r" depth="1" NCoef="0" IVar="5" Cut="4.4168383789062500e+02" cType="1" res="8.6906671524047852e-02" rms="4.8325541615486145e-01" purity="5.8880954980850220e-01" nType="0">
          <Node pos="l" depth="2" NCoef="0" IVar="-1" Cut="0.0000000000000000e+00" cType="1" res="-6.1487786297220737e-05" rms="4.9150878190994263e-01" purity="4.6859949827194214e-01" nType="-99"/>
          <Node pos="r" depth="2" NCoef="0" IVar="-1" Cut="0.0000000000000000e+00" cType="1" res="5.2713794866576791e-04" rms="4.5947298407554626e-01" purity="6.9036245346069336e-01" nType="-99"/>
        </Node>
      </Node>
    </BinaryTree>
    <BinaryTree type="DecisionTree" boostWeight="1.0000000000000000e+00" itree="111">
      <Node pos="s" depth="0" NCoef="0" IVar="3" Cut="3.3180963993072510e-01" cType="1" res="1.4137610793113708e-02" rms="4.8597756028175354e-01" purity="4.9952590465545654e-01" nType="0">
        <Node pos="l" depth="1" NCoef="0" IVar="4" Cut="7.4991989135742188e-01" cType="1" res="-8.4931753575801849e-02" rms="4.7382053732872009e-01" purity="3.7108075618743896e-01" nType="0">
          <Node pos="l" depth="2" NCoef="0" IVar="-1" Cut="0.0000000000000000e+00" cType="1" res="3.0881096608936787e-04" rms="4.8800915479660034e-01" purity="5.5002272129058838e-01" nType="-99"/>
          <Node pos="r" depth="2" NCoef="0" IVar="-1" Cut="0.0000000000000000e+00" cType="1" res="-8.7480060756206512e-04" rms="4.5809644460678101e-01" purity="3.1693503260612488e-01" nType="-99"/>
        </Node>
        <Node pos="r" depth="1" NCoef="0" IVar="5" Cut="3.9620605468750000e+02" cType="1" res="1.1736370623111725e-01" rms="4.7691705822944641e-01" purity="6.3336032629013062e-01" nType="0">
          <Node pos="l" depth="2" NCoef="0" IVar="-1" Cut="0.0000000000000000e+00" cType="1" res="-6.4809151808731258e-05" rms="4.9747544527053833e-01" purity="4.7850733995437622e-01" nType="-99"/>
          <Node pos="r" depth="2" NCoef="0" IVar="-1" Cut="0.0000000000000000e+00" cType="1" res="5.5818469263613224e-04" rms="4.4947102665901184e-01" purity="7.1744322776794434e-01" nType="-99"/>
        </Node>
      </Node>
    </BinaryTree>
    <BinaryTree type="DecisionTree" boostWeight="1.0000000000000000e+00" itree="112">
      <Node pos="s" depth="0" NCoef="0" IVar="3" Cut="3.7540587782859802e-01" cType="1" res="1.1681872420012951e-02" rms="4.8617628216743469e-01" purity="4.9673500657081604e-01" nType="0">
        <Node pos="l" depth="1" NCoef="0" IVar="5" Cut="4.2375729370117188e+02" cType="1" res="-7.0182994008064270e-02" rms="4.7883537411689758e-01" purity="3.9364293217658997e-01" nType="0">
          <Node pos="l" depth="2" NCoef="0" IVar="-1" Cut="0.0000000000000000e+00" cType="1" res="-1.3072416186332703e-03" rms="4.3903443217277527e-01" purity="2.6578283309936523e-01" nType="-99"/>
          <Node pos="r" depth="2" NCoef="0" IVar="-1" Cut="0.0000000000000000e+00" cType="1" res="3.0183366106939502e-05" rms="4.9593526124954224e-01" purity="4.9858400225639343e-01" nType="-99"/>
        </Node>
        <Node pos="r" depth="1" NCoef="0" IVar="5" Cut="3.5392071533203125e+02" cType="1" res="1.4183568954467773e-01" rms="4.6907889842987061e-01" purity="6.6063708066940308e-01" nType="0">
          <Node pos="l" depth="2" NCoef="0" IVar="-1" Cut="0.0000000000000000e+00" cType="1" res="-1.7322895291727036e-04" rms="4.9713590741157532e-01" purity="4.5473545789718628e-01" nType="-99"/>
          <Node pos="r" depth="2" NCoef="0" IVar="-1" Cut="0.0000000000000000e+00" cType="1" res="5.8241130318492651e-04" rms="4.4492936134338379e-01" purity="7.2634047269821167e-01" nType="-99"/>
        </Node>
      </Node>
    </BinaryTree>
    <BinaryTree type="DecisionTree" boostWeight="1.0000000000000000e+00" itree="113">
      <Node pos="s" depth="0" NCoef="0" IVar="3" Cut="3.5443842411041260e-01" cType="1" res="1.9458545371890068e-02" rms="4.8583745956420898e-01" purity="5.0483679771423340e-01" nType="0">
        <Node pos="l" depth="1" NCoef="0" IVar="5" Cut="5.5238372802734375e+02" cType="1" res="-7.0522032678127289e-02" rms="4.7812783718109131e-01" purity="3.8879019021987915e-01" nType="0">
          <Node pos="l" depth="2" NCoef="0" IVar="-1" Cut="0.0000000000000000e+00" cType="1" res="-8.5796101484447718e-04" rms="4.5922225713729858e-01" purity="3.1536045670509338e-01" nType="-99"/>
          <Node pos="r" depth="2" NCoef="0" IVar="-1" Cut="0.0000000000000000e+00" cType="1" res="2.2123921371530741e-04" rms="4.9437353014945984e-01" purity="5.5538040399551392e-01" nType="-99"/>
        </Node>
        <Node pos="r" depth="1" NCoef="0" IVar="5" Cut="4.2028359985351562e+02" cType="1" res="1.3610938191413879e-01" rms="4.7071111202239990e-01" purity="6.5527975559234619e-01" nType="0">
          <Node pos="l" depth="2" NCoef="0" IVar="-1" Cut="0.0000000000000000e+00" cType="1" res="4.2389099689899012e-05" rms="4.9775564670562744e-01" purity="5.1018458604812622e-01" nType="-99"/>
          <Node pos="r" depth="2" NCoef="0" IVar="-1" Cut="0.0000000000000000e+00" cType="1" res="6.1657384503632784e-04" rms="4.3196809291839600e-01" purity="7.5160574913024902e-01" nType="-99"/>
        </Node>
      </Node>
    </BinaryTree>
    <BinaryTree type="DecisionTree" boostWeight="1.0000000000000000e+00" itree="114">
      <Node pos="s" depth="0" NCoef="0" IVar="3" Cut="3.5557541251182556e-01" cType="1" res="1.1239876039326191e-02" rms="4.8585754632949829e-01" purity="4.9614855647087097e-01" nType="0">
        <Node pos="l" depth="1" NCoef="0" IVar="5" Cut="5.1496661376953125e+02" cType="1" res="-7.9716861248016357e-02" rms="4.7577452659606934e-01" purity="3.7937924265861511e-01" nType="0">
          <Node pos="l" depth="2" NCoef="0" IVar="-1" Cut="0.0000000000000000e+00" cType="1" res="-9.7924342844635248e-04" rms="4.5255261659622192e-01" purity="2.9885360598564148e-01" nType="-99"/>
          <Node pos="r" depth="2" NCoef="0" IVar="-1" Cut="0.0000000000000000e+00" cType="1" res="1.1609027569647878e-04" rms="4.9668803811073303e-01" purity="5.2393174171447754e-01" nType="-99"/>
        </Node>
        <Node pos="r" depth="1" NCoef="0" IVar="5" Cut="3.5792114257812500e+02" cType="1" res="1.3057103753089905e-01" rms="4.7295302152633667e-01" purity="6.4934468269348145e-01" nType="0">
          <Node pos="l" depth="2" NCoef="0" IVar="-1" Cut="0.0000000000000000e+00" cType="1" res="-9.1533169324975461e-05" rms="4.9778226017951965e-01" purity="4.7238594293594360e-01" nType="-99"/>
          <Node pos="r" depth="2" NCoef="0" IVar="-1" Cut="0.0000000000000000e+00" cType="1" res="5.4786272812634706e-04" rms="4.5215961337089539e-01" purity="7.1167850494384766e-01" nType="-99"/>
        </Node>
      </Node>
    </BinaryTree>
    <BinaryTree type="DecisionTree" boostWeight="1.0000000000000000e+00" itree="115">
      <Node pos="s" depth="0" NCoef="0" IVar="3" Cut="3.5587954521179199e-01" cType="1" res="4.8264162614941597e-03" rms="4.8548540472984314e-01" purity="4.8998096585273743e-01" nType="0">
        <Node pos="l" depth="1" NCoef="0" IVar="5" Cut="5.9097656250000000e+02" cType="1" res="-9.2597894370555878e-02" rms="4.7233736515045166e-01" purity="3.6597675085067749e-01" nType="0">
          <Node pos="l" depth="2" NCoef="0" IVar="-1" Cut="0.0000000000000000e+00" cType="1" res="-9.9199067335575819e-04" rms="4.5431533455848694e-01" purity="3.0404144525527954e-01" nType="-99"/>
          <Node pos="r" depth="2" NCoef="0" IVar="-1" Cut="0.0000000000000000e+00" cType="1" res="2.0401527581270784e-04" rms="4.9449756741523743e-01" purity="5.4937970638275146e-01" nType="-99"/>
        </Node>
        <Node pos="r" depth="1" NCoef="0" IVar="5" Cut="4.1414688110351562e+02" cType="1" res="1.2857523560523987e-01" rms="4.7362694144248962e-01" purity="6.4749175310134888e-01" nType="0">
          <Node pos="l" depth="2" NCoef="0" IVar="-1" Cut="0.0000000000000000e+00" cType="1" res="7.9513338278047740e-05" rms="4.9785360693931580e-01" purity="5.1836585998535156e-01" nType="-99"/>
          <Node pos="r" depth="2" NCoef="0" IVar="-1" Cut="0.0000000000000000e+00" cType="1" res="5.9660687111318111e-04" rms="4.4124829769134521e-01" purity="7.3504072427749634e-01" nType="-99"/>
        </Node>
      </Node>
    </BinaryTree>
    <BinaryTree type="DecisionTree" boostWeight="1.0000000000000000e+00" itree="116">
      <Node pos="s" depth="0" NCoef="0" IVar="3" Cut="2.6566421985626221e-01" cType="1" res="9.4404080882668495e-03" rms="4.8551797866821289e-01" purity="4.9443289637565613e-01" nType="0">
        <Node pos="l" depth="1" NCoef="0" IVar="7" Cut="1.6126745605468750e+02" cType="1" res="-1.2616603076457977e-01" rms="4.5821803808212280e-01" purity="3.1971430778503418e-01" nType="0">
          <Node pos="l" depth="2" NCoef="0" IVar="-1" Cut="0.0000000000000000e+00" cType="1" res="-1.4652439858764410e-03" rms="4.3043950200080872e-01" purity="2.5523614883422852e-01" nType="-99"/>
          <Node pos="r" depth="2" NCoef="0" IVar="-1" Cut="0.0000000000000000e+00" cType="1" res="7.5277537689544261e-05" rms="4.9792319536209106e-01" purity="4.9348953366279602e-01" nType="-99"/>
        </Node>
        <Node pos="r" depth="1" NCoef="0" IVar="5" Cut="3.9576910400390625e+02" cType="1" res="8.0804966390132904e-02" rms="4.8426842689514160e-01" purity="5.8638066053390503e-01" nType="0">
          <Node pos="l" depth="2" NCoef="0" IVar="-1" Cut="0.0000000000000000e+00" cType="1" res="-2.8468843083828688e-04" rms="4.8811236023902893e-01" purity="4.2384821176528931e-01" nType="-99"/>
          <Node pos="r" depth="2" NCoef="0" IVar="-1" Cut="0.0000000000000000e+00" cType="1" res="4.8447953304275870e-04" rms="4.6655258536338806e-01" purity="6.7226904630661011e-01" nType="-99"/>
        </Node>
      </Node>
    </BinaryTree>
    <BinaryTree type="DecisionTree" boostWeight="1.0000000000000000e+00" itree="117">
      <Node pos="s" depth="0" NCoef="0" IVar="3" Cut="3.1112697720527649e-01" cType="1" res="2.4098919704556465e-02" rms="4.8546993732452393e-01" purity="5.0923204421997070e-01" nType="0">
        <Node pos="l" depth="1" NCoef="0" IVar="5" Cut="4.2371130371093750e+02" cType="1" res="-9.4514876604080200e-02" rms="4.7097656130790710e-01" purity="3.5496926307678223e-01" nType="0">
          <Node pos="l" depth="2" NCoef="0" IVar="-1" Cut="0.0000000000000000e+00" cType="1" res="-1.3209505705162883e-03" rms="4.3294566869735718e-01" purity="2.5361067056655884e-01" nType="-99"/>
          <Node pos="r" depth="2" NCoef="0" IVar="-1" Cut="0.0000000000000000e+00" cType="1" res="-1.6270123887807131e-04" rms="4.9479079246520996e-01" purity="4.4484177231788635e-01" nType="-99"/>
        </Node>
        <Node pos="r" depth="1" NCoef="0" IVar="5" Cut="3.9500479125976562e+02" cType="1" res="1.1990997195243835e-01" rms="4.7574573755264282e-01" purity="6.3383883237838745e-01" nType="0">
          <Node pos="l" depth="2" NCoef="0" IVar="-1" Cut="0.0000000000000000e+00" cType="1" res="-1.8892267689807341e-05" rms="4.9621725082397461e-01" purity="4.8465153574943542e-01" nType="-99"/>
          <Node pos="r" depth="2" NCoef="0" IVar="-1" Cut="0.0000000000000000e+00" cType="1" res="5.5745069403201342e-04" rms="4.5067253708839417e-01" purity="7.1341502666473389e-01" nType="-99"/>
        </Node>
      </Node>
    </BinaryTree>
    <BinaryTree type="DecisionTree" boostWeight="1.0000000000000000e+00" itree="118">
      <Node pos="s" depth="0" NCoef="0" IVar="3" Cut="3.7659081816673279e-01" cType="1" res="1.5902299433946609e-02" rms="4.8472756147384644e-01" purity="5.0156551599502563e-01" nType="0">
        <Node pos="l" depth="1" NCoef="0" IVar="5" Cut="4.4323815917968750e+02" cType="1" res="-6.9246999919414520e-02" rms="4.7720235586166382e-01" purity="3.9455217123031616e-01" nType="0">
          <Node pos="l" depth="2" NCoef="0" IVar="-1" Cut="0.0000000000000000e+00" cType="1" res="-1.3563021784648299e-03" rms="4.3474861979484558e-01" purity="2.6233255863189697e-01" nType="-99"/>
          <Node pos="r" depth="2" NCoef="0" IVar="-1" Cut="0.0000000000000000e+00" cType="1" res="9.8631055152509362e-05" rms="4.9574026465415955e-01" purity="5.1816248893737793e-01" nType="-99"/>
        </Node>
        <Node pos="r" depth="1" NCoef="0" IVar="5" Cut="3.7743151855468750e+02" cType="1" res="1.4965459704399109e-01" rms="4.6588924527168274e-01" purity="6.6966181993484497e-01" nType="0">
          <Node pos="l" depth="2" NCoef="0" IVar="-1" Cut="0.0000000000000000e+00" cType="1" res="4.1818893805611879e-05" rms="4.9856430292129517e-01" purity="5.0406920909881592e-01" nType="-99"/>
          <Node pos="r" depth="2" NCoef="0" IVar="-1" Cut="0.0000000000000000e+00" cType="1" res="6.0731370467692614e-04" rms="4.3704602122306824e-01" purity="7.4194735288619995e-01" nType="-99"/>
        </Node>
      </Node>
    </BinaryTree>
    <BinaryTree type="DecisionTree" boostWeight="1.0000000000000000e+00" itree="119">
      <Node pos="s" depth="0" NCoef="0" IVar="3" Cut="3.5557371377944946e-01" cType="1" res="1.1715565808117390e-02" rms="4.8512458801269531e-01" purity="4.9664577841758728e-01" nType="0">
        <Node pos="l" depth="1" NCoef="0" IVar="5" Cut="5.5013421630859375e+02" cType="1" res="-7.9106785356998444e-02" rms="4.7473961114883423e-01" purity="3.7913131713867188e-01" nType="0">
          <Node pos="l" depth="2" NCoef="0" IVar="-1" Cut="0.0000000000000000e+00" cType="1" res="-9.6705119358375669e-04" rms="4.5207488536834717e-01" purity="3.0072128772735596e-01" nType="-99"/>
          <Node pos="r" depth="2" NCoef="0" IVar="-1" Cut="0.0000000000000000e+00" cType="1" res="2.0410354773048311e-04" rms="4.9517184495925903e-01" purity="5.4985374212265015e-01" nType="-99"/>
        </Node>
        <Node pos="r" depth="1" NCoef="0" IVar="4" Cut="8.9826691150665283e-01" cType="1" res="1.2967588007450104e-01" rms="4.7293183207511902e-01" purity="6.4927387237548828e-01" nType="0">
          <Node pos="l" depth="2" NCoef="0" IVar="-1" Cut="0.0000000000000000e+00" cType="1" res="6.3629454234614968e-04" rms="4.3111550807952881e-01" purity="7.4594706296920776e-01" nType="-99"/>
          <Node pos="r" depth="2" NCoef="0" IVar="-1" Cut="0.0000000000000000e+00" cType="1" res="1.7685907369013876e-04" rms="4.9142548441886902e-01" purity="5.6598377227783203e-01" nType="-99"/>
        </Node>
      </Node>
    </BinaryTree>
    <BinaryTree type="DecisionTree" boostWeight="1.0000000000000000e+00" itree="120">
      <Node pos="s" depth="0" NCoef="0" IVar="3" Cut="3.5421895980834961e-01" cType="1" res="1.0246395133435726e-02" rms="4.8457106947898865e-01" purity="4.9509540200233459e-01" nType="0">
        <Node pos="l" depth="1" NCoef="0" IVar="5" Cut="4.5530615234375000e+02" cType="1" res="-8.1480480730533600e-02" rms="4.7347590327262878e-01" purity="3.7629255652427673e-01" nType="0">
          <Node pos="l" depth="2" NCoef="0" IVar="-1" Cut="0.0000000000000000e+00" cType="1" res="-1.5623976942151785e-03" rms="4.2753052711486816e-01" purity="2.4614478647708893e-01" nType="-99"/>
          <Node pos="r" depth="2" NCoef="0" IVar="-1" Cut="0.0000000000000000e+00" cType="1" res="8.8548949861433357e-05" rms="4.9669709801673889e-01" purity="5.1269090175628662e-01" nType="-99"/>
        </Node>
        <Node pos="r" depth="1" NCoef="0" IVar="5" Cut="3.7403109741210938e+02" cType="1" res="1.2861964106559753e-01" rms="4.7292327880859375e-01" purity="6.4841008186340332e-01" nType="0">
          <Node pos="l" depth="2" NCoef="0" IVar="-1" Cut="0.0000000000000000e+00" cType="1" res="-4.8893929488258436e-05" rms="4.9827453494071960e-01" purity="4.8231282830238342e-01" nType="-99"/>
          <Node pos="r" depth="2" NCoef="0" IVar="-1" Cut="0.0000000000000000e+00" cType="1" res="5.6931568542495370e-04" rms="4.4829541444778442e-01" purity="7.2012245655059814e-01" nType="-99"/>
        </Node>
      </Node>
    </BinaryTree>
    <BinaryTree type="DecisionTree" boostWeight="1.0000000000000000e+00" itree="121">
      <Node pos="s" depth="0" NCoef="0" IVar="3" Cut="3.5557371377944946e-01" cType="1" res="9.3795191496610641e-03" rms="4.8502513766288757e-01" purity="4.9381294846534729e-01" nType="0">
        <Node pos="l" depth="1" NCoef="0" IVar="4" Cut="7.3891830444335938e-01" cType="1" res="-8.1307709217071533e-02" rms="4.7432371973991394e-01" purity="3.7581053376197815e-01" nType="0">
          <Node pos="l" depth="2" NCoef="0" IVar="-1" Cut="0.0000000000000000e+00" cType="1" res="3.2216767431236804e-04" rms="4.8619335889816284e-01" purity="5.6045025587081909e-01" nType="-99"/>
          <Node pos="r" depth="2" NCoef="0" IVar="-1" Cut="0.0000000000000000e+00" cType="1" res="-8.3670479943975806e-04" rms="4.6030542254447937e-01" purity="3.2466393709182739e-01" nType="-99"/>
        </Node>
        <Node pos="r" depth="1" NCoef="0" IVar="5" Cut="3.4391534423828125e+02" cType="1" res="1.2792780995368958e-01" rms="4.7314411401748657e-01" purity="6.4806824922561646e-01" nType="0">
          <Node pos="l" depth="2" NCoef="0" IVar="-1" Cut="0.0000000000000000e+00" cType="1" res="-2.8994842432439327e-04" rms="4.9448317289352417e-01" purity="4.3075975775718689e-01" nType="-99"/>
          <Node pos="r" depth="2" NCoef="0" IVar="-1" Cut="0.0000000000000000e+00" cType="1" res="5.3436669986695051e-04" rms="4.5410010218620300e-01" purity="7.0699280500411987e-01" nType="-99"/>
        </Node>
      </Node>
    </BinaryTree>
    <BinaryTree type="DecisionTree" boostWeight="1.0000000000000000e+00" itree="122">
      <Node pos="s" depth="0" NCoef="0" IVar="3" Cut="2.6668027043342590e-01" cType="1" res="1.4639239758253098e-02" rms="4.8424530029296875e-01" purity="4.9977543950080872e-01" nType="0">
        <Node pos="l" depth="1" NCoef="0" IVar="5" Cut="5.8064813232421875e+02" cType="1" res="-1.3251741230487823e-01" rms="4.5435461401939392e-01" purity="3.1097933650016785e-01" nType="0">
          <Node pos="l" depth="2" NCoef="0" IVar="-1" Cut="0.0000000000000000e+00" cType="1" res="-1.4861780218780041e-03" rms="4.2845556139945984e-01" purity="2.4976348876953125e-01" nType="-99"/>
          <Node pos="r" depth="2" NCoef="0" IVar="-1" Cut="0.0000000000000000e+00" cType="1" res="3.9958100387593731e-05" rms="4.9865433573722839e-01" purity="4.9599018692970276e-01" nType="-99"/>
        </Node>
        <Node pos="r" depth="1" NCoef="0" IVar="5" Cut="4.1610958862304688e+02" cType="1" res="9.0688318014144897e-02" rms="4.8168209195137024e-01" purity="5.9734338521957397e-01" nType="0">
          <Node pos="l" depth="2" NCoef="0" IVar="-1" Cut="0.0000000000000000e+00" cType="1" res="-1.0870476398849860e-04" rms="4.9102440476417542e-01" purity="4.5907637476921082e-01" nType="-99"/>
          <Node pos="r" depth="2" NCoef="0" IVar="-1" Cut="0.0000000000000000e+00" cType="1" res="5.1047588931396604e-04" rms="4.6029874682426453e-01" purity="6.8834704160690308e-01" nType="-99"/>
        </Node>
      </Node>
    </BinaryTree>
    <BinaryTree type="DecisionTree" boostWeight="1.0000000000000000e+00" itree="123">
      <Node pos="s" depth="0" NCoef="0" IVar="5" Cut="3.9288137817382812e+02" cType="1" res="1.8075158819556236e-02" rms="4.8535683751106262e-01" purity="5.0220543146133423e-01" nType="0">
        <Node pos="l" depth="1" NCoef="0" IVar="3" Cut="3.9926239848136902e-01" cType="1" res="-1.0693620145320892e-01" rms="4.6398887038230896e-01" purity="3.4192574024200439e-01" nType="0">
          <Node pos="l" depth="2" NCoef="0" IVar="-1" Cut="0.0000000000000000e+00" cType="1" res="-1.4805076643824577e-03" rms="4.3039718270301819e-01" purity="2.5011345744132996e-01" nType="-99"/>
          <Node pos="r" depth="2" NCoef="0" IVar="-1" Cut="0.0000000000000000e+00" cType="1" res="1.4081630797591060e-04" rms="4.9748209118843079e-01" purity="5.3134185075759888e-01" nType="-99"/>
        </Node>
        <Node pos="r" depth="1" NCoef="0" IVar="3" Cut="2.6668155193328857e-01" cType="1" res="8.7206877768039703e-02" rms="4.8308157920837402e-01" purity="5.9084069728851318e-01" nType="0">
          <Node pos="l" depth="2" NCoef="0" IVar="-1" Cut="0.0000000000000000e+00" cType="1" res="-1.9727960170712322e-04" rms="4.9035286903381348e-01" purity="4.2767509818077087e-01" nType="-99"/>
          <Node pos="r" depth="2" NCoef="0" IVar="-1" Cut="0.0000000000000000e+00" cType="1" res="4.8173320828936994e-04" rms="4.6600219607353210e-01" purity="6.7337596416473389e-01" nType="-99"/>
        </Node>
      </Node>
    </BinaryTree>
    <BinaryTree type="DecisionTree" boostWeight="1.0000000000000000e+00" itree="124">
      <Node pos="s" depth="0" NCoef="0" IVar="3" Cut="2.8835618495941162e-01" cType="1" res="2.4432707577943802e-02" rms="4.8578223586082458e-01" purity="5.0813961029052734e-01" nType="0">
        <Node pos="l" depth="1" NCoef="0" IVar="4" Cut="9.8480188846588135e-01" cType="1" res="-8.8734909892082214e-02" rms="4.7137638926506042e-01" purity="3.5527312755584717e-01" nType="0">
          <Node pos="l" depth="2" NCoef="0" IVar="-1" Cut="0.0000000000000000e+00" cType="1" res="-1.3512989971786737e-04" rms="4.8561790585517883e-01" purity="4.1994890570640564e-01" nType="-99"/>
          <Node pos="r" depth="2" NCoef="0" IVar="-1" Cut="0.0000000000000000e+00" cType="1" res="-1.1988829355686903e-03" rms="4.4228845834732056e-01" purity="2.7683293819427490e-01" nType="-99"/>
        </Node>
        <Node pos="r" depth="1" NCoef="0" IVar="5" Cut="4.2446807861328125e+02" cType="1" res="1.0070596635341644e-01" rms="4.8044610023498535e-01" purity="6.1116921901702881e-01" nType="0">
          <Node pos="l" depth="2" NCoef="0" IVar="-1" Cut="0.0000000000000000e+00" cType="1" res="-8.8995502665056847e-06" rms="4.9480855464935303e-01" purity="4.8584145307540894e-01" nType="-99"/>
          <Node pos="r" depth="2" NCoef="0" IVar="-1" Cut="0.0000000000000000e+00" cType="1" res="5.2435672841966152e-04" rms="4.5543068647384644e-01" purity="7.0225161314010620e-01" nType="-99"/>
        </Node>
      </Node>
    </BinaryTree>
    <BinaryTree type="DecisionTree" boostWeight="1.0000000000000000e+00" itree="125">
      <Node pos="s" depth="0" NCoef="0" IVar="3" Cut="3.5557541251182556e-01" cType="1" res="1.5422794967889786e-02" rms="4.8479691147804260e-01" purity="4.9986067414283752e-01" nType="0">
        <Node pos="l" depth="1" NCoef="0" IVar="5" Cut="6.1879034423828125e+02" cType="1" res="-6.9727368652820587e-02" rms="4.7623258829116821e-01" purity="3.8738408684730530e-01" nType="0">
          <Node pos="l" depth="2" NCoef="0" IVar="-1" Cut="0.0000000000000000e+00" cType="1" res="-7.3787401197478175e-04" rms="4.6201476454734802e-01" purity="3.2955601811408997e-01" nType="-99"/>
          <Node pos="r" depth="2" NCoef="0" IVar="-1" Cut="0.0000000000000000e+00" cType="1" res="2.9990536859259009e-04" rms="4.9041220545768738e-01" purity="5.8325320482254028e-01" nType="-99"/>
        </Node>
        <Node pos="r" depth="1" NCoef="0" IVar="5" Cut="3.8179888916015625e+02" cType="1" res="1.2787309288978577e-01" rms="4.7294524312019348e-01" purity="6.4839851856231689e-01" nType="0">
          <Node pos="l" depth="2" NCoef="0" IVar="-1" Cut="0.0000000000000000e+00" cType="1" res="-2.8739885237882845e-05" rms="4.9886858463287354e-01" purity="4.8737993836402893e-01" nType="-99"/>
          <Node pos="r" depth="2" NCoef="0" IVar="-1" Cut="0.0000000000000000e+00" cType="1" res="5.5623089428991079e-04" rms="4.4659063220024109e-01" purity="7.2388070821762085e-01" nType="-99"/>
        </Node>
      </Node>
    </BinaryTree>
    <BinaryTree type="DecisionTree" boostWeight="1.0000000000000000e+00" itree="126">
      <Node pos="s" depth="0" NCoef="0" IVar="3" Cut="3.3344718813896179e-01" cType="1" res="9.5670893788337708e-03" rms="4.8458194732666016e-01" purity="4.9370780587196350e-01" nType="0">
        <Node pos="l" depth="1" NCoef="0" IVar="5" Cut="5.8958612060546875e+02" cType="1" res="-8.8020928204059601e-02" rms="4.7158008813858032e-01" purity="3.6316844820976257e-01" nType="0">
          <Node pos="l" depth="2" NCoef="0" IVar="-1" Cut="0.0000000000000000e+00" cType="1" res="-9.2922814656049013e-04" rms="4.5431834459304810e-01" purity="3.0338686704635620e-01" nType="-99"/>
          <Node pos="r" depth="2" NCoef="0" IVar="-1" Cut="0.0000000000000000e+00" cType="1" res="1.8170941621065140e-04" rms="4.9550709128379822e-01" purity="5.4175198078155518e-01" nType="-99"/>
        </Node>
        <Node pos="r" depth="1" NCoef="0" IVar="5" Cut="4.3369241333007812e+02" cType="1" res="1.1198472976684570e-01" rms="4.7684657573699951e-01" purity="6.3070750236511230e-01" nType="0">
          <Node pos="l" depth="2" NCoef="0" IVar="-1" Cut="0.0000000000000000e+00" cType="1" res="-3.5948087315773591e-05" rms="4.9662557244300842e-01" purity="4.9072423577308655e-01" nType="-99"/>
          <Node pos="r" depth="2" NCoef="0" IVar="-1" Cut="0.0000000000000000e+00" cType="1" res="5.8344274293631315e-04" rms="4.4069588184356689e-01" purity="7.3512899875640869e-01" nType="-99"/>
        </Node>
      </Node>
    </BinaryTree>
    <BinaryTree type="DecisionTree" boostWeight="1.0000000000000000e+00" itree="127">
      <Node pos="s" depth="0" NCoef="0" IVar="3" Cut="4.0036448836326599e-01" cType="1" res="1.6191836446523666e-02" rms="4.8475080728530884e-01" purity="5.0024026632308960e-01" nType="0">
        <Node pos="l" depth="1" NCoef="0" IVar="5" Cut="4.8817135620117188e+02" cType="1" res="-5.6315638124942780e-02" rms="4.8004379868507385e-01" purity="4.0915724635124207e-01" nType="0">
          <Node pos="l" depth="2" NCoef="0" IVar="-1" Cut="0.0000000000000000e+00" cType="1" res="-8.3019176963716745e-04" rms="4.5793181657791138e-01" purity="3.1740963459014893e-01" nType="-99"/>
          <Node pos="r" depth="2" NCoef="0" IVar="-1" Cut="0.0000000000000000e+00" cType="1" res="1.5674755559302866e-04" rms="4.9420779943466187e-01" purity="5.4055905342102051e-01" nType="-99"/>
        </Node>
        <Node pos="r" depth="1" NCoef="0" IVar="5" Cut="3.5144363403320312e+02" cType="1" res="1.6122943162918091e-01" rms="4.6099364757537842e-01" purity="6.8243479728698730e-01" nType="0">
          <Node pos="l" depth="2" NCoef="0" IVar="-1" Cut="0.0000000000000000e+00" cType="1" res="1.0191833098360803e-05" rms="4.9898591637611389e-01" purity="4.9378475546836853e-01" nType="-99"/>
          <Node pos="r" depth="2" NCoef="0" IVar="-1" Cut="0.0000000000000000e+00" cType="1" res="6.1244273092597723e-04" rms="4.3613159656524658e-01" purity="7.4270135164260864e-01" nType="-99"/>
        </Node>
      </Node>
    </BinaryTree>
    <BinaryTree type="DecisionTree" boostWeight="1.0000000000000000e+00" itree="128">
      <Node pos="s" depth="0" NCoef="0" IVar="5" Cut="4.4496536254882812e+02" cType="1" res="1.3999308459460735e-02" rms="4.8389860987663269e-01" purity="4.9867725372314453e-01" nType="0">
        <Node pos="l" depth="1" NCoef="0" IVar="3" Cut="4.2224580049514771e-01" cType="1" res="-8.8098660111427307e-02" rms="4.6910476684570312e-01" purity="3.6873155832290649e-01" nType="0">
          <Node pos="l" depth="2" NCoef="0" IVar="-1" Cut="0.0000000000000000e+00" cType="1" res="-1.0771410306915641e-03" rms="4.4662168622016907e-01" purity="2.9225331544876099e-01" nType="-99"/>
          <Node pos="r" depth="2" NCoef="0" IVar="-1" Cut="0.0000000000000000e+00" cType="1" res="2.4955897242762148e-04" rms="4.9208799004554749e-01" purity="5.7047933340072632e-01" nType="-99"/>
        </Node>
        <Node pos="r" depth="1" NCoef="0" IVar="3" Cut="2.8853642940521240e-01" cType="1" res="1.0794983059167862e-01" rms="4.7823899984359741e-01" purity="6.1825329065322876e-01" nType="0">
          <Node pos="l" depth="2" NCoef="0" IVar="-1" Cut="0.0000000000000000e+00" cType="1" res="-1.0031442070612684e-04" rms="4.9558332562446594e-01" purity="4.5751801133155823e-01" nType="-99"/>
          <Node pos="r" depth="2" NCoef="0" IVar="-1" Cut="0.0000000000000000e+00" cType="1" res="5.5064796470105648e-04" rms="4.4993162155151367e-01" purity="7.1426457166671753e-01" nType="-99"/>
        </Node>
      </Node>
    </BinaryTree>
    <BinaryTree type="DecisionTree" boostWeight="1.0000000000000000e+00" itree="129">
      <Node pos="s" depth="0" NCoef="0" IVar="3" Cut="3.9874324202537537e-01" cType="1" res="1.7990455031394958e-02" rms="4.8471051454544067e-01" purity="5.0199228525161743e-01" nType="0">
        <Node pos="l" depth="1" NCoef="0" IVar="5" Cut="3.7523138427734375e+02" cType="1" res="-4.7684237360954285e-02" rms="4.8101717233657837e-01" purity="4.1783294081687927e-01" nType="0">
          <Node pos="l" depth="2" NCoef="0" IVar="-1" Cut="0.0000000000000000e+00" cType="1" res="-1.5568463131785393e-03" rms="4.2665830254554749e-01" purity="2.4387635290622711e-01" nType="-99"/>
          <Node pos="r" depth="2" NCoef="0" IVar="-1" Cut="0.0000000000000000e+00" cType="1" res="4.9084850616054609e-05" rms="4.9259647727012634e-01" purity="4.9722597002983093e-01" nType="-99"/>
        </Node>
        <Node pos="r" depth="1" NCoef="0" IVar="5" Cut="4.2268991088867188e+02" cType="1" res="1.5230682492256165e-01" rms="4.6408718824386597e-01" purity="6.7411297559738159e-01" nType="0">
          <Node pos="l" depth="2" NCoef="0" IVar="-1" Cut="0.0000000000000000e+00" cType="1" res="1.9017951854038984e-04" rms="4.9509578943252563e-01" purity="5.5050021409988403e-01" nType="-99"/>
          <Node pos="r" depth="2" NCoef="0" IVar="-1" Cut="0.0000000000000000e+00" cType="1" res="6.3519360264763236e-04" rms="4.2437991499900818e-01" purity="7.6423126459121704e-01" nType="-99"/>
        </Node>
      </Node>
    </BinaryTree>
    <BinaryTree type="DecisionTree" boostWeight="1.0000000000000000e+00" itree="130">
      <Node pos="s" depth="0" NCoef="0" IVar="3" Cut="2.8858765959739685e-01" cType="1" res="2.1101800724864006e-02" rms="4.8434767127037048e-01" purity="5.0504964590072632e-01" nType="0">
        <Node pos="l" depth="1" NCoef="0" IVar="4" Cut="6.9819998741149902e-01" cType="1" res="-1.0713241994380951e-01" rms="4.6410194039344788e-01" purity="3.3522865176200867e-01" nType="0">
          <Node pos="l" depth="2" NCoef="0" IVar="-1" Cut="0.0000000000000000e+00" cType="1" res="3.2228580676019192e-04" rms="4.9188050627708435e-01" purity="5.4458194971084595e-01" nType="-99"/>
          <Node pos="r" depth="2" NCoef="0" IVar="-1" Cut="0.0000000000000000e+00" cType="1" res="-1.0071700671687722e-03" rms="4.5017951726913452e-01" purity="2.9683804512023926e-01" nType="-99"/>
        </Node>
        <Node pos="r" depth="1" NCoef="0" IVar="5" Cut="4.0431265258789062e+02" cType="1" res="1.0405813902616501e-01" rms="4.7905650734901428e-01" purity="6.1490899324417114e-01" nType="0">
          <Node pos="l" depth="2" NCoef="0" IVar="-1" Cut="0.0000000000000000e+00" cType="1" res="-6.7252069129608572e-05" rms="4.9489820003509521e-01" purity="4.6859553456306458e-01" nType="-99"/>
          <Node pos="r" depth="2" NCoef="0" IVar="-1" Cut="0.0000000000000000e+00" cType="1" res="5.3036317694932222e-04" rms="4.5511603355407715e-01" purity="7.0142346620559692e-01" nType="-99"/>
        </Node>
      </Node>
    </BinaryTree>
    <BinaryTree type="DecisionTree" boostWeight="1.0000000000000000e+00" itree="131">
      <Node pos="s" depth="0" NCoef="0" IVar="3" Cut="4.0013661980628967e-01" cType="1" res="8.9166527613997459e-03" rms="4.8416578769683838e-01" purity="4.9276229739189148e-01" nType="0">
        <Node pos="l" depth="1" NCoef="0" IVar="4" Cut="7.2382229566574097e-01" cType="1" res="-5.8547493070363998e-02" rms="4.7837212681770325e-01" purity="4.0727099776268005e-01" nType="0">
          <Node pos="l" depth="2" NCoef="0" IVar="-1" Cut="0.0000000000000000e+00" cType="1" res="4.5670277904719114e-04" rms="4.7513601183891296e-01" purity="6.1925077438354492e-01" nType="-99"/>
          <Node pos="r" depth="2" NCoef="0" IVar="-1" Cut="0.0000000000000000e+00" cType="1" res="-6.8107992410659790e-04" rms="4.6536102890968323e-01" purity="3.4945085644721985e-01" nType="-99"/>
        </Node>
        <Node pos="r" depth="1" NCoef="0" IVar="4" Cut="9.7398692369461060e-01" cType="1" res="1.4922866225242615e-01" rms="4.6568369865417480e-01" purity="6.7056721448898315e-01" nType="0">
          <Node pos="l" depth="2" NCoef="0" IVar="-1" Cut="0.0000000000000000e+00" cType="1" res="6.4525019843131304e-04" rms="4.2973086237907410e-01" purity="7.4796205759048462e-01" nType="-99"/>
          <Node pos="r" depth="2" NCoef="0" IVar="-1" Cut="0.0000000000000000e+00" cType="1" res="2.0917328947689384e-04" rms="4.9015426635742188e-01" purity="5.7572060823440552e-01" nType="-99"/>
        </Node>
      </Node>
    </BinaryTree>
    <BinaryTree type="DecisionTree" boostWeight="1.0000000000000000e+00" itree="132">
      <Node pos="s" depth="0" NCoef="0" IVar="3" Cut="3.1112697720527649e-01" cType="1" res="1.0622432455420494e-02" rms="4.8429137468338013e-01" purity="4.9405327439308167e-01" nType="0">
        <Node pos="l" depth="1" NCoef="0" IVar="5" Cut="3.9288137817382812e+02" cType="1" res="-8.8806711137294769e-02" rms="4.6934926509857178e-01" purity="3.5791978240013123e-01" nType="0">
          <Node pos="l" depth="2" NCoef="0" IVar="-1" Cut="0.0000000000000000e+00" cType="1" res="-1.8806768348440528e-03" rms="4.0923154354095459e-01" purity="2.1412976086139679e-01" nType="-99"/>
          <Node pos="r" depth="2" NCoef="0" IVar="-1" Cut="0.0000000000000000e+00" cType="1" res="-1.3687499449588358e-04" rms="4.9209389090538025e-01" purity="4.4347205758094788e-01" nType="-99"/>
        </Node>
        <Node pos="r" depth="1" NCoef="0" IVar="5" Cut="4.5827795410156250e+02" cType="1" res="9.6036262810230255e-02" rms="4.8061504960060120e-01" purity="6.1099773645401001e-01" nType="0">
          <Node pos="l" depth="2" NCoef="0" IVar="-1" Cut="0.0000000000000000e+00" cType="1" res="-5.9713879636547063e-06" rms="4.9448680877685547e-01" purity="4.9650889635086060e-01" nType="-99"/>
          <Node pos="r" depth="2" NCoef="0" IVar="-1" Cut="0.0000000000000000e+00" cType="1" res="5.6133640464395285e-04" rms="4.4636687636375427e-01" purity="7.2342818975448608e-01" nType="-99"/>
        </Node>
      </Node>
    </BinaryTree>
    <BinaryTree type="DecisionTree" boostWeight="1.0000000000000000e+00" itree="133">
      <Node pos="s" depth="0" NCoef="0" IVar="3" Cut="3.5518479347229004e-01" cType="1" res="1.3225325383245945e-02" rms="4.8432859778404236e-01" purity="4.9631452560424805e-01" nType="0">
        <Node pos="l" depth="1" NCoef="0" IVar="4" Cut="7.1838110685348511e-01" cType="1" res="-6.9322198629379272e-02" rms="4.7629529237747192e-01" purity="3.8455608487129211e-01" nType="0">
          <Node pos="l" depth="2" NCoef="0" IVar="-1" Cut="0.0000000000000000e+00" cType="1" res="3.8706677150912583e-04" rms="4.8528420925140381e-01" purity="5.8066111803054810e-01" nType="-99"/>
          <Node pos="r" depth="2" NCoef="0" IVar="-1" Cut="0.0000000000000000e+00" cType="1" res="-6.8005820503458381e-04" rms="4.6450793743133545e-01" purity="3.3859050273895264e-01" nType="-99"/>
        </Node>
        <Node pos="r" depth="1" NCoef="0" IVar="5" Cut="4.0781750488281250e+02" cType="1" res="1.2397476285696030e-01" rms="4.7277909517288208e-01" purity="6.4625459909439087e-01" nType="0">
          <Node pos="l" depth="2" NCoef="0" IVar="-1" Cut="0.0000000000000000e+00" cType="1" res="-3.1453448173124343e-05" rms="4.9753275513648987e-01" purity="4.9127033352851868e-01" nType="-99"/>
          <Node pos="r" depth="2" NCoef="0" IVar="-1" Cut="0.0000000000000000e+00" cType="1" res="5.8713590260595083e-04" rms="4.3949133157730103e-01" purity="7.3785489797592163e-01" nType="-99"/>
        </Node>
      </Node>
    </BinaryTree>
    <BinaryTree type="DecisionTree" boostWeight="1.0000000000000000e+00" itree="134">
      <Node pos="s" depth="0" NCoef="0" IVar="3" Cut="2.6544773578643799e-01" cType="1" res="1.5680117532610893e-02" rms="4.8344969749450684e-01" purity="4.9971050024032593e-01" nType="0">
        <Node pos="l" depth="1" NCoef="0" IVar="7" Cut="1.6339175415039062e+02" cType="1" res="-1.2668424844741821e-01" rms="4.5443370938301086e-01" purity="3.1310883164405823e-01" nType="0">
          <Node pos="l" depth="2" NCoef="0" IVar="-1" Cut="0.0000000000000000e+00" cType="1" res="-1.5502959722653031e-03" rms="4.2605084180831909e-01" purity="2.4975289404392242e-01" nType="-99"/>
          <Node pos="r" depth="2" NCoef="0" IVar="-1" Cut="0.0000000000000000e+00" cType="1" res="8.4334402345120907e-05" rms="4.9820333719253540e-01" purity="4.9204412102699280e-01" nType="-99"/>
        </Node>
        <Node pos="r" depth="1" NCoef="0" IVar="5" Cut="3.1877175903320312e+02" cType="1" res="8.8479503989219666e-02" rms="4.8163864016532898e-01" purity="5.9513103961944580e-01" nType="0">
          <Node pos="l" depth="2" NCoef="0" IVar="-1" Cut="0.0000000000000000e+00" cType="1" res="-8.0056214937940240e-04" rms="4.7001445293426514e-01" purity="3.4019857645034790e-01" nType="-99"/>
          <Node pos="r" depth="2" NCoef="0" IVar="-1" Cut="0.0000000000000000e+00" cType="1" res="4.1935668559744954e-04" rms="4.7359433770179749e-01" purity="6.3984429836273193e-01" nType="-99"/>
        </Node>
      </Node>
    </BinaryTree>
    <BinaryTree type="DecisionTree" boostWeight="1.0000000000000000e+00" itree="135">
      <Node pos="s" depth="0" NCoef="0" IVar="3" Cut="3.7779888510704041e-01" cType="1" res="1.4594913460314274e-02" rms="4.8413935303688049e-01" purity="4.9780365824699402e-01" nType="0">
        <Node pos="l" depth="1" NCoef="0" IVar="5" Cut="3.9623281860351562e+02" cType="1" res="-5.8315157890319824e-02" rms="4.7809645533561707e-01" purity="4.0167987346649170e-01" nType="0">
          <Node pos="l" depth="2" NCoef="0" IVar="-1" Cut="0.0000000000000000e+00" cType="1" res="-1.6393082914873958e-03" rms="4.2066875100135803e-01" purity="2.3584297299385071e-01" nType="-99"/>
          <Node pos="r" depth="2" NCoef="0" IVar="-1" Cut="0.0000000000000000e+00" cType="1" res="5.4763040679972619e-05" rms="4.9459114670753479e-01" purity="4.9789333343505859e-01" nType="-99"/>
        </Node>
        <Node pos="r" depth="1" NCoef="0" IVar="5" Cut="3.2991751098632812e+02" cType="1" res="1.3693724572658539e-01" rms="4.6931889653205872e-01" purity="6.5909844636917114e-01" nType="0">
          <Node pos="l" depth="2" NCoef="0" IVar="-1" Cut="0.0000000000000000e+00" cType="1" res="-2.2754175006411970e-04" rms="4.9623942375183105e-01" purity="4.4311463832855225e-01" nType="-99"/>
          <Node pos="r" depth="2" NCoef="0" IVar="-1" Cut="0.0000000000000000e+00" cType="1" res="5.3817161824554205e-04" rms="4.5250484347343445e-01" purity="7.0915353298187256e-01" nType="-99"/>
        </Node>
      </Node>
    </BinaryTree>
    <BinaryTree type="DecisionTree" boostWeight="1.0000000000000000e+00" itree="136">
      <Node pos="s" depth="0" NCoef="0" IVar="3" Cut="3.5557541251182556e-01" cType="1" res="2.0013513043522835e-02" rms="4.8436069488525391e-01" purity="5.0303375720977783e-01" nType="0">
        <Node pos="l" depth="1" NCoef="0" IVar="4" Cut="7.0419359207153320e-01" cType="1" res="-6.2504328787326813e-02" rms="4.7711303830146790e-01" purity="3.9125809073448181e-01" nType="0">
          <Node pos="l" depth="2" NCoef="0" IVar="-1" Cut="0.0000000000000000e+00" cType="1" res="4.6029605437070131e-04" rms="4.7752553224563599e-01" purity="6.0973942279815674e-01" nType="-99"/>
          <Node pos="r" depth="2" NCoef="0" IVar="-1" Cut="0.0000000000000000e+00" cType="1" res="-6.4773403573781252e-04" rms="4.6617257595062256e-01" purity="3.4350231289863586e-01" nType="-99"/>
        </Node>
        <Node pos="r" depth="1" NCoef="0" IVar="5" Cut="3.4202783203125000e+02" cType="1" res="1.2901964783668518e-01" rms="4.7215810418128967e-01" purity="6.5068948268890381e-01" nType="0">
          <Node pos="l" depth="2" NCoef="0" IVar="-1" Cut="0.0000000000000000e+00" cType="1" res="-1.5545621863566339e-04" rms="4.9717089533805847e-01" purity="4.5617058873176575e-01" nType="-99"/>
          <Node pos="r" depth="2" NCoef="0" IVar="-1" Cut="0.0000000000000000e+00" cType="1" res="5.2670703735202551e-04" rms="4.5477387309074402e-01" purity="7.0507276058197021e-01" nType="-99"/>
        </Node>
      </Node>
    </BinaryTree>
    <BinaryTree type="DecisionTree" boostWeight="1.0000000000000000e+00" itree="137">
      <Node pos="s" depth="0" NCoef="0" IVar="3" Cut="3.5081806778907776e-01" cType="1" res="1.5659157186746597e-02" rms="4.8324409127235413e-01" purity="4.9958065152168274e-01" nType="0">
        <Node pos="l" depth="1" NCoef="0" IVar="5" Cut="4.4376272583007812e+02" cType="1" res="-7.4269443750381470e-02" rms="4.7348707914352417e-01" purity="3.7866967916488647e-01" nType="0">
          <Node pos="l" depth="2" NCoef="0" IVar="-1" Cut="0.0000000000000000e+00" cType="1" res="-1.2416867539286613e-03" rms="4.3475353717803955e-01" purity="2.6190733909606934e-01" nType="-99"/>
          <Node pos="r" depth="2" NCoef="0" IVar="-1" Cut="0.0000000000000000e+00" cType="1" res="2.3270404199138284e-05" rms="4.9583029747009277e-01" purity="4.9316096305847168e-01" nType="-99"/>
        </Node>
        <Node pos="r" depth="1" NCoef="0" IVar="5" Cut="3.3668402099609375e+02" cType="1" res="1.2641908228397369e-01" rms="4.7201034426689148e-01" purity="6.4849978685379028e-01" nType="0">
          <Node pos="l" depth="2" NCoef="0" IVar="-1" Cut="0.0000000000000000e+00" cType="1" res="-3.6017631646245718e-04" rms="4.9194097518920898e-01" purity="4.1620925068855286e-01" nType="-99"/>
          <Node pos="r" depth="2" NCoef="0" IVar="-1" Cut="0.0000000000000000e+00" cType="1" res="5.2179978229105473e-04" rms="4.5503139495849609e-01" purity="7.0285040140151978e-01" nType="-99"/>
        </Node>
      </Node>
    </BinaryTree>
    <BinaryTree type="DecisionTree" boostWeight="1.0000000000000000e+00" itree="138">
      <Node pos="s" depth="0" NCoef="0" IVar="3" Cut="2.8898757696151733e-01" cType="1" res="1.0358781553804874e-02" rms="4.8273625969886780e-01" purity="4.9414691329002380e-01" nType="0">
        <Node pos="l" depth="1" NCoef="0" IVar="5" Cut="3.7847619628906250e+02" cType="1" res="-1.1553700268268585e-01" rms="4.5892024040222168e-01" purity="3.2480198144912720e-01" nType="0">
          <Node pos="l" depth="2" NCoef="0" IVar="-1" Cut="0.0000000000000000e+00" cType="1" res="-3.0628128442913294e-03" rms="3.7204626202583313e-01" purity="1.6661670804023743e-01" nType="-99"/>
          <Node pos="r" depth="2" NCoef="0" IVar="-1" Cut="0.0000000000000000e+00" cType="1" res="-2.9053087928332388e-04" rms="4.8753657937049866e-01" purity="4.0624237060546875e-01" nType="-99"/>
        </Node>
        <Node pos="r" depth="1" NCoef="0" IVar="5" Cut="3.4407339477539062e+02" cType="1" res="9.2653073370456696e-02" rms="4.8016768693923950e-01" purity="6.0484254360198975e-01" nType="0">
          <Node pos="l" depth="2" NCoef="0" IVar="-1" Cut="0.0000000000000000e+00" cType="1" res="-7.5237365672364831e-04" rms="4.7381877899169922e-01" purity="3.5298538208007812e-01" nType="-99"/>
          <Node pos="r" depth="2" NCoef="0" IVar="-1" Cut="0.0000000000000000e+00" cType="1" res="4.6886617201380432e-04" rms="4.6629783511161804e-01" purity="6.6884684562683105e-01" nType="-99"/>
        </Node>
      </Node>
    </BinaryTree>
    <BinaryTree type="DecisionTree" boostWeight="1.0000000000000000e+00" itree="139">
      <Node pos="s" depth="0" NCoef="0" IVar="3" Cut="3.5587954521179199e-01" cType="1" res="2.1556369960308075e-02" rms="4.8367229104042053e-01" purity="5.0473493337631226e-01" nType="0">
        <Node pos="l" depth="1" NCoef="0" IVar="5" Cut="3.4968884277343750e+02" cType="1" res="-6.4591936767101288e-02" rms="4.7623541951179504e-01" purity="3.8835516571998596e-01" nType="0">
          <Node pos="l" depth="2" NCoef="0" IVar="-1" Cut="0.0000000000000000e+00" cType="1" res="-2.0477026700973511e-03" rms="4.0153670310974121e-01" purity="2.0475086569786072e-01" nType="-99"/>
          <Node pos="r" depth="2" NCoef="0" IVar="-1" Cut="0.0000000000000000e+00" cType="1" res="-8.6584739619866014e-05" rms="4.9067035317420959e-01" purity="4.5089697837829590e-01" nType="-99"/>
        </Node>
        <Node pos="r" depth="1" NCoef="0" IVar="5" Cut="4.4925646972656250e+02" cType="1" res="1.3380673527717590e-01" rms="4.7007468342781067e-01" purity="6.5637654066085815e-01" nType="0">
          <Node pos="l" depth="2" NCoef="0" IVar="-1" Cut="0.0000000000000000e+00" cType="1" res="1.9735690148081630e-04" rms="4.9375161528587341e-01" purity="5.5552953481674194e-01" nType="-99"/>
          <Node pos="r" depth="2" NCoef="0" IVar="-1" Cut="0.0000000000000000e+00" cType="1" res="5.9941801009699702e-04" rms="4.3151164054870605e-01" purity="7.5235450267791748e-01" nType="-99"/>
        </Node>
      </Node>
    </BinaryTree>
    <BinaryTree type="DecisionTree" boostWeight="1.0000000000000000e+00" itree="140">
      <Node pos="s" depth="0" NCoef="0" IVar="3" Cut="3.9951199293136597e-01" cType="1" res="1.7416767776012421e-02" rms="4.8317274451255798e-01" purity="5.0087136030197144e-01" nType="0">
        <Node pos="l" depth="1" NCoef="0" IVar="5" Cut="5.2667755126953125e+02" cType="1" res="-5.6008499115705490e-02" rms="4.7869879007339478e-01" purity="4.0689918398857117e-01" nType="0">
          <Node pos="l" depth="2" NCoef="0" IVar="-1" Cut="0.0000000000000000e+00" cType="1" res="-7.9790601739659905e-04" rms="4.5923301577568054e-01" purity="3.2104295492172241e-01" nType="-99"/>
          <Node pos="r" depth="2" NCoef="0" IVar="-1" Cut="0.0000000000000000e+00" cType="1" res="2.2876485309097916e-04" rms="4.9105042219161987e-01" purity="5.6362152099609375e-01" nType="-99"/>
        </Node>
        <Node pos="r" depth="1" NCoef="0" IVar="5" Cut="3.3142303466796875e+02" cType="1" res="1.6229535639286041e-01" rms="4.5860603451728821e-01" purity="6.8629187345504761e-01" nType="0">
          <Node pos="l" depth="2" NCoef="0" IVar="-1" Cut="0.0000000000000000e+00" cType="1" res="-4.3768619070760906e-04" rms="4.9066117405891418e-01" purity="4.0734401345252991e-01" nType="-99"/>
          <Node pos="r" depth="2" NCoef="0" IVar="-1" Cut="0.0000000000000000e+00" cType="1" res="6.0816813493147492e-04" rms="4.3515154719352722e-01" purity="7.4364382028579712e-01" nType="-99"/>
        </Node>
      </Node>
    </BinaryTree>
    <BinaryTree type="DecisionTree" boostWeight="1.0000000000000000e+00" itree="141">
      <Node pos="s" depth="0" NCoef="0" IVar="3" Cut="3.5484477877616882e-01" cType="1" res="1.6765005886554718e-02" rms="4.8371106386184692e-01" purity="4.9924033880233765e-01" nType="0">
        <Node pos="l" depth="1" NCoef="0" IVar="4" Cut="7.3641467094421387e-01" cType="1" res="-6.8580456078052521e-02" rms="4.7525084018707275e-01" purity="3.8341650366783142e-01" nType="0">
          <Node pos="l" depth="2" NCoef="0" IVar="-1" Cut="0.0000000000000000e+00" cType="1" res="3.6137815914116800e-04" rms="4.8545780777931213e-01" purity="5.6898468732833862e-01" nType="-99"/>
          <Node pos="r" depth="2" NCoef="0" IVar="-1" Cut="0.0000000000000000e+00" cType="1" res="-7.1908725658431649e-04" rms="4.6235814690589905e-01" purity="3.3356928825378418e-01" nType="-99"/>
        </Node>
        <Node pos="r" depth="1" NCoef="0" IVar="4" Cut="7.8348636627197266e-01" cType="1" res="1.2874081730842590e-01" rms="4.7172629833221436e-01" purity="6.5120476484298706e-01" nType="0">
          <Node pos="l" depth="2" NCoef="0" IVar="-1" Cut="0.0000000000000000e+00" cType="1" res="7.2025385452434421e-04" rms="3.9985537528991699e-01" purity="7.9445117712020874e-01" nType="-99"/>
          <Node pos="r" depth="2" NCoef="0" IVar="-1" Cut="0.0000000000000000e+00" cType="1" res="2.4834720534272492e-04" rms="4.8694190382957458e-01" purity="5.9055048227310181e-01" nType="-99"/>
        </Node>
      </Node>
    </BinaryTree>
    <BinaryTree type="DecisionTree" boostWeight="1.0000000000000000e+00" itree="142">
      <Node pos="s" depth="0" NCoef="0" IVar="3" Cut="2.4452793598175049e-01" cType="1" res="3.1174754258245230e-03" rms="4.8361575603485107e-01" purity="4.8488193750381470e-01" nType="0">
        <Node pos="l" depth="1" NCoef="0" IVar="5" Cut="3.5200744628906250e+02" cType="1" res="-1.3963860273361206e-01" rms="4.4693058729171753e-01" purity="2.9648116230964661e-01" nType="0">
          <Node pos="l" depth="2" NCoef="0" IVar="-1" Cut="0.0000000000000000e+00" cType="1" res="-4.5597963035106659e-03" rms="3.3012053370475769e-01" purity="1.2497483193874359e-01" nType="-99"/>
          <Node pos="r" depth="2" NCoef="0" IVar="-1" Cut="0.0000000000000000e+00" cType="1" res="-5.3515861509367824e-04" rms="4.7583913803100586e-01" purity="3.6277011036872864e-01" nType="-99"/>
        </Node>
        <Node pos="r" depth="1" NCoef="0" IVar="5" Cut="4.1020501708984375e+02" cType="1" res="6.3459083437919617e-02" rms="4.8585844039916992e-01" purity="5.6451702117919922e-01" nType="0">
          <Node pos="l" depth="2" NCoef="0" IVar="-1" Cut="0.0000000000000000e+00" cType="1" res="-1.7463621043134481e-04" rms="4.8822599649429321e-01" purity="4.3580597639083862e-01" nType="-99"/>
          <Node pos="r" depth="2" NCoef="0" IVar="-1" Cut="0.0000000000000000e+00" cType="1" res="4.1862193029373884e-04" rms="4.7314551472663879e-01" purity="6.4921176433563232e-01" nType="-99"/>
        </Node>
      </Node>
    </BinaryTree>
    <BinaryTree type="DecisionTree" boostWeight="1.0000000000000000e+00" itree="143">
      <Node pos="s" depth="0" NCoef="0" IVar="3" Cut="3.5557371377944946e-01" cType="1" res="1.3927818275988102e-02" rms="4.8225042223930359e-01" purity="4.9735394120216370e-01" nType="0">
        <Node pos="l" depth="1" NCoef="0" IVar="5" Cut="5.0688537597656250e+02" cType="1" res="-8.5349582135677338e-02" rms="4.7020325064659119e-01" purity="3.6606889963150024e-01" nType="0">
          <Node pos="l" depth="2" NCoef="0" IVar="-1" Cut="0.0000000000000000e+00" cType="1" res="-1.1350977001711726e-03" rms="4.4170701503753662e-01" purity="2.7773690223693848e-01" nType="-99"/>
          <Node pos="r" depth="2" NCoef="0" IVar="-1" Cut="0.0000000000000000e+00" cType="1" res="8.0744270235300064e-05" rms="4.9655789136886597e-01" purity="5.1250004768371582e-01" nType="-99"/>
        </Node>
        <Node pos="r" depth="1" NCoef="0" IVar="5" Cut="3.2407055664062500e+02" cType="1" res="1.3737924396991730e-01" rms="4.6833500266075134e-01" purity="6.6060692071914673e-01" nType="0">
          <Node pos="l" depth="2" NCoef="0" IVar="-1" Cut="0.0000000000000000e+00" cType="1" res="-3.2194372033700347e-04" rms="4.9348330497741699e-01" purity="4.2375874519348145e-01" nType="-99"/>
          <Node pos="r" depth="2" NCoef="0" IVar="-1" Cut="0.0000000000000000e+00" cType="1" res="5.3052493603900075e-04" rms="4.5278331637382507e-01" purity="7.0774590969085693e-01" nType="-99"/>
        </Node>
      </Node>
    </BinaryTree>
    <BinaryTree type="DecisionTree" boostWeight="1.0000000000000000e+00" itree="144">
      <Node pos="s" depth="0" NCoef="0" IVar="3" Cut="3.1013363599777222e-01" cType="1" res="2.0410029217600822e-02" rms="4.8358151316642761e-01" purity="5.0266528129577637e-01" nType="0">
        <Node pos="l" depth="1" NCoef="0" IVar="4" Cut="7.6737612485885620e-01" cType="1" res="-8.7656408548355103e-02" rms="4.6925979852676392e-01" purity="3.5320785641670227e-01" nType="0">
          <Node pos="l" depth="2" NCoef="0" IVar="-1" Cut="0.0000000000000000e+00" cType="1" res="2.1535147971007973e-04" rms="4.9354630708694458e-01" purity="5.0835788249969482e-01" nType="-99"/>
          <Node pos="r" depth="2" NCoef="0" IVar="-1" Cut="0.0000000000000000e+00" cType="1" res="-9.3611580086871982e-04" rms="4.5176118612289429e-01" purity="3.0268281698226929e-01" nType="-99"/>
        </Node>
        <Node pos="r" depth="1" NCoef="0" IVar="5" Cut="4.3061676025390625e+02" cType="1" res="1.0821731388568878e-01" rms="4.7722110152244568e-01" purity="6.2410402297973633e-01" nType="0">
          <Node pos="l" depth="2" NCoef="0" IVar="-1" Cut="0.0000000000000000e+00" cType="1" res="1.9985243852715939e-05" rms="4.9519836902618408e-01" purity="4.9744567275047302e-01" nType="-99"/>
          <Node pos="r" depth="2" NCoef="0" IVar="-1" Cut="0.0000000000000000e+00" cType="1" res="5.5572664132341743e-04" rms="4.4694241881370544e-01" purity="7.2131848335266113e-01" nType="-99"/>
        </Node>
      </Node>
    </BinaryTree>
    <BinaryTree type="DecisionTree" boostWeight="1.0000000000000000e+00" itree="145">
      <Node pos="s" depth="0" NCoef="0" IVar="5" Cut="3.9080230712890625e+02" cType="1" res="2.3000299930572510e-02" rms="4.8350223898887634e-01" purity="5.0511169433593750e-01" nType="0">
        <Node pos="l" depth="1" NCoef="0" IVar="5" Cut="3.0655368041992188e+02" cType="1" res="-9.8581202328205109e-02" rms="4.6286758780479431e-01" purity="3.4317398071289062e-01" nType="0">
          <Node pos="l" depth="2" NCoef="0" IVar="-1" Cut="0.0000000000000000e+00" cType="1" res="-2.0937630906701088e-03" rms="4.0167102217674255e-01" purity="2.1485787630081177e-01" nType="-99"/>
          <Node pos="r" depth="2" NCoef="0" IVar="-1" Cut="0.0000000000000000e+00" cType="1" res="-1.6769934154581279e-04" rms="4.8113891482353210e-01" purity="4.1471916437149048e-01" nType="-99"/>
        </Node>
        <Node pos="r" depth="1" NCoef="0" IVar="3" Cut="3.3344718813896179e-01" cType="1" res="8.8282763957977295e-02" rms="4.8172703385353088e-01" purity="5.9206312894821167e-01" nType="0">
          <Node pos="l" depth="2" NCoef="0" IVar="-1" Cut="0.0000000000000000e+00" cType="1" res="1.3731711078435183e-05" rms="4.9437579512596130e-01" purity="4.7647777199745178e-01" nType="-99"/>
          <Node pos="r" depth="2" NCoef="0" IVar="-1" Cut="0.0000000000000000e+00" cType="1" res="5.2751880139112473e-04" rms="4.5142623782157898e-01" purity="7.1245354413986206e-01" nType="-99"/>
        </Node>
      </Node>
    </BinaryTree>
    <BinaryTree type="DecisionTree" boostWeight="1.0000000000000000e+00" itree="146">
      <Node pos="s" depth="0" NCoef="0" IVar="3" Cut="3.5557371377944946e-01" cType="1" res="1.7564307898283005e-02" rms="4.8387467861175537e-01" purity="4.9885207414627075e-01" nType="0">
        <Node pos="l" depth="1" NCoef="0" IVar="5" Cut="3.7255880737304688e+02" cType="1" res="-6.0431800782680511e-02" rms="4.7676309943199158e-01" purity="3.9010077714920044e-01" nType="0">
          <Node pos="l" depth="2" NCoef="0" IVar="-1" Cut="0.0000000000000000e+00" cType="1" res="-1.5123172197490931e-03" rms="4.2181217670440674e-01" purity="2.3582042753696442e-01" nType="-99"/>
          <Node pos="r" depth="2" NCoef="0" IVar="-1" Cut="0.0000000000000000e+00" cType="1" res="-4.9294572818325832e-05" rms="4.9253490567207336e-01" purity="4.6190324425697327e-01" nType="-99"/>
        </Node>
        <Node pos="r" depth="1" NCoef="0" IVar="4" Cut="9.5910513401031494e-01" cType="1" res="1.2337908893823624e-01" rms="4.7323685884475708e-01" purity="6.4639139175415039e-01" nType="0">
          <Node pos="l" depth="2" NCoef="0" IVar="-1" Cut="0.0000000000000000e+00" cType="1" res="5.9902417706325650e-04" rms="4.4020107388496399e-01" purity="7.2737222909927368e-01" nType="-99"/>
          <Node pos="r" depth="2" NCoef="0" IVar="-1" Cut="0.0000000000000000e+00" cType="1" res="1.2330134632065892e-04" rms="4.9273979663848877e-01" purity="5.5376130342483521e-01" nType="-99"/>
        </Node>
      </Node>
    </BinaryTree>
    <BinaryTree type="DecisionTree" boostWeight="1.0000000000000000e+00" itree="147">
      <Node pos="s" depth="0" NCoef="0" IVar="3" Cut="3.7812203168869019e-01" cType="1" res="2.3961916565895081e-02" rms="4.8327359557151794e-01" purity="5.0624358654022217e-01" nType="0">
        <Node pos="l" depth="1" NCoef="0" IVar="5" Cut="5.2716546630859375e+02" cType="1" res="-4.6907681971788406e-02" rms="4.7936508059501648e-01" purity="4.0993097424507141e-01" nType="0">
          <Node pos="l" depth="2" NCoef="0" IVar="-1" Cut="0.0000000000000000e+00" cType="1" res="-6.9037079811096191e-04" rms="4.6097502112388611e-01" purity="3.2706645131111145e-01" nType="-99"/>
          <Node pos="r" depth="2" NCoef="0" IVar="-1" Cut="0.0000000000000000e+00" cType="1" res="2.4302328529302031e-04" rms="4.9216169118881226e-01" purity="5.6484735012054443e-01" nType="-99"/>
        </Node>
        <Node pos="r" depth="1" NCoef="0" IVar="5" Cut="4.3991464233398438e+02" cType="1" res="1.4111305773258209e-01" rms="4.6663272380828857e-01" purity="6.6545337438583374e-01" nType="0">
          <Node pos="l" depth="2" NCoef="0" IVar="-1" Cut="0.0000000000000000e+00" cType="1" res="2.0167401817161590e-04" rms="4.9313595890998840e-01" purity="5.5839616060256958e-01" nType="-99"/>
          <Node pos="r" depth="2" NCoef="0" IVar="-1" Cut="0.0000000000000000e+00" cType="1" res="6.1338028172031045e-04" rms="4.2753639817237854e-01" purity="7.5902599096298218e-01" nType="-99"/>
        </Node>
      </Node>
    </BinaryTree>
    <BinaryTree type="DecisionTree" boostWeight="1.0000000000000000e+00" itree="148">
      <Node pos="s" depth="0" NCoef="0" IVar="3" Cut="3.5557541251182556e-01" cType="1" res="1.4234040863811970e-02" rms="4.8346948623657227e-01" purity="4.9599578976631165e-01" nType="0">
        <Node pos="l" depth="1" NCoef="0" IVar="5" Cut="5.8988262939453125e+02" cType="1" res="-6.0945998877286911e-02" rms="4.7638672590255737e-01" purity="3.8938006758689880e-01" nType="0">
          <Node pos="l" depth="2" NCoef="0" IVar="-1" Cut="0.0000000000000000e+00" cType="1" res="-7.2460540104657412e-04" rms="4.6064335107803345e-01" purity="3.2215896248817444e-01" nType="-99"/>
          <Node pos="r" depth="2" NCoef="0" IVar="-1" Cut="0.0000000000000000e+00" cType="1" res="2.9121278203092515e-04" rms="4.9072504043579102e-01" purity="5.7745742797851562e-01" nType="-99"/>
        </Node>
        <Node pos="r" depth="1" NCoef="0" IVar="5" Cut="3.9576910400390625e+02" cType="1" res="1.1538639664649963e-01" rms="4.7439795732498169e-01" purity="6.3944381475448608e-01" nType="0">
          <Node pos="l" depth="2" NCoef="0" IVar="-1" Cut="0.0000000000000000e+00" cType="1" res="-4.6556546294596046e-05" rms="4.9684497714042664e-01" purity="4.8613771796226501e-01" nType="-99"/>
          <Node pos="r" depth="2" NCoef="0" IVar="-1" Cut="0.0000000000000000e+00" cType="1" res="5.3704465972259641e-04" rms="4.4665032625198364e-01" purity="7.2389417886734009e-01" nType="-99"/>
        </Node>
      </Node>
    </BinaryTree>
    <BinaryTree type="DecisionTree" boostWeight="1.0000000000000000e+00" itree="149">
      <Node pos="s" depth="0" NCoef="0" IVar="3" Cut="2.6638859510421753e-01" cType="1" res="1.7660861834883690e-02" rms="4.8344382643699646e-01" purity="4.9930590391159058e-01" nType="0">
        <Node pos="l" depth="1" NCoef="0" IVar="4" Cut="8.0618309974670410e-01" cType="1" res="-1.0936009138822556e-01" rms="4.5949494838714600e-01" purity="3.2502859830856323e-01" nType="0">
          <Node pos="l" depth="2" NCoef="0" IVar="-1" Cut="0.0000000000000000e+00" cType="1" res="4.3832060327986255e-06" rms="4.8906353116035461e-01" purity="4.4732627272605896e-01" nType="-99"/>
          <Node pos="r" depth="2" NCoef="0" IVar="-1" Cut="0.0000000000000000e+00" cType="1" res="-1.1402876116335392e-03" rms="4.3990254402160645e-01" purity="2.7711242437362671e-01" nType="-99"/>
        </Node>
        <Node pos="r" depth="1" NCoef="0" IVar="5" Cut="4.4124185180664062e+02" cType="1" res="8.4751136600971222e-02" rms="4.8230957984924316e-01" purity="5.9135615825653076e-01" nType="0">
          <Node pos="l" depth="2" NCoef="0" IVar="-1" Cut="0.0000000000000000e+00" cType="1" res="-2.2806094420957379e-05" rms="4.9221596121788025e-01" purity="4.7708222270011902e-01" nType="-99"/>
          <Node pos="r" depth="2" NCoef="0" IVar="-1" Cut="0.0000000000000000e+00" cType="1" res="4.9550284165889025e-04" rms="4.5964300632476807e-01" purity="6.9020497798919678e-01" nType="-99"/>
        </Node>
      </Node>
    </BinaryTree>
    <BinaryTree type="DecisionTree" boostWeight="1.0000000000000000e+00" itree="150">
      <Node pos="s" depth="0" NCoef="0" IVar="3" Cut="3.1112697720527649e-01" cType="1" res="2.5600215420126915e-02" rms="4.8179897665977478e-01" purity="5.0904870033264160e-01" nType="0">
        <Node pos="l" depth="1" NCoef="0" IVar="5" Cut="3.5851101684570312e+02" cType="1" res="-8.7941765785217285e-02" rms="4.6766865253448486e-01" purity="3.5252031683921814e-01" nType="0">
          <Node pos="l" depth="2" NCoef="0" IVar="-1" Cut="0.0000000000000000e+00" cType="1" res="-2.3795706219971180e-03" rms="3.8891062140464783e-01" purity="1.8732483685016632e-01" nType="-99"/>
          <Node pos="r" depth="2" NCoef="0" IVar="-1" Cut="0.0000000000000000e+00" cType="1" res="-2.1387138986028731e-04" rms="4.8781266808509827e-01" purity="4.1732966899871826e-01" nType="-99"/>
        </Node>
        <Node pos="r" depth="1" NCoef="0" IVar="5" Cut="3.7660290527343750e+02" cType="1" res="1.1631985753774643e-01" rms="4.7362360358238220e-01" purity="6.3411432504653931e-01" nType="0">
          <Node pos="l" depth="2" NCoef="0" IVar="-1" Cut="0.0000000000000000e+00" cType="1" res="-1.7784473311621696e-04" rms="4.9328619241714478e-01" purity="4.4645845890045166e-01" nType="-99"/>
          <Node pos="r" depth="2" NCoef="0" IVar="-1" Cut="0.0000000000000000e+00" cType="1" res="5.3051492432132363e-04" rms="4.5082843303680420e-01" purity="7.1043431758880615e-01" nType="-99"/>
        </Node>
      </Node>
    </BinaryTree>
    <BinaryTree type="DecisionTree" boostWeight="1.0000000000000000e+00" itree="151">
      <Node pos="s" depth="0" NCoef="0" IVar="3" Cut="3.5567700862884521e-01" cType="1" res="1.6923336312174797e-02" rms="4.8344442248344421e-01" purity="4.9805194139480591e-01" nType="0">
        <Node pos="l" depth="1" NCoef="0" IVar="4" Cut="7.6313936710357666e-01" cType="1" res="-6.4384058117866516e-02" rms="4.7640699148178101e-01" purity="3.8391709327697754e-01" nType="0">
          <Node pos="l" depth="2" NCoef="0" IVar="-1" Cut="0.0000000000000000e+00" cType="1" res="3.3588841324672103e-04" rms="4.8603585362434387e-01" purity="5.6046563386917114e-01" nType="-99"/>
          <Node pos="r" depth="2" NCoef="0" IVar="-1" Cut="0.0000000000000000e+00" cType="1" res="-7.6004426227882504e-04" rms="4.6124342083930969e-01" purity="3.2482358813285828e-01" nType="-99"/>
        </Node>
        <Node pos="r" depth="1" NCoef="0" IVar="5" Cut="4.2429364013671875e+02" cType="1" res="1.2439136207103729e-01" rms="4.7155001759529114e-01" purity="6.4890968799591064e-01" nType="0">
          <Node pos="l" depth="2" NCoef="0" IVar="-1" Cut="0.0000000000000000e+00" cType="1" res="6.1105667555239052e-05" rms="4.9667486548423767e-01" purity="5.1635885238647461e-01" nType="-99"/>
          <Node pos="r" depth="2" NCoef="0" IVar="-1" Cut="0.0000000000000000e+00" cType="1" res="5.9967010747641325e-04" rms="4.3515315651893616e-01" purity="7.4580031633377075e-01" nType="-99"/>
        </Node>
      </Node>
    </BinaryTree>
    <BinaryTree type="DecisionTree" boostWeight="1.0000000000000000e+00" itree="152">
      <Node pos="s" depth="0" NCoef="0" IVar="3" Cut="3.5587954521179199e-01" cType="1" res="2.2783681750297546e-02" rms="4.8248583078384399e-01" purity="5.0536042451858521e-01" nType="0">
        <Node pos="l" depth="1" NCoef="0" IVar="4" Cut="7.4522465467453003e-01" cType="1" res="-5.7251077145338058e-02" rms="4.7554963827133179e-01" purity="3.9378395676612854e-01" nType="0">
          <Node pos="l" depth="2" NCoef="0" IVar="-1" Cut="0.0000000000000000e+00" cType="1" res="4.0572381112724543e-04" rms="4.8058658838272095e-01" purity="5.8516550064086914e-01" nType="-99"/>
          <Node pos="r" depth="2" NCoef="0" IVar="-1" Cut="0.0000000000000000e+00" cType="1" res="-6.9263903424143791e-04" rms="4.6168211102485657e-01" purity="3.3532714843750000e-01" nType="-99"/>
        </Node>
        <Node pos="r" depth="1" NCoef="0" IVar="5" Cut="3.3602816772460938e+02" cType="1" res="1.2835952639579773e-01" rms="4.7112876176834106e-01" purity="6.5254366397857666e-01" nType="0">
          <Node pos="l" depth="2" NCoef="0" IVar="-1" Cut="0.0000000000000000e+00" cType="1" res="-1.6959816275630146e-04" rms="4.9698576331138611e-01" purity="4.5164781808853149e-01" nType="-99"/>
          <Node pos="r" depth="2" NCoef="0" IVar="-1" Cut="0.0000000000000000e+00" cType="1" res="5.0994625780731440e-04" rms="4.5525607466697693e-01" purity="7.0311069488525391e-01" nType="-99"/>
        </Node>
      </Node>
    </BinaryTree>
    <BinaryTree type="DecisionTree" boostWeight="1.0000000000000000e+00" itree="153">
      <Node pos="s" depth="0" NCoef="0" IVar="3" Cut="4.0002042055130005e-01" cType="1" res="2.2123489528894424e-02" rms="4.8253983259201050e-01" purity="5.0440996885299683e-01" nType="0">
        <Node pos="l" depth="1" NCoef="0" IVar="5" Cut="5.6728192138671875e+02" cType="1" res="-4.5094195753335953e-02" rms="4.7897920012474060e-01" purity="4.1619858145713806e-01" nType="0">
          <Node pos="l" depth="2" NCoef="0" IVar="-1" Cut="0.0000000000000000e+00" cType="1" res="-6.7081546876579523e-04" rms="4.6277922391891479e-01" purity="3.3670902252197266e-01" nType="-99"/>
          <Node pos="r" depth="2" NCoef="0" IVar="-1" Cut="0.0000000000000000e+00" cType="1" res="3.4846342168748379e-04" rms="4.8510307073593140e-01" purity="6.0220831632614136e-01" nType="-99"/>
        </Node>
        <Node pos="r" depth="1" NCoef="0" IVar="7" Cut="1.2080918884277344e+02" cType="1" res="1.5832403302192688e-01" rms="4.6051725745201111e-01" purity="6.8314927816390991e-01" nType="0">
          <Node pos="l" depth="2" NCoef="0" IVar="-1" Cut="0.0000000000000000e+00" cType="1" res="2.8136550099588931e-04" rms="4.8838111758232117e-01" purity="5.8962213993072510e-01" nType="-99"/>
          <Node pos="r" depth="2" NCoef="0" IVar="-1" Cut="0.0000000000000000e+00" cType="1" res="6.4342911355197430e-04" rms="4.2152202129364014e-01" purity="7.6582491397857666e-01" nType="-99"/>
        </Node>
      </Node>
    </BinaryTree>
    <BinaryTree type="DecisionTree" boostWeight="1.0000000000000000e+00" itree="154">
      <Node pos="s" depth="0" NCoef="0" IVar="5" Cut="4.4509860229492188e+02" cType="1" res="2.6285000145435333e-02" rms="4.8257514834403992e-01" purity="5.0786787271499634e-01" nType="0">
        <Node pos="l" depth="1" NCoef="0" IVar="3" Cut="3.9958289265632629e-01" cType="1" res="-6.5893985331058502e-02" rms="4.7188606858253479e-01" purity="3.8424605131149292e-01" nType="0">
          <Node pos="l" depth="2" NCoef="0" IVar="-1" Cut="0.0000000000000000e+00" cType="1" res="-9.1789400903508067e-04" rms="4.4920113682746887e-01" purity="2.9508116841316223e-01" nType="-99"/>
          <Node pos="r" depth="2" NCoef="0" IVar="-1" Cut="0.0000000000000000e+00" cType="1" res="2.5944254593923688e-04" rms="4.9107506871223450e-01" purity="5.7452625036239624e-01" nType="-99"/>
        </Node>
        <Node pos="r" depth="1" NCoef="0" IVar="3" Cut="2.6675775647163391e-01" cType="1" res="1.1201302707195282e-01" rms="4.7656634449958801e-01" purity="6.2283819913864136e-01" nType="0">
          <Node pos="l" depth="2" NCoef="0" IVar="-1" Cut="0.0000000000000000e+00" cType="1" res="-9.0065019321627915e-05" rms="4.9570211768150330e-01" purity="4.5387881994247437e-01" nType="-99"/>
          <Node pos="r" depth="2" NCoef="0" IVar="-1" Cut="0.0000000000000000e+00" cType="1" res="5.2008213242515922e-04" rms="4.5365524291992188e-01" purity="7.0403909683227539e-01" nType="-99"/>
        </Node>
      </Node>
    </BinaryTree>
    <BinaryTree type="DecisionTree" boostWeight="1.0000000000000000e+00" itree="155">
      <Node pos="s" depth="0" NCoef="0" IVar="3" Cut="3.1112697720527649e-01" cType="1" res="3.0508454889059067e-02" rms="4.8152676224708557e-01" purity="5.1365643739700317e-01" nType="0">
        <Node pos="l" depth="1" NCoef="0" IVar="4" Cut="7.3309677839279175e-01" cType="1" res="-8.5214339196681976e-02" rms="4.6771433949470520e-01" purity="3.5404333472251892e-01" nType="0">
          <Node pos="l" depth="2" NCoef="0" IVar="-1" Cut="0.0000000000000000e+00" cType="1" res="3.1376059632748365e-04" rms="4.9020186066627502e-01" purity="5.4226690530776978e-01" nType="-99"/>
          <Node pos="r" depth="2" NCoef="0" IVar="-1" Cut="0.0000000000000000e+00" cType="1" res="-8.7179534602910280e-04" rms="4.5237648487091064e-01" purity="3.0677819252014160e-01" nType="-99"/>
        </Node>
        <Node pos="r" depth="1" NCoef="0" IVar="5" Cut="4.0431265258789062e+02" cType="1" res="1.2166691571474075e-01" rms="4.7258567810058594e-01" purity="6.3938856124877930e-01" nType="0">
          <Node pos="l" depth="2" NCoef="0" IVar="-1" Cut="0.0000000000000000e+00" cType="1" res="3.2186362659558654e-05" rms="4.9549734592437744e-01" purity="4.9551567435264587e-01" nType="-99"/>
          <Node pos="r" depth="2" NCoef="0" IVar="-1" Cut="0.0000000000000000e+00" cType="1" res="5.4128729971125722e-04" rms="4.4545304775238037e-01" purity="7.2311520576477051e-01" nType="-99"/>
        </Node>
      </Node>
    </BinaryTree>
    <BinaryTree type="DecisionTree" boostWeight="1.0000000000000000e+00" itree="156">
      <Node pos="s" depth="0" NCoef="0" IVar="3" Cut="3.7779888510704041e-01" cType="1" res="2.4971643462777138e-02" rms="4.8209661245346069e-01" purity="5.0711894035339355e-01" nType="0">
        <Node pos="l" depth="1" NCoef="0" IVar="5" Cut="4.8093817138671875e+02" cType="1" res="-4.9019981175661087e-02" rms="4.7797736525535583e-01" purity="4.0605852007865906e-01" nType="0">
          <Node pos="l" depth="2" NCoef="0" IVar="-1" Cut="0.0000000000000000e+00" cType="1" res="-8.0757279647514224e-04" rms="4.5375838875770569e-01" purity="3.0734416842460632e-01" nType="-99"/>
          <Node pos="r" depth="2" NCoef="0" IVar="-1" Cut="0.0000000000000000e+00" cType="1" res="1.6632533515803516e-04" rms="4.9395146965980530e-01" purity="5.3862953186035156e-01" nType="-99"/>
        </Node>
        <Node pos="r" depth="1" NCoef="0" IVar="5" Cut="3.2070697021484375e+02" cType="1" res="1.4470401406288147e-01" rms="4.6435084939002991e-01" purity="6.7065364122390747e-01" nType="0">
          <Node pos="l" depth="2" NCoef="0" IVar="-1" Cut="0.0000000000000000e+00" cType="1" res="-3.6536628613248467e-04" rms="4.9240773916244507e-01" purity="4.1546756029129028e-01" nType="-99"/>
          <Node pos="r" depth="2" NCoef="0" IVar="-1" Cut="0.0000000000000000e+00" cType="1" res="5.5356899974867702e-04" rms="4.4784030318260193e-01" purity="7.1774190664291382e-01" nType="-99"/>
        </Node>
      </Node>
    </BinaryTree>
    <BinaryTree type="DecisionTree" boostWeight="1.0000000000000000e+00" itree="157">
      <Node pos="s" depth="0" NCoef="0" IVar="3" Cut="2.6690965890884399e-01" cType="1" res="1.9890096038579941e-02" rms="4.8272490501403809e-01" purity="5.0132048130035400e-01" nType="0">
        <Node pos="l" depth="1" NCoef="0" IVar="7" Cut="1.6723071289062500e+02" cType="1" res="-1.1251727491617203e-01" rms="4.5784476399421692e-01" purity="3.1906852126121521e-01" nType="0">
          <Node pos="l" depth="2" NCoef="0" IVar="-1" Cut="0.0000000000000000e+00" cType="1" res="-1.1472358601167798e-03" rms="4.3911600112915039e-01" purity="2.7270251512527466e-01" nType="-99"/>
          <Node pos="r" depth="2" NCoef="0" IVar="-1" Cut="0.0000000000000000e+00" cType="1" res="3.9786173147149384e-06" rms="4.9777540564537048e-01" purity="4.7075933218002319e-01" nType="-99"/>
        </Node>
        <Node pos="r" depth="1" NCoef="0" IVar="5" Cut="3.9902380371093750e+02" cType="1" res="8.9385651051998138e-02" rms="4.8091012239456177e-01" purity="5.9697753190994263e-01" nType="0">
          <Node pos="l" depth="2" NCoef="0" IVar="-1" Cut="0.0000000000000000e+00" cType="1" res="-1.3682484859600663e-04" rms="4.9167570471763611e-01" purity="4.4439354538917542e-01" nType="-99"/>
          <Node pos="r" depth="2" NCoef="0" IVar="-1" Cut="0.0000000000000000e+00" cType="1" res="4.7671393258497119e-04" rms="4.6236920356750488e-01" purity="6.8037879467010498e-01" nType="-99"/>
        </Node>
      </Node>
    </BinaryTree>
    <BinaryTree type="DecisionTree" boostWeight="1.0000000000000000e+00" itree="158">
      <Node pos="s" depth="0" NCoef="0" IVar="3" Cut="2.4466720223426819e-01" cType="1" res="1.5657985582947731e-02" rms="4.8198777437210083e-01" purity="4.9737104773521423e-01" nType="0">
        <Node pos="l" depth="1" NCoef="0" IVar="5" Cut="4.0147259521484375e+02" cType="1" res="-1.2594880163669586e-01" rms="4.4930455088615417e-01" purity="3.0636006593704224e-01" nType="0">
          <Node pos="l" depth="2" NCoef="0" IVar="-1" Cut="0.0000000000000000e+00" cType="1" res="-3.1256226357072592e-03" rms="3.6123487353324890e-01" purity="1.5546688437461853e-01" nType="-99"/>
          <Node pos="r" depth="2" NCoef="0" IVar="-1" Cut="0.0000000000000000e+00" cType="1" res="-2.6768285897560418e-04" rms="4.8793613910675049e-01" purity="4.0963709354400635e-01" nType="-99"/>
        </Node>
        <Node pos="r" depth="1" NCoef="0" IVar="5" Cut="3.7590469360351562e+02" cType="1" res="7.4491597712039948e-02" rms="4.8287221789360046e-01" purity="5.7673072814941406e-01" nType="0">
          <Node pos="l" depth="2" NCoef="0" IVar="-1" Cut="0.0000000000000000e+00" cType="1" res="-3.3149245427921414e-04" rms="4.8324868083000183e-01" purity="4.0195971727371216e-01" nType="-99"/>
          <Node pos="r" depth="2" NCoef="0" IVar="-1" Cut="0.0000000000000000e+00" cType="1" res="4.3107647798024118e-04" rms="4.7097924351692200e-01" purity="6.5097957849502563e-01" nType="-99"/>
        </Node>
      </Node>
    </BinaryTree>
    <BinaryTree type="DecisionTree" boostWeight="1.0000000000000000e+00" itree="159">
      <Node pos="s" depth="0" NCoef="0" IVar="5" Cut="4.0320974731445312e+02" cType="1" res="2.1518040448427200e-02" rms="4.8178079724311829e-01" purity="5.0346446037292480e-01" nType="0">
        <Node pos="l" depth="1" NCoef="0" IVar="3" Cut="4.4446927309036255e-01" cType="1" res="-9.7925499081611633e-02" rms="4.6148824691772461e-01" purity="3.4248363971710205e-01" nType="0">
          <Node pos="l" depth="2" NCoef="0" IVar="-1" Cut="0.0000000000000000e+00" cType="1" res="-1.0639656102284789e-03" rms="4.4171833992004395e-01" purity="2.8296989202499390e-01" nType="-99"/>
          <Node pos="r" depth="2" NCoef="0" IVar="-1" Cut="0.0000000000000000e+00" cType="1" res="1.8113070109393448e-04" rms="4.9692723155021667e-01" purity="5.4330611228942871e-01" nType="-99"/>
        </Node>
        <Node pos="r" depth="1" NCoef="0" IVar="3" Cut="2.4466720223426819e-01" cType="1" res="9.3962147831916809e-02" rms="4.7939658164978027e-01" purity="6.0110151767730713e-01" nType="0">
          <Node pos="l" depth="2" NCoef="0" IVar="-1" Cut="0.0000000000000000e+00" cType="1" res="-3.4252621117047966e-04" rms="4.8539245128631592e-01" purity="3.9966866374015808e-01" nType="-99"/>
          <Node pos="r" depth="2" NCoef="0" IVar="-1" Cut="0.0000000000000000e+00" cType="1" res="4.7517783241346478e-04" rms="4.6382853388786316e-01" purity="6.7462313175201416e-01" nType="-99"/>
        </Node>
      </Node>
    </BinaryTree>
    <BinaryTree type="DecisionTree" boostWeight="1.0000000000000000e+00" itree="160">
      <Node pos="s" depth="0" NCoef="0" IVar="3" Cut="2.8890362381935120e-01" cType="1" res="2.1328229457139969e-02" rms="4.8160582780838013e-01" purity="5.0314307212829590e-01" nType="0">
        <Node pos="l" depth="1" NCoef="0" IVar="4" Cut="6.9585603475570679e-01" cType="1" res="-1.0002062469720840e-01" rms="4.6217527985572815e-01" purity="3.3285251259803772e-01" nType="0">
          <Node pos="l" depth="2" NCoef="0" IVar="-1" Cut="0.0000000000000000e+00" cType="1" res="2.6368605904281139e-04" rms="4.9180239439010620e-01" purity="5.2654308080673218e-01" nType="-99"/>
          <Node pos="r" depth="2" NCoef="0" IVar="-1" Cut="0.0000000000000000e+00" cType="1" res="-8.9012709213420749e-04" rms="4.5069274306297302e-01" purity="2.9971510171890259e-01" nType="-99"/>
        </Node>
        <Node pos="r" depth="1" NCoef="0" IVar="5" Cut="4.2346966552734375e+02" cType="1" res="1.0029478371143341e-01" rms="4.7755557298660278e-01" purity="6.1395788192749023e-01" nType="0">
          <Node pos="l" depth="2" NCoef="0" IVar="-1" Cut="0.0000000000000000e+00" cType="1" res="-2.4446650058962405e-05" rms="4.9305957555770874e-01" purity="4.7993421554565430e-01" nType="-99"/>
          <Node pos="r" depth="2" NCoef="0" IVar="-1" Cut="0.0000000000000000e+00" cType="1" res="5.1458762027323246e-04" rms="4.5172664523124695e-01" purity="7.0832604169845581e-01" nType="-99"/>
        </Node>
      </Node>
    </BinaryTree>
    <BinaryTree type="DecisionTree" boostWeight="1.0000000000000000e+00" itree="161">
      <Node pos="s" depth="0" NCoef="0" IVar="3" Cut="3.5567700862884521e-01" cType="1" res="2.1121943369507790e-02" rms="4.8278868198394775e-01" purity="5.0197184085845947e-01" nType="0">
        <Node pos="l" depth="1" NCoef="0" IVar="4" Cut="7.2333818674087524e-01" cType="1" res="-5.5733691900968552e-02" rms="4.7671952843666077e-01" purity="3.9123547077178955e-01" nType="0">
          <Node pos="l" depth="2" NCoef="0" IVar="-1" Cut="0.0000000000000000e+00" cType="1" res="4.0455910493619740e-04" rms="4.8404988646507263e-01" purity="5.8479267358779907e-01" nType="-99"/>
          <Node pos="r" depth="2" NCoef="0" IVar="-1" Cut="0.0000000000000000e+00" cType="1" res="-6.0115091037005186e-04" rms="4.6523702144622803e-01" purity="3.4341901540756226e-01" nType="-99"/>
        </Node>
        <Node pos="r" depth="1" NCoef="0" IVar="4" Cut="9.0099108219146729e-01" cType="1" res="1.2286580353975296e-01" rms="4.7182908654212952e-01" purity="6.4856803417205811e-01" nType="0">
          <Node pos="l" depth="2" NCoef="0" IVar="-1" Cut="0.0000000000000000e+00" cType="1" res="6.2781863380223513e-04" rms="4.3158984184265137e-01" purity="7.4296784400939941e-01" nType="-99"/>
          <Node pos="r" depth="2" NCoef="0" IVar="-1" Cut="0.0000000000000000e+00" cType="1" res="1.6903869982343167e-04" rms="4.8971161246299744e-01" purity="5.6918394565582275e-01" nType="-99"/>
        </Node>
      </Node>
    </BinaryTree>
    <BinaryTree type="DecisionTree" boostWeight="1.0000000000000000e+00" itree="162">
      <Node pos="s" depth="0" NCoef="0" IVar="3" Cut="2.8853642940521240e-01" cType="1" res="2.3272916674613953e-02" rms="4.8169264197349548e-01" purity="5.0489652156829834e-01" nType="0">
        <Node pos="l" depth="1" NCoef="0" IVar="5" Cut="5.2890557861328125e+02" cType="1" res="-8.8800229132175446e-02" rms="4.6432945132255554e-01" purity="3.4474956989288330e-01" nType="0">
          <Node pos="l" depth="2" NCoef="0" IVar="-1" Cut="0.0000000000000000e+00" cType="1" res="-1.1949398322030902e-03" rms="4.3503355979919434e-01" purity="2.6234018802642822e-01" nType="-99"/>
          <Node pos="r" depth="2" NCoef="0" IVar="-1" Cut="0.0000000000000000e+00" cType="1" res="1.1795368482125923e-04" rms="4.9808520078659058e-01" purity="5.1219373941421509e-01" nType="-99"/>
        </Node>
        <Node pos="r" depth="1" NCoef="0" IVar="5" Cut="4.1098571777343750e+02" cType="1" res="9.7291156649589539e-02" rms="4.7864612936973572e-01" purity="6.1066496372222900e-01" nType="0">
          <Node pos="l" depth="2" NCoef="0" IVar="-1" Cut="0.0000000000000000e+00" cType="1" res="-6.1652433942072093e-05" rms="4.9428659677505493e-01" purity="4.6799194812774658e-01" nType="-99"/>
          <Node pos="r" depth="2" NCoef="0" IVar="-1" Cut="0.0000000000000000e+00" cType="1" res="5.1189487567171454e-04" rms="4.5509579777717590e-01" purity="6.9996523857116699e-01" nType="-99"/>
        </Node>
      </Node>
    </BinaryTree>
    <BinaryTree type="DecisionTree" boostWeight="1.0000000000000000e+00" itree="163">
      <Node pos="s" depth="0" NCoef="0" IVar="3" Cut="2.8898757696151733e-01" cType="1" res="1.2800825759768486e-02" rms="4.8194649815559387e-01" purity="4.9389377236366272e-01" nType="0">
        <Node pos="l" depth="1" NCoef="0" IVar="3" Cut="2.2814549505710602e-01" cType="1" res="-1.0461943596601486e-01" rms="4.6024048328399658e-01" purity="3.2710918784141541e-01" nType="0">
          <Node pos="l" depth="2" NCoef="0" IVar="-1" Cut="0.0000000000000000e+00" cType="1" res="-1.1418795911595225e-03" rms="4.4030058383941650e-01" purity="2.7646476030349731e-01" nType="-99"/>
          <Node pos="r" depth="2" NCoef="0" IVar="-1" Cut="0.0000000000000000e+00" cType="1" res="-1.4202957390807569e-04" rms="4.8267987370491028e-01" purity="4.1329783201217651e-01" nType="-99"/>
        </Node>
        <Node pos="r" depth="1" NCoef="0" IVar="5" Cut="4.0820797729492188e+02" cType="1" res="8.9685067534446716e-02" rms="4.8033782839775085e-01" purity="6.0310065746307373e-01" nType="0">
          <Node pos="l" depth="2" NCoef="0" IVar="-1" Cut="0.0000000000000000e+00" cType="1" res="-1.4039137749932706e-04" rms="4.9122366309165955e-01" purity="4.5288497209548950e-01" nType="-99"/>
          <Node pos="r" depth="2" NCoef="0" IVar="-1" Cut="0.0000000000000000e+00" cType="1" res="4.9189524725079536e-04" rms="4.5901498198509216e-01" purity="6.9333595037460327e-01" nType="-99"/>
        </Node>
      </Node>
    </BinaryTree>
    <BinaryTree type="DecisionTree" boostWeight="1.0000000000000000e+00" itree="164">
      <Node pos="s" depth="0" NCoef="0" IVar="5" Cut="3.7028350830078125e+02" cType="1" res="1.0479444637894630e-02" rms="4.8176109790802002e-01" purity="4.9114313721656799e-01" nType="0">
        <Node pos="l" depth="1" NCoef="0" IVar="3" Cut="4.6373668313026428e-01" cType="1" res="-1.2046168744564056e-01" rms="4.5185422897338867e-01" purity="3.1370079517364502e-01" nType="0">
          <Node pos="l" depth="2" NCoef="0" IVar="-1" Cut="0.0000000000000000e+00" cType="1" res="-1.3934195740148425e-03" rms="4.2807003855705261e-01" purity="2.5284260511398315e-01" nType="-99"/>
          <Node pos="r" depth="2" NCoef="0" IVar="-1" Cut="0.0000000000000000e+00" cType="1" res="2.1483164164237678e-04" rms="4.9634391069412231e-01" purity="5.4878693819046021e-01" nType="-99"/>
        </Node>
        <Node pos="r" depth="1" NCoef="0" IVar="3" Cut="2.8890502452850342e-01" cType="1" res="6.6597096621990204e-02" rms="4.8328337073326111e-01" purity="5.6718987226486206e-01" nType="0">
          <Node pos="l" depth="2" NCoef="0" IVar="-1" Cut="0.0000000000000000e+00" cType="1" res="-2.3448359570465982e-04" rms="4.8654040694236755e-01" purity="4.1126421093940735e-01" nType="-99"/>
          <Node pos="r" depth="2" NCoef="0" IVar="-1" Cut="0.0000000000000000e+00" cType="1" res="4.4781737960875034e-04" rms="4.6663621068000793e-01" purity="6.6897416114807129e-01" nType="-99"/>
        </Node>
      </Node>
    </BinaryTree>
    <BinaryTree type="DecisionTree" boostWeight="1.0000000000000000e+00" itree="165">
      <Node pos="s" depth="0" NCoef="0" IVar="3" Cut="2.6668027043342590e-01" cType="1" res="2.6335936039686203e-02" rms="4.8183187842369080e-01" purity="5.0727188587188721e-01" nType="0">
        <Node pos="l" depth="1" NCoef="0" IVar="4" Cut="7.3344117403030396e-01" cType="1" res="-9.2305034399032593e-02" rms="4.6289160847663879e-01" purity="3.3754682540893555e-01" nType="0">
          <Node pos="l" depth="2" NCoef="0" IVar="-1" Cut="0.0000000000000000e+00" cType="1" res="2.4319454678334296e-04" rms="4.8782902956008911e-01" purity="5.1773577928543091e-01" nType="-99"/>
          <Node pos="r" depth="2" NCoef="0" IVar="-1" Cut="0.0000000000000000e+00" cType="1" res="-9.2272507026791573e-04" rms="4.4883376359939575e-01" purity="2.9371851682662964e-01" nType="-99"/>
        </Node>
        <Node pos="r" depth="1" NCoef="0" IVar="5" Cut="4.1020501708984375e+02" cType="1" res="8.9984647929668427e-02" rms="4.7974878549575806e-01" purity="5.9832626581192017e-01" nType="0">
          <Node pos="l" depth="2" NCoef="0" IVar="-1" Cut="0.0000000000000000e+00" cType="1" res="-1.0785920312628150e-04" rms="4.8945704102516174e-01" purity="4.5379796624183655e-01" nType="-99"/>
          <Node pos="r" depth="2" NCoef="0" IVar="-1" Cut="0.0000000000000000e+00" cType="1" res="4.9437349662184715e-04" rms="4.6028259396553040e-01" purity="6.8718200922012329e-01" nType="-99"/>
        </Node>
      </Node>
    </BinaryTree>
    <BinaryTree type="DecisionTree" boostWeight="1.0000000000000000e+00" itree="166">
      <Node pos="s" depth="0" NCoef="0" IVar="3" Cut="2.6634132862091064e-01" cType="1" res="1.9331458956003189e-02" rms="4.8188325762748718e-01" purity="4.9998986721038818e-01" nType="0">
        <Node pos="l" depth="1" NCoef="0" IVar="4" Cut="7.5764060020446777e-01" cType="1" res="-1.1084908246994019e-01" rms="4.5650583505630493e-01" purity="3.1739568710327148e-01" nType="0">
          <Node pos="l" depth="2" NCoef="0" IVar="-1" Cut="0.0000000000000000e+00" cType="1" res="8.2156082498840988e-05" rms="4.8973125219345093e-01" purity="4.6783262491226196e-01" nType="-99"/>
          <Node pos="r" depth="2" NCoef="0" IVar="-1" Cut="0.0000000000000000e+00" cType="1" res="-1.0874159634113312e-03" rms="4.4056510925292969e-01" purity="2.7653530240058899e-01" nType="-99"/>
        </Node>
        <Node pos="r" depth="1" NCoef="0" IVar="5" Cut="3.7245803833007812e+02" cType="1" res="8.7230011820793152e-02" rms="4.8081478476524353e-01" purity="5.9522587060928345e-01" nType="0">
          <Node pos="l" depth="2" NCoef="0" IVar="-1" Cut="0.0000000000000000e+00" cType="1" res="-2.4603726342320442e-04" rms="4.8813229799270630e-01" purity="4.2017921805381775e-01" nType="-99"/>
          <Node pos="r" depth="2" NCoef="0" IVar="-1" Cut="0.0000000000000000e+00" cType="1" res="4.5033014612272382e-04" rms="4.6695736050605774e-01" purity="6.6570740938186646e-01" nType="-99"/>
        </Node>
      </Node>
    </BinaryTree>
    <BinaryTree type="DecisionTree" boostWeight="1.0000000000000000e+00" itree="167">
      <Node pos="s" depth="0" NCoef="0" IVar="3" Cut="3.1112849712371826e-01" cType="1" res="2.3760272189974785e-02" rms="4.8172187805175781e-01" purity="5.0491595268249512e-01" nType="0">
        <Node pos="l" depth="1" NCoef="0" IVar="5" Cut="5.2798889160156250e+02" cType="1" res="-7.8552715480327606e-02" rms="4.6859014034271240e-01" purity="3.5743513703346252e-01" nType="0">
          <Node pos="l" depth="2" NCoef="0" IVar="-1" Cut="0.0000000000000000e+00" cType="1" res="-9.8033249378204346e-04" rms="4.4529306888580322e-01" purity="2.8385782241821289e-01" nType="-99"/>
          <Node pos="r" depth="2" NCoef="0" IVar="-1" Cut="0.0000000000000000e+00" cType="1" res="8.9228211436420679e-05" rms="4.9762853980064392e-01" purity="5.0585520267486572e-01" nType="-99"/>
        </Node>
        <Node pos="r" depth="1" NCoef="0" IVar="4" Cut="8.2501733303070068e-01" cType="1" res="1.0785418003797531e-01" rms="4.7606441378593445e-01" purity="6.2613463401794434e-01" nType="0">
          <Node pos="l" depth="2" NCoef="0" IVar="-1" Cut="0.0000000000000000e+00" cType="1" res="6.2235374934971333e-04" rms="4.3294981122016907e-01" purity="7.3971182107925415e-01" nType="-99"/>
          <Node pos="r" depth="2" NCoef="0" IVar="-1" Cut="0.0000000000000000e+00" cType="1" res="1.8493451352696866e-04" rms="4.8702552914619446e-01" purity="5.6612682342529297e-01" nType="-99"/>
        </Node>
      </Node>
    </BinaryTree>
    <BinaryTree type="DecisionTree" boostWeight="1.0000000000000000e+00" itree="168">
      <Node pos="s" depth="0" NCoef="0" IVar="3" Cut="2.6617494225502014e-01" cType="1" res="3.2373543828725815e-02" rms="4.8210495710372925e-01" purity="5.1306021213531494e-01" nType="0">
        <Node pos="l" depth="1" NCoef="0" IVar="4" Cut="7.4150872230529785e-01" cType="1" res="-8.5208617150783539e-02" rms="4.6555650234222412e-01" purity="3.4266978502273560e-01" nType="0">
          <Node pos="l" depth="2" NCoef="0" IVar="-1" Cut="0.0000000000000000e+00" cType="1" res="2.2176312631927431e-04" rms="4.8787406086921692e-01" purity="5.0827288627624512e-01" nType="-99"/>
          <Node pos="r" depth="2" NCoef="0" IVar="-1" Cut="0.0000000000000000e+00" cType="1" res="-8.3539122715592384e-04" rms="4.5335087180137634e-01" purity="3.0146816372871399e-01" nType="-99"/>
        </Node>
        <Node pos="r" depth="1" NCoef="0" IVar="5" Cut="4.3972116088867188e+02" cType="1" res="9.4474256038665771e-02" rms="4.7911307215690613e-01" purity="6.0305148363113403e-01" nType="0">
          <Node pos="l" depth="2" NCoef="0" IVar="-1" Cut="0.0000000000000000e+00" cType="1" res="2.0983563445042819e-05" rms="4.9173110723495483e-01" purity="4.8625671863555908e-01" nType="-99"/>
          <Node pos="r" depth="2" NCoef="0" IVar="-1" Cut="0.0000000000000000e+00" cType="1" res="5.1325949607416987e-04" rms="4.5488122105598450e-01" purity="7.0081412792205811e-01" nType="-99"/>
        </Node>
      </Node>
    </BinaryTree>
    <BinaryTree type="DecisionTree" boostWeight="1.0000000000000000e+00" itree="169">
      <Node pos="s" depth="0" NCoef="0" IVar="3" Cut="3.5557371377944946e-01" cType="1" res="2.4458555504679680e-02" rms="4.8156785964965820e-01" purity="5.0536513328552246e-01" nType="0">
        <Node pos="l" depth="1" NCoef="0" IVar="4" Cut="6.8937516212463379e-01" cType="1" res="-5.9233326464891434e-02" rms="4.7452813386917114e-01" purity="3.8673910498619080e-01" nType="0">
          <Node pos="l" depth="2" NCoef="0" IVar="-1" Cut="0.0000000000000000e+00" cType="1" res="4.7488647396676242e-04" rms="4.7444233298301697e-01" purity="6.1526060104370117e-01" nType="-99"/>
          <Node pos="r" depth="2" NCoef="0" IVar="-1" Cut="0.0000000000000000e+00" cType="1" res="-5.9661141131073236e-04" rms="4.6470105648040771e-01" purity="3.4198653697967529e-01" nType="-99"/>
        </Node>
        <Node pos="r" depth="1" NCoef="0" IVar="4" Cut="8.1579232215881348e-01" cType="1" res="1.3287515938282013e-01" rms="4.6882718801498413e-01" purity="6.5903633832931519e-01" nType="0">
          <Node pos="l" depth="2" NCoef="0" IVar="-1" Cut="0.0000000000000000e+00" cType="1" res="6.6131370840594172e-04" rms="4.1902625560760498e-01" purity="7.6626938581466675e-01" nType="-99"/>
          <Node pos="r" depth="2" NCoef="0" IVar="-1" Cut="0.0000000000000000e+00" cType="1" res="2.9717650613747537e-04" rms="4.8235055804252625e-01" purity="6.0946387052536011e-01" nType="-99"/>
        </Node>
      </Node>
    </BinaryTree>
    <BinaryTree type="DecisionTree" boostWeight="1.0000000000000000e+00" itree="170">
      <Node pos="s" depth="0" NCoef="0" IVar="3" Cut="3.3292666077613831e-01" cType="1" res="2.1255379542708397e-02" rms="4.8151952028274536e-01" purity="5.0224006175994873e-01" nType="0">
        <Node pos="l" depth="1" NCoef="0" IVar="4" Cut="7.1291488409042358e-01" cType="1" res="-6.2543943524360657e-02" rms="4.7288456559181213e-01" purity="3.7808823585510254e-01" nType="0">
          <Node pos="l" depth="2" NCoef="0" IVar="-1" Cut="0.0000000000000000e+00" cType="1" res="4.3880552402697504e-04" rms="4.8350673913955688e-01" purity="5.8879137039184570e-01" nType="-99"/>
          <Node pos="r" depth="2" NCoef="0" IVar="-1" Cut="0.0000000000000000e+00" cType="1" res="-6.6859507933259010e-04" rms="4.5999348163604736e-01" purity="3.2982170581817627e-01" nType="-99"/>
        </Node>
        <Node pos="r" depth="1" NCoef="0" IVar="5" Cut="3.1463327026367188e+02" cType="1" res="1.0929635167121887e-01" rms="4.7475299239158630e-01" purity="6.3267600536346436e-01" nType="0">
          <Node pos="l" depth="2" NCoef="0" IVar="-1" Cut="0.0000000000000000e+00" cType="1" res="-7.2295498102903366e-04" rms="4.7804626822471619e-01" purity="3.5974937677383423e-01" nType="-99"/>
          <Node pos="r" depth="2" NCoef="0" IVar="-1" Cut="0.0000000000000000e+00" cType="1" res="4.6482979087159038e-04" rms="4.6361193060874939e-01" purity="6.7728126049041748e-01" nType="-99"/>
        </Node>
      </Node>
    </BinaryTree>
    <BinaryTree type="DecisionTree" boostWeight="1.0000000000000000e+00" itree="171">
      <Node pos="s" depth="0" NCoef="0" IVar="5" Cut="3.7393399047851562e+02" cType="1" res="1.4941240660846233e-02" rms="4.8167362809181213e-01" purity="4.9490651488304138e-01" nType="0">
        <Node pos="l" depth="1" NCoef="0" IVar="3" Cut="4.6054300665855408e-01" cType="1" res="-1.1325571686029434e-01" rms="4.5350247621536255e-01" purity="3.2028448581695557e-01" nType="0">
          <Node pos="l" depth="2" NCoef="0" IVar="-1" Cut="0.0000000000000000e+00" cType="1" res="-1.3484901282936335e-03" rms="4.2887344956398010e-01" purity="2.5481674075126648e-01" nType="-99"/>
          <Node pos="r" depth="2" NCoef="0" IVar="-1" Cut="0.0000000000000000e+00" cType="1" res="2.5219103554263711e-04" rms="4.9481466412544250e-01" purity="5.5971401929855347e-01" nType="-99"/>
        </Node>
        <Node pos="r" depth="1" NCoef="0" IVar="3" Cut="3.3271867036819458e-01" cType="1" res="7.2132967412471771e-02" rms="4.8286634683609009e-01" purity="5.7280957698822021e-01" nType="0">
          <Node pos="l" depth="2" NCoef="0" IVar="-1" Cut="0.0000000000000000e+00" cType="1" res="-7.6476768299471587e-05" rms="4.9200424551963806e-01" purity="4.4803142547607422e-01" nType="-99"/>
          <Node pos="r" depth="2" NCoef="0" IVar="-1" Cut="0.0000000000000000e+00" cType="1" res="5.0012586871162057e-04" rms="4.5516517758369446e-01" purity="7.0295399427413940e-01" nType="-99"/>
        </Node>
      </Node>
    </BinaryTree>
    <BinaryTree type="DecisionTree" boostWeight="1.0000000000000000e+00" itree="172">
      <Node pos="s" depth="0" NCoef="0" IVar="3" Cut="3.5557541251182556e-01" cType="1" res="4.2294305749237537e-03" rms="4.8059847950935364e-01" purity="4.8458692431449890e-01" nType="0">
        <Node pos="l" depth="1" NCoef="0" IVar="5" Cut="4.5298846435546875e+02" cType="1" res="-7.6581031084060669e-02" rms="4.6917197108268738e-01" purity="3.6856657266616821e-01" nType="0">
          <Node pos="l" depth="2" NCoef="0" IVar="-1" Cut="0.0000000000000000e+00" cType="1" res="-1.2647312832996249e-03" rms="4.3099400401115417e-01" purity="2.5427895784378052e-01" nType="-99"/>
          <Node pos="r" depth="2" NCoef="0" IVar="-1" Cut="0.0000000000000000e+00" cType="1" res="1.7238760847249068e-05" rms="4.9440112709999084e-01" purity="4.9119317531585693e-01" nType="-99"/>
        </Node>
        <Node pos="r" depth="1" NCoef="0" IVar="5" Cut="4.1434036254882812e+02" cType="1" res="1.1124745756387711e-01" rms="4.7460091114044189e-01" purity="6.3823366165161133e-01" nType="0">
          <Node pos="l" depth="2" NCoef="0" IVar="-1" Cut="0.0000000000000000e+00" cType="1" res="4.3288091546855867e-05" rms="4.9708372354507446e-01" purity="5.0979524850845337e-01" nType="-99"/>
          <Node pos="r" depth="2" NCoef="0" IVar="-1" Cut="0.0000000000000000e+00" cType="1" res="5.3129083244130015e-04" rms="4.4552433490753174e-01" purity="7.2616821527481079e-01" nType="-99"/>
        </Node>
      </Node>
    </BinaryTree>
    <BinaryTree type="DecisionTree" boostWeight="1.0000000000000000e+00" itree="173">
      <Node pos="s" depth="0" NCoef="0" IVar="3" Cut="3.5329478979110718e-01" cType="1" res="3.6554452031850815e-02" rms="4.8179394006729126e-01" purity="5.1695549488067627e-01" nType="0">
        <Node pos="l" depth="1" NCoef="0" IVar="5" Cut="4.7325003051757812e+02" cType="1" res="-3.6846794188022614e-02" rms="4.7952571511268616e-01" purity="4.0733242034912109e-01" nType="0">
          <Node pos="l" depth="2" NCoef="0" IVar="-1" Cut="0.0000000000000000e+00" cType="1" res="-7.7109591802582145e-04" rms="4.5352739095687866e-01" purity="3.0085653066635132e-01" nType="-99"/>
          <Node pos="r" depth="2" NCoef="0" IVar="-1" Cut="0.0000000000000000e+00" cType="1" res="1.9931574934162199e-04" rms="4.9572604894638062e-01" purity="5.3904873132705688e-01" nType="-99"/>
        </Node>
        <Node pos="r" depth="1" NCoef="0" IVar="5" Cut="4.2896228027343750e+02" cType="1" res="1.3124004006385803e-01" rms="4.6799868345260620e-01" purity="6.5836626291275024e-01" nType="0">
          <Node pos="l" depth="2" NCoef="0" IVar="-1" Cut="0.0000000000000000e+00" cType="1" res="1.4128394832368940e-04" rms="4.9488261342048645e-01" purity="5.3780961036682129e-01" nType="-99"/>
          <Node pos="r" depth="2" NCoef="0" IVar="-1" Cut="0.0000000000000000e+00" cType="1" res="5.8639002963900566e-04" rms="4.3149304389953613e-01" purity="7.5199228525161743e-01" nType="-99"/>
        </Node>
      </Node>
    </BinaryTree>
    <BinaryTree type="DecisionTree" boostWeight="1.0000000000000000e+00" itree="174">
      <Node pos="s" depth="0" NCoef="0" IVar="3" Cut="3.1112697720527649e-01" cType="1" res="1.9971756264567375e-02" rms="4.7958526015281677e-01" purity="5.0200158357620239e-01" nType="0">
        <Node pos="l" depth="1" NCoef="0" IVar="5" Cut="4.1204702758789062e+02" cType="1" res="-8.5849203169345856e-02" rms="4.6362662315368652e-01" purity="3.4971964359283447e-01" nType="0">
          <Node pos="l" depth="2" NCoef="0" IVar="-1" Cut="0.0000000000000000e+00" cType="1" res="-2.0814111921936274e-03" rms="3.9651015400886536e-01" purity="1.9761976599693298e-01" nType="-99"/>
          <Node pos="r" depth="2" NCoef="0" IVar="-1" Cut="0.0000000000000000e+00" cType="1" res="-5.6343265896430239e-05" rms="4.9322867393493652e-01" purity="4.5822864770889282e-01" nType="-99"/>
        </Node>
        <Node pos="r" depth="1" NCoef="0" IVar="5" Cut="3.7743151855468750e+02" cType="1" res="1.0592613369226456e-01" rms="4.7512587904930115e-01" purity="6.2569445371627808e-01" nType="0">
          <Node pos="l" depth="2" NCoef="0" IVar="-1" Cut="0.0000000000000000e+00" cType="1" res="-1.5035178512334824e-04" rms="4.9211168289184570e-01" purity="4.5065483450889587e-01" nType="-99"/>
          <Node pos="r" depth="2" NCoef="0" IVar="-1" Cut="0.0000000000000000e+00" cType="1" res="4.9655319890007377e-04" rms="4.5502680540084839e-01" purity="7.0093291997909546e-01" nType="-99"/>
        </Node>
      </Node>
    </BinaryTree>
    <BinaryTree type="DecisionTree" boostWeight="1.0000000000000000e+00" itree="175">
      <Node pos="s" depth="0" NCoef="0" IVar="5" Cut="4.2111505126953125e+02" cType="1" res="1.7691574990749359e-02" rms="4.8017120361328125e-01" purity="4.9867329001426697e-01" nType="0">
        <Node pos="l" depth="1" NCoef="0" IVar="3" Cut="4.6669048070907593e-01" cType="1" res="-8.9837156236171722e-02" rms="4.6161907911300659e-01" purity="3.5165077447891235e-01" nType="0">
          <Node pos="l" depth="2" NCoef="0" IVar="-1" Cut="0.0000000000000000e+00" cType="1" res="-1.0264683514833450e-03" rms="4.4189652800559998e-01" purity="2.8643965721130371e-01" nType="-99"/>
          <Node pos="r" depth="2" NCoef="0" IVar="-1" Cut="0.0000000000000000e+00" cType="1" res="3.5894234315492213e-04" rms="4.8660269379615784e-01" purity="6.0424077510833740e-01" nType="-99"/>
        </Node>
        <Node pos="r" depth="1" NCoef="0" IVar="3" Cut="2.8768989443778992e-01" cType="1" res="9.6439771354198456e-02" rms="4.7821658849716187e-01" purity="6.0634458065032959e-01" nType="0">
          <Node pos="l" depth="2" NCoef="0" IVar="-1" Cut="0.0000000000000000e+00" cType="1" res="-8.3099490439053625e-05" rms="4.9388250708580017e-01" purity="4.4934627413749695e-01" nType="-99"/>
          <Node pos="r" depth="2" NCoef="0" IVar="-1" Cut="0.0000000000000000e+00" cType="1" res="5.0331006059423089e-04" rms="4.5391508936882019e-01" purity="7.0344156026840210e-01" nType="-99"/>
        </Node>
      </Node>
    </BinaryTree>
    <BinaryTree type="DecisionTree" boostWeight="1.0000000000000000e+00" itree="176">
      <Node pos="s" depth="0" NCoef="0" IVar="3" Cut="2.4452793598175049e-01" cType="1" res="1.9013846293091774e-02" rms="4.7971957921981812e-01" purity="5.0043994188308716e-01" nType="0">
        <Node pos="l" depth="1" NCoef="0" IVar="1" Cut="7.4973440170288086e-01" cType="1" res="-1.3131184875965118e-01" rms="4.4507366418838501e-01" purity="2.9300576448440552e-01" nType="0">
          <Node pos="l" depth="2" NCoef="0" IVar="-1" Cut="0.0000000000000000e+00" cType="1" res="-2.4699775967746973e-03" rms="3.8851705193519592e-01" purity="1.9344300031661987e-01" nType="-99"/>
          <Node pos="r" depth="2" NCoef="0" IVar="-1" Cut="0.0000000000000000e+00" cType="1" res="-5.1137187983840704e-04" rms="4.6339944005012512e-01" purity="3.4328222274780273e-01" nType="-99"/>
        </Node>
        <Node pos="r" depth="1" NCoef="0" IVar="5" Cut="3.2662860107421875e+02" cType="1" res="7.9240307211875916e-02" rms="4.7988194227218628e-01" purity="5.8354640007019043e-01" nType="0">
          <Node pos="l" depth="2" NCoef="0" IVar="-1" Cut="0.0000000000000000e+00" cType="1" res="-8.6654972983524203e-04" rms="4.6362087130546570e-01" purity="3.2354092597961426e-01" nType="-99"/>
          <Node pos="r" depth="2" NCoef="0" IVar="-1" Cut="0.0000000000000000e+00" cType="1" res="4.0248222649097443e-04" rms="4.7231855988502502e-01" purity="6.3453179597854614e-01" nType="-99"/>
        </Node>
      </Node>
    </BinaryTree>
    <BinaryTree type="DecisionTree" boostWeight="1.0000000000000000e+00" itree="177">
      <Node pos="s" depth="0" NCoef="0" IVar="3" Cut="3.7738385796546936e-01" cType="1" res="1.9175050780177116e-02" rms="4.8001909255981445e-01" purity="5.0061422586441040e-01" nType="0">
        <Node pos="l" depth="1" NCoef="0" IVar="5" Cut="3.1070657348632812e+02" cType="1" res="-6.2293130904436111e-02" rms="4.7349217534065247e-01" purity="3.8844120502471924e-01" nType="0">
          <Node pos="l" depth="2" NCoef="0" IVar="-1" Cut="0.0000000000000000e+00" cType="1" res="-4.1735125705599785e-03" rms="3.4300565719604492e-01" purity="1.3477952778339386e-01" nType="-99"/>
          <Node pos="r" depth="2" NCoef="0" IVar="-1" Cut="0.0000000000000000e+00" cType="1" res="-1.4650428784079850e-04" rms="4.8458388447761536e-01" purity="4.3099412322044373e-01" nType="-99"/>
        </Node>
        <Node pos="r" depth="1" NCoef="0" IVar="5" Cut="3.4686178588867188e+02" cType="1" res="1.4519408345222473e-01" rms="4.6249082684516907e-01" purity="6.7412912845611572e-01" nType="0">
          <Node pos="l" depth="2" NCoef="0" IVar="-1" Cut="0.0000000000000000e+00" cType="1" res="-1.7146917525678873e-04" rms="4.9631243944168091e-01" purity="4.5242744684219360e-01" nType="-99"/>
          <Node pos="r" depth="2" NCoef="0" IVar="-1" Cut="0.0000000000000000e+00" cType="1" res="5.6405959185212851e-04" rms="4.4001951813697815e-01" purity="7.3479795455932617e-01" nType="-99"/>
        </Node>
      </Node>
    </BinaryTree>
    <BinaryTree type="DecisionTree" boostWeight="1.0000000000000000e+00" itree="178">
      <Node pos="s" depth="0" NCoef="0" IVar="3" Cut="3.3194988965988159e-01" cType="1" res="1.7766330391168594e-02" rms="4.8002392053604126e-01" purity="4.9849894642829895e-01" nType="0">
        <Node pos="l" depth="1" NCoef="0" IVar="4" Cut="7.2382229566574097e-01" cType="1" res="-8.4425099194049835e-02" rms="4.6586203575134277e-01" purity="3.5257944464683533e-01" nType="0">
          <Node pos="l" depth="2" NCoef="0" IVar="-1" Cut="0.0000000000000000e+00" cType="1" res="2.8532094438560307e-04" rms="4.8788800835609436e-01" purity="5.3690922260284424e-01" nType="-99"/>
          <Node pos="r" depth="2" NCoef="0" IVar="-1" Cut="0.0000000000000000e+00" cType="1" res="-8.2893372746184468e-04" rms="4.5296621322631836e-01" purity="3.0993977189064026e-01" nType="-99"/>
        </Node>
        <Node pos="r" depth="1" NCoef="0" IVar="4" Cut="9.0224140882492065e-01" cType="1" res="1.1793511360883713e-01" rms="4.7252851724624634e-01" purity="6.4153033494949341e-01" nType="0">
          <Node pos="l" depth="2" NCoef="0" IVar="-1" Cut="0.0000000000000000e+00" cType="1" res="6.0118682449683547e-04" rms="4.3778169155120850e-01" purity="7.2995269298553467e-01" nType="-99"/>
          <Node pos="r" depth="2" NCoef="0" IVar="-1" Cut="0.0000000000000000e+00" cType="1" res="1.6763724852353334e-04" rms="4.8766568303108215e-01" purity="5.6790691614151001e-01" nType="-99"/>
        </Node>
      </Node>
    </BinaryTree>
    <BinaryTree type="DecisionTree" boostWeight="1.0000000000000000e+00" itree="179">
      <Node pos="s" depth="0" NCoef="0" IVar="3" Cut="2.4418956041336060e-01" cType="1" res="2.8639534488320351e-02" rms="4.8093080520629883e-01" purity="5.0898408889770508e-01" nType="0">
        <Node pos="l" depth="1" NCoef="0" IVar="7" Cut="1.6059312438964844e+02" cType="1" res="-1.1918341368436813e-01" rms="4.5080119371414185e-01" purity="3.0362704396247864e-01" nType="0">
          <Node pos="l" depth="2" NCoef="0" IVar="-1" Cut="0.0000000000000000e+00" cType="1" res="-1.3111549196764827e-03" rms="4.2612692713737488e-01" purity="2.4918790161609650e-01" nType="-99"/>
          <Node pos="r" depth="2" NCoef="0" IVar="-1" Cut="0.0000000000000000e+00" cType="1" res="-2.3983062419574708e-05" rms="4.9618858098983765e-01" purity="4.5602408051490784e-01" nType="-99"/>
        </Node>
        <Node pos="r" depth="1" NCoef="0" IVar="5" Cut="3.1897027587890625e+02" cType="1" res="8.7301835417747498e-02" rms="4.7991868853569031e-01" purity="5.9047830104827881e-01" nType="0">
          <Node pos="l" depth="2" NCoef="0" IVar="-1" Cut="0.0000000000000000e+00" cType="1" res="-9.0022862423211336e-04" rms="4.6228870749473572e-01" purity="3.2001516222953796e-01" nType="-99"/>
          <Node pos="r" depth="2" NCoef="0" IVar="-1" Cut="0.0000000000000000e+00" cType="1" res="4.1518954094499350e-04" rms="4.7299131751060486e-01" purity="6.3621610403060913e-01" nType="-99"/>
        </Node>
      </Node>
    </BinaryTree>
    <BinaryTree type="DecisionTree" boostWeight="1.0000000000000000e+00" itree="180">
      <Node pos="s" depth="0" NCoef="0" IVar="5" Cut="3.8223724365234375e+02" cType="1" res="1.3637878000736237e-02" rms="4.8003268241882324e-01" purity="4.9433705210685730e-01" nType="0">
        <Node pos="l" depth="1" NCoef="0" IVar="3" Cut="4.8334285616874695e-01" cType="1" res="-1.1180201172828674e-01" rms="4.5363548398017883e-01" purity="3.1940579414367676e-01" nType="0">
          <Node pos="l" depth="2" NCoef="0" IVar="-1" Cut="0.0000000000000000e+00" cType="1" res="-1.2541797477751970e-03" rms="4.3338000774383545e-01" purity="2.6365488767623901e-01" nType="-99"/>
          <Node pos="r" depth="2" NCoef="0" IVar="-1" Cut="0.0000000000000000e+00" cType="1" res="3.0234173755161464e-04" rms="4.9359831213951111e-01" purity="5.7491564750671387e-01" nType="-99"/>
        </Node>
        <Node pos="r" depth="1" NCoef="0" IVar="3" Cut="3.3335193991661072e-01" cType="1" res="7.4146099388599396e-02" rms="4.8069590330123901e-01" purity="5.7871830463409424e-01" nType="0">
          <Node pos="l" depth="2" NCoef="0" IVar="-1" Cut="0.0000000000000000e+00" cType="1" res="-9.5177434559445828e-05" rms="4.9003115296363831e-01" purity="4.4659182429313660e-01" nType="-99"/>
          <Node pos="r" depth="2" NCoef="0" IVar="-1" Cut="0.0000000000000000e+00" cType="1" res="5.0726404879242182e-04" rms="4.5219185948371887e-01" purity="7.0943367481231689e-01" nType="-99"/>
        </Node>
      </Node>
    </BinaryTree>
    <BinaryTree type="DecisionTree" boostWeight="1.0000000000000000e+00" itree="181">
      <Node pos="s" depth="0" NCoef="0" IVar="3" Cut="3.9857223629951477e-01" cType="1" res="2.2691102698445320e-02" rms="4.8106044530868530e-01" purity="5.0195449590682983e-01" nType="0">
        <Node pos="l" depth="1" NCoef="0" IVar="5" Cut="3.5694824218750000e+02" cType="1" res="-3.7532866001129150e-02" rms="4.7823292016983032e-01" purity="4.1755345463752747e-01" nType="0">
          <Node pos="l" depth="2" NCoef="0" IVar="-1" Cut="0.0000000000000000e+00" cType="1" res="-1.2861544964835048e-03" rms="4.2485091090202332e-01" purity="2.4793675541877747e-01" nType="-99"/>
          <Node pos="r" depth="2" NCoef="0" IVar="-1" Cut="0.0000000000000000e+00" cType="1" res="2.3327225790126249e-05" rms="4.9010613560676575e-01" purity="4.8164841532707214e-01" nType="-99"/>
        </Node>
        <Node pos="r" depth="1" NCoef="0" IVar="4" Cut="8.4684574604034424e-01" cType="1" res="1.4620789885520935e-01" rms="4.6291157603263855e-01" purity="6.7505741119384766e-01" nType="0">
          <Node pos="l" depth="2" NCoef="0" IVar="-1" Cut="0.0000000000000000e+00" cType="1" res="6.7934882827103138e-04" rms="4.0761998295783997e-01" purity="7.8162860870361328e-01" nType="-99"/>
          <Node pos="r" depth="2" NCoef="0" IVar="-1" Cut="0.0000000000000000e+00" cType="1" res="2.9548376915045083e-04" rms="4.8229318857192993e-01" purity="6.1154109239578247e-01" nType="-99"/>
        </Node>
      </Node>
    </BinaryTree>
    <BinaryTree type="DecisionTree" boostWeight="1.0000000000000000e+00" itree="182">
      <Node pos="s" depth="0" NCoef="0" IVar="3" Cut="2.4445691704750061e-01" cType="1" res="1.5900762751698494e-02" rms="4.8132452368736267e-01" purity="4.9451199173927307e-01" nType="0">
        <Node pos="l" depth="1" NCoef="0" IVar="4" Cut="9.5054280757904053e-01" cType="1" res="-1.1526166647672653e-01" rms="4.5232629776000977e-01" purity="3.0607855319976807e-01" nType="0">
          <Node pos="l" depth="2" NCoef="0" IVar="-1" Cut="0.0000000000000000e+00" cType="1" res="-2.9833192820660770e-04" rms="4.7535330057144165e-01" purity="3.7263402342796326e-01" nType="-99"/>
          <Node pos="r" depth="2" NCoef="0" IVar="-1" Cut="0.0000000000000000e+00" cType="1" res="-1.5135067515075207e-03" rms="4.2141237854957581e-01" purity="2.4348969757556915e-01" nType="-99"/>
        </Node>
        <Node pos="r" depth="1" NCoef="0" IVar="5" Cut="3.1684619140625000e+02" cType="1" res="7.0864543318748474e-02" rms="4.8248171806335449e-01" purity="5.7347530126571655e-01" nType="0">
          <Node pos="l" depth="2" NCoef="0" IVar="-1" Cut="0.0000000000000000e+00" cType="1" res="-8.2545256009325385e-04" rms="4.6258437633514404e-01" purity="3.2767778635025024e-01" nType="-99"/>
          <Node pos="r" depth="2" NCoef="0" IVar="-1" Cut="0.0000000000000000e+00" cType="1" res="3.6029281909577549e-04" rms="4.7780704498291016e-01" purity="6.1619699001312256e-01" nType="-99"/>
        </Node>
      </Node>
    </BinaryTree>
    <BinaryTree type="DecisionTree" boostWeight="1.0000000000000000e+00" itree="183">
      <Node pos="s" depth="0" NCoef="0" IVar="3" Cut="3.5587954521179199e-01" cType="1" res="9.1950101777911186e-03" rms="4.7981214523315430e-01" purity="4.8913577198982239e-01" nType="0">
        <Node pos="l" depth="1" NCoef="0" IVar="4" Cut="7.1291488409042358e-01" cType="1" res="-7.2640605270862579e-02" rms="4.6938502788543701e-01" purity="3.6998721957206726e-01" nType="0">
          <Node pos="l" depth="2" NCoef="0" IVar="-1" Cut="0.0000000000000000e+00" cType="1" res="3.5901265800930560e-04" rms="4.8413741588592529e-01" purity="5.6811326742172241e-01" nType="-99"/>
          <Node pos="r" depth="2" NCoef="0" IVar="-1" Cut="0.0000000000000000e+00" cType="1" res="-7.0873793447390199e-04" rms="4.5763558149337769e-01" purity="3.2633936405181885e-01" nType="-99"/>
        </Node>
        <Node pos="r" depth="1" NCoef="0" IVar="5" Cut="3.1495974731445312e+02" cType="1" res="1.1623332649469376e-01" rms="4.7217413783073425e-01" purity="6.4497822523117065e-01" nType="0">
          <Node pos="l" depth="2" NCoef="0" IVar="-1" Cut="0.0000000000000000e+00" cType="1" res="-4.8653502017259598e-04" rms="4.8705828189849854e-01" purity="3.9176067709922791e-01" nType="-99"/>
          <Node pos="r" depth="2" NCoef="0" IVar="-1" Cut="0.0000000000000000e+00" cType="1" res="4.7277877456508577e-04" rms="4.6096992492675781e-01" purity="6.8663978576660156e-01" nType="-99"/>
        </Node>
      </Node>
    </BinaryTree>
    <BinaryTree type="DecisionTree" boostWeight="1.0000000000000000e+00" itree="184">
      <Node pos="s" depth="0" NCoef="0" IVar="3" Cut="3.5421895980834961e-01" cType="1" res="2.6558578014373779e-02" rms="4.8114582896232605e-01" purity="5.0585579872131348e-01" nType="0">
        <Node pos="l" depth="1" NCoef="0" IVar="7" Cut="1.2230667877197266e+02" cType="1" res="-4.3077774345874786e-02" rms="4.7675549983978271e-01" purity="3.9922606945037842e-01" nType="0">
          <Node pos="l" depth="2" NCoef="0" IVar="-1" Cut="0.0000000000000000e+00" cType="1" res="-8.6869200458750129e-04" rms="4.4838434457778931e-01" purity="3.0063673853874207e-01" nType="-99"/>
          <Node pos="r" depth="2" NCoef="0" IVar="-1" Cut="0.0000000000000000e+00" cType="1" res="1.6768874775152653e-04" rms="4.9204042553901672e-01" purity="5.0541526079177856e-01" nType="-99"/>
        </Node>
        <Node pos="r" depth="1" NCoef="0" IVar="5" Cut="3.4339410400390625e+02" cType="1" res="1.1912088841199875e-01" rms="4.7125133872032166e-01" purity="6.4759057760238647e-01" nType="0">
          <Node pos="l" depth="2" NCoef="0" IVar="-1" Cut="0.0000000000000000e+00" cType="1" res="-2.1574385755229741e-04" rms="4.9473789334297180e-01" purity="4.4105792045593262e-01" nType="-99"/>
          <Node pos="r" depth="2" NCoef="0" IVar="-1" Cut="0.0000000000000000e+00" cType="1" res="5.0052377628162503e-04" rms="4.5451167225837708e-01" purity="7.0415896177291870e-01" nType="-99"/>
        </Node>
      </Node>
    </BinaryTree>
    <BinaryTree type="DecisionTree" boostWeight="1.0000000000000000e+00" itree="185">
      <Node pos="s" depth="0" NCoef="0" IVar="3" Cut="3.3271867036819458e-01" cType="1" res="3.5545054823160172e-02" rms="4.7966614365577698e-01" purity="5.1655000448226929e-01" nType="0">
        <Node pos="l" depth="1" NCoef="0" IVar="4" Cut="7.2773325443267822e-01" cType="1" res="-4.8180796205997467e-02" rms="4.7384339570999146e-01" purity="3.9007312059402466e-01" nType="0">
          <Node pos="l" depth="2" NCoef="0" IVar="-1" Cut="0.0000000000000000e+00" cType="1" res="4.0642794920131564e-04" rms="4.8179087042808533e-01" purity="5.7899904251098633e-01" nType="-99"/>
          <Node pos="r" depth="2" NCoef="0" IVar="-1" Cut="0.0000000000000000e+00" cType="1" res="-5.5556203005835414e-04" rms="4.6270096302032471e-01" purity="3.4119540452957153e-01" nType="-99"/>
        </Node>
        <Node pos="r" depth="1" NCoef="0" IVar="5" Cut="3.2996783447265625e+02" cType="1" res="1.2210255116224289e-01" rms="4.7019162774085999e-01" purity="6.4730435609817505e-01" nType="0">
          <Node pos="l" depth="2" NCoef="0" IVar="-1" Cut="0.0000000000000000e+00" cType="1" res="-3.5220099380239844e-04" rms="4.8980090022087097e-01" purity="4.1165223717689514e-01" nType="-99"/>
          <Node pos="r" depth="2" NCoef="0" IVar="-1" Cut="0.0000000000000000e+00" cType="1" res="4.9872446106746793e-04" rms="4.5604625344276428e-01" purity="6.9737964868545532e-01" nType="-99"/>
        </Node>
      </Node>
    </BinaryTree>
    <BinaryTree type="DecisionTree" boostWeight="1.0000000000000000e+00" itree="186">
      <Node pos="s" depth="0" NCoef="0" IVar="3" Cut="3.5557541251182556e-01" cType="1" res="2.4626141414046288e-02" rms="4.8004198074340820e-01" purity="5.0467985868453979e-01" nType="0">
        <Node pos="l" depth="1" NCoef="0" IVar="7" Cut="1.6026995849609375e+02" cType="1" res="-5.4105758666992188e-02" rms="4.7400444746017456e-01" purity="3.8832864165306091e-01" nType="0">
          <Node pos="l" depth="2" NCoef="0" IVar="-1" Cut="0.0000000000000000e+00" cType="1" res="-6.4581021433696151e-04" rms="4.5732498168945312e-01" purity="3.2796642184257507e-01" nType="-99"/>
          <Node pos="r" depth="2" NCoef="0" IVar="-1" Cut="0.0000000000000000e+00" cType="1" res="2.5551312137395144e-04" rms="4.9444714188575745e-01" purity="5.4341185092926025e-01" nType="-99"/>
        </Node>
        <Node pos="r" depth="1" NCoef="0" IVar="5" Cut="3.9359378051757812e+02" cType="1" res="1.2737697362899780e-01" rms="4.6830561757087708e-01" purity="6.5652662515640259e-01" nType="0">
          <Node pos="l" depth="2" NCoef="0" IVar="-1" Cut="0.0000000000000000e+00" cType="1" res="4.5541928557213396e-05" rms="4.9721404910087585e-01" purity="5.0544506311416626e-01" nType="-99"/>
          <Node pos="r" depth="2" NCoef="0" IVar="-1" Cut="0.0000000000000000e+00" cType="1" res="5.5166753008961678e-04" rms="4.3982249498367310e-01" purity="7.3670071363449097e-01" nType="-99"/>
        </Node>
      </Node>
    </BinaryTree>
    <BinaryTree type="DecisionTree" boostWeight="1.0000000000000000e+00" itree="187">
      <Node pos="s" depth="0" NCoef="0" IVar="3" Cut="4.0013661980628967e-01" cType="1" res="2.5904564186930656e-02" rms="4.8087495565414429e-01" purity="5.0498825311660767e-01" nType="0">
        <Node pos="l" depth="1" NCoef="0" IVar="4" Cut="6.9819998741149902e-01" cType="1" res="-3.0210871249437332e-02" rms="4.7916457056999207e-01" purity="4.2464518547058105e-01" nType="0">
          <Node pos="l" depth="2" NCoef="0" IVar="-1" Cut="0.0000000000000000e+00" cType="1" res="5.1072152564302087e-04" rms="4.6503716707229614e-01" purity="6.4374208450317383e-01" nType="-99"/>
          <Node pos="r" depth="2" NCoef="0" IVar="-1" Cut="0.0000000000000000e+00" cType="1" res="-4.0503230411559343e-04" rms="4.7239080071449280e-01" purity="3.7689766287803650e-01" nType="-99"/>
        </Node>
        <Node pos="r" depth="1" NCoef="0" IVar="5" Cut="3.2990438842773438e+02" cType="1" res="1.4378523826599121e-01" rms="4.6279513835906982e-01" purity="6.7376339435577393e-01" nType="0">
          <Node pos="l" depth="2" NCoef="0" IVar="-1" Cut="0.0000000000000000e+00" cType="1" res="-1.6057481116149575e-04" rms="4.9709066748619080e-01" purity="4.5158198475837708e-01" nType="-99"/>
          <Node pos="r" depth="2" NCoef="0" IVar="-1" Cut="0.0000000000000000e+00" cType="1" res="5.4766464745625854e-04" rms="4.4473299384117126e-01" purity="7.2462272644042969e-01" nType="-99"/>
        </Node>
      </Node>
    </BinaryTree>
    <BinaryTree type="DecisionTree" boostWeight="1.0000000000000000e+00" itree="188">
      <Node pos="s" depth="0" NCoef="0" IVar="5" Cut="4.0534042358398438e+02" cType="1" res="2.2493848577141762e-02" rms="4.8021668195724487e-01" purity="5.0192075967788696e-01" nType="0">
        <Node pos="l" depth="1" NCoef="0" IVar="3" Cut="4.8548993468284607e-01" cType="1" res="-7.9269155859947205e-02" rms="4.6330857276916504e-01" purity="3.5582479834556580e-01" nType="0">
          <Node pos="l" depth="2" NCoef="0" IVar="-1" Cut="0.0000000000000000e+00" cType="1" res="-8.2297978224232793e-04" rms="4.4922792911529541e-01" purity="3.0461251735687256e-01" nType="-99"/>
          <Node pos="r" depth="2" NCoef="0" IVar="-1" Cut="0.0000000000000000e+00" cType="1" res="3.6316213663667440e-04" rms="4.8695027828216553e-01" purity="6.0426688194274902e-01" nType="-99"/>
        </Node>
        <Node pos="r" depth="1" NCoef="0" IVar="3" Cut="3.3344718813896179e-01" cType="1" res="8.7929017841815948e-02" rms="4.7950556874275208e-01" purity="5.9586268663406372e-01" nType="0">
          <Node pos="l" depth="2" NCoef="0" IVar="-1" Cut="0.0000000000000000e+00" cType="1" res="3.9014204958220944e-05" rms="4.9373826384544373e-01" purity="4.8110994696617126e-01" nType="-99"/>
          <Node pos="r" depth="2" NCoef="0" IVar="-1" Cut="0.0000000000000000e+00" cType="1" res="5.0224759615957737e-04" rms="4.4968208670616150e-01" purity="7.1575260162353516e-01" nType="-99"/>
        </Node>
      </Node>
    </BinaryTree>
    <BinaryTree type="DecisionTree" boostWeight="1.0000000000000000e+00" itree="189">
      <Node pos="s" depth="0" NCoef="0" IVar="3" Cut="3.3266696333885193e-01" cType="1" res="1.7589008435606956e-02" rms="4.7935304045677185e-01" purity="4.9780136346817017e-01" nType="0">
        <Node pos="l" depth="1" NCoef="0" IVar="7" Cut="1.4007408142089844e+02" cType="1" res="-7.9200394451618195e-02" rms="4.6669158339500427e-01" purity="3.5599768161773682e-01" nType="0">
          <Node pos="l" depth="2" NCoef="0" IVar="-1" Cut="0.0000000000000000e+00" cType="1" res="-1.1013306211680174e-03" rms="4.3652439117431641e-01" purity="2.7504205703735352e-01" nType="-99"/>
          <Node pos="r" depth="2" NCoef="0" IVar="-1" Cut="0.0000000000000000e+00" cType="1" res="1.1693711712723598e-04" rms="4.9567371606826782e-01" purity="4.9255612492561340e-01" nType="-99"/>
        </Node>
        <Node pos="r" depth="1" NCoef="0" IVar="5" Cut="4.1928518676757812e+02" cType="1" res="1.1478810757398605e-01" rms="4.7217884659767151e-01" purity="6.4020532369613647e-01" nType="0">
          <Node pos="l" depth="2" NCoef="0" IVar="-1" Cut="0.0000000000000000e+00" cType="1" res="5.1606337365228683e-05" rms="4.9558752775192261e-01" purity="5.0690448284149170e-01" nType="-99"/>
          <Node pos="r" depth="2" NCoef="0" IVar="-1" Cut="0.0000000000000000e+00" cType="1" res="5.4651458049193025e-04" rms="4.4148066639900208e-01" purity="7.3239457607269287e-01" nType="-99"/>
        </Node>
      </Node>
    </BinaryTree>
    <BinaryTree type="DecisionTree" boostWeight="1.0000000000000000e+00" itree="190">
      <Node pos="s" depth="0" NCoef="0" IVar="3" Cut="2.8915214538574219e-01" cType="1" res="2.6390003040432930e-02" rms="4.7867807745933533e-01" purity="5.0772064924240112e-01" nType="0">
        <Node pos="l" depth="1" NCoef="0" IVar="4" Cut="7.0296162366867065e-01" cType="1" res="-1.0297600924968719e-01" rms="4.5567631721496582e-01" purity="3.2312428951263428e-01" nType="0">
          <Node pos="l" depth="2" NCoef="0" IVar="-1" Cut="0.0000000000000000e+00" cType="1" res="2.8622933314181864e-04" rms="4.8756060004234314e-01" purity="5.3201335668563843e-01" nType="-99"/>
          <Node pos="r" depth="2" NCoef="0" IVar="-1" Cut="0.0000000000000000e+00" cType="1" res="-1.0082887019962072e-03" rms="4.4079095125198364e-01" purity="2.8137093782424927e-01" nType="-99"/>
        </Node>
        <Node pos="r" depth="1" NCoef="0" IVar="5" Cut="3.0580007934570312e+02" cType="1" res="1.0686002671718597e-01" rms="4.7499030828475952e-01" purity="6.2254577875137329e-01" nType="0">
          <Node pos="l" depth="2" NCoef="0" IVar="-1" Cut="0.0000000000000000e+00" cType="1" res="-9.8575232550501823e-04" rms="4.6160259842872620e-01" purity="3.2241582870483398e-01" nType="-99"/>
          <Node pos="r" depth="2" NCoef="0" IVar="-1" Cut="0.0000000000000000e+00" cType="1" res="4.4784296187572181e-04" rms="4.6724084019660950e-01" purity="6.6073375940322876e-01" nType="-99"/>
        </Node>
      </Node>
    </BinaryTree>
    <BinaryTree type="DecisionTree" boostWeight="1.0000000000000000e+00" itree="191">
      <Node pos="s" depth="0" NCoef="0" IVar="3" Cut="4.2224580049514771e-01" cType="1" res="8.0231344327330589e-03" rms="4.8012411594390869e-01" purity="4.8674479126930237e-01" nType="0">
        <Node pos="l" depth="1" NCoef="0" IVar="4" Cut="7.1759968996047974e-01" cType="1" res="-4.3495271354913712e-02" rms="4.7690239548683167e-01" purity="4.1542056202888489e-01" nType="0">
          <Node pos="l" depth="2" NCoef="0" IVar="-1" Cut="0.0000000000000000e+00" cType="1" res="4.1951565071940422e-04" rms="4.7642502188682556e-01" purity="5.9956753253936768e-01" nType="-99"/>
          <Node pos="r" depth="2" NCoef="0" IVar="-1" Cut="0.0000000000000000e+00" cType="1" res="-4.5895617222413421e-04" rms="4.6946454048156738e-01" purity="3.7298253178596497e-01" nType="-99"/>
        </Node>
        <Node pos="r" depth="1" NCoef="0" IVar="5" Cut="3.5726730346679688e+02" cType="1" res="1.4475485682487488e-01" rms="4.6147856116294861e-01" purity="6.7604172229766846e-01" nType="0">
          <Node pos="l" depth="2" NCoef="0" IVar="-1" Cut="0.0000000000000000e+00" cType="1" res="-4.0099057514453307e-06" rms="4.9715012311935425e-01" purity="4.9112093448638916e-01" nType="-99"/>
          <Node pos="r" depth="2" NCoef="0" IVar="-1" Cut="0.0000000000000000e+00" cType="1" res="5.7022523833438754e-04" rms="4.3669891357421875e-01" purity="7.4145698547363281e-01" nType="-99"/>
        </Node>
      </Node>
    </BinaryTree>
    <BinaryTree type="DecisionTree" boostWeight="1.0000000000000000e+00" itree="192">
      <Node pos="s" depth="0" NCoef="0" IVar="3" Cut="3.1121736764907837e-01" cType="1" res="1.6710927709937096e-02" rms="4.7932404279708862e-01" purity="4.9645823240280151e-01" nType="0">
        <Node pos="l" depth="1" NCoef="0" IVar="5" Cut="5.2933569335937500e+02" cType="1" res="-7.7792413532733917e-02" rms="4.6487307548522949e-01" purity="3.5279428958892822e-01" nType="0">
          <Node pos="l" depth="2" NCoef="0" IVar="-1" Cut="0.0000000000000000e+00" cType="1" res="-9.9061615765094757e-04" rms="4.3963274359703064e-01" purity="2.7469721436500549e-01" nType="-99"/>
          <Node pos="r" depth="2" NCoef="0" IVar="-1" Cut="0.0000000000000000e+00" cType="1" res="1.0236597881885245e-04" rms="4.9578672647476196e-01" purity="5.0909948348999023e-01" nType="-99"/>
        </Node>
        <Node pos="r" depth="1" NCoef="0" IVar="5" Cut="3.4632971191406250e+02" cType="1" res="9.5926828682422638e-02" rms="4.7689360380172729e-01" purity="6.1688220500946045e-01" nType="0">
          <Node pos="l" depth="2" NCoef="0" IVar="-1" Cut="0.0000000000000000e+00" cType="1" res="-3.8792594568803906e-04" rms="4.8667570948600769e-01" purity="4.0230128169059753e-01" nType="-99"/>
          <Node pos="r" depth="2" NCoef="0" IVar="-1" Cut="0.0000000000000000e+00" cType="1" res="4.5055800001136959e-04" rms="4.6323779225349426e-01" purity="6.7763662338256836e-01" nType="-99"/>
        </Node>
      </Node>
    </BinaryTree>
    <BinaryTree type="DecisionTree" boostWeight="1.0000000000000000e+00" itree="193">
      <Node pos="s" depth="0" NCoef="0" IVar="3" Cut="2.2152401506900787e-01" cType="1" res="2.2806400433182716e-02" rms="4.8071336746215820e-01" purity="5.0145709514617920e-01" nType="0">
        <Node pos="l" depth="1" NCoef="0" IVar="3" Cut="1.8071612715721130e-01" cType="1" res="-1.2556666135787964e-01" rms="4.4584512710571289e-01" purity="2.9185894131660461e-01" nType="0">
          <Node pos="l" depth="2" NCoef="0" IVar="-1" Cut="0.0000000000000000e+00" cType="1" res="-1.4769328990951180e-03" rms="4.2391470074653625e-01" purity="2.4552278220653534e-01" nType="-99"/>
          <Node pos="r" depth="2" NCoef="0" IVar="-1" Cut="0.0000000000000000e+00" cType="1" res="-3.5399678745307028e-04" rms="4.6878314018249512e-01" purity="3.5948503017425537e-01" nType="-99"/>
        </Node>
        <Node pos="r" depth="1" NCoef="0" IVar="5" Cut="3.4593542480468750e+02" cType="1" res="6.8701505661010742e-02" rms="4.8183277249336243e-01" purity="5.6629049777984619e-01" nType="0">
          <Node pos="l" depth="2" NCoef="0" IVar="-1" Cut="0.0000000000000000e+00" cType="1" res="-4.7147987061180174e-04" rms="4.7483614087104797e-01" purity="3.6588913202285767e-01" nType="-99"/>
          <Node pos="r" depth="2" NCoef="0" IVar="-1" Cut="0.0000000000000000e+00" cType="1" res="3.8075586780905724e-04" rms="4.7540858387947083e-01" purity="6.2351417541503906e-01" nType="-99"/>
        </Node>
      </Node>
    </BinaryTree>
    <BinaryTree type="DecisionTree" boostWeight="1.0000000000000000e+00" itree="194">
      <Node pos="s" depth="0" NCoef="0" IVar="3" Cut="3.1073153018951416e-01" cType="1" res="2.0355354994535446e-02" rms="4.7930952906608582e-01" purity="4.9994602799415588e-01" nType="0">
        <Node pos="l" depth="1" NCoef="0" IVar="7" Cut="1.6224789428710938e+02" cType="1" res="-7.5751952826976776e-02" rms="4.6548140048980713e-01" purity="3.5364618897438049e-01" nType="0">
          <Node pos="l" depth="2" NCoef="0" IVar="-1" Cut="0.0000000000000000e+00" cType="1" res="-8.6225854465737939e-04" rms="4.4527596235275269e-01" purity="2.9452085494995117e-01" nType="-99"/>
          <Node pos="r" depth="2" NCoef="0" IVar="-1" Cut="0.0000000000000000e+00" cType="1" res="1.9498601614031941e-04" rms="4.9681788682937622e-01" purity="5.1700240373611450e-01" nType="-99"/>
        </Node>
        <Node pos="r" depth="1" NCoef="0" IVar="5" Cut="3.7062432861328125e+02" cType="1" res="9.9612638354301453e-02" rms="4.7603866457939148e-01" purity="6.2059569358825684e-01" nType="0">
          <Node pos="l" depth="2" NCoef="0" IVar="-1" Cut="0.0000000000000000e+00" cType="1" res="-1.6511738067492843e-04" rms="4.9187946319580078e-01" purity="4.4408035278320312e-01" nType="-99"/>
          <Node pos="r" depth="2" NCoef="0" IVar="-1" Cut="0.0000000000000000e+00" cType="1" res="4.7758474829606712e-04" rms="4.5864436030387878e-01" purity="6.9171881675720215e-01" nType="-99"/>
        </Node>
      </Node>
    </BinaryTree>
    <BinaryTree type="DecisionTree" boostWeight="1.0000000000000000e+00" itree="195">
      <Node pos="s" depth="0" NCoef="0" IVar="3" Cut="3.5518479347229004e-01" cType="1" res="3.7761691957712173e-02" rms="4.7986865043640137e-01" purity="5.1713699102401733e-01" nType="0">
        <Node pos="l" depth="1" NCoef="0" IVar="4" Cut="6.8005663156509399e-01" cType="1" res="-3.9308682084083557e-02" rms="4.7740232944488525e-01" purity="4.0035668015480042e-01" nType="0">
          <Node pos="l" depth="2" NCoef="0" IVar="-1" Cut="0.0000000000000000e+00" cType="1" res="4.3141216156072915e-04" rms="4.7639644145965576e-01" purity="6.0558766126632690e-01" nType="-99"/>
          <Node pos="r" depth="2" NCoef="0" IVar="-1" Cut="0.0000000000000000e+00" cType="1" res="-3.8587913149967790e-04" rms="4.7176951169967651e-01" purity="3.6675593256950378e-01" nType="-99"/>
        </Node>
        <Node pos="r" depth="1" NCoef="0" IVar="5" Cut="4.2161080932617188e+02" cType="1" res="1.3658769428730011e-01" rms="4.6466994285583496e-01" purity="6.6688233613967896e-01" nType="0">
          <Node pos="l" depth="2" NCoef="0" IVar="-1" Cut="0.0000000000000000e+00" cType="1" res="1.7388978449162096e-04" rms="4.9394658207893372e-01" purity="5.4581952095031738e-01" nType="-99"/>
          <Node pos="r" depth="2" NCoef="0" IVar="-1" Cut="0.0000000000000000e+00" cType="1" res="5.7171721709892154e-04" rms="4.3019109964370728e-01" purity="7.5422060489654541e-01" nType="-99"/>
        </Node>
      </Node>
    </BinaryTree>
    <BinaryTree type="DecisionTree" boostWeight="1.0000000000000000e+00" itree="196">
      <Node pos="s" depth="0" NCoef="0" IVar="5" Cut="6.0270544433593750e+02" cType="1" res="2.1517220884561539e-02" rms="4.7942602634429932e-01" purity="5.0088727474212646e-01" nType="0">
        <Node pos="l" depth="1" NCoef="0" IVar="3" Cut="4.4066688418388367e-01" cType="1" res="-2.8220931068062782e-02" rms="4.7740194201469421e-01" purity="4.3662157654762268e-01" nType="0">
          <Node pos="l" depth="2" NCoef="0" IVar="-1" Cut="0.0000000000000000e+00" cType="1" res="-4.2334228055551648e-04" rms="4.6945947408676147e-01" purity="3.7251776456832886e-01" nType="-99"/>
          <Node pos="r" depth="2" NCoef="0" IVar="-1" Cut="0.0000000000000000e+00" cType="1" res="4.0137508767656982e-04" rms="4.7364521026611328e-01" purity="6.4180707931518555e-01" nType="-99"/>
        </Node>
        <Node pos="r" depth="1" NCoef="0" IVar="3" Cut="3.1370201706886292e-01" cType="1" res="1.6372312605381012e-01" rms="4.5616987347602844e-01" purity="6.8462866544723511e-01" nType="0">
          <Node pos="l" depth="2" NCoef="0" IVar="-1" Cut="0.0000000000000000e+00" cType="1" res="2.4950451916083694e-04" rms="4.9362072348594666e-01" purity="5.5241721868515015e-01" nType="-99"/>
          <Node pos="r" depth="2" NCoef="0" IVar="-1" Cut="0.0000000000000000e+00" cType="1" res="6.3920364482328296e-04" rms="4.1277503967285156e-01" purity="7.8048467636108398e-01" nType="-99"/>
        </Node>
      </Node>
    </BinaryTree>
    <BinaryTree type="DecisionTree" boostWeight="1.0000000000000000e+00" itree="197">
      <Node pos="s" depth="0" NCoef="0" IVar="3" Cut="2.6638859510421753e-01" cType="1" res="1.5094941481947899e-02" rms="4.7940227389335632e-01" purity="4.9403399229049683e-01" nType="0">
        <Node pos="l" depth="1" NCoef="0" IVar="7" Cut="1.3932870483398438e+02" cType="1" res="-1.0994795709848404e-01" rms="4.5288786292076111e-01" purity="3.0907064676284790e-01" nType="0">
          <Node pos="l" depth="2" NCoef="0" IVar="-1" Cut="0.0000000000000000e+00" cType="1" res="-1.3773352839052677e-03" rms="4.2246660590171814e-01" purity="2.4372790753841400e-01" nType="-99"/>
          <Node pos="r" depth="2" NCoef="0" IVar="-1" Cut="0.0000000000000000e+00" cType="1" res="-1.1924798309337348e-04" rms="4.9168908596038818e-01" purity="4.2633306980133057e-01" nType="-99"/>
        </Node>
        <Node pos="r" depth="1" NCoef="0" IVar="5" Cut="4.0716168212890625e+02" cType="1" res="8.0456234514713287e-02" rms="4.7989836335182190e-01" purity="5.9071642160415649e-01" nType="0">
          <Node pos="l" depth="2" NCoef="0" IVar="-1" Cut="0.0000000000000000e+00" cType="1" res="-1.0695509990910068e-04" rms="4.9007141590118408e-01" purity="4.4948887825012207e-01" nType="-99"/>
          <Node pos="r" depth="2" NCoef="0" IVar="-1" Cut="0.0000000000000000e+00" cType="1" res="4.5358913484960794e-04" rms="4.6244636178016663e-01" purity="6.7745852470397949e-01" nType="-99"/>
        </Node>
      </Node>
    </BinaryTree>
    <BinaryTree type="DecisionTree" boostWeight="1.0000000000000000e+00" itree="198">
      <Node pos="s" depth="0" NCoef="0" IVar="3" Cut="2.4418956041336060e-01" cType="1" res="2.7314933016896248e-02" rms="4.7840324044227600e-01" purity="5.0756853818893433e-01" nType="0">
        <Node pos="l" depth="1" NCoef="0" IVar="7" Cut="1.6723071289062500e+02" cType="1" res="-1.1450149118900299e-01" rms="4.4903871417045593e-01" purity="3.0367845296859741e-01" nType="0">
          <Node pos="l" depth="2" NCoef="0" IVar="-1" Cut="0.0000000000000000e+00" cType="1" res="-1.4280900359153748e-03" rms="4.2127606272697449e-01" purity="2.4241396784782410e-01" nType="-99"/>
          <Node pos="r" depth="2" NCoef="0" IVar="-1" Cut="0.0000000000000000e+00" cType="1" res="1.2249531573615968e-04" rms="4.9821996688842773e-01" purity="4.9097651243209839e-01" nType="-99"/>
        </Node>
        <Node pos="r" depth="1" NCoef="0" IVar="5" Cut="5.5256573486328125e+02" cType="1" res="8.4202937781810760e-02" rms="4.7800663113594055e-01" purity="5.8935660123825073e-01" nType="0">
          <Node pos="l" depth="2" NCoef="0" IVar="-1" Cut="0.0000000000000000e+00" cType="1" res="8.5931125795468688e-05" rms="4.8726370930671692e-01" purity="5.0993633270263672e-01" nType="-99"/>
          <Node pos="r" depth="2" NCoef="0" IVar="-1" Cut="0.0000000000000000e+00" cType="1" res="5.7759578339755535e-04" rms="4.3605485558509827e-01" purity="7.3715531826019287e-01" nType="-99"/>
        </Node>
      </Node>
    </BinaryTree>
    <BinaryTree type="DecisionTree" boostWeight="1.0000000000000000e+00" itree="199">
      <Node pos="s" depth="0" NCoef="0" IVar="3" Cut="3.3363708853721619e-01" cType="1" res="1.7855048179626465e-02" rms="4.7955057024955750e-01" purity="4.9668177962303162e-01" nType="0">
        <Node pos="l" depth="1" NCoef="0" IVar="7" Cut="1.3641244506835938e+02" cType="1" res="-6.6596448421478271e-02" rms="4.6970492601394653e-01" purity="3.6663642525672913e-01" nType="0">
          <Node pos="l" depth="2" NCoef="0" IVar="-1" Cut="0.0000000000000000e+00" cType="1" res="-8.6153810843825340e-04" rms="4.4595864415168762e-01" purity="2.9489693045616150e-01" nType="-99"/>
          <Node pos="r" depth="2" NCoef="0" IVar="-1" Cut="0.0000000000000000e+00" cType="1" res="7.7977791079320014e-05" rms="4.9370601773262024e-01" purity="4.8119783401489258e-01" nType="-99"/>
        </Node>
        <Node pos="r" depth="1" NCoef="0" IVar="5" Cut="3.2447808837890625e+02" cType="1" res="1.0671928524971008e-01" rms="4.7371038794517517e-01" purity="6.3352221250534058e-01" nType="0">
          <Node pos="l" depth="2" NCoef="0" IVar="-1" Cut="0.0000000000000000e+00" cType="1" res="-5.0346908392384648e-04" rms="4.8438909649848938e-01" purity="3.8662710785865784e-01" nType="-99"/>
          <Node pos="r" depth="2" NCoef="0" IVar="-1" Cut="0.0000000000000000e+00" cType="1" res="4.5835360651835799e-04" rms="4.6189922094345093e-01" purity="6.8212074041366577e-01" nType="-99"/>
        </Node>
      </Node>
    </BinaryTree>
    <BinaryTree type="DecisionTree" boostWeight="1.0000000000000000e+00" itree="200">
      <Node pos="s" depth="0" NCoef="0" IVar="3" Cut="2.6530340313911438e-01" cType="1" res="1.3607321307063103e-02" rms="4.7851076722145081e-01" purity="4.9319189786911011e-01" nType="0">
        <Node pos="l" depth="1" NCoef="0" IVar="4" Cut="7.6260924339294434e-01" cType="1" res="-1.1706411093473434e-01" rms="4.4866740703582764e-01" purity="3.0094888806343079e-01" nType="0">
          <Node pos="l" depth="2" NCoef="0" IVar="-1" Cut="0.0000000000000000e+00" cType="1" res="5.6215452787000686e-05" rms="4.8542124032974243e-01" purity="4.5765852928161621e-01" nType="-99"/>
          <Node pos="r" depth="2" NCoef="0" IVar="-1" Cut="0.0000000000000000e+00" cType="1" res="-1.2995535507798195e-03" rms="4.3077826499938965e-01" purity="2.5675180554389954e-01" nType="-99"/>
        </Node>
        <Node pos="r" depth="1" NCoef="0" IVar="5" Cut="3.0866448974609375e+02" cType="1" res="7.9334236681461334e-02" rms="4.7956418991088867e-01" purity="5.8988893032073975e-01" nType="0">
          <Node pos="l" depth="2" NCoef="0" IVar="-1" Cut="0.0000000000000000e+00" cType="1" res="-1.0638686362653971e-03" rms="4.5235219597816467e-01" purity="3.0784937739372253e-01" nType="-99"/>
          <Node pos="r" depth="2" NCoef="0" IVar="-1" Cut="0.0000000000000000e+00" cType="1" res="3.7927279481664300e-04" rms="4.7455415129661560e-01" purity="6.2959402799606323e-01" nType="-99"/>
        </Node>
      </Node>
    </BinaryTree>
    <BinaryTree type="DecisionTree" boostWeight="1.0000000000000000e+00" itree="201">
      <Node pos="s" depth="0" NCoef="0" IVar="3" Cut="3.1073153018951416e-01" cType="1" res="1.9789395853877068e-02" rms="4.7984316945075989e-01" purity="4.9835044145584106e-01" nType="0">
        <Node pos="l" depth="1" NCoef="0" IVar="4" Cut="6.9624173641204834e-01" cType="1" res="-7.1454003453254700e-02" rms="4.6756762266159058e-01" purity="3.5511857271194458e-01" nType="0">
          <Node pos="l" depth="2" NCoef="0" IVar="-1" Cut="0.0000000000000000e+00" cType="1" res="3.1487905653193593e-04" rms="4.8947778344154358e-01" purity="5.3876888751983643e-01" nType="-99"/>
          <Node pos="r" depth="2" NCoef="0" IVar="-1" Cut="0.0000000000000000e+00" cType="1" res="-6.3548778416588902e-04" rms="4.5869800448417664e-01" purity="3.2318678498268127e-01" nType="-99"/>
        </Node>
        <Node pos="r" depth="1" NCoef="0" IVar="5" Cut="3.0646591186523438e+02" cType="1" res="9.5657229423522949e-02" rms="4.7669830918312073e-01" purity="6.1744612455368042e-01" nType="0">
          <Node pos="l" depth="2" NCoef="0" IVar="-1" Cut="0.0000000000000000e+00" cType="1" res="-8.9895853307098150e-04" rms="4.6525409817695618e-01" purity="3.2824856042861938e-01" nType="-99"/>
          <Node pos="r" depth="2" NCoef="0" IVar="-1" Cut="0.0000000000000000e+00" cType="1" res="4.2022470734082162e-04" rms="4.6923097968101501e-01" purity="6.5672004222869873e-01" nType="-99"/>
        </Node>
      </Node>
    </BinaryTree>
    <BinaryTree type="DecisionTree" boostWeight="1.0000000000000000e+00" itree="202">
      <Node pos="s" depth="0" NCoef="0" IVar="3" Cut="3.1013363599777222e-01" cType="1" res="2.5522025302052498e-02" rms="4.7804966568946838e-01" purity="5.0600659847259521e-01" nType="0">
        <Node pos="l" depth="1" NCoef="0" IVar="5" Cut="5.0911111450195312e+02" cType="1" res="-7.4046991765499115e-02" rms="4.6483403444290161e-01" purity="3.5364791750907898e-01" nType="0">
          <Node pos="l" depth="2" NCoef="0" IVar="-1" Cut="0.0000000000000000e+00" cType="1" res="-1.0829372331500053e-03" rms="4.3565103411674500e-01" purity="2.6565575599670410e-01" nType="-99"/>
          <Node pos="r" depth="2" NCoef="0" IVar="-1" Cut="0.0000000000000000e+00" cType="1" res="1.0896845924435183e-04" rms="4.9596181511878967e-01" purity="5.0650197267532349e-01" nType="-99"/>
        </Node>
        <Node pos="r" depth="1" NCoef="0" IVar="5" Cut="3.9319146728515625e+02" cType="1" res="1.0481456667184830e-01" rms="4.7357401251792908e-01" purity="6.2733870744705200e-01" nType="0">
          <Node pos="l" depth="2" NCoef="0" IVar="-1" Cut="0.0000000000000000e+00" cType="1" res="-5.8667475968832150e-05" rms="4.9286249279975891e-01" purity="4.6991324424743652e-01" nType="-99"/>
          <Node pos="r" depth="2" NCoef="0" IVar="-1" Cut="0.0000000000000000e+00" cType="1" res="4.9344822764396667e-04" rms="4.5145353674888611e-01" purity="7.0861291885375977e-01" nType="-99"/>
        </Node>
      </Node>
    </BinaryTree>
    <BinaryTree type="DecisionTree" boostWeight="1.0000000000000000e+00" itree="203">
      <Node pos="s" depth="0" NCoef="0" IVar="3" Cut="3.1139460206031799e-01" cType="1" res="2.0047869533300400e-02" rms="4.7981250286102295e-01" purity="4.9805966019630432e-01" nType="0">
        <Node pos="l" depth="1" NCoef="0" IVar="4" Cut="6.8012320995330811e-01" cType="1" res="-6.6857755184173584e-02" rms="4.6828797459602356e-01" purity="3.5992142558097839e-01" nType="0">
          <Node pos="l" depth="2" NCoef="0" IVar="-1" Cut="0.0000000000000000e+00" cType="1" res="3.8822568603791296e-04" rms="4.8384818434715271e-01" purity="5.6694442033767700e-01" nType="-99"/>
          <Node pos="r" depth="2" NCoef="0" IVar="-1" Cut="0.0000000000000000e+00" cType="1" res="-6.0726364608854055e-04" rms="4.5997130870819092e-01" purity="3.2664456963539124e-01" nType="-99"/>
        </Node>
        <Node pos="r" depth="1" NCoef="0" IVar="5" Cut="3.4247601318359375e+02" cType="1" res="9.4184026122093201e-02" rms="4.7707647085189819e-01" purity="6.1590063571929932e-01" nType="0">
          <Node pos="l" depth="2" NCoef="0" IVar="-1" Cut="0.0000000000000000e+00" cType="1" res="-4.0034670382738113e-04" rms="4.8625200986862183e-01" purity="3.9643380045890808e-01" nType="-99"/>
          <Node pos="r" depth="2" NCoef="0" IVar="-1" Cut="0.0000000000000000e+00" cType="1" res="4.4115816126577556e-04" rms="4.6423789858818054e-01" purity="6.7473089694976807e-01" nType="-99"/>
        </Node>
      </Node>
    </BinaryTree>
    <BinaryTree type="DecisionTree" boostWeight="1.0000000000000000e+00" itree="204">
      <Node pos="s" depth="0" NCoef="0" IVar="3" Cut="2.4445691704750061e-01" cType="1" res="2.2786051034927368e-02" rms="4.7907957434654236e-01" purity="5.0105226039886475e-01" nType="0">
        <Node pos="l" depth="1" NCoef="0" IVar="7" Cut="1.0275030517578125e+02" cType="1" res="-1.1731670796871185e-01" rms="4.4790938496589661e-01" purity="2.9769712686538696e-01" nType="0">
          <Node pos="l" depth="2" NCoef="0" IVar="-1" Cut="0.0000000000000000e+00" cType="1" res="-1.8844648730009794e-03" rms="3.9753386378288269e-01" purity="2.0690402388572693e-01" nType="-99"/>
          <Node pos="r" depth="2" NCoef="0" IVar="-1" Cut="0.0000000000000000e+00" cType="1" res="-4.5157546992413700e-04" rms="4.7294333577156067e-01" purity="3.5682019591331482e-01" nType="-99"/>
        </Node>
        <Node pos="r" depth="1" NCoef="0" IVar="5" Cut="4.3369241333007812e+02" cType="1" res="8.0096431076526642e-02" rms="4.7960707545280457e-01" purity="5.8423668146133423e-01" nType="0">
          <Node pos="l" depth="2" NCoef="0" IVar="-1" Cut="0.0000000000000000e+00" cType="1" res="-3.5483448300510645e-05" rms="4.8830461502075195e-01" purity="4.6283054351806641e-01" nType="-99"/>
          <Node pos="r" depth="2" NCoef="0" IVar="-1" Cut="0.0000000000000000e+00" cType="1" res="4.7766655916348100e-04" rms="4.6040707826614380e-01" purity="6.8239444494247437e-01" nType="-99"/>
        </Node>
      </Node>
    </BinaryTree>
    <BinaryTree type="DecisionTree" boostWeight="1.0000000000000000e+00" itree="205">
      <Node pos="s" depth="0" NCoef="0" IVar="3" Cut="3.5512176156044006e-01" cType="1" res="2.7491826564073563e-02" rms="4.8007091879844666e-01" purity="5.0572884082794189e-01" nType="0">
        <Node pos="l" depth="1" NCoef="0" IVar="4" Cut="7.0565176010131836e-01" cType="1" res="-4.3879121541976929e-02" rms="4.7580516338348389e-01" purity="3.9395305514335632e-01" nType="0">
          <Node pos="l" depth="2" NCoef="0" IVar="-1" Cut="0.0000000000000000e+00" cType="1" res="3.9678771281614900e-04" rms="4.8295551538467407e-01" purity="5.8046531677246094e-01" nType="-99"/>
          <Node pos="r" depth="2" NCoef="0" IVar="-1" Cut="0.0000000000000000e+00" cType="1" res="-4.4595552026294172e-04" rms="4.6803033351898193e-01" purity="3.5604676604270935e-01" nType="-99"/>
        </Node>
        <Node pos="r" depth="1" NCoef="0" IVar="5" Cut="4.0534042358398438e+02" cType="1" res="1.2091424316167831e-01" rms="4.6947848796844482e-01" purity="6.5203994512557983e-01" nType="0">
          <Node pos="l" depth="2" NCoef="0" IVar="-1" Cut="0.0000000000000000e+00" cType="1" res="1.0407759691588581e-04" rms="4.9610713124275208e-01" purity="5.2262920141220093e-01" nType="-99"/>
          <Node pos="r" depth="2" NCoef="0" IVar="-1" Cut="0.0000000000000000e+00" cType="1" res="5.3296639816835523e-04" rms="4.4107806682586670e-01" purity="7.3421496152877808e-01" nType="-99"/>
        </Node>
      </Node>
    </BinaryTree>
    <BinaryTree type="DecisionTree" boostWeight="1.0000000000000000e+00" itree="206">
      <Node pos="s" depth="0" NCoef="0" IVar="3" Cut="3.9874324202537537e-01" cType="1" res="2.3623038083314896e-02" rms="4.7787120938301086e-01" purity="5.0355780124664307e-01" nType="0">
        <Node pos="l" depth="1" NCoef="0" IVar="5" Cut="3.7255880737304688e+02" cType="1" res="-3.7513330578804016e-02" rms="4.7487959265708923e-01" purity="4.1617226600646973e-01" nType="0">
          <Node pos="l" depth="2" NCoef="0" IVar="-1" Cut="0.0000000000000000e+00" cType="1" res="-1.7426289850845933e-03" rms="4.0850317478179932e-01" purity="2.1751694381237030e-01" nType="-99"/>
          <Node pos="r" depth="2" NCoef="0" IVar="-1" Cut="0.0000000000000000e+00" cType="1" res="8.4904044342692941e-05" rms="4.8892933130264282e-01" purity="5.0002163648605347e-01" nType="-99"/>
        </Node>
        <Node pos="r" depth="1" NCoef="0" IVar="7" Cut="1.2390907287597656e+02" cType="1" res="1.4734660089015961e-01" rms="4.5962762832641602e-01" purity="6.8040263652801514e-01" nType="0">
          <Node pos="l" depth="2" NCoef="0" IVar="-1" Cut="0.0000000000000000e+00" cType="1" res="2.4283760285470635e-04" rms="4.8783311247825623e-01" purity="5.8408838510513306e-01" nType="-99"/>
          <Node pos="r" depth="2" NCoef="0" IVar="-1" Cut="0.0000000000000000e+00" cType="1" res="6.3001562375575304e-04" rms="4.1682159900665283e-01" purity="7.7181035280227661e-01" nType="-99"/>
        </Node>
      </Node>
    </BinaryTree>
    <BinaryTree type="DecisionTree" boostWeight="1.0000000000000000e+00" itree="207">
      <Node pos="s" depth="0" NCoef="0" IVar="5" Cut="3.0074990844726562e+02" cType="1" res="2.7664370834827423e-02" rms="4.7942692041397095e-01" purity="5.0625056028366089e-01" nType="0">
        <Node pos="l" depth="1" NCoef="0" IVar="3" Cut="3.0612292885780334e-01" cType="1" res="-1.9045063853263855e-01" rms="4.0380540490150452e-01" purity="2.2470986843109131e-01" nType="0">
          <Node pos="l" depth="2" NCoef="0" IVar="-1" Cut="0.0000000000000000e+00" cType="1" res="-5.4838806390762329e-03" rms="3.0700477957725525e-01" purity="1.0546013712882996e-01" nType="-99"/>
          <Node pos="r" depth="2" NCoef="0" IVar="-1" Cut="0.0000000000000000e+00" cType="1" res="-8.4062688983976841e-04" rms="4.6702137589454651e-01" purity="3.3243650197982788e-01" nType="-99"/>
        </Node>
        <Node pos="r" depth="1" NCoef="0" IVar="3" Cut="2.4352553486824036e-01" cType="1" res="5.6149747222661972e-02" rms="4.8119485378265381e-01" purity="5.4301929473876953e-01" nType="0">
          <Node pos="l" depth="2" NCoef="0" IVar="-1" Cut="0.0000000000000000e+00" cType="1" res="-3.8182246498763561e-04" rms="4.7205981612205505e-01" purity="3.5715195536613464e-01" nType="-99"/>
          <Node pos="r" depth="2" NCoef="0" IVar="-1" Cut="0.0000000000000000e+00" cType="1" res="3.6070408532395959e-04" rms="4.7587552666664124e-01" purity="6.1785829067230225e-01" nType="-99"/>
        </Node>
      </Node>
    </BinaryTree>
    <BinaryTree type="DecisionTree" boostWeight="1.0000000000000000e+00" itree="208">
      <Node pos="s" depth="0" NCoef="0" IVar="3" Cut="2.4367642402648926e-01" cType="1" res="1.8953625112771988e-02" rms="4.7860091924667358e-01" purity="4.9765959382057190e-01" nType="0">
        <Node pos="l" depth="1" NCoef="0" IVar="5" Cut="4.1068804931640625e+02" cType="1" res="-1.1888242512941360e-01" rms="4.4438558816909790e-01" purity="2.9630804061889648e-01" nType="0">
          <Node pos="l" depth="2" NCoef="0" IVar="-1" Cut="0.0000000000000000e+00" cType="1" res="-2.3650608491152525e-03" rms="3.7485769391059875e-01" purity="1.7198708653450012e-01" nType="-99"/>
          <Node pos="r" depth="2" NCoef="0" IVar="-1" Cut="0.0000000000000000e+00" cType="1" res="-3.1059040338732302e-04" rms="4.8476937413215637e-01" purity="3.9573261141777039e-01" nType="-99"/>
        </Node>
        <Node pos="r" depth="1" NCoef="0" IVar="4" Cut="7.8785288333892822e-01" cType="1" res="7.4776791036128998e-02" rms="4.8066419363021851e-01" purity="5.7920634746551514e-01" nType="0">
          <Node pos="l" depth="2" NCoef="0" IVar="-1" Cut="0.0000000000000000e+00" cType="1" res="5.8657315094023943e-04" rms="4.4306457042694092e-01" purity="7.0625025033950806e-01" nType="-99"/>
          <Node pos="r" depth="2" NCoef="0" IVar="-1" Cut="0.0000000000000000e+00" cType="1" res="1.0946916881948709e-04" rms="4.8694053292274475e-01" purity="5.2770197391510010e-01" nType="-99"/>
        </Node>
      </Node>
    </BinaryTree>
    <BinaryTree type="DecisionTree" boostWeight="1.0000000000000000e+00" itree="209">
      <Node pos="s" depth="0" NCoef="0" IVar="3" Cut="2.2075213491916656e-01" cType="1" res="1.7307717353105545e-02" rms="4.7904813289642334e-01" purity="4.9509489536285400e-01" nType="0">
        <Node pos="l" depth="1" NCoef="0" IVar="4" Cut="9.2046505212783813e-01" cType="1" res="-1.3385210931301117e-01" rms="4.3822139501571655e-01" purity="2.7825048565864563e-01" nType="0">
          <Node pos="l" depth="2" NCoef="0" IVar="-1" Cut="0.0000000000000000e+00" cType="1" res="-3.7569575943052769e-04" rms="4.6846407651901245e-01" purity="3.5753989219665527e-01" nType="-99"/>
          <Node pos="r" depth="2" NCoef="0" IVar="-1" Cut="0.0000000000000000e+00" cType="1" res="-1.8167279195040464e-03" rms="4.0408885478973389e-01" purity="2.1569932997226715e-01" nType="-99"/>
        </Node>
        <Node pos="r" depth="1" NCoef="0" IVar="5" Cut="4.4284024047851562e+02" cType="1" res="6.3467644155025482e-02" rms="4.8147141933441162e-01" purity="5.6131297349929810e-01" nType="0">
          <Node pos="l" depth="2" NCoef="0" IVar="-1" Cut="0.0000000000000000e+00" cType="1" res="-9.9762975878547877e-05" rms="4.8499506711959839e-01" purity="4.4380682706832886e-01" nType="-99"/>
          <Node pos="r" depth="2" NCoef="0" IVar="-1" Cut="0.0000000000000000e+00" cType="1" res="4.3368048500269651e-04" rms="4.6627244353294373e-01" purity="6.6370391845703125e-01" nType="-99"/>
        </Node>
      </Node>
    </BinaryTree>
    <BinaryTree type="DecisionTree" boostWeight="1.0000000000000000e+00" itree="210">
      <Node pos="s" depth="0" NCoef="0" IVar="3" Cut="4.0002042055130005e-01" cType="1" res="1.5911767259240150e-02" rms="4.7806578874588013e-01" purity="4.9397042393684387e-01" nType="0">
        <Node pos="l" depth="1" NCoef="0" IVar="4" Cut="7.1344476938247681e-01" cType="1" res="-4.8190943896770477e-02" rms="4.7366181015968323e-01" purity="4.0243932604789734e-01" nType="0">
          <Node pos="l" depth="2" NCoef="0" IVar="-1" Cut="0.0000000000000000e+00" cType="1" res="3.9721766370348632e-04" rms="4.7559264302253723e-01" purity="5.9568256139755249e-01" nType="-99"/>
          <Node pos="r" depth="2" NCoef="0" IVar="-1" Cut="0.0000000000000000e+00" cType="1" res="-5.0305039621889591e-04" rms="4.6541631221771240e-01" purity="3.5840937495231628e-01" nType="-99"/>
        </Node>
        <Node pos="r" depth="1" NCoef="0" IVar="5" Cut="4.4348461914062500e+02" cType="1" res="1.4519129693508148e-01" rms="4.6043407917022705e-01" purity="6.7856639623641968e-01" nType="0">
          <Node pos="l" depth="2" NCoef="0" IVar="-1" Cut="0.0000000000000000e+00" cType="1" res="2.2437438019551337e-04" rms="4.9251016974449158e-01" purity="5.6525021791458130e-01" nType="-99"/>
          <Node pos="r" depth="2" NCoef="0" IVar="-1" Cut="0.0000000000000000e+00" cType="1" res="6.1761128017678857e-04" rms="4.1470387578010559e-01" purity="7.7899533510208130e-01" nType="-99"/>
        </Node>
      </Node>
    </BinaryTree>
    <BinaryTree type="DecisionTree" boostWeight="1.0000000000000000e+00" itree="211">
      <Node pos="s" depth="0" NCoef="0" IVar="3" Cut="3.5518479347229004e-01" cType="1" res="2.3333922028541565e-02" rms="4.7788304090499878e-01" purity="5.0234466791152954e-01" nType="0">
        <Node pos="l" depth="1" NCoef="0" IVar="5" Cut="6.5859252929687500e+02" cType="1" res="-5.5537991225719452e-02" rms="4.7111752629280090e-01" purity="3.8188359141349792e-01" nType="0">
          <Node pos="l" depth="2" NCoef="0" IVar="-1" Cut="0.0000000000000000e+00" cType="1" res="-5.9248280012980103e-04" rms="4.6017616987228394e-01" purity="3.3189687132835388e-01" nType="-99"/>
          <Node pos="r" depth="2" NCoef="0" IVar="-1" Cut="0.0000000000000000e+00" cType="1" res="3.4950202098116279e-04" rms="4.8530918359756470e-01" purity="5.9635585546493530e-01" nType="-99"/>
        </Node>
        <Node pos="r" depth="1" NCoef="0" IVar="4" Cut="9.5087540149688721e-01" cType="1" res="1.2484806776046753e-01" rms="4.6725165843963623e-01" purity="6.5738725662231445e-01" nType="0">
          <Node pos="l" depth="2" NCoef="0" IVar="-1" Cut="0.0000000000000000e+00" cType="1" res="5.9213809436187148e-04" rms="4.3204802274703979e-01" purity="7.3833906650543213e-01" nType="-99"/>
          <Node pos="r" depth="2" NCoef="0" IVar="-1" Cut="0.0000000000000000e+00" cType="1" res="1.4273055421654135e-04" rms="4.8880487680435181e-01" purity="5.6713092327117920e-01" nType="-99"/>
        </Node>
      </Node>
    </BinaryTree>
    <BinaryTree type="DecisionTree" boostWeight="1.0000000000000000e+00" itree="212">
      <Node pos="s" depth="0" NCoef="0" IVar="3" Cut="4.0002042055130005e-01" cType="1" res="2.7294481173157692e-02" rms="4.7911068797111511e-01" purity="5.0545066595077515e-01" nType="0">
        <Node pos="l" depth="1" NCoef="0" IVar="5" Cut="5.1085562133789062e+02" cType="1" res="-2.9296513646841049e-02" rms="4.7772833704948425e-01" purity="4.2172926664352417e-01" nType="0">
          <Node pos="l" depth="2" NCoef="0" IVar="-1" Cut="0.0000000000000000e+00" cType="1" res="-6.0256058350205421e-04" rms="4.6021234989166260e-01" purity="3.2886216044425964e-01" nType="-99"/>
          <Node pos="r" depth="2" NCoef="0" IVar="-1" Cut="0.0000000000000000e+00" cType="1" res="2.6413207524456084e-04" rms="4.8809957504272461e-01" purity="5.7251834869384766e-01" nType="-99"/>
        </Node>
        <Node pos="r" depth="1" NCoef="0" IVar="5" Cut="4.3968878173828125e+02" cType="1" res="1.4388924837112427e-01" rms="4.6052107214927673e-01" purity="6.7794251441955566e-01" nType="0">
          <Node pos="l" depth="2" NCoef="0" IVar="-1" Cut="0.0000000000000000e+00" cType="1" res="2.2773646924179047e-04" rms="4.9144625663757324e-01" purity="5.6791877746582031e-01" nType="-99"/>
          <Node pos="r" depth="2" NCoef="0" IVar="-1" Cut="0.0000000000000000e+00" cType="1" res="6.0187873896211386e-04" rms="4.1801702976226807e-01" purity="7.7392429113388062e-01" nType="-99"/>
        </Node>
      </Node>
    </BinaryTree>
    <BinaryTree type="DecisionTree" boostWeight="1.0000000000000000e+00" itree="213">
      <Node pos="s" depth="0" NCoef="0" IVar="3" Cut="2.4452793598175049e-01" cType="1" res="2.3318590596318245e-02" rms="4.7767707705497742e-01" purity="5.0223428010940552e-01" nType="0">
        <Node pos="l" depth="1" NCoef="0" IVar="5" Cut="4.5218487548828125e+02" cType="1" res="-1.1434806138277054e-01" rms="4.4503104686737061e-01" purity="3.0036008358001709e-01" nType="0">
          <Node pos="l" depth="2" NCoef="0" IVar="-1" Cut="0.0000000000000000e+00" cType="1" res="-2.2368091158568859e-03" rms="3.8337710499763489e-01" purity="1.8302817642688751e-01" nType="-99"/>
          <Node pos="r" depth="2" NCoef="0" IVar="-1" Cut="0.0000000000000000e+00" cType="1" res="-1.3512982695829123e-04" rms="4.9255138635635376e-01" purity="4.3446862697601318e-01" nType="-99"/>
        </Node>
        <Node pos="r" depth="1" NCoef="0" IVar="5" Cut="3.2493905639648438e+02" cType="1" res="7.9505257308483124e-02" rms="4.7914254665374756e-01" purity="5.8462631702423096e-01" nType="0">
          <Node pos="l" depth="2" NCoef="0" IVar="-1" Cut="0.0000000000000000e+00" cType="1" res="-5.6792929535731673e-04" rms="4.7149896621704102e-01" purity="3.5479623079299927e-01" nType="-99"/>
          <Node pos="r" depth="2" NCoef="0" IVar="-1" Cut="0.0000000000000000e+00" cType="1" res="3.8793269777670503e-04" rms="4.7315940260887146e-01" purity="6.3094979524612427e-01" nType="-99"/>
        </Node>
      </Node>
    </BinaryTree>
    <BinaryTree type="DecisionTree" boostWeight="1.0000000000000000e+00" itree="214">
      <Node pos="s" depth="0" NCoef="0" IVar="3" Cut="3.5518479347229004e-01" cType="1" res="2.1507116034626961e-02" rms="4.7861680388450623e-01" purity="4.9924951791763306e-01" nType="0">
        <Node pos="l" depth="1" NCoef="0" IVar="5" Cut="4.7371353149414062e+02" cType="1" res="-4.9831140786409378e-02" rms="4.7266793251037598e-01" purity="3.8679841160774231e-01" nType="0">
          <Node pos="l" depth="2" NCoef="0" IVar="-1" Cut="0.0000000000000000e+00" cType="1" res="-8.7226403411477804e-04" rms="4.4493973255157471e-01" purity="2.8422424197196960e-01" nType="-99"/>
          <Node pos="r" depth="2" NCoef="0" IVar="-1" Cut="0.0000000000000000e+00" cType="1" res="1.2291176244616508e-04" rms="4.9412187933921814e-01" purity="5.1694178581237793e-01" nType="-99"/>
        </Node>
        <Node pos="r" depth="1" NCoef="0" IVar="4" Cut="9.5579785108566284e-01" cType="1" res="1.1657391488552094e-01" rms="4.6988916397094727e-01" purity="6.4910411834716797e-01" nType="0">
          <Node pos="l" depth="2" NCoef="0" IVar="-1" Cut="0.0000000000000000e+00" cType="1" res="5.7761528296396136e-04" rms="4.3902987241744995e-01" purity="7.2627979516983032e-01" nType="-99"/>
          <Node pos="r" depth="2" NCoef="0" IVar="-1" Cut="0.0000000000000000e+00" cType="1" res="1.2147711095167324e-04" rms="4.8831382393836975e-01" purity="5.6283926963806152e-01" nType="-99"/>
        </Node>
      </Node>
    </BinaryTree>
    <BinaryTree type="DecisionTree" boostWeight="1.0000000000000000e+00" itree="215">
      <Node pos="s" depth="0" NCoef="0" IVar="3" Cut="2.6617494225502014e-01" cType="1" res="2.3875378072261810e-02" rms="4.7823432087898254e-01" purity="5.0206351280212402e-01" nType="0">
        <Node pos="l" depth="1" NCoef="0" IVar="7" Cut="1.5402664184570312e+02" cType="1" res="-9.2813678085803986e-02" rms="4.5623594522476196e-01" purity="3.2181903719902039e-01" nType="0">
          <Node pos="l" depth="2" NCoef="0" IVar="-1" Cut="0.0000000000000000e+00" cType="1" res="-1.0818791342899203e-03" rms="4.3045413494110107e-01" purity="2.6317813992500305e-01" nType="-99"/>
          <Node pos="r" depth="2" NCoef="0" IVar="-1" Cut="0.0000000000000000e+00" cType="1" res="4.9849364586407319e-05" rms="4.9873119592666626e-01" purity="4.6497192978858948e-01" nType="-99"/>
        </Node>
        <Node pos="r" depth="1" NCoef="0" IVar="5" Cut="3.8179888916015625e+02" cType="1" res="8.4798641502857208e-02" rms="4.7814229130744934e-01" purity="5.9616899490356445e-01" nType="0">
          <Node pos="l" depth="2" NCoef="0" IVar="-1" Cut="0.0000000000000000e+00" cType="1" res="-2.1511131490115076e-04" rms="4.8748975992202759e-01" purity="4.2096525430679321e-01" nType="-99"/>
          <Node pos="r" depth="2" NCoef="0" IVar="-1" Cut="0.0000000000000000e+00" cType="1" res="4.4712820090353489e-04" rms="4.6268093585968018e-01" purity="6.7471033334732056e-01" nType="-99"/>
        </Node>
      </Node>
    </BinaryTree>
    <BinaryTree type="DecisionTree" boostWeight="1.0000000000000000e+00" itree="216">
      <Node pos="s" depth="0" NCoef="0" IVar="3" Cut="3.5557541251182556e-01" cType="1" res="1.9677959382534027e-02" rms="4.7854253649711609e-01" purity="4.9704638123512268e-01" nType="0">
        <Node pos="l" depth="1" NCoef="0" IVar="5" Cut="4.4321362304687500e+02" cType="1" res="-4.7784414142370224e-02" rms="4.7237065434455872e-01" purity="3.8910779356956482e-01" nType="0">
          <Node pos="l" depth="2" NCoef="0" IVar="-1" Cut="0.0000000000000000e+00" cType="1" res="-9.8836573306471109e-04" rms="4.3659088015556335e-01" purity="2.6893374323844910e-01" nType="-99"/>
          <Node pos="r" depth="2" NCoef="0" IVar="-1" Cut="0.0000000000000000e+00" cType="1" res="9.7023177659139037e-05" rms="4.9426454305648804e-01" purity="5.0564610958099365e-01" nType="-99"/>
        </Node>
        <Node pos="r" depth="1" NCoef="0" IVar="4" Cut="9.5030832290649414e-01" cType="1" res="1.1166039854288101e-01" rms="4.7152823209762573e-01" purity="6.4421659708023071e-01" nType="0">
          <Node pos="l" depth="2" NCoef="0" IVar="-1" Cut="0.0000000000000000e+00" cType="1" res="5.6747777853161097e-04" rms="4.3793991208076477e-01" purity="7.2730666399002075e-01" nType="-99"/>
          <Node pos="r" depth="2" NCoef="0" IVar="-1" Cut="0.0000000000000000e+00" cType="1" res="8.3657636423595250e-05" rms="4.9078947305679321e-01" purity="5.5152690410614014e-01" nType="-99"/>
        </Node>
      </Node>
    </BinaryTree>
    <BinaryTree type="DecisionTree" boostWeight="1.0000000000000000e+00" itree="217">
      <Node pos="s" depth="0" NCoef="0" IVar="3" Cut="3.5587954521179199e-01" cType="1" res="2.7616322040557861e-02" rms="4.7639697790145874e-01" purity="5.0804919004440308e-01" nType="0">
        <Node pos="l" depth="1" NCoef="0" IVar="5" Cut="4.8981698608398438e+02" cType="1" res="-5.5261246860027313e-02" rms="4.6928808093070984e-01" purity="3.8247472047805786e-01" nType="0">
          <Node pos="l" depth="2" NCoef="0" IVar="-1" Cut="0.0000000000000000e+00" cType="1" res="-1.0211049811914563e-03" rms="4.3679291009902954e-01" purity="2.7135732769966125e-01" nType="-99"/>
          <Node pos="r" depth="2" NCoef="0" IVar="-1" Cut="0.0000000000000000e+00" cType="1" res="1.7590817878954113e-04" rms="4.9283710122108459e-01" purity="5.3565657138824463e-01" nType="-99"/>
        </Node>
        <Node pos="r" depth="1" NCoef="0" IVar="4" Cut="8.6709958314895630e-01" cType="1" res="1.3094195723533630e-01" rms="4.6486121416091919e-01" purity="6.6460621356964111e-01" nType="0">
          <Node pos="l" depth="2" NCoef="0" IVar="-1" Cut="0.0000000000000000e+00" cType="1" res="6.3992035575211048e-04" rms="4.1832906007766724e-01" purity="7.6309305429458618e-01" nType="-99"/>
          <Node pos="r" depth="2" NCoef="0" IVar="-1" Cut="0.0000000000000000e+00" cType="1" res="2.3110710026230663e-04" rms="4.8334178328514099e-01" purity="5.9731286764144897e-01" nType="-99"/>
        </Node>
      </Node>
    </BinaryTree>
    <BinaryTree type="DecisionTree" boostWeight="1.0000000000000000e+00" itree="218">
      <Node pos="s" depth="0" NCoef="0" IVar="3" Cut="2.6668155193328857e-01" cType="1" res="2.7235750108957291e-02" rms="4.7793805599212646e-01" purity="5.0580036640167236e-01" nType="0">
        <Node pos="l" depth="1" NCoef="0" IVar="4" Cut="7.6339519023895264e-01" cType="1" res="-8.7708830833435059e-02" rms="4.5696726441383362e-01" purity="3.2660949230194092e-01" nType="0">
          <Node pos="l" depth="2" NCoef="0" IVar="-1" Cut="0.0000000000000000e+00" cType="1" res="1.4789188571739942e-04" rms="4.8713862895965576e-01" purity="4.7832489013671875e-01" nType="-99"/>
          <Node pos="r" depth="2" NCoef="0" IVar="-1" Cut="0.0000000000000000e+00" cType="1" res="-9.4392680330201983e-04" rms="4.4106531143188477e-01" purity="2.8151223063468933e-01" nType="-99"/>
        </Node>
        <Node pos="r" depth="1" NCoef="0" IVar="5" Cut="3.9775350952148438e+02" cType="1" res="8.7229825556278229e-02" rms="4.7766354680061340e-01" purity="5.9932708740234375e-01" nType="0">
          <Node pos="l" depth="2" NCoef="0" IVar="-1" Cut="0.0000000000000000e+00" cType="1" res="-1.0902420763159171e-04" rms="4.8836287856101990e-01" purity="4.4690698385238647e-01" nType="-99"/>
          <Node pos="r" depth="2" NCoef="0" IVar="-1" Cut="0.0000000000000000e+00" cType="1" res="4.6014654799364507e-04" rms="4.6102955937385559e-01" purity="6.8172246217727661e-01" nType="-99"/>
        </Node>
      </Node>
    </BinaryTree>
    <BinaryTree type="DecisionTree" boostWeight="1.0000000000000000e+00" itree="219">
      <Node pos="s" depth="0" NCoef="0" IVar="3" Cut="3.5587954521179199e-01" cType="1" res="2.3071132600307465e-02" rms="4.7693654894828796e-01" purity="5.0231409072875977e-01" nType="0">
        <Node pos="l" depth="1" NCoef="0" IVar="4" Cut="6.9522839784622192e-01" cType="1" res="-5.2572622895240784e-02" rms="4.7053423523902893e-01" purity="3.8383418321609497e-01" nType="0">
          <Node pos="l" depth="2" NCoef="0" IVar="-1" Cut="0.0000000000000000e+00" cType="1" res="4.5134683023206890e-04" rms="4.7768276929855347e-01" purity="5.9776282310485840e-01" nType="-99"/>
          <Node pos="r" depth="2" NCoef="0" IVar="-1" Cut="0.0000000000000000e+00" cType="1" res="-5.4992409422993660e-04" rms="4.6085444092750549e-01" purity="3.4112957119941711e-01" nType="-99"/>
        </Node>
        <Node pos="r" depth="1" NCoef="0" IVar="5" Cut="3.0906353759765625e+02" cType="1" res="1.2057268619537354e-01" rms="4.6733856201171875e-01" purity="6.5502959489822388e-01" nType="0">
          <Node pos="l" depth="2" NCoef="0" IVar="-1" Cut="0.0000000000000000e+00" cType="1" res="-8.3236559294164181e-04" rms="4.7464239597320557e-01" purity="3.4825479984283447e-01" nType="-99"/>
          <Node pos="r" depth="2" NCoef="0" IVar="-1" Cut="0.0000000000000000e+00" cType="1" res="4.7229780466295779e-04" rms="4.5588570833206177e-01" purity="6.9654572010040283e-01" nType="-99"/>
        </Node>
      </Node>
    </BinaryTree>
    <BinaryTree type="DecisionTree" boostWeight="1.0000000000000000e+00" itree="220">
      <Node pos="s" depth="0" NCoef="0" IVar="3" Cut="2.6566421985626221e-01" cType="1" res="2.2836778312921524e-02" rms="4.7771617770195007e-01" purity="5.0137805938720703e-01" nType="0">
        <Node pos="l" depth="1" NCoef="0" IVar="4" Cut="7.5764060020446777e-01" cType="1" res="-9.7589969635009766e-02" rms="4.5350161194801331e-01" purity="3.1616204977035522e-01" nType="0">
          <Node pos="l" depth="2" NCoef="0" IVar="-1" Cut="0.0000000000000000e+00" cType="1" res="1.0495386231923476e-04" rms="4.8403912782669067e-01" purity="4.6825569868087769e-01" nType="-99"/>
          <Node pos="r" depth="2" NCoef="0" IVar="-1" Cut="0.0000000000000000e+00" cType="1" res="-1.0364570189267397e-03" rms="4.3876996636390686e-01" purity="2.7372583746910095e-01" nType="-99"/>
        </Node>
        <Node pos="r" depth="1" NCoef="0" IVar="4" Cut="9.2748355865478516e-01" cType="1" res="8.4628157317638397e-02" rms="4.7804102301597595e-01" purity="5.9641301631927490e-01" nType="0">
          <Node pos="l" depth="2" NCoef="0" IVar="-1" Cut="0.0000000000000000e+00" cType="1" res="5.2453263197094202e-04" rms="4.5114570856094360e-01" purity="6.8697619438171387e-01" nType="-99"/>
          <Node pos="r" depth="2" NCoef="0" IVar="-1" Cut="0.0000000000000000e+00" cType="1" res="-2.2044867364456877e-05" rms="4.8839268088340759e-01" purity="5.0273978710174561e-01" nType="-99"/>
        </Node>
      </Node>
    </BinaryTree>
    <BinaryTree type="DecisionTree" boostWeight="1.0000000000000000e+00" itree="221">
      <Node pos="s" depth="0" NCoef="0" IVar="3" Cut="4.0036448836326599e-01" cType="1" res="1.4607148244976997e-02" rms="4.7767132520675659e-01" purity="4.9208584427833557e-01" nType="0">
        <Node pos="l" depth="1" NCoef="0" IVar="4" Cut="6.9522839784622192e-01" cType="1" res="-4.3302647769451141e-02" rms="4.7333005070686340e-01" purity="4.0691620111465454e-01" nType="0">
          <Node pos="l" depth="2" NCoef="0" IVar="-1" Cut="0.0000000000000000e+00" cType="1" res="4.4098516809754074e-04" rms="4.7211092710494995e-01" purity="6.1771309375762939e-01" nType="-99"/>
          <Node pos="r" depth="2" NCoef="0" IVar="-1" Cut="0.0000000000000000e+00" cType="1" res="-4.6345265582203865e-04" rms="4.6551942825317383e-01" purity="3.6461296677589417e-01" nType="-99"/>
        </Node>
        <Node pos="r" depth="1" NCoef="0" IVar="4" Cut="9.2563879489898682e-01" cType="1" res="1.3525126874446869e-01" rms="4.6392837166786194e-01" purity="6.6952067613601685e-01" nType="0">
          <Node pos="l" depth="2" NCoef="0" IVar="-1" Cut="0.0000000000000000e+00" cType="1" res="6.2968331621959805e-04" rms="4.2446929216384888e-01" purity="7.5333982706069946e-01" nType="-99"/>
          <Node pos="r" depth="2" NCoef="0" IVar="-1" Cut="0.0000000000000000e+00" cType="1" res="2.2520020138472319e-04" rms="4.8531472682952881e-01" purity="5.9322839975357056e-01" nType="-99"/>
        </Node>
      </Node>
    </BinaryTree>
    <BinaryTree type="DecisionTree" boostWeight="1.0000000000000000e+00" itree="222">
      <Node pos="s" depth="0" NCoef="0" IVar="3" Cut="3.3208027482032776e-01" cType="1" res="1.9702479243278503e-02" rms="4.7838568687438965e-01" purity="4.9714985489845276e-01" nType="0">
        <Node pos="l" depth="1" NCoef="0" IVar="1" Cut="7.7614468336105347e-01" cType="1" res="-6.6924840211868286e-02" rms="4.6877253055572510e-01" purity="3.5899698734283447e-01" nType="0">
          <Node pos="l" depth="2" NCoef="0" IVar="-1" Cut="0.0000000000000000e+00" cType="1" res="-9.8876736592501402e-04" rms="4.4361147284507751e-01" purity="2.8649550676345825e-01" nType="-99"/>
          <Node pos="r" depth="2" NCoef="0" IVar="-1" Cut="0.0000000000000000e+00" cType="1" res="-1.1337556497892365e-04" rms="4.7883173823356628e-01" purity="4.0588837862014771e-01" nType="-99"/>
        </Node>
        <Node pos="r" depth="1" NCoef="0" IVar="5" Cut="4.4199185180664062e+02" cType="1" res="1.0719525068998337e-01" rms="4.7203257679939270e-01" purity="6.3668298721313477e-01" nType="0">
          <Node pos="l" depth="2" NCoef="0" IVar="-1" Cut="0.0000000000000000e+00" cType="1" res="7.5297313742339611e-05" rms="4.9253648519515991e-01" purity="5.2039027214050293e-01" nType="-99"/>
          <Node pos="r" depth="2" NCoef="0" IVar="-1" Cut="0.0000000000000000e+00" cType="1" res="5.2945694187656045e-04" rms="4.3979266285896301e-01" purity="7.3599094152450562e-01" nType="-99"/>
        </Node>
      </Node>
    </BinaryTree>
    <BinaryTree type="DecisionTree" boostWeight="1.0000000000000000e+00" itree="223">
      <Node pos="s" depth="0" NCoef="0" IVar="3" Cut="3.5512176156044006e-01" cType="1" res="2.1277057006955147e-02" rms="4.7778746485710144e-01" purity="4.9906697869300842e-01" nType="0">
        <Node pos="l" depth="1" NCoef="0" IVar="5" Cut="4.4199185180664062e+02" cType="1" res="-5.1574315875768661e-02" rms="4.7138923406600952e-01" purity="3.8305890560150146e-01" nType="0">
          <Node pos="l" depth="2" NCoef="0" IVar="-1" Cut="0.0000000000000000e+00" cType="1" res="-1.0960573563352227e-03" rms="4.3315759301185608e-01" purity="2.5847086310386658e-01" nType="-99"/>
          <Node pos="r" depth="2" NCoef="0" IVar="-1" Cut="0.0000000000000000e+00" cType="1" res="9.1139976575504988e-05" rms="4.9419397115707397e-01" purity="5.0186628103256226e-01" nType="-99"/>
        </Node>
        <Node pos="r" depth="1" NCoef="0" IVar="5" Cut="3.7042514038085938e+02" cType="1" res="1.1572340130805969e-01" rms="4.6941825747489929e-01" purity="6.4946269989013672e-01" nType="0">
          <Node pos="l" depth="2" NCoef="0" IVar="-1" Cut="0.0000000000000000e+00" cType="1" res="-6.6199045249959454e-06" rms="4.9626234173774719e-01" purity="4.8904862999916077e-01" nType="-99"/>
          <Node pos="r" depth="2" NCoef="0" IVar="-1" Cut="0.0000000000000000e+00" cType="1" res="4.9349141772836447e-04" rms="4.4828268885612488e-01" purity="7.1782743930816650e-01" nType="-99"/>
        </Node>
      </Node>
    </BinaryTree>
    <BinaryTree type="DecisionTree" boostWeight="1.0000000000000000e+00" itree="224">
      <Node pos="s" depth="0" NCoef="0" IVar="3" Cut="3.7779888510704041e-01" cType="1" res="1.5673993155360222e-02" rms="4.7593837976455688e-01" purity="4.9474102258682251e-01" nType="0">
        <Node pos="l" depth="1" NCoef="0" IVar="5" Cut="5.5256573486328125e+02" cType="1" res="-5.4158505052328110e-02" rms="4.6951568126678467e-01" purity="3.9012742042541504e-01" nType="0">
          <Node pos="l" depth="2" NCoef="0" IVar="-1" Cut="0.0000000000000000e+00" cType="1" res="-7.9835957149043679e-04" rms="4.4858548045158386e-01" purity="3.0567938089370728e-01" nType="-99"/>
          <Node pos="r" depth="2" NCoef="0" IVar="-1" Cut="0.0000000000000000e+00" cType="1" res="2.6724938652478158e-04" rms="4.8799681663513184e-01" purity="5.7121199369430542e-01" nType="-99"/>
        </Node>
        <Node pos="r" depth="1" NCoef="0" IVar="4" Cut="1.0735359191894531e+00" cType="1" res="1.2961095571517944e-01" rms="4.6420550346374512e-01" purity="6.6542595624923706e-01" nType="0">
          <Node pos="l" depth="2" NCoef="0" IVar="-1" Cut="0.0000000000000000e+00" cType="1" res="5.5537850130349398e-04" rms="4.3917375802993774e-01" purity="7.2450524568557739e-01" nType="-99"/>
          <Node pos="r" depth="2" NCoef="0" IVar="-1" Cut="0.0000000000000000e+00" cType="1" res="3.4386346669634804e-05" rms="4.9045330286026001e-01" purity="5.4334551095962524e-01" nType="-99"/>
        </Node>
      </Node>
    </BinaryTree>
    <BinaryTree type="DecisionTree" boostWeight="1.0000000000000000e+00" itree="225">
      <Node pos="s" depth="0" NCoef="0" IVar="3" Cut="2.2142903506755829e-01" cType="1" res="2.2285008803009987e-02" rms="4.7769376635551453e-01" purity="5.0015515089035034e-01" nType="0">
        <Node pos="l" depth="1" NCoef="0" IVar="7" Cut="1.5810963439941406e+02" cType="1" res="-1.2680386006832123e-01" rms="4.3881565332412720e-01" purity="2.8110441565513611e-01" nType="0">
          <Node pos="l" depth="2" NCoef="0" IVar="-1" Cut="0.0000000000000000e+00" cType="1" res="-1.5501247253268957e-03" rms="4.1135129332542419e-01" purity="2.2546266019344330e-01" nType="-99"/>
          <Node pos="r" depth="2" NCoef="0" IVar="-1" Cut="0.0000000000000000e+00" cType="1" res="-1.0613296763040125e-04" rms="4.9104583263397217e-01" purity="4.3302398920059204e-01" nType="-99"/>
        </Node>
        <Node pos="r" depth="1" NCoef="0" IVar="4" Cut="6.9207251071929932e-01" cType="1" res="6.7400209605693817e-02" rms="4.7980445623397827e-01" purity="5.6644123792648315e-01" nType="0">
          <Node pos="l" depth="2" NCoef="0" IVar="-1" Cut="0.0000000000000000e+00" cType="1" res="6.7179492907598615e-04" rms="4.2164653539657593e-01" purity="7.5023442506790161e-01" nType="-99"/>
          <Node pos="r" depth="2" NCoef="0" IVar="-1" Cut="0.0000000000000000e+00" cType="1" res="1.2524425983428955e-04" rms="4.8381191492080688e-01" purity="5.2694028615951538e-01" nType="-99"/>
        </Node>
      </Node>
    </BinaryTree>
    <BinaryTree type="DecisionTree" boostWeight="1.0000000000000000e+00" itree="226">
      <Node pos="s" depth="0" NCoef="0" IVar="3" Cut="2.4445691704750061e-01" cType="1" res="2.3017300292849541e-02" rms="4.7686883807182312e-01" purity="5.0075346231460571e-01" nType="0">
        <Node pos="l" depth="1" NCoef="0" IVar="7" Cut="1.6149983215332031e+02" cType="1" res="-1.2019202113151550e-01" rms="4.4315445423126221e-01" purity="2.8689196705818176e-01" nType="0">
          <Node pos="l" depth="2" NCoef="0" IVar="-1" Cut="0.0000000000000000e+00" cType="1" res="-1.3744131429120898e-03" rms="4.1928410530090332e-01" purity="2.3749898374080658e-01" nType="-99"/>
          <Node pos="r" depth="2" NCoef="0" IVar="-1" Cut="0.0000000000000000e+00" cType="1" res="-1.0608536103973165e-04" rms="4.9398830533027649e-01" purity="4.3222773075103760e-01" nType="-99"/>
        </Node>
        <Node pos="r" depth="1" NCoef="0" IVar="5" Cut="3.7293106079101562e+02" cType="1" res="8.0516204237937927e-02" rms="4.7782546281814575e-01" purity="5.8661937713623047e-01" nType="0">
          <Node pos="l" depth="2" NCoef="0" IVar="-1" Cut="0.0000000000000000e+00" cType="1" res="-2.4608848616480827e-04" rms="4.8156294226646423e-01" purity="4.0970948338508606e-01" nType="-99"/>
          <Node pos="r" depth="2" NCoef="0" IVar="-1" Cut="0.0000000000000000e+00" cType="1" res="4.2587905772961676e-04" rms="4.6648630499839783e-01" purity="6.5896749496459961e-01" nType="-99"/>
        </Node>
      </Node>
    </BinaryTree>
    <BinaryTree type="DecisionTree" boostWeight="1.0000000000000000e+00" itree="227">
      <Node pos="s" depth="0" NCoef="0" IVar="3" Cut="2.6582881808280945e-01" cType="1" res="2.3998802527785301e-02" rms="4.7761827707290649e-01" purity="5.0157076120376587e-01" nType="0">
        <Node pos="l" depth="1" NCoef="0" IVar="4" Cut="7.3584979772567749e-01" cType="1" res="-1.0180946439504623e-01" rms="4.5117551088333130e-01" purity="3.0892023444175720e-01" nType="0">
          <Node pos="l" depth="2" NCoef="0" IVar="-1" Cut="0.0000000000000000e+00" cType="1" res="1.3633450726047158e-04" rms="4.8986122012138367e-01" purity="4.7294139862060547e-01" nType="-99"/>
          <Node pos="r" depth="2" NCoef="0" IVar="-1" Cut="0.0000000000000000e+00" cType="1" res="-1.0858215391635895e-03" rms="4.3583858013153076e-01" purity="2.7042365074157715e-01" nType="-99"/>
        </Node>
        <Node pos="r" depth="1" NCoef="0" IVar="4" Cut="8.0755949020385742e-01" cType="1" res="8.7593123316764832e-02" rms="4.7800520062446594e-01" purity="5.9895288944244385e-01" nType="0">
          <Node pos="l" depth="2" NCoef="0" IVar="-1" Cut="0.0000000000000000e+00" cType="1" res="6.0292228590697050e-04" rms="4.3558695912361145e-01" purity="7.2295892238616943e-01" nType="-99"/>
          <Node pos="r" depth="2" NCoef="0" IVar="-1" Cut="0.0000000000000000e+00" cType="1" res="1.2294994667172432e-04" rms="4.8744210600852966e-01" purity="5.3831136226654053e-01" nType="-99"/>
        </Node>
      </Node>
    </BinaryTree>
    <BinaryTree type="DecisionTree" boostWeight="1.0000000000000000e+00" itree="228">
      <Node pos="s" depth="0" NCoef="0" IVar="3" Cut="3.1139460206031799e-01" cType="1" res="1.9210224971175194e-02" rms="4.7630682587623596e-01" purity="4.9746131896972656e-01" nType="0">
        <Node pos="l" depth="1" NCoef="0" IVar="4" Cut="7.4150872230529785e-01" cType="1" res="-7.6435729861259460e-02" rms="4.6143814921379089e-01" purity="3.4460324048995972e-01" nType="0">
          <Node pos="l" depth="2" NCoef="0" IVar="-1" Cut="0.0000000000000000e+00" cType="1" res="3.0916716787032783e-04" rms="4.8549684882164001e-01" purity="5.3307265043258667e-01" nType="-99"/>
          <Node pos="r" depth="2" NCoef="0" IVar="-1" Cut="0.0000000000000000e+00" cType="1" res="-8.6219055810943246e-04" rms="4.4501212239265442e-01" purity="2.9199627041816711e-01" nType="-99"/>
        </Node>
        <Node pos="r" depth="1" NCoef="0" IVar="5" Cut="3.9034243774414062e+02" cType="1" res="9.8032139241695404e-02" rms="4.7392696142196655e-01" purity="6.2343174219131470e-01" nType="0">
          <Node pos="l" depth="2" NCoef="0" IVar="-1" Cut="0.0000000000000000e+00" cType="1" res="-1.3793296238873154e-04" rms="4.9171257019042969e-01" purity="4.5274990797042847e-01" nType="-99"/>
          <Node pos="r" depth="2" NCoef="0" IVar="-1" Cut="0.0000000000000000e+00" cType="1" res="4.8992427764460444e-04" rms="4.5225745439529419e-01" purity="7.0654368400573730e-01" nType="-99"/>
        </Node>
      </Node>
    </BinaryTree>
    <BinaryTree type="DecisionTree" boostWeight="1.0000000000000000e+00" itree="229">
      <Node pos="s" depth="0" NCoef="0" IVar="3" Cut="3.7731686234474182e-01" cType="1" res="2.4263234809041023e-02" rms="4.7828194499015808e-01" purity="5.0124722719192505e-01" nType="0">
        <Node pos="l" depth="1" NCoef="0" IVar="4" Cut="7.6765936613082886e-01" cType="1" res="-3.9324145764112473e-02" rms="4.7458899021148682e-01" purity="4.0247112512588501e-01" nType="0">
          <Node pos="l" depth="2" NCoef="0" IVar="-1" Cut="0.0000000000000000e+00" cType="1" res="3.7156676989980042e-04" rms="4.8001879453659058e-01" purity="5.6711494922637939e-01" nType="-99"/>
          <Node pos="r" depth="2" NCoef="0" IVar="-1" Cut="0.0000000000000000e+00" cType="1" res="-5.4330145940184593e-04" rms="4.6321144700050354e-01" purity="3.4524145722389221e-01" nType="-99"/>
        </Node>
        <Node pos="r" depth="1" NCoef="0" IVar="4" Cut="9.8908787965774536e-01" cType="1" res="1.2904866039752960e-01" rms="4.6573531627655029e-01" purity="6.6402006149291992e-01" nType="0">
          <Node pos="l" depth="2" NCoef="0" IVar="-1" Cut="0.0000000000000000e+00" cType="1" res="5.8175768936052918e-04" rms="4.3411228060722351e-01" purity="7.3605692386627197e-01" nType="-99"/>
          <Node pos="r" depth="2" NCoef="0" IVar="-1" Cut="0.0000000000000000e+00" cType="1" res="1.4023020048625767e-04" rms="4.8922598361968994e-01" purity="5.6926977634429932e-01" nType="-99"/>
        </Node>
      </Node>
    </BinaryTree>
    <BinaryTree type="DecisionTree" boostWeight="1.0000000000000000e+00" itree="230">
      <Node pos="s" depth="0" NCoef="0" IVar="3" Cut="3.3344718813896179e-01" cType="1" res="2.1513499319553375e-02" rms="4.7697231173515320e-01" purity="4.9926996231079102e-01" nType="0">
        <Node pos="l" depth="1" NCoef="0" IVar="5" Cut="4.7371353149414062e+02" cType="1" res="-5.7921838015317917e-02" rms="4.6713116765022278e-01" purity="3.6985975503921509e-01" nType="0">
          <Node pos="l" depth="2" NCoef="0" IVar="-1" Cut="0.0000000000000000e+00" cType="1" res="-1.1069981846958399e-03" rms="4.3022164702415466e-01" purity="2.5542485713958740e-01" nType="-99"/>
          <Node pos="r" depth="2" NCoef="0" IVar="-1" Cut="0.0000000000000000e+00" cType="1" res="1.3041420606896281e-04" rms="4.9459096789360046e-01" purity="5.1139366626739502e-01" nType="-99"/>
        </Node>
        <Node pos="r" depth="1" NCoef="0" IVar="5" Cut="3.1703790283203125e+02" cType="1" res="1.0443485528230667e-01" rms="4.7301009297370911e-01" purity="6.3435941934585571e-01" nType="0">
          <Node pos="l" depth="2" NCoef="0" IVar="-1" Cut="0.0000000000000000e+00" cType="1" res="-5.5831979261711240e-04" rms="4.8342895507812500e-01" purity="3.7483927607536316e-01" nType="-99"/>
          <Node pos="r" depth="2" NCoef="0" IVar="-1" Cut="0.0000000000000000e+00" cType="1" res="4.4049511780031025e-04" rms="4.6257489919662476e-01" purity="6.7864835262298584e-01" nType="-99"/>
        </Node>
      </Node>
    </BinaryTree>
    <BinaryTree type="DecisionTree" boostWeight="1.0000000000000000e+00" itree="231">
      <Node pos="s" depth="0" NCoef="0" IVar="3" Cut="3.5587954521179199e-01" cType="1" res="1.2364416383206844e-02" rms="4.7712460160255432e-01" purity="4.8995381593704224e-01" nType="0">
        <Node pos="l" depth="1" NCoef="0" IVar="5" Cut="3.9425656127929688e+02" cType="1" res="-5.5547013878822327e-02" rms="4.6822309494018555e-01" purity="3.7969702482223511e-01" nType="0">
          <Node pos="l" depth="2" NCoef="0" IVar="-1" Cut="0.0000000000000000e+00" cType="1" res="-1.6982803354039788e-03" rms="4.0402626991271973e-01" purity="2.1107307076454163e-01" nType="-99"/>
          <Node pos="r" depth="2" NCoef="0" IVar="-1" Cut="0.0000000000000000e+00" cType="1" res="2.0453177057788707e-05" rms="4.9051767587661743e-01" purity="4.7439217567443848e-01" nType="-99"/>
        </Node>
        <Node pos="r" depth="1" NCoef="0" IVar="5" Cut="3.0741021728515625e+02" cType="1" res="1.0303681343793869e-01" rms="4.7381860017776489e-01" purity="6.3716393709182739e-01" nType="0">
          <Node pos="l" depth="2" NCoef="0" IVar="-1" Cut="0.0000000000000000e+00" cType="1" res="-6.3104467699304223e-04" rms="4.8142117261886597e-01" purity="3.6922019720077515e-01" nType="-99"/>
          <Node pos="r" depth="2" NCoef="0" IVar="-1" Cut="0.0000000000000000e+00" cType="1" res="4.2556357220746577e-04" rms="4.6473228931427002e-01" purity="6.7624610662460327e-01" nType="-99"/>
        </Node>
      </Node>
    </BinaryTree>
    <BinaryTree type="DecisionTree" boostWeight="1.0000000000000000e+00" itree="232">
      <Node pos="s" depth="0" NCoef="0" IVar="3" Cut="3.7738385796546936e-01" cType="1" res="2.1110258996486664e-02" rms="4.7600245475769043e-01" purity="4.9999740719795227e-01" nType="0">
        <Node pos="l" depth="1" NCoef="0" IVar="4" Cut="7.1838110685348511e-01" cType="1" res="-4.8912070691585541e-02" rms="4.7026973962783813e-01" purity="3.9406493306159973e-01" nType="0">
          <Node pos="l" depth="2" NCoef="0" IVar="-1" Cut="0.0000000000000000e+00" cType="1" res="4.3953544809482992e-04" rms="4.7277843952178955e-01" purity="6.0681551694869995e-01" nType="-99"/>
          <Node pos="r" depth="2" NCoef="0" IVar="-1" Cut="0.0000000000000000e+00" cType="1" res="-5.8988999808207154e-04" rms="4.5882028341293335e-01" purity="3.4046798944473267e-01" nType="-99"/>
        </Node>
        <Node pos="r" depth="1" NCoef="0" IVar="4" Cut="9.8979544639587402e-01" cType="1" res="1.3240927457809448e-01" rms="4.6370241045951843e-01" purity="6.6837489604949951e-01" nType="0">
          <Node pos="l" depth="2" NCoef="0" IVar="-1" Cut="0.0000000000000000e+00" cType="1" res="5.7124823797494173e-04" rms="4.3478372693061829e-01" purity="7.3507314920425415e-01" nType="-99"/>
          <Node pos="r" depth="2" NCoef="0" IVar="-1" Cut="0.0000000000000000e+00" cType="1" res="1.7245775961782783e-04" rms="4.8589277267456055e-01" purity="5.8097499608993530e-01" nType="-99"/>
        </Node>
      </Node>
    </BinaryTree>
    <BinaryTree type="DecisionTree" boostWeight="1.0000000000000000e+00" itree="233">
      <Node pos="s" depth="0" NCoef="0" IVar="3" Cut="3.5567700862884521e-01" cType="1" res="1.9492320716381073e-02" rms="4.7678074240684509e-01" purity="4.9685534834861755e-01" nType="0">
        <Node pos="l" depth="1" NCoef="0" IVar="5" Cut="7.3180218505859375e+02" cType="1" res="-5.0299081951379776e-02" rms="4.7055271267890930e-01" purity="3.8275116682052612e-01" nType="0">
          <Node pos="l" depth="2" NCoef="0" IVar="-1" Cut="0.0000000000000000e+00" cType="1" res="-4.9239746294915676e-04" rms="4.6316483616828918e-01" purity="3.4503671526908875e-01" nType="-99"/>
          <Node pos="r" depth="2" NCoef="0" IVar="-1" Cut="0.0000000000000000e+00" cType="1" res="4.1688312194310129e-04" rms="4.7908765077590942e-01" purity="6.2127095460891724e-01" nType="-99"/>
        </Node>
        <Node pos="r" depth="1" NCoef="0" IVar="5" Cut="3.7062432861328125e+02" cType="1" res="1.1165431886911392e-01" rms="4.6923887729644775e-01" purity="6.4753389358520508e-01" nType="0">
          <Node pos="l" depth="2" NCoef="0" IVar="-1" Cut="0.0000000000000000e+00" cType="1" res="-9.8024720500689000e-05" rms="4.9434205889701843e-01" purity="4.7047397494316101e-01" nType="-99"/>
          <Node pos="r" depth="2" NCoef="0" IVar="-1" Cut="0.0000000000000000e+00" cType="1" res="4.9432273954153061e-04" rms="4.4751831889152527e-01" purity="7.1932774782180786e-01" nType="-99"/>
        </Node>
      </Node>
    </BinaryTree>
    <BinaryTree type="DecisionTree" boostWeight="1.0000000000000000e+00" itree="234">
      <Node pos="s" depth="0" NCoef="0" IVar="3" Cut="2.4445691704750061e-01" cType="1" res="2.1989431232213974e-02" rms="4.7666141390800476e-01" purity="5.0000625848770142e-01" nType="0">
        <Node pos="l" depth="1" NCoef="0" IVar="7" Cut="1.6202149963378906e+02" cType="1" res="-1.0978465527296066e-01" rms="4.4660955667495728e-01" purity="2.9556170105934143e-01" nType="0">
          <Node pos="l" depth="2" NCoef="0" IVar="-1" Cut="0.0000000000000000e+00" cType="1" res="-1.2428214540705085e-03" rms="4.2265662550926208e-01" purity="2.4324300885200500e-01" nType="-99"/>
          <Node pos="r" depth="2" NCoef="0" IVar="-1" Cut="0.0000000000000000e+00" cType="1" res="-1.3711514839087613e-05" rms="4.9610587954521179e-01" purity="4.5117795467376709e-01" nType="-99"/>
        </Node>
        <Node pos="r" depth="1" NCoef="0" IVar="5" Cut="3.0600494384765625e+02" cType="1" res="7.4906259775161743e-02" rms="4.7809505462646484e-01" purity="5.8210557699203491e-01" nType="0">
          <Node pos="l" depth="2" NCoef="0" IVar="-1" Cut="0.0000000000000000e+00" cType="1" res="-9.9238450638949871e-04" rms="4.5530703663825989e-01" purity="3.0208030343055725e-01" nType="-99"/>
          <Node pos="r" depth="2" NCoef="0" IVar="-1" Cut="0.0000000000000000e+00" cType="1" res="3.5897814086638391e-04" rms="4.7381308674812317e-01" purity="6.1993944644927979e-01" nType="-99"/>
        </Node>
      </Node>
    </BinaryTree>
    <BinaryTree type="DecisionTree" boostWeight="1.0000000000000000e+00" itree="235">
      <Node pos="s" depth="0" NCoef="0" IVar="5" Cut="3.8923953247070312e+02" cType="1" res="2.5144411250948906e-02" rms="4.7817534208297729e-01" purity="5.0175285339355469e-01" nType="0">
        <Node pos="l" depth="1" NCoef="0" IVar="3" Cut="4.6137270331382751e-01" cType="1" res="-8.7076559662818909e-02" rms="4.5728144049644470e-01" purity="3.3436030149459839e-01" nType="0">
          <Node pos="l" depth="2" NCoef="0" IVar="-1" Cut="0.0000000000000000e+00" cType="1" res="-9.9039427004754543e-04" rms="4.3987134099006653e-01" purity="2.7676236629486084e-01" nType="-99"/>
          <Node pos="r" depth="2" NCoef="0" IVar="-1" Cut="0.0000000000000000e+00" cType="1" res="2.1246605319902301e-04" rms="4.9358484148979187e-01" purity="5.5573016405105591e-01" nType="-99"/>
        </Node>
        <Node pos="r" depth="1" NCoef="0" IVar="3" Cut="2.2229813039302826e-01" cType="1" res="8.3603985607624054e-02" rms="4.7838845849037170e-01" purity="5.8895307779312134e-01" nType="0">
          <Node pos="l" depth="2" NCoef="0" IVar="-1" Cut="0.0000000000000000e+00" cType="1" res="-2.7013689395971596e-04" rms="4.8318812251091003e-01" purity="3.8924777507781982e-01" nType="-99"/>
          <Node pos="r" depth="2" NCoef="0" IVar="-1" Cut="0.0000000000000000e+00" cType="1" res="4.0189136052504182e-04" rms="4.6953353285789490e-01" purity="6.4786434173583984e-01" nType="-99"/>
        </Node>
      </Node>
    </BinaryTree>
    <BinaryTree type="DecisionTree" boostWeight="1.0000000000000000e+00" itree="236">
      <Node pos="s" depth="0" NCoef="0" IVar="4" Cut="7.7332377433776855e-01" cType="1" res="2.6147959753870964e-02" rms="4.7872531414031982e-01" purity="5.0166046619415283e-01" nType="0">
        <Node pos="l" depth="1" NCoef="0" IVar="5" Cut="4.4496746826171875e+02" cType="1" res="1.5406261384487152e-01" rms="4.5948982238769531e-01" purity="6.4790141582489014e-01" nType="0">
          <Node pos="l" depth="2" NCoef="0" IVar="-1" Cut="0.0000000000000000e+00" cType="1" res="2.8471829136833549e-04" rms="4.8292005062103271e-01" purity="5.2114272117614746e-01" nType="-99"/>
          <Node pos="r" depth="2" NCoef="0" IVar="-1" Cut="0.0000000000000000e+00" cType="1" res="5.9602258261293173e-04" rms="4.3278971314430237e-01" purity="7.3656153678894043e-01" nType="-99"/>
        </Node>
        <Node pos="r" depth="1" NCoef="0" IVar="5" Cut="3.3447589111328125e+02" cType="1" res="-1.9451688975095749e-02" rms="4.7717839479446411e-01" purity="4.4952777028083801e-01" nType="0">
          <Node pos="l" depth="2" NCoef="0" IVar="-1" Cut="0.0000000000000000e+00" cType="1" res="-1.3017236487939954e-03" rms="4.2465180158615112e-01" purity="2.5314670801162720e-01" nType="-99"/>
          <Node pos="r" depth="2" NCoef="0" IVar="-1" Cut="0.0000000000000000e+00" cType="1" res="7.6011681812815368e-05" rms="4.8418465256690979e-01" purity="5.0415742397308350e-01" nType="-99"/>
        </Node>
      </Node>
    </BinaryTree>
    <BinaryTree type="DecisionTree" boostWeight="1.0000000000000000e+00" itree="237">
      <Node pos="s" depth="0" NCoef="0" IVar="3" Cut="3.5557371377944946e-01" cType="1" res="1.8359666690230370e-02" rms="4.7709533572196960e-01" purity="4.9494335055351257e-01" nType="0">
        <Node pos="l" depth="1" NCoef="0" IVar="5" Cut="6.5337158203125000e+02" cType="1" res="-5.5579070001840591e-02" rms="4.6984913945198059e-01" purity="3.7577161192893982e-01" nType="0">
          <Node pos="l" depth="2" NCoef="0" IVar="-1" Cut="0.0000000000000000e+00" cType="1" res="-6.2358134891837835e-04" rms="4.5700976252555847e-01" purity="3.2178673148155212e-01" nType="-99"/>
          <Node pos="r" depth="2" NCoef="0" IVar="-1" Cut="0.0000000000000000e+00" cType="1" res="3.5023756208829582e-04" rms="4.8777297139167786e-01" purity="5.9497457742691040e-01" nType="-99"/>
        </Node>
        <Node pos="r" depth="1" NCoef="0" IVar="5" Cut="3.0342529296875000e+02" cType="1" res="1.1449775099754333e-01" rms="4.6924516558647156e-01" purity="6.4989519119262695e-01" nType="0">
          <Node pos="l" depth="2" NCoef="0" IVar="-1" Cut="0.0000000000000000e+00" cType="1" res="-5.4116273531690240e-04" rms="4.8402366042137146e-01" purity="3.8051664829254150e-01" nType="-99"/>
          <Node pos="r" depth="2" NCoef="0" IVar="-1" Cut="0.0000000000000000e+00" cType="1" res="4.4909201096743345e-04" rms="4.6008247137069702e-01" purity="6.8567627668380737e-01" nType="-99"/>
        </Node>
      </Node>
    </BinaryTree>
    <BinaryTree type="DecisionTree" boostWeight="1.0000000000000000e+00" itree="238">
      <Node pos="s" depth="0" NCoef="0" IVar="3" Cut="3.1139460206031799e-01" cType="1" res="2.3501202464103699e-02" rms="4.7658517956733704e-01" purity="5.0084012746810913e-01" nType="0">
        <Node pos="l" depth="1" NCoef="0" IVar="4" Cut="7.2382229566574097e-01" cType="1" res="-6.7521885037422180e-02" rms="4.6457076072692871e-01" purity="3.5080030560493469e-01" nType="0">
          <Node pos="l" depth="2" NCoef="0" IVar="-1" Cut="0.0000000000000000e+00" cType="1" res="2.4694280000403523e-04" rms="4.9280002713203430e-01" purity="5.1023006439208984e-01" nType="-99"/>
          <Node pos="r" depth="2" NCoef="0" IVar="-1" Cut="0.0000000000000000e+00" cType="1" res="-6.4978253794834018e-04" rms="4.5339313149452209e-01" purity="3.1579041481018066e-01" nType="-99"/>
        </Node>
        <Node pos="r" depth="1" NCoef="0" IVar="5" Cut="4.6590255737304688e+02" cType="1" res="9.8530799150466919e-02" rms="4.7328132390975952e-01" purity="6.2451672554016113e-01" nType="0">
          <Node pos="l" depth="2" NCoef="0" IVar="-1" Cut="0.0000000000000000e+00" cType="1" res="5.2428644266910851e-05" rms="4.9136996269226074e-01" purity="5.1262664794921875e-01" nType="-99"/>
          <Node pos="r" depth="2" NCoef="0" IVar="-1" Cut="0.0000000000000000e+00" cType="1" res="5.4288801038637757e-04" rms="4.3649202585220337e-01" purity="7.3977982997894287e-01" nType="-99"/>
        </Node>
      </Node>
    </BinaryTree>
    <BinaryTree type="DecisionTree" boostWeight="1.0000000000000000e+00" itree="239">
      <Node pos="s" depth="0" NCoef="0" IVar="3" Cut="3.5557541251182556e-01" cType="1" res="3.5127729177474976e-02" rms="4.7583794593811035e-01" purity="5.1380956172943115e-01" nType="0">
        <Node pos="l" depth="1" NCoef="0" IVar="4" Cut="7.2919267416000366e-01" cType="1" res="-4.3143261224031448e-02" rms="4.7205778956413269e-01" purity="3.8919010758399963e-01" nType="0">
          <Node pos="l" depth="2" NCoef="0" IVar="-1" Cut="0.0000000000000000e+00" cType="1" res="3.7759158294647932e-04" rms="4.8335808515548706e-01" purity="5.6655633449554443e-01" nType="-99"/>
          <Node pos="r" depth="2" NCoef="0" IVar="-1" Cut="0.0000000000000000e+00" cType="1" res="-4.7677921247668564e-04" rms="4.6224111318588257e-01" purity="3.4511110186576843e-01" nType="-99"/>
        </Node>
        <Node pos="r" depth="1" NCoef="0" IVar="5" Cut="5.1889593505859375e+02" cType="1" res="1.3278439640998840e-01" rms="4.6228981018066406e-01" purity="6.6929394006729126e-01" nType="0">
          <Node pos="l" depth="2" NCoef="0" IVar="-1" Cut="0.0000000000000000e+00" cType="1" res="2.3792314459569752e-04" rms="4.8613846302032471e-01" purity="5.8544355630874634e-01" nType="-99"/>
          <Node pos="r" depth="2" NCoef="0" IVar="-1" Cut="0.0000000000000000e+00" cType="1" res="6.2993948813527822e-04" rms="4.0136602520942688e-01" purity="7.9762399196624756e-01" nType="-99"/>
        </Node>
      </Node>
    </BinaryTree>
    <BinaryTree type="DecisionTree" boostWeight="1.0000000000000000e+00" itree="240">
      <Node pos="s" depth="0" NCoef="0" IVar="3" Cut="2.6638859510421753e-01" cType="1" res="2.9264271259307861e-02" rms="4.7623971104621887e-01" purity="5.0717186927795410e-01" nType="0">
        <Node pos="l" depth="1" NCoef="0" IVar="4" Cut="7.1909344196319580e-01" cType="1" res="-9.2742681503295898e-02" rms="4.5280614495277405e-01" purity="3.1553211808204651e-01" nType="0">
          <Node pos="l" depth="2" NCoef="0" IVar="-1" Cut="0.0000000000000000e+00" cType="1" res="1.8430457566864789e-04" rms="4.8641777038574219e-01" purity="4.9331608414649963e-01" nType="-99"/>
          <Node pos="r" depth="2" NCoef="0" IVar="-1" Cut="0.0000000000000000e+00" cType="1" res="-9.1302406508475542e-04" rms="4.4067963957786560e-01" purity="2.7975845336914062e-01" nType="-99"/>
        </Node>
        <Node pos="r" depth="1" NCoef="0" IVar="4" Cut="9.7430187463760376e-01" cType="1" res="9.1468304395675659e-02" rms="4.7586262226104736e-01" purity="6.0487753152847290e-01" nType="0">
          <Node pos="l" depth="2" NCoef="0" IVar="-1" Cut="0.0000000000000000e+00" cType="1" res="5.1597756100818515e-04" rms="4.5250499248504639e-01" purity="6.8214052915573120e-01" nType="-99"/>
          <Node pos="r" depth="2" NCoef="0" IVar="-1" Cut="0.0000000000000000e+00" cType="1" res="-1.9018025341210887e-05" rms="4.8835077881813049e-01" purity="5.0413835048675537e-01" nType="-99"/>
        </Node>
      </Node>
    </BinaryTree>
    <BinaryTree type="DecisionTree" boostWeight="1.0000000000000000e+00" itree="241">
      <Node pos="s" depth="0" NCoef="0" IVar="4" Cut="7.2307997941970825e-01" cType="1" res="3.0398610979318619e-02" rms="4.7673490643501282e-01" purity="5.0779289007186890e-01" nType="0">
        <Node pos="l" depth="1" NCoef="0" IVar="3" Cut="2.8245672583580017e-01" cType="1" res="1.8813215196132660e-01" rms="4.4555634260177612e-01" purity="6.8948680162429810e-01" nType="0">
          <Node pos="l" depth="2" NCoef="0" IVar="-1" Cut="0.0000000000000000e+00" cType="1" res="3.2151283812709153e-04" rms="4.8804405331611633e-01" purity="5.3763866424560547e-01" nType="-99"/>
          <Node pos="r" depth="2" NCoef="0" IVar="-1" Cut="0.0000000000000000e+00" cType="1" res="6.6756625892594457e-04" rms="4.1069239377975464e-01" purity="7.7163076400756836e-01" nType="-99"/>
        </Node>
        <Node pos="r" depth="1" NCoef="0" IVar="3" Cut="4.0013661980628967e-01" cType="1" res="-9.8024224862456322e-03" rms="4.7607550024986267e-01" purity="4.6148517727851868e-01" nType="0">
          <Node pos="l" depth="2" NCoef="0" IVar="-1" Cut="0.0000000000000000e+00" cType="1" res="-3.5734451375901699e-04" rms="4.6747708320617676e-01" purity="3.7662485241889954e-01" nType="-99"/>
          <Node pos="r" depth="2" NCoef="0" IVar="-1" Cut="0.0000000000000000e+00" cType="1" res="3.5313417902216315e-04" rms="4.7423696517944336e-01" purity="6.3701313734054565e-01" nType="-99"/>
        </Node>
      </Node>
    </BinaryTree>
    <BinaryTree type="DecisionTree" boostWeight="1.0000000000000000e+00" itree="242">
      <Node pos="s" depth="0" NCoef="0" IVar="3" Cut="3.5587954521179199e-01" cType="1" res="2.0414890721440315e-02" rms="4.7534325718879700e-01" purity="4.9819082021713257e-01" nType="0">
        <Node pos="l" depth="1" NCoef="0" IVar="4" Cut="7.6830089092254639e-01" cType="1" res="-5.8058362454175949e-02" rms="4.6733045578002930e-01" purity="3.7387520074844360e-01" nType="0">
          <Node pos="l" depth="2" NCoef="0" IVar="-1" Cut="0.0000000000000000e+00" cType="1" res="2.8333737282082438e-04" rms="4.8459756374359131e-01" purity="5.2835029363632202e-01" nType="-99"/>
          <Node pos="r" depth="2" NCoef="0" IVar="-1" Cut="0.0000000000000000e+00" cType="1" res="-6.4311613095924258e-04" rms="4.5398116111755371e-01" purity="3.2363218069076538e-01" nType="-99"/>
        </Node>
        <Node pos="r" depth="1" NCoef="0" IVar="5" Cut="4.0514126586914062e+02" cType="1" res="1.2095579504966736e-01" rms="4.6650889515876770e-01" purity="6.5746557712554932e-01" nType="0">
          <Node pos="l" depth="2" NCoef="0" IVar="-1" Cut="0.0000000000000000e+00" cType="1" res="7.8999692050274462e-05" rms="4.9541422724723816e-01" purity="5.1810485124588013e-01" nType="-99"/>
          <Node pos="r" depth="2" NCoef="0" IVar="-1" Cut="0.0000000000000000e+00" cType="1" res="5.3171272156760097e-04" rms="4.3656000494956970e-01" purity="7.4211996793746948e-01" nType="-99"/>
        </Node>
      </Node>
    </BinaryTree>
    <BinaryTree type="DecisionTree" boostWeight="1.0000000000000000e+00" itree="243">
      <Node pos="s" depth="0" NCoef="0" IVar="3" Cut="2.8898757696151733e-01" cType="1" res="2.0324617624282837e-02" rms="4.7666931152343750e-01" purity="4.9724546074867249e-01" nType="0">
        <Node pos="l" depth="1" NCoef="0" IVar="4" Cut="7.2315233945846558e-01" cType="1" res="-7.5202070176601410e-02" rms="4.5882830023765564e-01" purity="3.3760288357734680e-01" nType="0">
          <Node pos="l" depth="2" NCoef="0" IVar="-1" Cut="0.0000000000000000e+00" cType="1" res="3.1921197660267353e-04" rms="4.8925366997718811e-01" purity="5.3050220012664795e-01" nType="-99"/>
          <Node pos="r" depth="2" NCoef="0" IVar="-1" Cut="0.0000000000000000e+00" cType="1" res="-8.0700160469859838e-04" rms="4.4374200701713562e-01" purity="2.9313468933105469e-01" nType="-99"/>
        </Node>
        <Node pos="r" depth="1" NCoef="0" IVar="5" Cut="3.7062432861328125e+02" cType="1" res="8.3690598607063293e-02" rms="4.7771999239921570e-01" purity="6.0314154624938965e-01" nType="0">
          <Node pos="l" depth="2" NCoef="0" IVar="-1" Cut="0.0000000000000000e+00" cType="1" res="-2.0211016817484051e-04" rms="4.8985314369201660e-01" purity="4.2782595753669739e-01" nType="-99"/>
          <Node pos="r" depth="2" NCoef="0" IVar="-1" Cut="0.0000000000000000e+00" cType="1" res="4.2050782940350473e-04" rms="4.6358916163444519e-01" purity="6.7336845397949219e-01" nType="-99"/>
        </Node>
      </Node>
    </BinaryTree>
    <BinaryTree type="DecisionTree" boostWeight="1.0000000000000000e+00" itree="244">
      <Node pos="s" depth="0" NCoef="0" IVar="3" Cut="3.1112849712371826e-01" cType="1" res="6.3590225763618946e-03" rms="4.7452816367149353e-01" purity="4.8387581110000610e-01" nType="0">
        <Node pos="l" depth="1" NCoef="0" IVar="5" Cut="4.0300762939453125e+02" cType="1" res="-9.6823498606681824e-02" rms="4.5313808321952820e-01" purity="3.1936368346214294e-01" nType="0">
          <Node pos="l" depth="2" NCoef="0" IVar="-1" Cut="0.0000000000000000e+00" cType="1" res="-1.9073005532845855e-03" rms="3.9260327816009521e-01" purity="1.9366517663002014e-01" nType="-99"/>
          <Node pos="r" depth="2" NCoef="0" IVar="-1" Cut="0.0000000000000000e+00" cType="1" res="-2.5233210180886090e-04" rms="4.8556742072105408e-01" purity="4.0796324610710144e-01" nType="-99"/>
        </Node>
        <Node pos="r" depth="1" NCoef="0" IVar="5" Cut="3.7107250976562500e+02" cType="1" res="8.8797606527805328e-02" rms="4.7510865330696106e-01" purity="6.1531424522399902e-01" nType="0">
          <Node pos="l" depth="2" NCoef="0" IVar="-1" Cut="0.0000000000000000e+00" cType="1" res="-2.6242830790579319e-04" rms="4.8841068148612976e-01" purity="4.2571279406547546e-01" nType="-99"/>
          <Node pos="r" depth="2" NCoef="0" IVar="-1" Cut="0.0000000000000000e+00" cType="1" res="4.4274507672525942e-04" rms="4.5815235376358032e-01" purity="6.9015651941299438e-01" nType="-99"/>
        </Node>
      </Node>
    </BinaryTree>
    <BinaryTree type="DecisionTree" boostWeight="1.0000000000000000e+00" itree="245">
      <Node pos="s" depth="0" NCoef="0" IVar="3" Cut="3.3363708853721619e-01" cType="1" res="2.3650541901588440e-02" rms="4.7505220770835876e-01" purity="5.0179952383041382e-01" nType="0">
        <Node pos="l" depth="1" NCoef="0" IVar="7" Cut="1.3505566406250000e+02" cType="1" res="-6.4280018210411072e-02" rms="4.6342924237251282e-01" purity="3.6122447252273560e-01" nType="0">
          <Node pos="l" depth="2" NCoef="0" IVar="-1" Cut="0.0000000000000000e+00" cType="1" res="-1.0671148775145411e-03" rms="4.2910027503967285e-01" purity="2.6681116223335266e-01" nType="-99"/>
          <Node pos="r" depth="2" NCoef="0" IVar="-1" Cut="0.0000000000000000e+00" cType="1" res="1.6233157657552510e-04" rms="4.9122315645217896e-01" purity="4.9745142459869385e-01" nType="-99"/>
        </Node>
        <Node pos="r" depth="1" NCoef="0" IVar="4" Cut="1.0143662691116333e+00" cType="1" res="1.1241471767425537e-01" rms="4.7010827064514160e-01" purity="6.4370733499526978e-01" nType="0">
          <Node pos="l" depth="2" NCoef="0" IVar="-1" Cut="0.0000000000000000e+00" cType="1" res="5.1911233458667994e-04" rms="4.4610089063644409e-01" purity="7.0640176534652710e-01" nType="-99"/>
          <Node pos="r" depth="2" NCoef="0" IVar="-1" Cut="0.0000000000000000e+00" cType="1" res="8.7552201875951141e-05" rms="4.9055513739585876e-01" purity="5.4930454492568970e-01" nType="-99"/>
        </Node>
      </Node>
    </BinaryTree>
    <BinaryTree type="DecisionTree" boostWeight="1.0000000000000000e+00" itree="246">
      <Node pos="s" depth="0" NCoef="0" IVar="3" Cut="2.6675775647163391e-01" cType="1" res="3.1644549220800400e-02" rms="4.7576442360877991e-01" purity="5.0973069667816162e-01" nType="0">
        <Node pos="l" depth="1" NCoef="0" IVar="7" Cut="1.3890069580078125e+02" cType="1" res="-7.7715188264846802e-02" rms="4.5741295814514160e-01" purity="3.2961326837539673e-01" nType="0">
          <Node pos="l" depth="2" NCoef="0" IVar="-1" Cut="0.0000000000000000e+00" cType="1" res="-1.0734962997958064e-03" rms="4.2761191725730896e-01" purity="2.5526565313339233e-01" nType="-99"/>
          <Node pos="r" depth="2" NCoef="0" IVar="-1" Cut="0.0000000000000000e+00" cType="1" res="3.8956517528276891e-05" rms="4.9142941832542419e-01" purity="4.5395949482917786e-01" nType="-99"/>
        </Node>
        <Node pos="r" depth="1" NCoef="0" IVar="5" Cut="4.7326678466796875e+02" cType="1" res="8.8727749884128571e-02" rms="4.7517323493957520e-01" purity="6.0374772548675537e-01" nType="0">
          <Node pos="l" depth="2" NCoef="0" IVar="-1" Cut="0.0000000000000000e+00" cType="1" res="4.7193087084451690e-05" rms="4.8748862743377686e-01" purity="4.9869474768638611e-01" nType="-99"/>
          <Node pos="r" depth="2" NCoef="0" IVar="-1" Cut="0.0000000000000000e+00" cType="1" res="5.0304073374718428e-04" rms="4.4685268402099609e-01" purity="7.1613937616348267e-01" nType="-99"/>
        </Node>
      </Node>
    </BinaryTree>
    <BinaryTree type="DecisionTree" boostWeight="1.0000000000000000e+00" itree="247">
      <Node pos="s" depth="0" NCoef="0" IVar="3" Cut="3.5587954521179199e-01" cType="1" res="2.0008919760584831e-02" rms="4.7567743062973022e-01" purity="4.9700674414634705e-01" nType="0">
        <Node pos="l" depth="1" NCoef="0" IVar="1" Cut="8.5513889789581299e-01" cType="1" res="-5.6873138993978500e-02" rms="4.6869432926177979e-01" purity="3.7229451537132263e-01" nType="0">
          <Node pos="l" depth="2" NCoef="0" IVar="-1" Cut="0.0000000000000000e+00" cType="1" res="-7.5076380744576454e-04" rms="4.5060884952545166e-01" purity="3.1432679295539856e-01" nType="-99"/>
          <Node pos="r" depth="2" NCoef="0" IVar="-1" Cut="0.0000000000000000e+00" cType="1" res="8.8418397353962064e-05" rms="4.8134294152259827e-01" purity="4.4896209239959717e-01" nType="-99"/>
        </Node>
        <Node pos="r" depth="1" NCoef="0" IVar="5" Cut="4.2205282592773438e+02" cType="1" res="1.1767029017210007e-01" rms="4.6647602319717407e-01" purity="6.5542560815811157e-01" nType="0">
          <Node pos="l" depth="2" NCoef="0" IVar="-1" Cut="0.0000000000000000e+00" cType="1" res="6.8896595621481538e-05" rms="4.9401757121086121e-01" purity="5.2133774757385254e-01" nType="-99"/>
          <Node pos="r" depth="2" NCoef="0" IVar="-1" Cut="0.0000000000000000e+00" cType="1" res="5.3939648205414414e-04" rms="4.3203946948051453e-01" purity="7.5020503997802734e-01" nType="-99"/>
        </Node>
      </Node>
    </BinaryTree>
    <BinaryTree type="DecisionTree" boostWeight="1.0000000000000000e+00" itree="248">
      <Node pos="s" depth="0" NCoef="0" IVar="3" Cut="2.8643348813056946e-01" cType="1" res="1.7814397811889648e-02" rms="4.7653678059577942e-01" purity="4.9400871992111206e-01" nType="0">
        <Node pos="l" depth="1" NCoef="0" IVar="4" Cut="7.1004682779312134e-01" cType="1" res="-8.3283439278602600e-02" rms="4.5743745565414429e-01" purity="3.2561028003692627e-01" nType="0">
          <Node pos="l" depth="2" NCoef="0" IVar="-1" Cut="0.0000000000000000e+00" cType="1" res="2.3685902124270797e-04" rms="4.8847848176956177e-01" purity="5.0857168436050415e-01" nType="-99"/>
          <Node pos="r" depth="2" NCoef="0" IVar="-1" Cut="0.0000000000000000e+00" cType="1" res="-8.1018195487558842e-04" rms="4.4590228796005249e-01" purity="2.8945326805114746e-01" nType="-99"/>
        </Node>
        <Node pos="r" depth="1" NCoef="0" IVar="5" Cut="5.5117407226562500e+02" cType="1" res="8.2663424313068390e-02" rms="4.7725060582160950e-01" purity="6.0202759504318237e-01" nType="0">
          <Node pos="l" depth="2" NCoef="0" IVar="-1" Cut="0.0000000000000000e+00" cType="1" res="1.1334386363159865e-04" rms="4.8753494024276733e-01" purity="5.3240787982940674e-01" nType="-99"/>
          <Node pos="r" depth="2" NCoef="0" IVar="-1" Cut="0.0000000000000000e+00" cType="1" res="5.3547503193840384e-04" rms="4.3609535694122314e-01" purity="7.4061137437820435e-01" nType="-99"/>
        </Node>
      </Node>
    </BinaryTree>
    <BinaryTree type="DecisionTree" boostWeight="1.0000000000000000e+00" itree="249">
      <Node pos="s" depth="0" NCoef="0" IVar="3" Cut="3.3344718813896179e-01" cType="1" res="9.9927894771099091e-03" rms="4.7570568323135376e-01" purity="4.8601636290550232e-01" nType="0">
        <Node pos="l" depth="1" NCoef="0" IVar="7" Cut="1.6202149963378906e+02" cType="1" res="-7.3335088789463043e-02" rms="4.6158224344253540e-01" purity="3.4931141138076782e-01" nType="0">
          <Node pos="l" depth="2" NCoef="0" IVar="-1" Cut="0.0000000000000000e+00" cType="1" res="-8.3206838462501764e-04" rms="4.4300645589828491e-01" purity="2.9301398992538452e-01" nType="-99"/>
          <Node pos="r" depth="2" NCoef="0" IVar="-1" Cut="0.0000000000000000e+00" cType="1" res="1.6048042743932456e-04" rms="4.9362310767173767e-01" purity="5.0903320312500000e-01" nType="-99"/>
        </Node>
        <Node pos="r" depth="1" NCoef="0" IVar="4" Cut="1.0345261096954346e+00" cType="1" res="9.6215039491653442e-02" rms="4.7473621368408203e-01" purity="6.2746977806091309e-01" nType="0">
          <Node pos="l" depth="2" NCoef="0" IVar="-1" Cut="0.0000000000000000e+00" cType="1" res="4.9337476957589388e-04" rms="4.5284301042556763e-01" purity="6.9197410345077515e-01" nType="-99"/>
          <Node pos="r" depth="2" NCoef="0" IVar="-1" Cut="0.0000000000000000e+00" cType="1" res="-3.9617203583475202e-05" rms="4.9182254076004028e-01" purity="5.1846778392791748e-01" nType="-99"/>
        </Node>
      </Node>
    </BinaryTree>
    <BinaryTree type="DecisionTree" boostWeight="1.0000000000000000e+00" itree="250">
      <Node pos="s" depth="0" NCoef="0" IVar="5" Cut="4.6550601196289062e+02" cType="1" res="1.0502858087420464e-02" rms="4.7585836052894592e-01" purity="4.8654463887214661e-01" nType="0">
        <Node pos="l" depth="1" NCoef="0" IVar="6" Cut="1.5598490905761719e+02" cType="1" res="-6.1749555170536041e-02" rms="4.6493962407112122e-01" purity="3.7765565514564514e-01" nType="0">
          <Node pos="l" depth="2" NCoef="0" IVar="-1" Cut="0.0000000000000000e+00" cType="1" res="-7.4067298555746675e-05" rms="4.7273367643356323e-01" purity="4.2433115839958191e-01" nType="-99"/>
          <Node pos="r" depth="2" NCoef="0" IVar="-1" Cut="0.0000000000000000e+00" cType="1" res="-1.7532893689349294e-03" rms="4.1358754038810730e-01" purity="2.4527339637279510e-01" nType="-99"/>
        </Node>
        <Node pos="r" depth="1" NCoef="0" IVar="3" Cut="3.1121736764907837e-01" cType="1" res="9.3196362257003784e-02" rms="4.7474724054336548e-01" purity="6.1116898059844971e-01" nType="0">
          <Node pos="l" depth="2" NCoef="0" IVar="-1" Cut="0.0000000000000000e+00" cType="1" res="-6.7995010795129929e-06" rms="4.9315521121025085e-01" purity="4.6952030062675476e-01" nType="-99"/>
          <Node pos="r" depth="2" NCoef="0" IVar="-1" Cut="0.0000000000000000e+00" cType="1" res="4.8414096818305552e-04" rms="4.4655856490135193e-01" purity="7.2029966115951538e-01" nType="-99"/>
        </Node>
      </Node>
    </BinaryTree>
    <BinaryTree type="DecisionTree" boostWeight="1.0000000000000000e+00" itree="251">
      <Node pos="s" depth="0" NCoef="0" IVar="4" Cut="8.2675582170486450e-01" cType="1" res="1.5665961429476738e-02" rms="4.7545489668846130e-01" purity="4.9219709634780884e-01" nType="0">
        <Node pos="l" depth="1" NCoef="0" IVar="3" Cut="2.6344850659370422e-01" cType="1" res="1.2944637238979340e-01" rms="4.6324253082275391e-01" purity="6.2067872285842896e-01" nType="0">
          <Node pos="l" depth="2" NCoef="0" IVar="-1" Cut="0.0000000000000000e+00" cType="1" res="4.3442159949336201e-06" rms="4.8370745778083801e-01" purity="4.2482194304466248e-01" nType="-99"/>
          <Node pos="r" depth="2" NCoef="0" IVar="-1" Cut="0.0000000000000000e+00" cType="1" res="5.6734436657279730e-04" rms="4.4177353382110596e-01" purity="7.0850032567977905e-01" nType="-99"/>
        </Node>
        <Node pos="r" depth="1" NCoef="0" IVar="5" Cut="5.2612554931640625e+02" cType="1" res="-4.2900890111923218e-02" rms="4.7102472186088562e-01" purity="4.2606303095817566e-01" nType="0">
          <Node pos="l" depth="2" NCoef="0" IVar="-1" Cut="0.0000000000000000e+00" cType="1" res="-6.4894231036305428e-04" rms="4.5447763800621033e-01" purity="3.4174856543540955e-01" nType="-99"/>
          <Node pos="r" depth="2" NCoef="0" IVar="-1" Cut="0.0000000000000000e+00" cType="1" res="2.6122192502953112e-04" rms="4.8093402385711670e-01" purity="5.8852809667587280e-01" nType="-99"/>
        </Node>
      </Node>
    </BinaryTree>
    <BinaryTree type="DecisionTree" boostWeight="1.0000000000000000e+00" itree="252">
      <Node pos="s" depth="0" NCoef="0" IVar="5" Cut="3.9034243774414062e+02" cType="1" res="2.1436613053083420e-02" rms="4.7500166296958923e-01" purity="4.9873837828636169e-01" nType="0">
        <Node pos="l" depth="1" NCoef="0" IVar="3" Cut="3.3271867036819458e-01" cType="1" res="-8.5549786686897278e-02" rms="4.5242875814437866e-01" purity="3.3637121319770813e-01" nType="0">
          <Node pos="l" depth="2" NCoef="0" IVar="-1" Cut="0.0000000000000000e+00" cType="1" res="-1.8329862505197525e-03" rms="3.9331910014152527e-01" purity="1.9657066464424133e-01" nType="-99"/>
          <Node pos="r" depth="2" NCoef="0" IVar="-1" Cut="0.0000000000000000e+00" cType="1" res="-1.2546473953989334e-05" rms="4.9466443061828613e-01" purity="4.8532539606094360e-01" nType="-99"/>
        </Node>
        <Node pos="r" depth="1" NCoef="0" IVar="3" Cut="2.4445809423923492e-01" cType="1" res="7.8838542103767395e-02" rms="4.7688847780227661e-01" purity="5.8585399389266968e-01" nType="0">
          <Node pos="l" depth="2" NCoef="0" IVar="-1" Cut="0.0000000000000000e+00" cType="1" res="-2.4859386030584574e-04" rms="4.8142093420028687e-01" purity="3.9424008131027222e-01" nType="-99"/>
          <Node pos="r" depth="2" NCoef="0" IVar="-1" Cut="0.0000000000000000e+00" cType="1" res="4.1395396692678332e-04" rms="4.6621227264404297e-01" purity="6.5936595201492310e-01" nType="-99"/>
        </Node>
      </Node>
    </BinaryTree>
    <BinaryTree type="DecisionTree" boostWeight="1.0000000000000000e+00" itree="253">
      <Node pos="s" depth="0" NCoef="0" IVar="3" Cut="3.5587954521179199e-01" cType="1" res="2.5518842041492462e-02" rms="4.7602662444114685e-01" purity="5.0160819292068481e-01" nType="0">
        <Node pos="l" depth="1" NCoef="0" IVar="4" Cut="6.8348079919815063e-01" cType="1" res="-4.1542027145624161e-02" rms="4.7089686989784241e-01" purity="3.8811764121055603e-01" nType="0">
          <Node pos="l" depth="2" NCoef="0" IVar="-1" Cut="0.0000000000000000e+00" cType="1" res="4.4167588930577040e-04" rms="4.7599998116493225e-01" purity="6.0102546215057373e-01" nType="-99"/>
          <Node pos="r" depth="2" NCoef="0" IVar="-1" Cut="0.0000000000000000e+00" cType="1" res="-4.4055140460841358e-04" rms="4.6362182497978210e-01" purity="3.5031247138977051e-01" nType="-99"/>
        </Node>
        <Node pos="r" depth="1" NCoef="0" IVar="5" Cut="3.2798220825195312e+02" cType="1" res="1.1410771310329437e-01" rms="4.6821931004524231e-01" purity="6.5153175592422485e-01" nType="0">
          <Node pos="l" depth="2" NCoef="0" IVar="-1" Cut="0.0000000000000000e+00" cType="1" res="-4.3917362927459180e-04" rms="4.8809653520584106e-01" purity="3.9886447787284851e-01" nType="-99"/>
          <Node pos="r" depth="2" NCoef="0" IVar="-1" Cut="0.0000000000000000e+00" cType="1" res="4.7762732720002532e-04" rms="4.5374622941017151e-01" purity="7.0367628335952759e-01" nType="-99"/>
        </Node>
      </Node>
    </BinaryTree>
    <BinaryTree type="DecisionTree" boostWeight="1.0000000000000000e+00" itree="254">
      <Node pos="s" depth="0" NCoef="0" IVar="3" Cut="3.7731686234474182e-01" cType="1" res="2.8013315051794052e-02" rms="4.7657331824302673e-01" purity="5.0417852401733398e-01" nType="0">
        <Node pos="l" depth="1" NCoef="0" IVar="3" Cut="1.7872700095176697e-01" cType="1" res="-3.4842371940612793e-02" rms="4.7404354810714722e-01" purity="4.0254473686218262e-01" nType="0">
          <Node pos="l" depth="2" NCoef="0" IVar="-1" Cut="0.0000000000000000e+00" cType="1" res="-1.4289799146354198e-03" rms="4.1433006525039673e-01" purity="2.3671893775463104e-01" nType="-99"/>
          <Node pos="r" depth="2" NCoef="0" IVar="-1" Cut="0.0000000000000000e+00" cType="1" res="3.0920080007490469e-06" rms="4.8358771204948425e-01" purity="4.4908535480499268e-01" nType="-99"/>
        </Node>
        <Node pos="r" depth="1" NCoef="0" IVar="4" Cut="1.0637038946151733e+00" cType="1" res="1.2991139292716980e-01" rms="4.6285271644592285e-01" purity="6.6894137859344482e-01" nType="0">
          <Node pos="l" depth="2" NCoef="0" IVar="-1" Cut="0.0000000000000000e+00" cType="1" res="5.5045273620635271e-04" rms="4.3812134861946106e-01" purity="7.2627049684524536e-01" nType="-99"/>
          <Node pos="r" depth="2" NCoef="0" IVar="-1" Cut="0.0000000000000000e+00" cType="1" res="9.6121912065427750e-05" rms="4.8953518271446228e-01" purity="5.5993211269378662e-01" nType="-99"/>
        </Node>
      </Node>
    </BinaryTree>
    <BinaryTree type="DecisionTree" boostWeight="1.0000000000000000e+00" itree="255">
      <Node pos="s" depth="0" NCoef="0" IVar="3" Cut="4.2260697484016418e-01" cType="1" res="2.4716502055525780e-02" rms="4.7604668140411377e-01" purity="5.0044149160385132e-01" nType="0">
        <Node pos="l" depth="1" NCoef="0" IVar="5" Cut="6.0237548828125000e+02" cType="1" res="-2.5583706796169281e-02" rms="4.7550198435783386e-01" purity="4.2501425743103027e-01" nType="0">
          <Node pos="l" depth="2" NCoef="0" IVar="-1" Cut="0.0000000000000000e+00" cType="1" res="-3.8224831223487854e-04" rms="4.6718582510948181e-01" purity="3.6452427506446838e-01" nType="-99"/>
          <Node pos="r" depth="2" NCoef="0" IVar="-1" Cut="0.0000000000000000e+00" cType="1" res="3.3687689574435353e-04" rms="4.7916981577873230e-01" purity="6.0766518115997314e-01" nType="-99"/>
        </Node>
        <Node pos="r" depth="1" NCoef="0" IVar="5" Cut="3.4718569946289062e+02" cType="1" res="1.5421524643898010e-01" rms="4.5240598917007446e-01" purity="6.9463008642196655e-01" nType="0">
          <Node pos="l" depth="2" NCoef="0" IVar="-1" Cut="0.0000000000000000e+00" cType="1" res="4.2582391870382708e-06" rms="4.9786579608917236e-01" purity="4.8995670676231384e-01" nType="-99"/>
          <Node pos="r" depth="2" NCoef="0" IVar="-1" Cut="0.0000000000000000e+00" cType="1" res="5.7405134430155158e-04" rms="4.2745232582092285e-01" purity="7.5561785697937012e-01" nType="-99"/>
        </Node>
      </Node>
    </BinaryTree>
    <BinaryTree type="DecisionTree" boostWeight="1.0000000000000000e+00" itree="256">
      <Node pos="s" depth="0" NCoef="0" IVar="5" Cut="4.5298846435546875e+02" cType="1" res="2.2622974589467049e-02" rms="4.7510144114494324e-01" purity="4.9971625208854675e-01" nType="0">
        <Node pos="l" depth="1" NCoef="0" IVar="3" Cut="4.6165320277214050e-01" cType="1" res="-6.3929647207260132e-02" rms="4.6298909187316895e-01" purity="3.7200430035591125e-01" nType="0">
          <Node pos="l" depth="2" NCoef="0" IVar="-1" Cut="0.0000000000000000e+00" cType="1" res="-6.8097555777058005e-04" rms="4.5025745034217834e-01" purity="3.1696417927742004e-01" nType="-99"/>
          <Node pos="r" depth="2" NCoef="0" IVar="-1" Cut="0.0000000000000000e+00" cType="1" res="2.8993986779823899e-04" rms="4.8587238788604736e-01" purity="5.9481108188629150e-01" nType="-99"/>
        </Node>
        <Node pos="r" depth="1" NCoef="0" IVar="3" Cut="2.6566421985626221e-01" cType="1" res="1.0643334686756134e-01" rms="4.7164142131805420e-01" purity="6.2338185310363770e-01" nType="0">
          <Node pos="l" depth="2" NCoef="0" IVar="-1" Cut="0.0000000000000000e+00" cType="1" res="-6.6144799347966909e-05" rms="4.9215781688690186e-01" purity="4.4452205300331116e-01" nType="-99"/>
          <Node pos="r" depth="2" NCoef="0" IVar="-1" Cut="0.0000000000000000e+00" cType="1" res="4.8173026880249381e-04" rms="4.5129823684692383e-01" purity="7.0546734333038330e-01" nType="-99"/>
        </Node>
      </Node>
    </BinaryTree>
    <BinaryTree type="DecisionTree" boostWeight="1.0000000000000000e+00" itree="257">
      <Node pos="s" depth="0" NCoef="0" IVar="3" Cut="3.7779888510704041e-01" cType="1" res="1.5757508575916290e-02" rms="4.7510430216789246e-01" purity="4.9150052666664124e-01" nType="0">
        <Node pos="l" depth="1" NCoef="0" IVar="5" Cut="3.7954116821289062e+02" cType="1" res="-4.4524736702442169e-02" rms="4.6968543529510498e-01" purity="3.9374887943267822e-01" nType="0">
          <Node pos="l" depth="2" NCoef="0" IVar="-1" Cut="0.0000000000000000e+00" cType="1" res="-1.5745153650641441e-03" rms="4.0397113561630249e-01" purity="2.1622918546199799e-01" nType="-99"/>
          <Node pos="r" depth="2" NCoef="0" IVar="-1" Cut="0.0000000000000000e+00" cType="1" res="4.2787258280441165e-05" rms="4.8929256200790405e-01" purity="4.7987207770347595e-01" nType="-99"/>
        </Node>
        <Node pos="r" depth="1" NCoef="0" IVar="4" Cut="8.3766478300094604e-01" cType="1" res="1.1765196919441223e-01" rms="4.6674719452857971e-01" purity="6.5672928094863892e-01" nType="0">
          <Node pos="l" depth="2" NCoef="0" IVar="-1" Cut="0.0000000000000000e+00" cType="1" res="6.1960390303283930e-04" rms="4.1620841622352600e-01" purity="7.6643836498260498e-01" nType="-99"/>
          <Node pos="r" depth="2" NCoef="0" IVar="-1" Cut="0.0000000000000000e+00" cType="1" res="2.2239724057726562e-04" rms="4.8280081152915955e-01" purity="5.9674203395843506e-01" nType="-99"/>
        </Node>
      </Node>
    </BinaryTree>
    <BinaryTree type="DecisionTree" boostWeight="1.0000000000000000e+00" itree="258">
      <Node pos="s" depth="0" NCoef="0" IVar="3" Cut="2.6638859510421753e-01" cType="1" res="2.5066979229450226e-02" rms="4.7591936588287354e-01" purity="5.0126373767852783e-01" nType="0">
        <Node pos="l" depth="1" NCoef="0" IVar="5" Cut="3.8325607299804688e+02" cType="1" res="-8.0736652016639709e-02" rms="4.5572608709335327e-01" purity="3.2311367988586426e-01" nType="0">
          <Node pos="l" depth="2" NCoef="0" IVar="-1" Cut="0.0000000000000000e+00" cType="1" res="-1.8492921954020858e-03" rms="3.8962030410766602e-01" purity="1.8807072937488556e-01" nType="-99"/>
          <Node pos="r" depth="2" NCoef="0" IVar="-1" Cut="0.0000000000000000e+00" cType="1" res="-2.0013352332171053e-04" rms="4.8459956049919128e-01" purity="4.0061074495315552e-01" nType="-99"/>
        </Node>
        <Node pos="r" depth="1" NCoef="0" IVar="5" Cut="4.4496536254882812e+02" cType="1" res="8.0561637878417969e-02" rms="4.7688108682632446e-01" purity="5.9470456838607788e-01" nType="0">
          <Node pos="l" depth="2" NCoef="0" IVar="-1" Cut="0.0000000000000000e+00" cType="1" res="-3.0020064514246769e-05" rms="4.8742195963859558e-01" purity="4.7300094366073608e-01" nType="-99"/>
          <Node pos="r" depth="2" NCoef="0" IVar="-1" Cut="0.0000000000000000e+00" cType="1" res="4.7467421973124146e-04" rms="4.5446512103080750e-01" purity="6.9937443733215332e-01" nType="-99"/>
        </Node>
      </Node>
    </BinaryTree>
    <BinaryTree type="DecisionTree" boostWeight="1.0000000000000000e+00" itree="259">
      <Node pos="s" depth="0" NCoef="0" IVar="5" Cut="3.7689898681640625e+02" cType="1" res="1.5899758785963058e-02" rms="4.7558540105819702e-01" purity="4.9150589108467102e-01" nType="0">
        <Node pos="l" depth="1" NCoef="0" IVar="3" Cut="4.6373668313026428e-01" cType="1" res="-9.5663443207740784e-02" rms="4.4990393519401550e-01" purity="3.1829535961151123e-01" nType="0">
          <Node pos="l" depth="2" NCoef="0" IVar="-1" Cut="0.0000000000000000e+00" cType="1" res="-1.1256382567808032e-03" rms="4.3022978305816650e-01" purity="2.6130700111389160e-01" nType="-99"/>
          <Node pos="r" depth="2" NCoef="0" IVar="-1" Cut="0.0000000000000000e+00" cType="1" res="1.9698801042977720e-04" rms="4.9554926156997681e-01" purity="5.4640316963195801e-01" nType="-99"/>
        </Node>
        <Node pos="r" depth="1" NCoef="0" IVar="3" Cut="3.3141848444938660e-01" cType="1" res="6.7578919231891632e-02" rms="4.7828361392021179e-01" purity="5.7174181938171387e-01" nType="0">
          <Node pos="l" depth="2" NCoef="0" IVar="-1" Cut="0.0000000000000000e+00" cType="1" res="-4.3214502511546016e-05" rms="4.8789709806442261e-01" purity="4.4519680738449097e-01" nType="-99"/>
          <Node pos="r" depth="2" NCoef="0" IVar="-1" Cut="0.0000000000000000e+00" cType="1" res="4.4406941742636263e-04" rms="4.5558384060859680e-01" purity="6.9897103309631348e-01" nType="-99"/>
        </Node>
      </Node>
    </BinaryTree>
    <BinaryTree type="DecisionTree" boostWeight="1.0000000000000000e+00" itree="260">
      <Node pos="s" depth="0" NCoef="0" IVar="3" Cut="3.7790682911872864e-01" cType="1" res="1.3281027786433697e-02" rms="4.7421517968177795e-01" purity="4.8969310522079468e-01" nType="0">
        <Node pos="l" depth="1" NCoef="0" IVar="4" Cut="6.9207251071929932e-01" cType="1" res="-4.8960283398628235e-02" rms="4.6811962127685547e-01" purity="3.8888439536094666e-01" nType="0">
          <Node pos="l" depth="2" NCoef="0" IVar="-1" Cut="0.0000000000000000e+00" cType="1" res="4.4196314411237836e-04" rms="4.7324261069297791e-01" purity="6.1077594757080078e-01" nType="-99"/>
          <Node pos="r" depth="2" NCoef="0" IVar="-1" Cut="0.0000000000000000e+00" cType="1" res="-5.2730552852153778e-04" rms="4.5873352885246277e-01" purity="3.4501188993453979e-01" nType="-99"/>
        </Node>
        <Node pos="r" depth="1" NCoef="0" IVar="5" Cut="3.2960177612304688e+02" cType="1" res="1.1593873053789139e-01" rms="4.6628946065902710e-01" purity="6.5596193075180054e-01" nType="0">
          <Node pos="l" depth="2" NCoef="0" IVar="-1" Cut="0.0000000000000000e+00" cType="1" res="-4.4016630272381008e-04" rms="4.8713028430938721e-01" purity="3.9955866336822510e-01" nType="-99"/>
          <Node pos="r" depth="2" NCoef="0" IVar="-1" Cut="0.0000000000000000e+00" cType="1" res="4.7746920608915389e-04" rms="4.5056995749473572e-01" purity="7.1039193868637085e-01" nType="-99"/>
        </Node>
      </Node>
    </BinaryTree>
    <BinaryTree type="DecisionTree" boostWeight="1.0000000000000000e+00" itree="261">
      <Node pos="s" depth="0" NCoef="0" IVar="5" Cut="3.9576910400390625e+02" cType="1" res="2.2360717877745628e-02" rms="4.7509539127349854e-01" purity="4.9869489669799805e-01" nType="0">
        <Node pos="l" depth="1" NCoef="0" IVar="3" Cut="4.4355595111846924e-01" cType="1" res="-8.2817740738391876e-02" rms="4.5506256818771362e-01" purity="3.3593046665191650e-01" nType="0">
          <Node pos="l" depth="2" NCoef="0" IVar="-1" Cut="0.0000000000000000e+00" cType="1" res="-9.9775602575391531e-04" rms="4.3387889862060547e-01" purity="2.6720038056373596e-01" nType="-99"/>
          <Node pos="r" depth="2" NCoef="0" IVar="-1" Cut="0.0000000000000000e+00" cType="1" res="2.0615970424842089e-04" rms="4.9305078387260437e-01" purity="5.5496841669082642e-01" nType="-99"/>
        </Node>
        <Node pos="r" depth="1" NCoef="0" IVar="3" Cut="3.5557541251182556e-01" cType="1" res="8.2073181867599487e-02" rms="4.7586596012115479e-01" purity="5.9110033512115479e-01" nType="0">
          <Node pos="l" depth="2" NCoef="0" IVar="-1" Cut="0.0000000000000000e+00" cType="1" res="3.9585138438269496e-05" rms="4.9050521850585938e-01" purity="4.7668766975402832e-01" nType="-99"/>
          <Node pos="r" depth="2" NCoef="0" IVar="-1" Cut="0.0000000000000000e+00" cType="1" res="4.9796735402196646e-04" rms="4.3962025642395020e-01" purity="7.3606348037719727e-01" nType="-99"/>
        </Node>
      </Node>
    </BinaryTree>
    <BinaryTree type="DecisionTree" boostWeight="1.0000000000000000e+00" itree="262">
      <Node pos="s" depth="0" NCoef="0" IVar="5" Cut="4.3891622924804688e+02" cType="1" res="2.5232978165149689e-02" rms="4.7476550936698914e-01" purity="5.0176346302032471e-01" nType="0">
        <Node pos="l" depth="1" NCoef="0" IVar="3" Cut="2.2223463654518127e-01" cType="1" res="-6.7562498152256012e-02" rms="4.6087568998336792e-01" purity="3.6325326561927795e-01" nType="0">
          <Node pos="l" depth="2" NCoef="0" IVar="-1" Cut="0.0000000000000000e+00" cType="1" res="-2.4667484685778618e-03" rms="3.6959746479988098e-01" purity="1.6640700399875641e-01" nType="-99"/>
          <Node pos="r" depth="2" NCoef="0" IVar="-1" Cut="0.0000000000000000e+00" cType="1" res="-1.2960094318259507e-04" rms="4.8248547315597534e-01" purity="4.3324875831604004e-01" nType="-99"/>
        </Node>
        <Node pos="r" depth="1" NCoef="0" IVar="3" Cut="2.8915214538574219e-01" cType="1" res="1.0480333864688873e-01" rms="4.7204959392547607e-01" purity="6.2053340673446655e-01" nType="0">
          <Node pos="l" depth="2" NCoef="0" IVar="-1" Cut="0.0000000000000000e+00" cType="1" res="4.0046088543022051e-05" rms="4.9375391006469727e-01" purity="4.6874675154685974e-01" nType="-99"/>
          <Node pos="r" depth="2" NCoef="0" IVar="-1" Cut="0.0000000000000000e+00" cType="1" res="4.8945908201858401e-04" rms="4.4781914353370667e-01" purity="7.1497589349746704e-01" nType="-99"/>
        </Node>
      </Node>
    </BinaryTree>
    <BinaryTree type="DecisionTree" boostWeight="1.0000000000000000e+00" itree="263">
      <Node pos="s" depth="0" NCoef="0" IVar="3" Cut="3.9958289265632629e-01" cType="1" res="2.1723683923482895e-02" rms="4.7555026412010193e-01" purity="4.9765759706497192e-01" nType="0">
        <Node pos="l" depth="1" NCoef="0" IVar="5" Cut="5.6505621337890625e+02" cType="1" res="-3.2887432724237442e-02" rms="4.7341987490653992e-01" purity="4.1075101494789124e-01" nType="0">
          <Node pos="l" depth="2" NCoef="0" IVar="-1" Cut="0.0000000000000000e+00" cType="1" res="-5.1464693387970328e-04" rms="4.5977944135665894e-01" purity="3.3916801214218140e-01" nType="-99"/>
          <Node pos="r" depth="2" NCoef="0" IVar="-1" Cut="0.0000000000000000e+00" cType="1" res="2.8133348678238690e-04" rms="4.8624646663665771e-01" purity="5.8294332027435303e-01" nType="-99"/>
        </Node>
        <Node pos="r" depth="1" NCoef="0" IVar="4" Cut="8.5734599828720093e-01" cType="1" res="1.3269481062889099e-01" rms="4.6030566096305847e-01" purity="6.7425394058227539e-01" nType="0">
          <Node pos="l" depth="2" NCoef="0" IVar="-1" Cut="0.0000000000000000e+00" cType="1" res="6.6215795231983066e-04" rms="3.9801582694053650e-01" purity="7.9265487194061279e-01" nType="-99"/>
          <Node pos="r" depth="2" NCoef="0" IVar="-1" Cut="0.0000000000000000e+00" cType="1" res="2.0144131849519908e-04" rms="4.8344159126281738e-01" purity="5.9269076585769653e-01" nType="-99"/>
        </Node>
      </Node>
    </BinaryTree>
    <BinaryTree type="DecisionTree" boostWeight="1.0000000000000000e+00" itree="264">
      <Node pos="s" depth="0" NCoef="0" IVar="5" Cut="4.2531521606445312e+02" cType="1" res="5.8753690682351589e-03" rms="4.7572457790374756e-01" purity="4.7997939586639404e-01" nType="0">
        <Node pos="l" depth="1" NCoef="0" IVar="3" Cut="4.0002042055130005e-01" cType="1" res="-7.8110150992870331e-02" rms="4.5844832062721252e-01" purity="3.4683975577354431e-01" nType="0">
          <Node pos="l" depth="2" NCoef="0" IVar="-1" Cut="0.0000000000000000e+00" cType="1" res="-1.0728621855378151e-03" rms="4.3222400546073914e-01" purity="2.5943899154663086e-01" nType="-99"/>
          <Node pos="r" depth="2" NCoef="0" IVar="-1" Cut="0.0000000000000000e+00" cType="1" res="1.1015310883522034e-04" rms="4.9444767832756042e-01" purity="5.3558844327926636e-01" nType="-99"/>
        </Node>
        <Node pos="r" depth="1" NCoef="0" IVar="3" Cut="2.6634132862091064e-01" cType="1" res="7.2969295084476471e-02" rms="4.7861301898956299e-01" purity="5.8634138107299805e-01" nType="0">
          <Node pos="l" depth="2" NCoef="0" IVar="-1" Cut="0.0000000000000000e+00" cType="1" res="-2.3671858070883900e-04" rms="4.8673310875892639e-01" purity="4.0493527054786682e-01" nType="-99"/>
          <Node pos="r" depth="2" NCoef="0" IVar="-1" Cut="0.0000000000000000e+00" cType="1" res="4.1579082608222961e-04" rms="4.6383020281791687e-01" purity="6.7407363653182983e-01" nType="-99"/>
        </Node>
      </Node>
    </BinaryTree>
    <BinaryTree type="DecisionTree" boostWeight="1.0000000000000000e+00" itree="265">
      <Node pos="s" depth="0" NCoef="0" IVar="5" Cut="3.0542187500000000e+02" cType="1" res="1.8677897751331329e-02" rms="4.7471371293067932e-01" purity="4.9473094940185547e-01" nType="0">
        <Node pos="l" depth="1" NCoef="0" IVar="4" Cut="9.5796328783035278e-01" cType="1" res="-1.9560399651527405e-01" rms="3.9371353387832642e-01" purity="2.0063437521457672e-01" nType="0">
          <Node pos="l" depth="2" NCoef="0" IVar="-1" Cut="0.0000000000000000e+00" cType="1" res="-1.1310735717415810e-03" rms="4.3152201175689697e-01" purity="2.6743468642234802e-01" nType="-99"/>
          <Node pos="r" depth="2" NCoef="0" IVar="-1" Cut="0.0000000000000000e+00" cType="1" res="-3.8410909473896027e-03" rms="3.4514743089675903e-01" purity="1.3801692426204681e-01" nType="-99"/>
        </Node>
        <Node pos="r" depth="1" NCoef="0" IVar="3" Cut="4.2236644029617310e-01" cType="1" res="4.8547785729169846e-02" rms="4.7735285758972168e-01" purity="5.3572660684585571e-01" nType="0">
          <Node pos="l" depth="2" NCoef="0" IVar="-1" Cut="0.0000000000000000e+00" cType="1" res="-8.1769567259470932e-06" rms="4.8162668943405151e-01" purity="4.6046176552772522e-01" nType="-99"/>
          <Node pos="r" depth="2" NCoef="0" IVar="-1" Cut="0.0000000000000000e+00" cType="1" res="5.2082230104133487e-04" rms="4.4098034501075745e-01" purity="7.2777259349822998e-01" nType="-99"/>
        </Node>
      </Node>
    </BinaryTree>
    <BinaryTree type="DecisionTree" boostWeight="1.0000000000000000e+00" itree="266">
      <Node pos="s" depth="0" NCoef="0" IVar="3" Cut="3.7731686234474182e-01" cType="1" res="2.7423819527029991e-02" rms="4.7394871711730957e-01" purity="5.0442343950271606e-01" nType="0">
        <Node pos="l" depth="1" NCoef="0" IVar="4" Cut="7.4991989135742188e-01" cType="1" res="-3.9633899927139282e-02" rms="4.6982550621032715e-01" purity="3.9745822548866272e-01" nType="0">
          <Node pos="l" depth="2" NCoef="0" IVar="-1" Cut="0.0000000000000000e+00" cType="1" res="4.0544732473790646e-04" rms="4.7769930958747864e-01" purity="5.7884645462036133e-01" nType="-99"/>
          <Node pos="r" depth="2" NCoef="0" IVar="-1" Cut="0.0000000000000000e+00" cType="1" res="-5.1997549599036574e-04" rms="4.5805287361145020e-01" purity="3.4238553047180176e-01" nType="-99"/>
        </Node>
        <Node pos="r" depth="1" NCoef="0" IVar="4" Cut="9.4833886623382568e-01" cType="1" res="1.3382992148399353e-01" rms="4.6080857515335083e-01" purity="6.7415416240692139e-01" nType="0">
          <Node pos="l" depth="2" NCoef="0" IVar="-1" Cut="0.0000000000000000e+00" cType="1" res="5.9717538533732295e-04" rms="4.2261606454849243e-01" purity="7.5446265935897827e-01" nType="-99"/>
          <Node pos="r" depth="2" NCoef="0" IVar="-1" Cut="0.0000000000000000e+00" cType="1" res="1.8646760145202279e-04" rms="4.8602649569511414e-01" purity="5.8520895242691040e-01" nType="-99"/>
        </Node>
      </Node>
    </BinaryTree>
    <BinaryTree type="DecisionTree" boostWeight="1.0000000000000000e+00" itree="267">
      <Node pos="s" depth="0" NCoef="0" IVar="5" Cut="3.6649331665039062e+02" cType="1" res="2.5952627882361412e-02" rms="4.7570571303367615e-01" purity="5.0130516290664673e-01" nType="0">
        <Node pos="l" depth="1" NCoef="0" IVar="3" Cut="4.6669048070907593e-01" cType="1" res="-8.9663222432136536e-02" rms="4.4982102513313293e-01" purity="3.2207435369491577e-01" nType="0">
          <Node pos="l" depth="2" NCoef="0" IVar="-1" Cut="0.0000000000000000e+00" cType="1" res="-1.0789042571559548e-03" rms="4.2876085638999939e-01" purity="2.6092186570167542e-01" nType="-99"/>
          <Node pos="r" depth="2" NCoef="0" IVar="-1" Cut="0.0000000000000000e+00" cType="1" res="2.6153886574320495e-04" rms="4.9408411979675293e-01" purity="5.6271666288375854e-01" nType="-99"/>
        </Node>
        <Node pos="r" depth="1" NCoef="0" IVar="3" Cut="2.6582881808280945e-01" cType="1" res="7.2467006742954254e-02" rms="4.7790467739105225e-01" purity="5.7341301441192627e-01" nType="0">
          <Node pos="l" depth="2" NCoef="0" IVar="-1" Cut="0.0000000000000000e+00" cType="1" res="-1.2680115469265729e-04" rms="4.8287305235862732e-01" purity="4.0933308005332947e-01" nType="-99"/>
          <Node pos="r" depth="2" NCoef="0" IVar="-1" Cut="0.0000000000000000e+00" cType="1" res="3.9550627116113901e-04" rms="4.6763017773628235e-01" purity="6.5675240755081177e-01" nType="-99"/>
        </Node>
      </Node>
    </BinaryTree>
    <BinaryTree type="DecisionTree" boostWeight="1.0000000000000000e+00" itree="268">
      <Node pos="s" depth="0" NCoef="0" IVar="3" Cut="3.0994158983230591e-01" cType="1" res="1.8175812438130379e-02" rms="4.7412925958633423e-01" purity="4.9413573741912842e-01" nType="0">
        <Node pos="l" depth="1" NCoef="0" IVar="4" Cut="7.6676797866821289e-01" cType="1" res="-7.3022343218326569e-02" rms="4.5870757102966309e-01" purity="3.3911213278770447e-01" nType="0">
          <Node pos="l" depth="2" NCoef="0" IVar="-1" Cut="0.0000000000000000e+00" cType="1" res="1.9665113359224051e-04" rms="4.8637384176254272e-01" purity="4.9143227934837341e-01" nType="-99"/>
          <Node pos="r" depth="2" NCoef="0" IVar="-1" Cut="0.0000000000000000e+00" cType="1" res="-8.2052237121388316e-04" rms="4.4280183315277100e-01" purity="2.9058346152305603e-01" nType="-99"/>
        </Node>
        <Node pos="r" depth="1" NCoef="0" IVar="5" Cut="3.9104006958007812e+02" cType="1" res="9.1876007616519928e-02" rms="4.7357285022735596e-01" purity="6.1941534280776978e-01" nType="0">
          <Node pos="l" depth="2" NCoef="0" IVar="-1" Cut="0.0000000000000000e+00" cType="1" res="-9.7222473414149135e-05" rms="4.9055486917495728e-01" purity="4.5911538600921631e-01" nType="-99"/>
          <Node pos="r" depth="2" NCoef="0" IVar="-1" Cut="0.0000000000000000e+00" cType="1" res="4.5830043382011354e-04" rms="4.5389908552169800e-01" purity="7.0171338319778442e-01" nType="-99"/>
        </Node>
      </Node>
    </BinaryTree>
    <BinaryTree type="DecisionTree" boostWeight="1.0000000000000000e+00" itree="269">
      <Node pos="s" depth="0" NCoef="0" IVar="3" Cut="4.2224377393722534e-01" cType="1" res="2.0841518417000771e-02" rms="4.7533687949180603e-01" purity="4.9603030085563660e-01" nType="0">
        <Node pos="l" depth="1" NCoef="0" IVar="4" Cut="7.5488311052322388e-01" cType="1" res="-2.9553232714533806e-02" rms="4.7366058826446533e-01" purity="4.1957727074623108e-01" nType="0">
          <Node pos="l" depth="2" NCoef="0" IVar="-1" Cut="0.0000000000000000e+00" cType="1" res="4.1871331632137299e-04" rms="4.7284775972366333e-01" purity="5.9699088335037231e-01" nType="-99"/>
          <Node pos="r" depth="2" NCoef="0" IVar="-1" Cut="0.0000000000000000e+00" cType="1" res="-4.5257608871906996e-04" rms="4.6419173479080200e-01" purity="3.6224415898323059e-01" nType="-99"/>
        </Node>
        <Node pos="r" depth="1" NCoef="0" IVar="4" Cut="8.9197903871536255e-01" cType="1" res="1.4816041290760040e-01" rms="4.5534366369247437e-01" purity="6.8918359279632568e-01" nType="0">
          <Node pos="l" depth="2" NCoef="0" IVar="-1" Cut="0.0000000000000000e+00" cType="1" res="6.6478771623224020e-04" rms="3.9995139837265015e-01" purity="7.9073643684387207e-01" nType="-99"/>
          <Node pos="r" depth="2" NCoef="0" IVar="-1" Cut="0.0000000000000000e+00" cType="1" res="2.5675358483567834e-04" rms="4.8125264048576355e-01" purity="6.0861808061599731e-01" nType="-99"/>
        </Node>
      </Node>
    </BinaryTree>
    <BinaryTree type="DecisionTree" boostWeight="1.0000000000000000e+00" itree="270">
      <Node pos="s" depth="0" NCoef="0" IVar="3" Cut="3.5587954521179199e-01" cType="1" res="2.4299567565321922e-02" rms="4.7372063994407654e-01" purity="5.0106441974639893e-01" nType="0">
        <Node pos="l" depth="1" NCoef="0" IVar="4" Cut="7.3309677839279175e-01" cType="1" res="-5.5569875985383987e-02" rms="4.6612089872360229e-01" purity="3.7096300721168518e-01" nType="0">
          <Node pos="l" depth="2" NCoef="0" IVar="-1" Cut="0.0000000000000000e+00" cType="1" res="3.0820060055702925e-04" rms="4.8193150758743286e-01" purity="5.4475849866867065e-01" nType="-99"/>
          <Node pos="r" depth="2" NCoef="0" IVar="-1" Cut="0.0000000000000000e+00" cType="1" res="-5.8455643011257052e-04" rms="4.5580616593360901e-01" purity="3.2712042331695557e-01" nType="-99"/>
        </Node>
        <Node pos="r" depth="1" NCoef="0" IVar="4" Cut="8.3645379543304443e-01" cType="1" res="1.2347847968339920e-01" rms="4.6424430608749390e-01" purity="6.6261953115463257e-01" nType="0">
          <Node pos="l" depth="2" NCoef="0" IVar="-1" Cut="0.0000000000000000e+00" cType="1" res="6.2669714679941535e-04" rms="4.1551628708839417e-01" purity="7.6704955101013184e-01" nType="-99"/>
          <Node pos="r" depth="2" NCoef="0" IVar="-1" Cut="0.0000000000000000e+00" cType="1" res="2.4942960590124130e-04" rms="4.8026043176651001e-01" purity="6.0551685094833374e-01" nType="-99"/>
        </Node>
      </Node>
    </BinaryTree>
    <BinaryTree type="DecisionTree" boostWeight="1.0000000000000000e+00" itree="271">
      <Node pos="s" depth="0" NCoef="0" IVar="3" Cut="2.6675775647163391e-01" cType="1" res="1.4986810274422169e-02" rms="4.7378844022750854e-01" purity="4.9080199003219604e-01" nType="0">
        <Node pos="l" depth="1" NCoef="0" IVar="3" Cut="1.8953816592693329e-01" cType="1" res="-9.3625642359256744e-02" rms="4.4835606217384338e-01" purity="3.0712005496025085e-01" nType="0">
          <Node pos="l" depth="2" NCoef="0" IVar="-1" Cut="0.0000000000000000e+00" cType="1" res="-1.4147135661914945e-03" rms="4.1405436396598816e-01" purity="2.3576779663562775e-01" nType="-99"/>
          <Node pos="r" depth="2" NCoef="0" IVar="-1" Cut="0.0000000000000000e+00" cType="1" res="-2.1267875854391605e-04" rms="4.6949785947799683e-01" purity="3.7035676836967468e-01" nType="-99"/>
        </Node>
        <Node pos="r" depth="1" NCoef="0" IVar="4" Cut="7.8785288333892822e-01" cType="1" res="7.1874715387821198e-02" rms="4.7680619359016418e-01" purity="5.8700907230377197e-01" nType="0">
          <Node pos="l" depth="2" NCoef="0" IVar="-1" Cut="0.0000000000000000e+00" cType="1" res="5.8629579143598676e-04" rms="4.3564230203628540e-01" purity="7.2266572713851929e-01" nType="-99"/>
          <Node pos="r" depth="2" NCoef="0" IVar="-1" Cut="0.0000000000000000e+00" cType="1" res="7.3391878686379641e-05" rms="4.8331594467163086e-01" purity="5.2918291091918945e-01" nType="-99"/>
        </Node>
      </Node>
    </BinaryTree>
    <BinaryTree type="DecisionTree" boostWeight="1.0000000000000000e+00" itree="272">
      <Node pos="s" depth="0" NCoef="0" IVar="3" Cut="2.6690965890884399e-01" cType="1" res="2.0859185606241226e-02" rms="4.7369441390037537e-01" purity="4.9784734845161438e-01" nType="0">
        <Node pos="l" depth="1" NCoef="0" IVar="7" Cut="1.7930113220214844e+02" cType="1" res="-9.2945195734500885e-02" rms="4.4857281446456909e-01" purity="3.0771386623382568e-01" nType="0">
          <Node pos="l" depth="2" NCoef="0" IVar="-1" Cut="0.0000000000000000e+00" cType="1" res="-1.0504641104489565e-03" rms="4.2944949865341187e-01" purity="2.6103681325912476e-01" nType="-99"/>
          <Node pos="r" depth="2" NCoef="0" IVar="-1" Cut="0.0000000000000000e+00" cType="1" res="1.3888187822885811e-04" rms="4.9735292792320251e-01" purity="4.9158164858818054e-01" nType="-99"/>
        </Node>
        <Node pos="r" depth="1" NCoef="0" IVar="5" Cut="4.6657742309570312e+02" cType="1" res="7.8904099762439728e-02" rms="4.7563481330871582e-01" purity="5.9482324123382568e-01" nType="0">
          <Node pos="l" depth="2" NCoef="0" IVar="-1" Cut="0.0000000000000000e+00" cType="1" res="-7.8528091762564145e-06" rms="4.8680791258811951e-01" purity="4.8302462697029114e-01" nType="-99"/>
          <Node pos="r" depth="2" NCoef="0" IVar="-1" Cut="0.0000000000000000e+00" cType="1" res="4.8232430708594620e-04" rms="4.4903367757797241e-01" purity="7.0970779657363892e-01" nType="-99"/>
        </Node>
      </Node>
    </BinaryTree>
    <BinaryTree type="DecisionTree" boostWeight="1.0000000000000000e+00" itree="273">
      <Node pos="s" depth="0" NCoef="0" IVar="5" Cut="4.0431265258789062e+02" cType="1" res="3.0099280178546906e-02" rms="4.7512495517730713e-01" purity="5.0527632236480713e-01" nType="0">
        <Node pos="l" depth="1" NCoef="0" IVar="3" Cut="4.2224580049514771e-01" cType="1" res="-6.0972336679697037e-02" rms="4.6017798781394958e-01" purity="3.5881149768829346e-01" nType="0">
          <Node pos="l" depth="2" NCoef="0" IVar="-1" Cut="0.0000000000000000e+00" cType="1" res="-8.7674095993861556e-04" rms="4.3700054287910461e-01" purity="2.7344676852226257e-01" nType="-99"/>
          <Node pos="r" depth="2" NCoef="0" IVar="-1" Cut="0.0000000000000000e+00" cType="1" res="2.6081636315211654e-04" rms="4.9034386873245239e-01" purity="5.7407087087631226e-01" nType="-99"/>
        </Node>
        <Node pos="r" depth="1" NCoef="0" IVar="3" Cut="3.1139460206031799e-01" cType="1" res="8.7621353566646576e-02" rms="4.7542214393615723e-01" purity="5.9778553247451782e-01" nType="0">
          <Node pos="l" depth="2" NCoef="0" IVar="-1" Cut="0.0000000000000000e+00" cType="1" res="1.5871884897933342e-05" rms="4.9158728122711182e-01" purity="4.5836174488067627e-01" nType="-99"/>
          <Node pos="r" depth="2" NCoef="0" IVar="-1" Cut="0.0000000000000000e+00" cType="1" res="4.6688932343386114e-04" rms="4.5094165205955505e-01" purity="7.0926457643508911e-01" nType="-99"/>
        </Node>
      </Node>
    </BinaryTree>
    <BinaryTree type="DecisionTree" boostWeight="1.0000000000000000e+00" itree="274">
      <Node pos="s" depth="0" NCoef="0" IVar="5" Cut="4.3895532226562500e+02" cType="1" res="3.0876420438289642e-02" rms="4.7619080543518066e-01" purity="5.0538039207458496e-01" nType="0">
        <Node pos="l" depth="1" NCoef="0" IVar="0" Cut="1.3503121948242188e+02" cType="1" res="-4.6608451753854752e-02" rms="4.6820253133773804e-01" purity="3.8121709227561951e-01" nType="0">
          <Node pos="l" depth="2" NCoef="0" IVar="-1" Cut="0.0000000000000000e+00" cType="1" res="-8.2902093708980829e-05" rms="4.7338533401489258e-01" purity="4.1199386119842529e-01" nType="-99"/>
          <Node pos="r" depth="2" NCoef="0" IVar="-1" Cut="0.0000000000000000e+00" cType="1" res="-2.2143858950585127e-03" rms="3.9047273993492126e-01" purity="2.0276887714862823e-01" nType="-99"/>
        </Node>
        <Node pos="r" depth="1" NCoef="0" IVar="3" Cut="2.8915214538574219e-01" cType="1" res="9.9586293101310730e-02" rms="4.7265461087226868e-01" purity="6.1548244953155518e-01" nType="0">
          <Node pos="l" depth="2" NCoef="0" IVar="-1" Cut="0.0000000000000000e+00" cType="1" res="-2.0375266103656031e-05" rms="4.9336916208267212e-01" purity="4.5277747511863708e-01" nType="-99"/>
          <Node pos="r" depth="2" NCoef="0" IVar="-1" Cut="0.0000000000000000e+00" cType="1" res="4.8613914987072349e-04" rms="4.4773361086845398e-01" purity="7.1509873867034912e-01" nType="-99"/>
        </Node>
      </Node>
    </BinaryTree>
    <BinaryTree type="DecisionTree" boostWeight="1.0000000000000000e+00" itree="275">
      <Node pos="s" depth="0" NCoef="0" IVar="3" Cut="3.5407987236976624e-01" cType="1" res="2.7094105258584023e-02" rms="4.7230514883995056e-01" purity="5.0481605529785156e-01" nType="0">
        <Node pos="l" depth="1" NCoef="0" IVar="5" Cut="6.8285290527343750e+02" cType="1" res="-4.6251352876424789e-02" rms="4.6551403403282166e-01" purity="3.8180819153785706e-01" nType="0">
          <Node pos="l" depth="2" NCoef="0" IVar="-1" Cut="0.0000000000000000e+00" cType="1" res="-5.6943506933748722e-04" rms="4.5290383696556091e-01" purity="3.2578653097152710e-01" nType="-99"/>
          <Node pos="r" depth="2" NCoef="0" IVar="-1" Cut="0.0000000000000000e+00" cType="1" res="4.4577277731150389e-04" rms="4.7595718502998352e-01" purity="6.3397306203842163e-01" nType="-99"/>
        </Node>
        <Node pos="r" depth="1" NCoef="0" IVar="4" Cut="9.6037411689758301e-01" cType="1" res="1.1899099498987198e-01" rms="4.6461448073387146e-01" purity="6.5893656015396118e-01" nType="0">
          <Node pos="l" depth="2" NCoef="0" IVar="-1" Cut="0.0000000000000000e+00" cType="1" res="5.5924867046996951e-04" rms="4.3117460608482361e-01" purity="7.3566293716430664e-01" nType="-99"/>
          <Node pos="r" depth="2" NCoef="0" IVar="-1" Cut="0.0000000000000000e+00" cType="1" res="1.2772243644576520e-04" rms="4.8804086446762085e-01" purity="5.6711876392364502e-01" nType="-99"/>
        </Node>
      </Node>
    </BinaryTree>
    <BinaryTree type="DecisionTree" boostWeight="1.0000000000000000e+00" itree="276">
      <Node pos="s" depth="0" NCoef="0" IVar="3" Cut="2.4452793598175049e-01" cType="1" res="3.2170288264751434e-02" rms="4.7486025094985962e-01" purity="5.0751382112503052e-01" nType="0">
        <Node pos="l" depth="1" NCoef="0" IVar="7" Cut="1.5883410644531250e+02" cType="1" res="-8.2659281790256500e-02" rms="4.5164281129837036e-01" purity="3.1412261724472046e-01" nType="0">
          <Node pos="l" depth="2" NCoef="0" IVar="-1" Cut="0.0000000000000000e+00" cType="1" res="-1.0511414147913456e-03" rms="4.2811411619186401e-01" purity="2.5546780228614807e-01" nType="-99"/>
          <Node pos="r" depth="2" NCoef="0" IVar="-1" Cut="0.0000000000000000e+00" cType="1" res="9.1271089331712574e-05" rms="4.9420705437660217e-01" purity="4.7001814842224121e-01" nType="-99"/>
        </Node>
        <Node pos="r" depth="1" NCoef="0" IVar="5" Cut="2.9616012573242188e+02" cType="1" res="7.9441912472248077e-02" rms="4.7611433267593384e-01" purity="5.8712667226791382e-01" nType="0">
          <Node pos="l" depth="2" NCoef="0" IVar="-1" Cut="0.0000000000000000e+00" cType="1" res="-1.0221489937976003e-03" rms="4.4725829362869263e-01" purity="2.9247182607650757e-01" nType="-99"/>
          <Node pos="r" depth="2" NCoef="0" IVar="-1" Cut="0.0000000000000000e+00" cType="1" res="3.5994188510812819e-04" rms="4.7281435132026672e-01" purity="6.1964100599288940e-01" nType="-99"/>
        </Node>
      </Node>
    </BinaryTree>
    <BinaryTree type="DecisionTree" boostWeight="1.0000000000000000e+00" itree="277">
      <Node pos="s" depth="0" NCoef="0" IVar="3" Cut="3.5587954521179199e-01" cType="1" res="2.8347909450531006e-02" rms="4.7439339756965637e-01" purity="5.0454539060592651e-01" nType="0">
        <Node pos="l" depth="1" NCoef="0" IVar="5" Cut="3.1745214843750000e+02" cType="1" res="-4.0662288665771484e-02" rms="4.7023254632949829e-01" purity="3.8486564159393311e-01" nType="0">
          <Node pos="l" depth="2" NCoef="0" IVar="-1" Cut="0.0000000000000000e+00" cType="1" res="-2.3623346351087093e-03" rms="3.7512737512588501e-01" purity="1.7104241251945496e-01" nType="-99"/>
          <Node pos="r" depth="2" NCoef="0" IVar="-1" Cut="0.0000000000000000e+00" cType="1" res="-6.9377369072753936e-05" rms="4.8233693838119507e-01" purity="4.2718479037284851e-01" nType="-99"/>
        </Node>
        <Node pos="r" depth="1" NCoef="0" IVar="5" Cut="4.2225869750976562e+02" cType="1" res="1.1671024560928345e-01" rms="4.6494722366333008e-01" purity="6.5778619050979614e-01" nType="0">
          <Node pos="l" depth="2" NCoef="0" IVar="-1" Cut="0.0000000000000000e+00" cType="1" res="6.2064485973678529e-05" rms="4.9401754140853882e-01" purity="5.1934117078781128e-01" nType="-99"/>
          <Node pos="r" depth="2" NCoef="0" IVar="-1" Cut="0.0000000000000000e+00" cType="1" res="5.3730356739833951e-04" rms="4.3021702766418457e-01" purity="7.5297778844833374e-01" nType="-99"/>
        </Node>
      </Node>
    </BinaryTree>
    <BinaryTree type="DecisionTree" boostWeight="1.0000000000000000e+00" itree="278">
      <Node pos="s" depth="0" NCoef="0" IVar="5" Cut="3.2087207031250000e+02" cType="1" res="3.0706066638231277e-02" rms="4.7481259703636169e-01" purity="5.0637841224670410e-01" nType="0">
        <Node pos="l" depth="1" NCoef="0" IVar="5" Cut="2.9530303955078125e+02" cType="1" res="-1.5918017923831940e-01" rms="4.1387093067169189e-01" purity="2.3933808505535126e-01" nType="0">
          <Node pos="l" depth="2" NCoef="0" IVar="-1" Cut="0.0000000000000000e+00" cType="1" res="-2.1877051331102848e-03" rms="3.8576868176460266e-01" purity="1.9596448540687561e-01" nType="-99"/>
          <Node pos="r" depth="2" NCoef="0" IVar="-1" Cut="0.0000000000000000e+00" cType="1" res="-6.1917502898722887e-04" rms="4.5026847720146179e-01" purity="3.1522563099861145e-01" nType="-99"/>
        </Node>
        <Node pos="r" depth="1" NCoef="0" IVar="4" Cut="7.7332377433776855e-01" cType="1" res="6.6871047019958496e-02" rms="4.7706031799316406e-01" purity="5.5723792314529419e-01" nType="0">
          <Node pos="l" depth="2" NCoef="0" IVar="-1" Cut="0.0000000000000000e+00" cType="1" res="5.5742874974384904e-04" rms="4.4402524828910828e-01" purity="6.9333642721176147e-01" nType="-99"/>
          <Node pos="r" depth="2" NCoef="0" IVar="-1" Cut="0.0000000000000000e+00" cType="1" res="9.2348003818187863e-05" rms="4.8170799016952515e-01" purity="5.0468194484710693e-01" nType="-99"/>
        </Node>
      </Node>
    </BinaryTree>
    <BinaryTree type="DecisionTree" boostWeight="1.0000000000000000e+00" itree="279">
      <Node pos="s" depth="0" NCoef="0" IVar="3" Cut="2.4399368464946747e-01" cType="1" res="1.7986470833420753e-02" rms="4.7248062491416931e-01" purity="4.9453729391098022e-01" nType="0">
        <Node pos="l" depth="1" NCoef="0" IVar="4" Cut="7.5656253099441528e-01" cType="1" res="-1.1612617969512939e-01" rms="4.3470469117164612e-01" purity="2.8040018677711487e-01" nType="0">
          <Node pos="l" depth="2" NCoef="0" IVar="-1" Cut="0.0000000000000000e+00" cType="1" res="2.4544144253013656e-05" rms="4.7876319289207458e-01" purity="4.4183683395385742e-01" nType="-99"/>
          <Node pos="r" depth="2" NCoef="0" IVar="-1" Cut="0.0000000000000000e+00" cType="1" res="-1.3454445870593190e-03" rms="4.1642522811889648e-01" purity="2.3775787651538849e-01" nType="-99"/>
        </Node>
        <Node pos="r" depth="1" NCoef="0" IVar="5" Cut="3.1830444335937500e+02" cType="1" res="7.1381703019142151e-02" rms="4.7630867362022400e-01" purity="5.7979327440261841e-01" nType="0">
          <Node pos="l" depth="2" NCoef="0" IVar="-1" Cut="0.0000000000000000e+00" cType="1" res="-8.7328354129567742e-04" rms="4.5642310380935669e-01" purity="3.1181994080543518e-01" nType="-99"/>
          <Node pos="r" depth="2" NCoef="0" IVar="-1" Cut="0.0000000000000000e+00" cType="1" res="3.6206937511451542e-04" rms="4.7169867157936096e-01" purity="6.2514257431030273e-01" nType="-99"/>
        </Node>
      </Node>
    </BinaryTree>
    <BinaryTree type="DecisionTree" boostWeight="1.0000000000000000e+00" itree="280">
      <Node pos="s" depth="0" NCoef="0" IVar="4" Cut="7.1838110685348511e-01" cType="1" res="2.6031916961073875e-02" rms="4.7455635666847229e-01" purity="5.0105798244476318e-01" nType="0">
        <Node pos="l" depth="1" NCoef="0" IVar="3" Cut="3.1033310294151306e-01" cType="1" res="1.8677851557731628e-01" rms="4.4453111290931702e-01" purity="6.9040858745574951e-01" nType="0">
          <Node pos="l" depth="2" NCoef="0" IVar="-1" Cut="0.0000000000000000e+00" cType="1" res="3.3851331681944430e-04" rms="4.8861169815063477e-01" purity="5.3794425725936890e-01" nType="-99"/>
          <Node pos="r" depth="2" NCoef="0" IVar="-1" Cut="0.0000000000000000e+00" cType="1" res="6.8395957350730896e-04" rms="3.9712530374526978e-01" purity="7.9496979713439941e-01" nType="-99"/>
        </Node>
        <Node pos="r" depth="1" NCoef="0" IVar="3" Cut="4.2046985030174255e-01" cType="1" res="-1.3395746238529682e-02" rms="4.7337087988853455e-01" purity="4.5461437106132507e-01" nType="0">
          <Node pos="l" depth="2" NCoef="0" IVar="-1" Cut="0.0000000000000000e+00" cType="1" res="-3.5079303779639304e-04" rms="4.6608099341392517e-01" purity="3.7772586941719055e-01" nType="-99"/>
          <Node pos="r" depth="2" NCoef="0" IVar="-1" Cut="0.0000000000000000e+00" cType="1" res="3.6747203557752073e-04" rms="4.6931657195091248e-01" purity="6.5036654472351074e-01" nType="-99"/>
        </Node>
      </Node>
    </BinaryTree>
    <BinaryTree type="DecisionTree" boostWeight="1.0000000000000000e+00" itree="281">
      <Node pos="s" depth="0" NCoef="0" IVar="3" Cut="3.3363708853721619e-01" cType="1" res="2.6817910373210907e-02" rms="4.7396433353424072e-01" purity="5.0271493196487427e-01" nType="0">
        <Node pos="l" depth="1" NCoef="0" IVar="4" Cut="7.6765936613082886e-01" cType="1" res="-4.6781193464994431e-02" rms="4.6658623218536377e-01" purity="3.7155422568321228e-01" nType="0">
          <Node pos="l" depth="2" NCoef="0" IVar="-1" Cut="0.0000000000000000e+00" cType="1" res="2.9605894815176725e-04" rms="4.8277455568313599e-01" purity="5.2890765666961670e-01" nType="-99"/>
          <Node pos="r" depth="2" NCoef="0" IVar="-1" Cut="0.0000000000000000e+00" cType="1" res="-5.7803897652775049e-04" rms="4.5412293076515198e-01" purity="3.2012817263603210e-01" nType="-99"/>
        </Node>
        <Node pos="r" depth="1" NCoef="0" IVar="5" Cut="3.0133401489257812e+02" cType="1" res="1.0307142883539200e-01" rms="4.6947330236434937e-01" purity="6.3860607147216797e-01" nType="0">
          <Node pos="l" depth="2" NCoef="0" IVar="-1" Cut="0.0000000000000000e+00" cType="1" res="-7.3477474506944418e-04" rms="4.7106593847274780e-01" purity="3.4836369752883911e-01" nType="-99"/>
          <Node pos="r" depth="2" NCoef="0" IVar="-1" Cut="0.0000000000000000e+00" cType="1" res="4.2051458149217069e-04" rms="4.6185487508773804e-01" purity="6.7489981651306152e-01" nType="-99"/>
        </Node>
      </Node>
    </BinaryTree>
    <BinaryTree type="DecisionTree" boostWeight="1.0000000000000000e+00" itree="282">
      <Node pos="s" depth="0" NCoef="0" IVar="5" Cut="4.0518600463867188e+02" cType="1" res="1.9508715718984604e-02" rms="4.7439008951187134e-01" purity="4.9419090151786804e-01" nType="0">
        <Node pos="l" depth="1" NCoef="0" IVar="3" Cut="4.4355595111846924e-01" cType="1" res="-7.1002759039402008e-02" rms="4.5608648657798767e-01" purity="3.4781044721603394e-01" nType="0">
          <Node pos="l" depth="2" NCoef="0" IVar="-1" Cut="0.0000000000000000e+00" cType="1" res="-9.0960925444960594e-04" rms="4.3580827116966248e-01" purity="2.7659192681312561e-01" nType="-99"/>
          <Node pos="r" depth="2" NCoef="0" IVar="-1" Cut="0.0000000000000000e+00" cType="1" res="2.4876804673112929e-04" rms="4.9021440744400024e-01" purity="5.7139390707015991e-01" nType="-99"/>
        </Node>
        <Node pos="r" depth="1" NCoef="0" IVar="3" Cut="3.3363708853721619e-01" cType="1" res="7.7558450400829315e-02" rms="4.7680702805519104e-01" purity="5.8807229995727539e-01" nType="0">
          <Node pos="l" depth="2" NCoef="0" IVar="-1" Cut="0.0000000000000000e+00" cType="1" res="1.8451459254720248e-05" rms="4.9125838279724121e-01" purity="4.6466124057769775e-01" nType="-99"/>
          <Node pos="r" depth="2" NCoef="0" IVar="-1" Cut="0.0000000000000000e+00" cType="1" res="4.6721764374524355e-04" rms="4.4915500283241272e-01" purity="7.1477860212326050e-01" nType="-99"/>
        </Node>
      </Node>
    </BinaryTree>
    <BinaryTree type="DecisionTree" boostWeight="1.0000000000000000e+00" itree="283">
      <Node pos="s" depth="0" NCoef="0" IVar="3" Cut="2.4445809423923492e-01" cType="1" res="2.8447322547435760e-02" rms="4.7439807653427124e-01" purity="5.0337684154510498e-01" nType="0">
        <Node pos="l" depth="1" NCoef="0" IVar="1" Cut="8.4152293205261230e-01" cType="1" res="-8.7434545159339905e-02" rms="4.4859272241592407e-01" purity="3.0794093012809753e-01" nType="0">
          <Node pos="l" depth="2" NCoef="0" IVar="-1" Cut="0.0000000000000000e+00" cType="1" res="-1.2754116905853152e-03" rms="4.2023286223411560e-01" purity="2.4593633413314819e-01" nType="-99"/>
          <Node pos="r" depth="2" NCoef="0" IVar="-1" Cut="0.0000000000000000e+00" cType="1" res="-8.5644758655689657e-05" rms="4.7009745240211487e-01" purity="3.8160127401351929e-01" nType="-99"/>
        </Node>
        <Node pos="r" depth="1" NCoef="0" IVar="7" Cut="1.1074856567382812e+02" cType="1" res="7.6048716902732849e-02" rms="4.7650331258773804e-01" purity="5.8365702629089355e-01" nType="0">
          <Node pos="l" depth="2" NCoef="0" IVar="-1" Cut="0.0000000000000000e+00" cType="1" res="-3.4687771403696388e-05" rms="4.8197928071022034e-01" purity="4.7803357243537903e-01" nType="-99"/>
          <Node pos="r" depth="2" NCoef="0" IVar="-1" Cut="0.0000000000000000e+00" cType="1" res="4.5338561176322401e-04" rms="4.6295431256294250e-01" purity="6.6100358963012695e-01" nType="-99"/>
        </Node>
      </Node>
    </BinaryTree>
    <BinaryTree type="DecisionTree" boostWeight="1.0000000000000000e+00" itree="284">
      <Node pos="s" depth="0" NCoef="0" IVar="3" Cut="1.9924816489219666e-01" cType="1" res="2.6603087782859802e-02" rms="4.7544291615486145e-01" purity="5.0005125999450684e-01" nType="0">
        <Node pos="l" depth="1" NCoef="0" IVar="0" Cut="1.3867214965820312e+02" cType="1" res="-1.2879654765129089e-01" rms="4.2908647656440735e-01" purity="2.6175102591514587e-01" nType="0">
          <Node pos="l" depth="2" NCoef="0" IVar="-1" Cut="0.0000000000000000e+00" cType="1" res="-6.6318834433332086e-04" rms="4.3744173645973206e-01" purity="2.8615543246269226e-01" nType="-99"/>
          <Node pos="r" depth="2" NCoef="0" IVar="-1" Cut="0.0000000000000000e+00" cType="1" res="-2.0047067664563656e-03" rms="3.9774191379547119e-01" purity="2.0999969542026520e-01" nType="-99"/>
        </Node>
        <Node pos="r" depth="1" NCoef="0" IVar="4" Cut="1.0183882713317871e+00" cType="1" res="6.1665307730436325e-02" rms="4.7836035490036011e-01" purity="5.5381798744201660e-01" nType="0">
          <Node pos="l" depth="2" NCoef="0" IVar="-1" Cut="0.0000000000000000e+00" cType="1" res="4.1126547148451209e-04" rms="4.6720087528228760e-01" purity="6.1373609304428101e-01" nType="-99"/>
          <Node pos="r" depth="2" NCoef="0" IVar="-1" Cut="0.0000000000000000e+00" cType="1" res="-1.0063344234367833e-04" rms="4.8298323154449463e-01" purity="4.6320754289627075e-01" nType="-99"/>
        </Node>
      </Node>
    </BinaryTree>
    <BinaryTree type="DecisionTree" boostWeight="1.0000000000000000e+00" itree="285">
      <Node pos="s" depth="0" NCoef="0" IVar="3" Cut="2.8898757696151733e-01" cType="1" res="1.9992886111140251e-02" rms="4.7361060976982117e-01" purity="4.9533581733703613e-01" nType="0">
        <Node pos="l" depth="1" NCoef="0" IVar="4" Cut="7.5284779071807861e-01" cType="1" res="-7.7529221773147583e-02" rms="4.5582458376884460e-01" purity="3.2339760661125183e-01" nType="0">
          <Node pos="l" depth="2" NCoef="0" IVar="-1" Cut="0.0000000000000000e+00" cType="1" res="1.8652845756150782e-04" rms="4.8875677585601807e-01" purity="4.8217394948005676e-01" nType="-99"/>
          <Node pos="r" depth="2" NCoef="0" IVar="-1" Cut="0.0000000000000000e+00" cType="1" res="-8.4661116125062108e-04" rms="4.4073393940925598e-01" purity="2.8003424406051636e-01" nType="-99"/>
        </Node>
        <Node pos="r" depth="1" NCoef="0" IVar="4" Cut="8.0241996049880981e-01" cType="1" res="8.3366848528385162e-02" rms="4.7418653964996338e-01" purity="6.0706847906112671e-01" nType="0">
          <Node pos="l" depth="2" NCoef="0" IVar="-1" Cut="0.0000000000000000e+00" cType="1" res="6.0792866861447692e-04" rms="4.2639812827110291e-01" purity="7.4251109361648560e-01" nType="-99"/>
          <Node pos="r" depth="2" NCoef="0" IVar="-1" Cut="0.0000000000000000e+00" cType="1" res="9.0243069280404598e-05" rms="4.8383569717407227e-01" purity="5.4197901487350464e-01" nType="-99"/>
        </Node>
      </Node>
    </BinaryTree>
    <BinaryTree type="DecisionTree" boostWeight="1.0000000000000000e+00" itree="286">
      <Node pos="s" depth="0" NCoef="0" IVar="4" Cut="9.9006885290145874e-01" cType="1" res="2.6238484308123589e-02" rms="4.7490358352661133e-01" purity="5.0049078464508057e-01" nType="0">
        <Node pos="l" depth="1" NCoef="0" IVar="5" Cut="3.1765222167968750e+02" cType="1" res="9.3365050852298737e-02" rms="4.6894183754920959e-01" purity="5.7501327991485596e-01" nType="0">
          <Node pos="l" depth="2" NCoef="0" IVar="-1" Cut="0.0000000000000000e+00" cType="1" res="-7.8079674858599901e-04" rms="4.4322821497917175e-01" purity="3.0022338032722473e-01" nType="-99"/>
          <Node pos="r" depth="2" NCoef="0" IVar="-1" Cut="0.0000000000000000e+00" cType="1" res="4.2997687705792487e-04" rms="4.6528270840644836e-01" purity="6.2088513374328613e-01" nType="-99"/>
        </Node>
        <Node pos="r" depth="1" NCoef="0" IVar="1" Cut="7.6275789737701416e-01" cType="1" res="-6.2045834958553314e-02" rms="4.6820253133773804e-01" purity="4.0247932076454163e-01" nType="0">
          <Node pos="l" depth="2" NCoef="0" IVar="-1" Cut="0.0000000000000000e+00" cType="1" res="-1.6266745515167713e-03" rms="4.2170926928520203e-01" purity="2.6066878437995911e-01" nType="-99"/>
          <Node pos="r" depth="2" NCoef="0" IVar="-1" Cut="0.0000000000000000e+00" cType="1" res="-4.6393357479246333e-05" rms="4.7499558329582214e-01" purity="4.5764684677124023e-01" nType="-99"/>
        </Node>
      </Node>
    </BinaryTree>
    <BinaryTree type="DecisionTree" boostWeight="1.0000000000000000e+00" itree="287">
      <Node pos="s" depth="0" NCoef="0" IVar="3" Cut="3.5557541251182556e-01" cType="1" res="2.8823949396610260e-02" rms="4.7463965415954590e-01" purity="5.0286996364593506e-01" nType="0">
        <Node pos="l" depth="1" NCoef="0" IVar="5" Cut="4.1266152954101562e+02" cType="1" res="-3.5006612539291382e-02" rms="4.6969652175903320e-01" purity="3.8975223898887634e-01" nType="0">
          <Node pos="l" depth="2" NCoef="0" IVar="-1" Cut="0.0000000000000000e+00" cType="1" res="-1.2279979418963194e-03" rms="4.1609498858451843e-01" purity="2.3218794167041779e-01" nType="-99"/>
          <Node pos="r" depth="2" NCoef="0" IVar="-1" Cut="0.0000000000000000e+00" cType="1" res="1.2974349374417216e-04" rms="4.9304217100143433e-01" purity="4.9953353404998779e-01" nType="-99"/>
        </Node>
        <Node pos="r" depth="1" NCoef="0" IVar="4" Cut="1.0876129865646362e+00" cType="1" res="1.1346808075904846e-01" rms="4.6787324547767639e-01" purity="6.5287256240844727e-01" nType="0">
          <Node pos="l" depth="2" NCoef="0" IVar="-1" Cut="0.0000000000000000e+00" cType="1" res="5.1281769992783666e-04" rms="4.4569316506385803e-01" purity="7.0917189121246338e-01" nType="-99"/>
          <Node pos="r" depth="2" NCoef="0" IVar="-1" Cut="0.0000000000000000e+00" cType="1" res="-3.4798427805071697e-05" rms="4.9293473362922668e-01" purity="5.2640867233276367e-01" nType="-99"/>
        </Node>
      </Node>
    </BinaryTree>
    <BinaryTree type="DecisionTree" boostWeight="1.0000000000000000e+00" itree="288">
      <Node pos="s" depth="0" NCoef="0" IVar="3" Cut="2.6668155193328857e-01" cType="1" res="1.7859449610114098e-02" rms="4.7348120808601379e-01" purity="4.9287402629852295e-01" nType="0">
        <Node pos="l" depth="1" NCoef="0" IVar="7" Cut="1.3724180603027344e+02" cType="1" res="-1.0026595741510391e-01" rms="4.4565784931182861e-01" purity="2.9438078403472900e-01" nType="0">
          <Node pos="l" depth="2" NCoef="0" IVar="-1" Cut="0.0000000000000000e+00" cType="1" res="-1.3527472037822008e-03" rms="4.1375154256820679e-01" purity="2.3093332350254059e-01" nType="-99"/>
          <Node pos="r" depth="2" NCoef="0" IVar="-1" Cut="0.0000000000000000e+00" cType="1" res="-1.5729478036519140e-04" rms="4.8801526427268982e-01" purity="4.0373736619949341e-01" nType="-99"/>
        </Node>
        <Node pos="r" depth="1" NCoef="0" IVar="5" Cut="3.9886434936523438e+02" cType="1" res="7.7979572117328644e-02" rms="4.7590333223342896e-01" purity="5.9389752149581909e-01" nType="0">
          <Node pos="l" depth="2" NCoef="0" IVar="-1" Cut="0.0000000000000000e+00" cType="1" res="-9.6724921604618430e-05" rms="4.8555073142051697e-01" purity="4.4574800133705139e-01" nType="-99"/>
          <Node pos="r" depth="2" NCoef="0" IVar="-1" Cut="0.0000000000000000e+00" cType="1" res="4.2075567762367427e-04" rms="4.6158355474472046e-01" purity="6.7613607645034790e-01" nType="-99"/>
        </Node>
      </Node>
    </BinaryTree>
    <BinaryTree type="DecisionTree" boostWeight="1.0000000000000000e+00" itree="289">
      <Node pos="s" depth="0" NCoef="0" IVar="4" Cut="9.5578163862228394e-01" cType="1" res="2.0603552460670471e-02" rms="4.7566056251525879e-01" purity="4.9302241206169128e-01" nType="0">
        <Node pos="l" depth="1" NCoef="0" IVar="3" Cut="2.4357193708419800e-01" cType="1" res="9.1669738292694092e-02" rms="4.7107934951782227e-01" purity="5.7191115617752075e-01" nType="0">
          <Node pos="l" depth="2" NCoef="0" IVar="-1" Cut="0.0000000000000000e+00" cType="1" res="-1.3136306370142847e-04" rms="4.7197046875953674e-01" purity="3.7874934077262878e-01" nType="-99"/>
          <Node pos="r" depth="2" NCoef="0" IVar="-1" Cut="0.0000000000000000e+00" cType="1" res="4.5594057883135974e-04" rms="4.6284535527229309e-01" purity="6.4785617589950562e-01" nType="-99"/>
        </Node>
        <Node pos="r" depth="1" NCoef="0" IVar="5" Cut="5.2069445800781250e+02" cType="1" res="-5.7075951248407364e-02" rms="4.6844351291656494e-01" purity="4.0679243206977844e-01" nType="0">
          <Node pos="l" depth="2" NCoef="0" IVar="-1" Cut="0.0000000000000000e+00" cType="1" res="-7.7143032103776932e-04" rms="4.4963186979293823e-01" purity="3.2216519117355347e-01" nType="-99"/>
          <Node pos="r" depth="2" NCoef="0" IVar="-1" Cut="0.0000000000000000e+00" cType="1" res="1.6689304902683944e-04" rms="4.8473069071769714e-01" purity="5.5976271629333496e-01" nType="-99"/>
        </Node>
      </Node>
    </BinaryTree>
    <BinaryTree type="DecisionTree" boostWeight="1.0000000000000000e+00" itree="290">
      <Node pos="s" depth="0" NCoef="0" IVar="5" Cut="4.0183456420898438e+02" cType="1" res="1.0289700701832771e-02" rms="4.7520890831947327e-01" purity="4.8282441496849060e-01" nType="0">
        <Node pos="l" depth="1" NCoef="0" IVar="3" Cut="4.6291470527648926e-01" cType="1" res="-8.2683920860290527e-02" rms="4.5427447557449341e-01" purity="3.3079862594604492e-01" nType="0">
          <Node pos="l" depth="2" NCoef="0" IVar="-1" Cut="0.0000000000000000e+00" cType="1" res="-9.4711052952334285e-04" rms="4.3785813450813293e-01" purity="2.7436709403991699e-01" nType="-99"/>
          <Node pos="r" depth="2" NCoef="0" IVar="-1" Cut="0.0000000000000000e+00" cType="1" res="2.0633048552554101e-04" rms="4.9247092008590698e-01" purity="5.5706614255905151e-01" nType="-99"/>
        </Node>
        <Node pos="r" depth="1" NCoef="0" IVar="4" Cut="1.2063444852828979e+00" cType="1" res="6.7958399653434753e-02" rms="4.7875410318374634e-01" purity="5.7712137699127197e-01" nType="0">
          <Node pos="l" depth="2" NCoef="0" IVar="-1" Cut="0.0000000000000000e+00" cType="1" res="3.5972529440186918e-04" rms="4.7127491235733032e-01" purity="6.1577081680297852e-01" nType="-99"/>
          <Node pos="r" depth="2" NCoef="0" IVar="-1" Cut="0.0000000000000000e+00" cType="1" res="-3.4555536694824696e-04" rms="4.8147365450859070e-01" purity="4.3437385559082031e-01" nType="-99"/>
        </Node>
      </Node>
    </BinaryTree>
    <BinaryTree type="DecisionTree" boostWeight="1.0000000000000000e+00" itree="291">
      <Node pos="s" depth="0" NCoef="0" IVar="3" Cut="3.5557541251182556e-01" cType="1" res="2.2865019738674164e-02" rms="4.7256833314895630e-01" purity="4.9881979823112488e-01" nType="0">
        <Node pos="l" depth="1" NCoef="0" IVar="5" Cut="3.7523138427734375e+02" cType="1" res="-5.0141301006078720e-02" rms="4.6494495868682861e-01" purity="3.7410289049148560e-01" nType="0">
          <Node pos="l" depth="2" NCoef="0" IVar="-1" Cut="0.0000000000000000e+00" cType="1" res="-1.7210199730470777e-03" rms="3.9430829882621765e-01" purity="1.9885258376598358e-01" nType="-99"/>
          <Node pos="r" depth="2" NCoef="0" IVar="-1" Cut="0.0000000000000000e+00" cType="1" res="-8.7119142335723154e-06" rms="4.8728284239768982e-01" purity="4.5655357837677002e-01" nType="-99"/>
        </Node>
        <Node pos="r" depth="1" NCoef="0" IVar="4" Cut="8.6681985855102539e-01" cType="1" res="1.1485148221254349e-01" rms="4.6599233150482178e-01" purity="6.5596050024032593e-01" nType="0">
          <Node pos="l" depth="2" NCoef="0" IVar="-1" Cut="0.0000000000000000e+00" cType="1" res="5.8801798149943352e-04" rms="4.2343705892562866e-01" purity="7.5334888696670532e-01" nType="-99"/>
          <Node pos="r" depth="2" NCoef="0" IVar="-1" Cut="0.0000000000000000e+00" cType="1" res="1.9322350271977484e-04" rms="4.8299852013587952e-01" purity="5.9008157253265381e-01" nType="-99"/>
        </Node>
      </Node>
    </BinaryTree>
    <BinaryTree type="DecisionTree" boostWeight="1.0000000000000000e+00" itree="292">
      <Node pos="s" depth="0" NCoef="0" IVar="4" Cut="8.0895859003067017e-01" cType="1" res="2.9683524742722511e-02" rms="4.7391328215599060e-01" purity="5.0447529554367065e-01" nType="0">
        <Node pos="l" depth="1" NCoef="0" IVar="3" Cut="3.0415749549865723e-01" cType="1" res="1.4058765769004822e-01" rms="4.5961523056030273e-01" purity="6.3393366336822510e-01" nType="0">
          <Node pos="l" depth="2" NCoef="0" IVar="-1" Cut="0.0000000000000000e+00" cType="1" res="2.6207129121758044e-04" rms="4.8643219470977783e-01" purity="4.9406167864799500e-01" nType="-99"/>
          <Node pos="r" depth="2" NCoef="0" IVar="-1" Cut="0.0000000000000000e+00" cType="1" res="5.8276235358789563e-04" rms="4.2913687229156494e-01" purity="7.3736661672592163e-01" nType="-99"/>
        </Node>
        <Node pos="r" depth="1" NCoef="0" IVar="3" Cut="4.0002232789993286e-01" cType="1" res="-2.1307371556758881e-02" rms="4.7167310118675232e-01" purity="4.4495365023612976e-01" nType="0">
          <Node pos="l" depth="2" NCoef="0" IVar="-1" Cut="0.0000000000000000e+00" cType="1" res="-4.4896287727169693e-04" rms="4.6044948697090149e-01" purity="3.5530573129653931e-01" nType="-99"/>
          <Node pos="r" depth="2" NCoef="0" IVar="-1" Cut="0.0000000000000000e+00" cType="1" res="2.9961887048557401e-04" rms="4.7550174593925476e-01" purity="6.2767606973648071e-01" nType="-99"/>
        </Node>
      </Node>
    </BinaryTree>
    <BinaryTree type="DecisionTree" boostWeight="1.0000000000000000e+00" itree="293">
      <Node pos="s" depth="0" NCoef="0" IVar="5" Cut="4.4741632080078125e+02" cType="1" res="2.5226438418030739e-02" rms="4.7251665592193604e-01" purity="5.0132471323013306e-01" nType="0">
        <Node pos="l" depth="1" NCoef="0" IVar="6" Cut="1.4898594665527344e+02" cType="1" res="-5.6254405528306961e-02" rms="4.6101218461990356e-01" purity="3.7295398116111755e-01" nType="0">
          <Node pos="l" depth="2" NCoef="0" IVar="-1" Cut="0.0000000000000000e+00" cType="1" res="-6.0443308029789478e-05" rms="4.6854540705680847e-01" purity="4.1783106327056885e-01" nType="-99"/>
          <Node pos="r" depth="2" NCoef="0" IVar="-1" Cut="0.0000000000000000e+00" cType="1" res="-1.4192664530128241e-03" rms="4.2068624496459961e-01" purity="2.5946265459060669e-01" nType="-99"/>
        </Node>
        <Node pos="r" depth="1" NCoef="0" IVar="3" Cut="2.3841378092765808e-01" cType="1" res="1.0110308229923248e-01" rms="4.7046074271202087e-01" purity="6.2086629867553711e-01" nType="0">
          <Node pos="l" depth="2" NCoef="0" IVar="-1" Cut="0.0000000000000000e+00" cType="1" res="-2.4019065313041210e-04" rms="4.8476693034172058e-01" purity="4.0436533093452454e-01" nType="-99"/>
          <Node pos="r" depth="2" NCoef="0" IVar="-1" Cut="0.0000000000000000e+00" cType="1" res="4.6096561709418893e-04" rms="4.5586726069450378e-01" purity="6.8976539373397827e-01" nType="-99"/>
        </Node>
      </Node>
    </BinaryTree>
    <BinaryTree type="DecisionTree" boostWeight="1.0000000000000000e+00" itree="294">
      <Node pos="s" depth="0" NCoef="0" IVar="3" Cut="3.7702256441116333e-01" cType="1" res="2.6493569836020470e-02" rms="4.7249221801757812e-01" purity="5.0175327062606812e-01" nType="0">
        <Node pos="l" depth="1" NCoef="0" IVar="5" Cut="6.5156396484375000e+02" cType="1" res="-3.9457827806472778e-02" rms="4.6824708580970764e-01" purity="3.9369922876358032e-01" nType="0">
          <Node pos="l" depth="2" NCoef="0" IVar="-1" Cut="0.0000000000000000e+00" cType="1" res="-4.6400530845858157e-04" rms="4.5829045772552490e-01" purity="3.4133401513099670e-01" nType="-99"/>
          <Node pos="r" depth="2" NCoef="0" IVar="-1" Cut="0.0000000000000000e+00" cType="1" res="3.6675788578577340e-04" rms="4.8048418760299683e-01" purity="6.0548943281173706e-01" nType="-99"/>
        </Node>
        <Node pos="r" depth="1" NCoef="0" IVar="4" Cut="1.0751982927322388e+00" cType="1" res="1.3180460035800934e-01" rms="4.5998910069465637e-01" purity="6.7429375648498535e-01" nType="0">
          <Node pos="l" depth="2" NCoef="0" IVar="-1" Cut="0.0000000000000000e+00" cType="1" res="5.4616847774013877e-04" rms="4.3545132875442505e-01" purity="7.2969663143157959e-01" nType="-99"/>
          <Node pos="r" depth="2" NCoef="0" IVar="-1" Cut="0.0000000000000000e+00" cType="1" res="7.8193494118750095e-05" rms="4.8955225944519043e-01" purity="5.5746406316757202e-01" nType="-99"/>
        </Node>
      </Node>
    </BinaryTree>
    <BinaryTree type="DecisionTree" boostWeight="1.0000000000000000e+00" itree="295">
      <Node pos="s" depth="0" NCoef="0" IVar="5" Cut="3.2087207031250000e+02" cType="1" res="2.1620601415634155e-02" rms="4.7202798724174500e-01" purity="4.9731093645095825e-01" nType="0">
        <Node pos="l" depth="1" NCoef="0" IVar="3" Cut="3.9647662639617920e-01" cType="1" res="-1.5810750424861908e-01" rms="4.0867722034454346e-01" purity="2.3777785897254944e-01" nType="0">
          <Node pos="l" depth="2" NCoef="0" IVar="-1" Cut="0.0000000000000000e+00" cType="1" res="-3.6186657380312681e-03" rms="3.4480139613151550e-01" purity="1.3845551013946533e-01" nType="-99"/>
          <Node pos="r" depth="2" NCoef="0" IVar="-1" Cut="0.0000000000000000e+00" cType="1" res="-2.0485161803662777e-04" rms="4.9394941329956055e-01" purity="4.3894073367118835e-01" nType="-99"/>
        </Node>
        <Node pos="r" depth="1" NCoef="0" IVar="3" Cut="3.1053742766380310e-01" cType="1" res="5.6424934417009354e-02" rms="4.7555035352706909e-01" purity="5.4756945371627808e-01" nType="0">
          <Node pos="l" depth="2" NCoef="0" IVar="-1" Cut="0.0000000000000000e+00" cType="1" res="-1.8726306734606624e-04" rms="4.7635713219642639e-01" purity="3.9050671458244324e-01" nType="-99"/>
          <Node pos="r" depth="2" NCoef="0" IVar="-1" Cut="0.0000000000000000e+00" cType="1" res="4.1035379399545491e-04" rms="4.6242263913154602e-01" purity="6.7099094390869141e-01" nType="-99"/>
        </Node>
      </Node>
    </BinaryTree>
    <BinaryTree type="DecisionTree" boostWeight="1.0000000000000000e+00" itree="296">
      <Node pos="s" depth="0" NCoef="0" IVar="3" Cut="3.9857223629951477e-01" cType="1" res="1.3742002658545971e-02" rms="4.7321891784667969e-01" purity="4.8748418688774109e-01" nType="0">
        <Node pos="l" depth="1" NCoef="0" IVar="5" Cut="5.5438574218750000e+02" cType="1" res="-3.8307093083858490e-02" rms="4.6931764483451843e-01" purity="4.0135365724563599e-01" nType="0">
          <Node pos="l" depth="2" NCoef="0" IVar="-1" Cut="0.0000000000000000e+00" cType="1" res="-5.8830290799960494e-04" rms="4.5271030068397522e-01" purity="3.2309570908546448e-01" nType="-99"/>
          <Node pos="r" depth="2" NCoef="0" IVar="-1" Cut="0.0000000000000000e+00" cType="1" res="2.6892634923569858e-04" rms="4.8607549071311951e-01" purity="5.7581305503845215e-01" nType="-99"/>
        </Node>
        <Node pos="r" depth="1" NCoef="0" IVar="4" Cut="9.0324693918228149e-01" cType="1" res="1.2136508524417877e-01" rms="4.6298480033874512e-01" purity="6.6557830572128296e-01" nType="0">
          <Node pos="l" depth="2" NCoef="0" IVar="-1" Cut="0.0000000000000000e+00" cType="1" res="5.7670933892950416e-04" rms="4.2181140184402466e-01" purity="7.5499159097671509e-01" nType="-99"/>
          <Node pos="r" depth="2" NCoef="0" IVar="-1" Cut="0.0000000000000000e+00" cType="1" res="2.0030167070217431e-04" rms="4.8323562741279602e-01" purity="5.9405499696731567e-01" nType="-99"/>
        </Node>
      </Node>
    </BinaryTree>
    <BinaryTree type="DecisionTree" boostWeight="1.0000000000000000e+00" itree="297">
      <Node pos="s" depth="0" NCoef="0" IVar="3" Cut="3.5512176156044006e-01" cType="1" res="2.3752095177769661e-02" rms="4.7134450078010559e-01" purity="4.9973201751708984e-01" nType="0">
        <Node pos="l" depth="1" NCoef="0" IVar="4" Cut="7.5606888532638550e-01" cType="1" res="-4.8439908772706985e-02" rms="4.6423122286796570e-01" purity="3.7518584728240967e-01" nType="0">
          <Node pos="l" depth="2" NCoef="0" IVar="-1" Cut="0.0000000000000000e+00" cType="1" res="3.8239394780248404e-04" rms="4.7964218258857727e-01" purity="5.6373304128646851e-01" nType="-99"/>
          <Node pos="r" depth="2" NCoef="0" IVar="-1" Cut="0.0000000000000000e+00" cType="1" res="-6.6067563602700830e-04" rms="4.4808375835418701e-01" purity="3.1327199935913086e-01" nType="-99"/>
        </Node>
        <Node pos="r" depth="1" NCoef="0" IVar="5" Cut="3.1463327026367188e+02" cType="1" res="1.1494977772235870e-01" rms="4.6440488100051880e-01" purity="6.5706688165664673e-01" nType="0">
          <Node pos="l" depth="2" NCoef="0" IVar="-1" Cut="0.0000000000000000e+00" cType="1" res="-4.2832488543353975e-04" rms="4.8557397723197937e-01" purity="3.9470040798187256e-01" nType="-99"/>
          <Node pos="r" depth="2" NCoef="0" IVar="-1" Cut="0.0000000000000000e+00" cType="1" res="4.5132229570299387e-04" rms="4.5287919044494629e-01" purity="7.0052421092987061e-01" nType="-99"/>
        </Node>
      </Node>
    </BinaryTree>
    <BinaryTree type="DecisionTree" boostWeight="1.0000000000000000e+00" itree="298">
      <Node pos="s" depth="0" NCoef="0" IVar="5" Cut="4.3958456420898438e+02" cType="1" res="2.3110037669539452e-02" rms="4.7361898422241211e-01" purity="4.9775612354278564e-01" nType="0">
        <Node pos="l" depth="1" NCoef="0" IVar="4" Cut="9.6873754262924194e-01" cType="1" res="-5.4762396961450577e-02" rms="4.6174800395965576e-01" purity="3.7140616774559021e-01" nType="0">
          <Node pos="l" depth="2" NCoef="0" IVar="-1" Cut="0.0000000000000000e+00" cType="1" res="8.3969673141837120e-05" rms="4.7504270076751709e-01" purity="4.5284885168075562e-01" nType="-99"/>
          <Node pos="r" depth="2" NCoef="0" IVar="-1" Cut="0.0000000000000000e+00" cType="1" res="-1.1020604288205504e-03" rms="4.3148675560951233e-01" purity="2.7837407588958740e-01" nType="-99"/>
        </Node>
        <Node pos="r" depth="1" NCoef="0" IVar="3" Cut="2.6690965890884399e-01" cType="1" res="9.2145517468452454e-02" rms="4.7330409288406372e-01" purity="6.0976779460906982e-01" nType="0">
          <Node pos="l" depth="2" NCoef="0" IVar="-1" Cut="0.0000000000000000e+00" cType="1" res="-1.1009738227585331e-04" rms="4.9004074931144714e-01" purity="4.2836785316467285e-01" nType="-99"/>
          <Node pos="r" depth="2" NCoef="0" IVar="-1" Cut="0.0000000000000000e+00" cType="1" res="4.5366224367171526e-04" rms="4.5544865727424622e-01" purity="6.9477772712707520e-01" nType="-99"/>
        </Node>
      </Node>
    </BinaryTree>
    <BinaryTree type="DecisionTree" boostWeight="1.0000000000000000e+00" itree="299">
      <Node pos="s" depth="0" NCoef="0" IVar="3" Cut="3.9857223629951477e-01" cType="1" res="2.3810319602489471e-02" rms="4.7415125370025635e-01" purity="4.9715721607208252e-01" nType="0">
        <Node pos="l" depth="1" NCoef="0" IVar="5" Cut="5.6637524414062500e+02" cType="1" res="-2.7018301188945770e-02" rms="4.7131353616714478e-01" purity="4.1275522112846375e-01" nType="0">
          <Node pos="l" depth="2" NCoef="0" IVar="-1" Cut="0.0000000000000000e+00" cType="1" res="-4.8538061673752964e-04" rms="4.5733803510665894e-01" purity="3.3814224600791931e-01" nType="-99"/>
          <Node pos="r" depth="2" NCoef="0" IVar="-1" Cut="0.0000000000000000e+00" cType="1" res="3.1250165193341672e-04" rms="4.8398330807685852e-01" purity="5.8995205163955688e-01" nType="-99"/>
        </Node>
        <Node pos="r" depth="1" NCoef="0" IVar="4" Cut="1.0107783079147339e+00" cType="1" res="1.2840163707733154e-01" rms="4.6269273757934570e-01" purity="6.7083340883255005e-01" nType="0">
          <Node pos="l" depth="2" NCoef="0" IVar="-1" Cut="0.0000000000000000e+00" cType="1" res="5.5357784731313586e-04" rms="4.3642881512641907e-01" purity="7.3062705993652344e-01" nType="-99"/>
          <Node pos="r" depth="2" NCoef="0" IVar="-1" Cut="0.0000000000000000e+00" cType="1" res="1.8268790154252201e-04" rms="4.8598003387451172e-01" purity="5.8824360370635986e-01" nType="-99"/>
        </Node>
      </Node>
    </BinaryTree>
    <BinaryTree type="DecisionTree" boostWeight="1.0000000000000000e+00" itree="300">
      <Node pos="s" depth="0" NCoef="0" IVar="3" Cut="3.9958289265632629e-01" cType="1" res="2.1226869896054268e-02" rms="4.7248438000679016e-01" purity="4.9631610512733459e-01" nType="0">
        <Node pos="l" depth="1" NCoef="0" IVar="5" Cut="3.9374060058593750e+02" cType="1" res="-3.2125826925039291e-02" rms="4.6941840648651123e-01" purity="4.0892982482910156e-01" nType="0">
          <Node pos="l" depth="2" NCoef="0" IVar="-1" Cut="0.0000000000000000e+00" cType="1" res="-1.2415677774697542e-03" rms="4.1755086183547974e-01" purity="2.3671561479568481e-01" nType="-99"/>
          <Node pos="r" depth="2" NCoef="0" IVar="-1" Cut="0.0000000000000000e+00" cType="1" res="9.8368356702849269e-05" rms="4.8698002099990845e-01" purity="5.0431889295578003e-01" nType="-99"/>
        </Node>
        <Node pos="r" depth="1" NCoef="0" IVar="4" Cut="9.0960729122161865e-01" cType="1" res="1.3028369843959808e-01" rms="4.5981806516647339e-01" purity="6.7494016885757446e-01" nType="0">
          <Node pos="l" depth="2" NCoef="0" IVar="-1" Cut="0.0000000000000000e+00" cType="1" res="6.1293557519093156e-04" rms="4.1139936447143555e-01" purity="7.7086591720581055e-01" nType="-99"/>
          <Node pos="r" depth="2" NCoef="0" IVar="-1" Cut="0.0000000000000000e+00" cType="1" res="2.0315397705417126e-04" rms="4.8505187034606934e-01" purity="5.9278929233551025e-01" nType="-99"/>
        </Node>
      </Node>
    </BinaryTree>
    <BinaryTree type="DecisionTree" boostWeight="1.0000000000000000e+00" itree="301">
      <Node pos="s" depth="0" NCoef="0" IVar="3" Cut="3.5567700862884521e-01" cType="1" res="2.6684358716011047e-02" rms="4.7416749596595764e-01" purity="5.0029879808425903e-01" nType="0">
        <Node pos="l" depth="1" NCoef="0" IVar="4" Cut="8.6009597778320312e-01" cType="1" res="-3.5770688205957413e-02" rms="4.6982783079147339e-01" purity="3.8572797179222107e-01" nType="0">
          <Node pos="l" depth="2" NCoef="0" IVar="-1" Cut="0.0000000000000000e+00" cType="1" res="2.2485811496153474e-04" rms="4.8443880677223206e-01" purity="4.9192842841148376e-01" nType="-99"/>
          <Node pos="r" depth="2" NCoef="0" IVar="-1" Cut="0.0000000000000000e+00" cType="1" res="-6.0031726025044918e-04" rms="4.5242238044738770e-01" purity="3.2099768519401550e-01" nType="-99"/>
        </Node>
        <Node pos="r" depth="1" NCoef="0" IVar="4" Cut="8.1839573383331299e-01" cType="1" res="1.0850869864225388e-01" rms="4.6732896566390991e-01" purity="6.5040165185928345e-01" nType="0">
          <Node pos="l" depth="2" NCoef="0" IVar="-1" Cut="0.0000000000000000e+00" cType="1" res="5.8636860921978951e-04" rms="4.2120623588562012e-01" purity="7.5658744573593140e-01" nType="-99"/>
          <Node pos="r" depth="2" NCoef="0" IVar="-1" Cut="0.0000000000000000e+00" cType="1" res="2.2272788919508457e-04" rms="4.8080867528915405e-01" purity="5.9937107563018799e-01" nType="-99"/>
        </Node>
      </Node>
    </BinaryTree>
    <BinaryTree type="DecisionTree" boostWeight="1.0000000000000000e+00" itree="302">
      <Node pos="s" depth="0" NCoef="0" IVar="3" Cut="3.9951199293136597e-01" cType="1" res="1.5774361789226532e-02" rms="4.7294917702674866e-01" purity="4.8990806937217712e-01" nType="0">
        <Node pos="l" depth="1" NCoef="0" IVar="5" Cut="6.6192767333984375e+02" cType="1" res="-3.6131598055362701e-02" rms="4.7024348378181458e-01" purity="4.0264359116554260e-01" nType="0">
          <Node pos="l" depth="2" NCoef="0" IVar="-1" Cut="0.0000000000000000e+00" cType="1" res="-4.3510820250958204e-04" rms="4.6215590834617615e-01" purity="3.5002064704895020e-01" nType="-99"/>
          <Node pos="r" depth="2" NCoef="0" IVar="-1" Cut="0.0000000000000000e+00" cType="1" res="3.6870935582555830e-04" rms="4.7452619671821594e-01" purity="6.2264537811279297e-01" nType="-99"/>
        </Node>
        <Node pos="r" depth="1" NCoef="0" IVar="5" Cut="3.5280987548828125e+02" cType="1" res="1.2230369448661804e-01" rms="4.6047863364219666e-01" purity="6.6900551319122314e-01" nType="0">
          <Node pos="l" depth="2" NCoef="0" IVar="-1" Cut="0.0000000000000000e+00" cType="1" res="-1.8117047147825360e-04" rms="4.9352139234542847e-01" purity="4.5286864042282104e-01" nType="-99"/>
          <Node pos="r" depth="2" NCoef="0" IVar="-1" Cut="0.0000000000000000e+00" cType="1" res="5.0298264250159264e-04" rms="4.3817138671875000e-01" purity="7.3575294017791748e-01" nType="-99"/>
        </Node>
      </Node>
    </BinaryTree>
    <BinaryTree type="DecisionTree" boostWeight="1.0000000000000000e+00" itree="303">
      <Node pos="s" depth="0" NCoef="0" IVar="3" Cut="3.5587954521179199e-01" cType="1" res="2.3315906524658203e-02" rms="4.7399151325225830e-01" purity="4.9674353003501892e-01" nType="0">
        <Node pos="l" depth="1" NCoef="0" IVar="4" Cut="7.0259636640548706e-01" cType="1" res="-4.3337453156709671e-02" rms="4.6912747621536255e-01" purity="3.7666091322898865e-01" nType="0">
          <Node pos="l" depth="2" NCoef="0" IVar="-1" Cut="0.0000000000000000e+00" cType="1" res="3.5216537071391940e-04" rms="4.8058003187179565e-01" purity="5.6750851869583130e-01" nType="-99"/>
          <Node pos="r" depth="2" NCoef="0" IVar="-1" Cut="0.0000000000000000e+00" cType="1" res="-4.5295699965208769e-04" rms="4.6167835593223572e-01" purity="3.3870697021484375e-01" nType="-99"/>
        </Node>
        <Node pos="r" depth="1" NCoef="0" IVar="4" Cut="8.2305485010147095e-01" cType="1" res="1.0991002619266510e-01" rms="4.6621605753898621e-01" purity="6.5275138616561890e-01" nType="0">
          <Node pos="l" depth="2" NCoef="0" IVar="-1" Cut="0.0000000000000000e+00" cType="1" res="6.1299290973693132e-04" rms="4.1687375307083130e-01" purity="7.6322823762893677e-01" nType="-99"/>
          <Node pos="r" depth="2" NCoef="0" IVar="-1" Cut="0.0000000000000000e+00" cType="1" res="2.1653204748872668e-04" rms="4.8095428943634033e-01" purity="5.9768670797348022e-01" nType="-99"/>
        </Node>
      </Node>
    </BinaryTree>
    <BinaryTree type="DecisionTree" boostWeight="1.0000000000000000e+00" itree="304">
      <Node pos="s" depth="0" NCoef="0" IVar="3" Cut="3.7738385796546936e-01" cType="1" res="2.2853935137391090e-02" rms="4.7315734624862671e-01" purity="4.9694406986236572e-01" nType="0">
        <Node pos="l" depth="1" NCoef="0" IVar="5" Cut="3.5193188476562500e+02" cType="1" res="-3.9078641682863235e-02" rms="4.6953228116035461e-01" purity="3.9087647199630737e-01" nType="0">
          <Node pos="l" depth="2" NCoef="0" IVar="-1" Cut="0.0000000000000000e+00" cType="1" res="-1.6705513698980212e-03" rms="3.9942410588264465e-01" purity="2.0393249392509460e-01" nType="-99"/>
          <Node pos="r" depth="2" NCoef="0" IVar="-1" Cut="0.0000000000000000e+00" cType="1" res="-8.4945140770287253e-06" rms="4.8581251502037048e-01" purity="4.5522907376289368e-01" nType="-99"/>
        </Node>
        <Node pos="r" depth="1" NCoef="0" IVar="5" Cut="3.5346371459960938e+02" cType="1" res="1.2171933799982071e-01" rms="4.6199101209640503e-01" purity="6.6626381874084473e-01" nType="0">
          <Node pos="l" depth="2" NCoef="0" IVar="-1" Cut="0.0000000000000000e+00" cType="1" res="-2.6208197596133687e-05" rms="4.9535167217254639e-01" purity="4.8176637291908264e-01" nType="-99"/>
          <Node pos="r" depth="2" NCoef="0" IVar="-1" Cut="0.0000000000000000e+00" cType="1" res="4.8768686247058213e-04" rms="4.4230842590332031e-01" purity="7.2745859622955322e-01" nType="-99"/>
        </Node>
      </Node>
    </BinaryTree>
    <BinaryTree type="DecisionTree" boostWeight="1.0000000000000000e+00" itree="305">
      <Node pos="s" depth="0" NCoef="0" IVar="5" Cut="3.1458047485351562e+02" cType="1" res="2.5871891528367996e-02" rms="4.7313553094863892e-01" purity="4.9947592616081238e-01" nType="0">
        <Node pos="l" depth="1" NCoef="0" IVar="3" Cut="2.8707507252693176e-01" cType="1" res="-1.5286907553672791e-01" rms="4.1133832931518555e-01" purity="2.3799499869346619e-01" nType="0">
          <Node pos="l" depth="2" NCoef="0" IVar="-1" Cut="0.0000000000000000e+00" cType="1" res="-4.4430466368794441e-03" rms="3.1026524305343628e-01" purity="1.0722161084413528e-01" nType="-99"/>
          <Node pos="r" depth="2" NCoef="0" IVar="-1" Cut="0.0000000000000000e+00" cType="1" res="-6.9157785037532449e-04" rms="4.6910333633422852e-01" purity="3.3727172017097473e-01" nType="-99"/>
        </Node>
        <Node pos="r" depth="1" NCoef="0" IVar="4" Cut="7.6765936613082886e-01" cType="1" res="5.6913390755653381e-02" rms="4.7627469897270203e-01" purity="5.4488670825958252e-01" nType="0">
          <Node pos="l" depth="2" NCoef="0" IVar="-1" Cut="0.0000000000000000e+00" cType="1" res="5.5278185755014420e-04" rms="4.4853258132934570e-01" purity="6.8726736307144165e-01" nType="-99"/>
          <Node pos="r" depth="2" NCoef="0" IVar="-1" Cut="0.0000000000000000e+00" cType="1" res="5.2257015340728685e-05" rms="4.7813749313354492e-01" purity="4.9308097362518311e-01" nType="-99"/>
        </Node>
      </Node>
    </BinaryTree>
    <BinaryTree type="DecisionTree" boostWeight="1.0000000000000000e+00" itree="306">
      <Node pos="s" depth="0" NCoef="0" IVar="4" Cut="8.2072329521179199e-01" cType="1" res="3.3143538981676102e-02" rms="4.7229993343353271e-01" purity="5.0850027799606323e-01" nType="0">
        <Node pos="l" depth="1" NCoef="0" IVar="3" Cut="2.8780290484428406e-01" cType="1" res="1.3869805634021759e-01" rms="4.5485997200012207e-01" purity="6.3536947965621948e-01" nType="0">
          <Node pos="l" depth="2" NCoef="0" IVar="-1" Cut="0.0000000000000000e+00" cType="1" res="1.1827977141365409e-04" rms="4.8358905315399170e-01" purity="4.4751563668251038e-01" nType="-99"/>
          <Node pos="r" depth="2" NCoef="0" IVar="-1" Cut="0.0000000000000000e+00" cType="1" res="5.8692996390163898e-04" rms="4.2473092675209045e-01" purity="7.4020665884017944e-01" nType="-99"/>
        </Node>
        <Node pos="r" depth="1" NCoef="0" IVar="5" Cut="6.4813769531250000e+02" cType="1" res="-1.9634062424302101e-02" rms="4.7201240062713623e-01" purity="4.4506528973579407e-01" nType="0">
          <Node pos="l" depth="2" NCoef="0" IVar="-1" Cut="0.0000000000000000e+00" cType="1" res="-3.2526545692235231e-04" rms="4.6574395895004272e-01" purity="3.9180612564086914e-01" nType="-99"/>
          <Node pos="r" depth="2" NCoef="0" IVar="-1" Cut="0.0000000000000000e+00" cType="1" res="4.2288508848287165e-04" rms="4.6546521782875061e-01" purity="6.5574342012405396e-01" nType="-99"/>
        </Node>
      </Node>
    </BinaryTree>
    <BinaryTree type="DecisionTree" boostWeight="1.0000000000000000e+00" itree="307">
      <Node pos="s" depth="0" NCoef="0" IVar="3" Cut="2.6530340313911438e-01" cType="1" res="2.1939938887953758e-02" rms="4.7304478287696838e-01" purity="4.9580058455467224e-01" nType="0">
        <Node pos="l" depth="1" NCoef="0" IVar="4" Cut="7.0092600584030151e-01" cType="1" res="-8.4738820791244507e-02" rms="4.4777160882949829e-01" purity="3.0892491340637207e-01" nType="0">
          <Node pos="l" depth="2" NCoef="0" IVar="-1" Cut="0.0000000000000000e+00" cType="1" res="3.4045186475850642e-04" rms="4.8809391260147095e-01" purity="5.2837610244750977e-01" nType="-99"/>
          <Node pos="r" depth="2" NCoef="0" IVar="-1" Cut="0.0000000000000000e+00" cType="1" res="-9.3925959663465619e-04" rms="4.3273177742958069e-01" purity="2.6800173521041870e-01" nType="-99"/>
        </Node>
        <Node pos="r" depth="1" NCoef="0" IVar="4" Cut="8.1781673431396484e-01" cType="1" res="7.6497748494148254e-02" rms="4.7631546854972839e-01" purity="5.9137284755706787e-01" nType="0">
          <Node pos="l" depth="2" NCoef="0" IVar="-1" Cut="0.0000000000000000e+00" cType="1" res="5.4024904966354370e-04" rms="4.3989834189414978e-01" purity="7.0855206251144409e-01" nType="-99"/>
          <Node pos="r" depth="2" NCoef="0" IVar="-1" Cut="0.0000000000000000e+00" cType="1" res="9.5760377007536590e-05" rms="4.8529666662216187e-01" purity="5.3216266632080078e-01" nType="-99"/>
        </Node>
      </Node>
    </BinaryTree>
    <BinaryTree type="DecisionTree" boostWeight="1.0000000000000000e+00" itree="308">
      <Node pos="s" depth="0" NCoef="0" IVar="3" Cut="3.7779706716537476e-01" cType="1" res="2.0625207573175430e-02" rms="4.7310981154441833e-01" purity="4.9416330456733704e-01" nType="0">
        <Node pos="l" depth="1" NCoef="0" IVar="4" Cut="7.1932131052017212e-01" cType="1" res="-3.3532653003931046e-02" rms="4.7002160549163818e-01" purity="3.9689722657203674e-01" nType="0">
          <Node pos="l" depth="2" NCoef="0" IVar="-1" Cut="0.0000000000000000e+00" cType="1" res="3.7450771196745336e-04" rms="4.7665217518806458e-01" purity="5.8140575885772705e-01" nType="-99"/>
          <Node pos="r" depth="2" NCoef="0" IVar="-1" Cut="0.0000000000000000e+00" cType="1" res="-3.9851776091381907e-04" rms="4.6257025003433228e-01" purity="3.5428678989410400e-01" nType="-99"/>
        </Node>
        <Node pos="r" depth="1" NCoef="0" IVar="5" Cut="3.5930783081054688e+02" cType="1" res="1.1119502037763596e-01" rms="4.6432286500930786e-01" purity="6.5682417154312134e-01" nType="0">
          <Node pos="l" depth="2" NCoef="0" IVar="-1" Cut="0.0000000000000000e+00" cType="1" res="-1.5510186494793743e-04" rms="4.9380484223365784e-01" purity="4.5610117912292480e-01" nType="-99"/>
          <Node pos="r" depth="2" NCoef="0" IVar="-1" Cut="0.0000000000000000e+00" cType="1" res="4.8525710008107126e-04" rms="4.4300842285156250e-01" purity="7.2590935230255127e-01" nType="-99"/>
        </Node>
      </Node>
    </BinaryTree>
    <BinaryTree type="DecisionTree" boostWeight="1.0000000000000000e+00" itree="309">
      <Node pos="s" depth="0" NCoef="0" IVar="5" Cut="3.0866448974609375e+02" cType="1" res="3.5158153623342514e-02" rms="4.7287178039550781e-01" purity="5.0998365879058838e-01" nType="0">
        <Node pos="l" depth="1" NCoef="0" IVar="4" Cut="9.2905455827713013e-01" cType="1" res="-1.5982647240161896e-01" rms="4.0672117471694946e-01" purity="2.2779388725757599e-01" nType="0">
          <Node pos="l" depth="2" NCoef="0" IVar="-1" Cut="0.0000000000000000e+00" cType="1" res="-1.0063594672828913e-03" rms="4.3006929755210876e-01" purity="2.7008712291717529e-01" nType="-99"/>
          <Node pos="r" depth="2" NCoef="0" IVar="-1" Cut="0.0000000000000000e+00" cType="1" res="-2.0507103763520718e-03" rms="3.8691678643226624e-01" purity="1.9694815576076508e-01" nType="-99"/>
        </Node>
        <Node pos="r" depth="1" NCoef="0" IVar="3" Cut="3.1078669428825378e-01" cType="1" res="6.4705632627010345e-02" rms="4.7517433762550354e-01" purity="5.5274599790573120e-01" nType="0">
          <Node pos="l" depth="2" NCoef="0" IVar="-1" Cut="0.0000000000000000e+00" cType="1" res="-7.7009004598949105e-05" rms="4.7957131266593933e-01" purity="4.0624275803565979e-01" nType="-99"/>
          <Node pos="r" depth="2" NCoef="0" IVar="-1" Cut="0.0000000000000000e+00" cType="1" res="4.0870433440431952e-04" rms="4.6195146441459656e-01" purity="6.6961896419525146e-01" nType="-99"/>
        </Node>
      </Node>
    </BinaryTree>
    <BinaryTree type="DecisionTree" boostWeight="1.0000000000000000e+00" itree="310">
      <Node pos="s" depth="0" NCoef="0" IVar="3" Cut="2.2223463654518127e-01" cType="1" res="2.2379817441105843e-02" rms="4.7437563538551331e-01" purity="4.9466514587402344e-01" nType="0">
        <Node pos="l" depth="1" NCoef="0" IVar="7" Cut="8.7042877197265625e+01" cType="1" res="-9.8017461597919464e-02" rms="4.4430401921272278e-01" purity="2.8635776042938232e-01" nType="0">
          <Node pos="l" depth="2" NCoef="0" IVar="-1" Cut="0.0000000000000000e+00" cType="1" res="-2.7743724640458822e-03" rms="3.5640868544578552e-01" purity="1.5294232964515686e-01" nType="-99"/>
          <Node pos="r" depth="2" NCoef="0" IVar="-1" Cut="0.0000000000000000e+00" cType="1" res="-4.2812339961528778e-04" rms="4.6623200178146362e-01" purity="3.3260196447372437e-01" nType="-99"/>
        </Node>
        <Node pos="r" depth="1" NCoef="0" IVar="5" Cut="4.3966613769531250e+02" cType="1" res="6.0519080609083176e-02" rms="4.7721812129020691e-01" purity="5.6065249443054199e-01" nType="0">
          <Node pos="l" depth="2" NCoef="0" IVar="-1" Cut="0.0000000000000000e+00" cType="1" res="-7.7219803642947227e-05" rms="4.8125758767127991e-01" purity="4.3996253609657288e-01" nType="-99"/>
          <Node pos="r" depth="2" NCoef="0" IVar="-1" Cut="0.0000000000000000e+00" cType="1" res="4.0048398659564555e-04" rms="4.6402278542518616e-01" purity="6.6292053461074829e-01" nType="-99"/>
        </Node>
      </Node>
    </BinaryTree>
    <BinaryTree type="DecisionTree" boostWeight="1.0000000000000000e+00" itree="311">
      <Node pos="s" depth="0" NCoef="0" IVar="3" Cut="2.4395577609539032e-01" cType="1" res="2.9831120744347572e-02" rms="4.7182574868202209e-01" purity="5.0484037399291992e-01" nType="0">
        <Node pos="l" depth="1" NCoef="0" IVar="7" Cut="1.3787829589843750e+02" cType="1" res="-9.2510320246219635e-02" rms="4.4123286008834839e-01" purity="2.9841485619544983e-01" nType="0">
          <Node pos="l" depth="2" NCoef="0" IVar="-1" Cut="0.0000000000000000e+00" cType="1" res="-1.4110123738646507e-03" rms="4.0127784013748169e-01" purity="2.1639358997344971e-01" nType="-99"/>
          <Node pos="r" depth="2" NCoef="0" IVar="-1" Cut="0.0000000000000000e+00" cType="1" res="-2.1497951820492744e-05" rms="4.8633340001106262e-01" purity="4.3102744221687317e-01" nType="-99"/>
        </Node>
        <Node pos="r" depth="1" NCoef="0" IVar="5" Cut="3.9618807983398438e+02" cType="1" res="7.8419044613838196e-02" rms="4.7477158904075623e-01" purity="5.8682227134704590e-01" nType="0">
          <Node pos="l" depth="2" NCoef="0" IVar="-1" Cut="0.0000000000000000e+00" cType="1" res="-1.2708656140603125e-04" rms="4.8218289017677307e-01" purity="4.2690151929855347e-01" nType="-99"/>
          <Node pos="r" depth="2" NCoef="0" IVar="-1" Cut="0.0000000000000000e+00" cType="1" res="4.2663930798880756e-04" rms="4.6144539117813110e-01" purity="6.7178171873092651e-01" nType="-99"/>
        </Node>
      </Node>
    </BinaryTree>
    <BinaryTree type="DecisionTree" boostWeight="1.0000000000000000e+00" itree="312">
      <Node pos="s" depth="0" NCoef="0" IVar="3" Cut="2.8785774111747742e-01" cType="1" res="2.8741447255015373e-02" rms="4.7262507677078247e-01" purity="5.0321090221405029e-01" nType="0">
        <Node pos="l" depth="1" NCoef="0" IVar="5" Cut="5.9926263427734375e+02" cType="1" res="-6.3987031579017639e-02" rms="4.5621347427368164e-01" purity="3.3485352993011475e-01" nType="0">
          <Node pos="l" depth="2" NCoef="0" IVar="-1" Cut="0.0000000000000000e+00" cType="1" res="-7.7480048639699817e-04" rms="4.3757274746894836e-01" purity="2.7762293815612793e-01" nType="-99"/>
          <Node pos="r" depth="2" NCoef="0" IVar="-1" Cut="0.0000000000000000e+00" cType="1" res="2.1618398022837937e-04" rms="4.9555385112762451e-01" purity="5.2413910627365112e-01" nType="-99"/>
        </Node>
        <Node pos="r" depth="1" NCoef="0" IVar="4" Cut="1.0077263116836548e+00" cType="1" res="8.8552579283714294e-02" rms="4.7337439656257629e-01" purity="6.1180365085601807e-01" nType="0">
          <Node pos="l" depth="2" NCoef="0" IVar="-1" Cut="0.0000000000000000e+00" cType="1" res="4.8413485637865961e-04" rms="4.5172950625419617e-01" purity="6.8212503194808960e-01" nType="-99"/>
          <Node pos="r" depth="2" NCoef="0" IVar="-1" Cut="0.0000000000000000e+00" cType="1" res="-4.7311637899838388e-05" rms="4.8778784275054932e-01" purity="5.0529068708419800e-01" nType="-99"/>
        </Node>
      </Node>
    </BinaryTree>
    <BinaryTree type="DecisionTree" boostWeight="1.0000000000000000e+00" itree="313">
      <Node pos="s" depth="0" NCoef="0" IVar="3" Cut="3.5567700862884521e-01" cType="1" res="3.8633614778518677e-02" rms="4.7183585166931152e-01" purity="5.1457154750823975e-01" nType="0">
        <Node pos="l" depth="1" NCoef="0" IVar="4" Cut="1.0142565965652466e+00" cType="1" res="-3.2957565039396286e-02" rms="4.6980595588684082e-01" purity="3.8741275668144226e-01" nType="0">
          <Node pos="l" depth="2" NCoef="0" IVar="-1" Cut="0.0000000000000000e+00" cType="1" res="1.0663956345524639e-04" rms="4.7990843653678894e-01" purity="4.5161354541778564e-01" nType="-99"/>
          <Node pos="r" depth="2" NCoef="0" IVar="-1" Cut="0.0000000000000000e+00" cType="1" res="-8.2625698996707797e-04" rms="4.4260728359222412e-01" purity="2.9472559690475464e-01" nType="-99"/>
        </Node>
        <Node pos="r" depth="1" NCoef="0" IVar="5" Cut="3.9117105102539062e+02" cType="1" res="1.2675310671329498e-01" rms="4.5924744009971619e-01" purity="6.7108756303787231e-01" nType="0">
          <Node pos="l" depth="2" NCoef="0" IVar="-1" Cut="0.0000000000000000e+00" cType="1" res="6.8987035774625838e-05" rms="4.9306571483612061e-01" purity="5.1208555698394775e-01" nType="-99"/>
          <Node pos="r" depth="2" NCoef="0" IVar="-1" Cut="0.0000000000000000e+00" cType="1" res="5.2697863429784775e-04" rms="4.3065792322158813e-01" purity="7.5114488601684570e-01" nType="-99"/>
        </Node>
      </Node>
    </BinaryTree>
    <BinaryTree type="DecisionTree" boostWeight="1.0000000000000000e+00" itree="314">
      <Node pos="s" depth="0" NCoef="0" IVar="3" Cut="3.7779888510704041e-01" cType="1" res="3.2646257430315018e-02" rms="4.7419926524162292e-01" purity="5.0522965192794800e-01" nType="0">
        <Node pos="l" depth="1" NCoef="0" IVar="4" Cut="6.4962941408157349e-01" cType="1" res="-1.9010426476597786e-02" rms="4.7330036759376526e-01" purity="4.1046547889709473e-01" nType="0">
          <Node pos="l" depth="2" NCoef="0" IVar="-1" Cut="0.0000000000000000e+00" cType="1" res="5.6114228209480643e-04" rms="4.6538913249969482e-01" purity="6.4854359626770020e-01" nType="-99"/>
          <Node pos="r" depth="2" NCoef="0" IVar="-1" Cut="0.0000000000000000e+00" cType="1" res="-2.4828111054375768e-04" rms="4.6879553794860840e-01" purity="3.7851133942604065e-01" nType="-99"/>
        </Node>
        <Node pos="r" depth="1" NCoef="0" IVar="4" Cut="9.5237255096435547e-01" cType="1" res="1.1984065920114517e-01" rms="4.6281266212463379e-01" purity="6.6518777608871460e-01" nType="0">
          <Node pos="l" depth="2" NCoef="0" IVar="-1" Cut="0.0000000000000000e+00" cType="1" res="5.5055716075003147e-04" rms="4.2907786369323730e-01" purity="7.4094104766845703e-01" nType="-99"/>
          <Node pos="r" depth="2" NCoef="0" IVar="-1" Cut="0.0000000000000000e+00" cType="1" res="1.6724177112337202e-04" rms="4.8565095663070679e-01" purity="5.8341401815414429e-01" nType="-99"/>
        </Node>
      </Node>
    </BinaryTree>
    <BinaryTree type="DecisionTree" boostWeight="1.0000000000000000e+00" itree="315">
      <Node pos="s" depth="0" NCoef="0" IVar="3" Cut="3.7812203168869019e-01" cType="1" res="3.0364315956830978e-02" rms="4.7142240405082703e-01" purity="5.0586372613906860e-01" nType="0">
        <Node pos="l" depth="1" NCoef="0" IVar="4" Cut="7.9549741744995117e-01" cType="1" res="-2.9189173132181168e-02" rms="4.6914663910865784e-01" purity="4.0202322602272034e-01" nType="0">
          <Node pos="l" depth="2" NCoef="0" IVar="-1" Cut="0.0000000000000000e+00" cType="1" res="3.2270952942781150e-04" rms="4.7911849617958069e-01" purity="5.4471564292907715e-01" nType="-99"/>
          <Node pos="r" depth="2" NCoef="0" IVar="-1" Cut="0.0000000000000000e+00" cType="1" res="-4.6740213292650878e-04" rms="4.5721507072448730e-01" purity="3.4370237588882446e-01" nType="-99"/>
        </Node>
        <Node pos="r" depth="1" NCoef="0" IVar="5" Cut="4.5102566528320312e+02" cType="1" res="1.2607452273368835e-01" rms="4.5915013551712036e-01" purity="6.7274880409240723e-01" nType="0">
          <Node pos="l" depth="2" NCoef="0" IVar="-1" Cut="0.0000000000000000e+00" cType="1" res="1.6478619363624603e-04" rms="4.9018710851669312e-01" purity="5.5712372064590454e-01" nType="-99"/>
          <Node pos="r" depth="2" NCoef="0" IVar="-1" Cut="0.0000000000000000e+00" cType="1" res="5.5399112170562148e-04" rms="4.1434931755065918e-01" purity="7.7801090478897095e-01" nType="-99"/>
        </Node>
      </Node>
    </BinaryTree>
    <BinaryTree type="DecisionTree" boostWeight="1.0000000000000000e+00" itree="316">
      <Node pos="s" depth="0" NCoef="0" IVar="3" Cut="3.7659081816673279e-01" cType="1" res="2.4658361449837685e-02" rms="4.7183388471603394e-01" purity="4.9924051761627197e-01" nType="0">
        <Node pos="l" depth="1" NCoef="0" IVar="5" Cut="5.4544677734375000e+02" cType="1" res="-3.5431358963251114e-02" rms="4.6786960959434509e-01" purity="3.9515918493270874e-01" nType="0">
          <Node pos="l" depth="2" NCoef="0" IVar="-1" Cut="0.0000000000000000e+00" cType="1" res="-5.9652765048667789e-04" rms="4.4917517900466919e-01" purity="3.1364351511001587e-01" nType="-99"/>
          <Node pos="r" depth="2" NCoef="0" IVar="-1" Cut="0.0000000000000000e+00" cType="1" res="2.5489684776403010e-04" rms="4.8818355798721313e-01" purity="5.6593519449234009e-01" nType="-99"/>
        </Node>
        <Node pos="r" depth="1" NCoef="0" IVar="4" Cut="9.5091539621353149e-01" cType="1" res="1.2134128063917160e-01" rms="4.6202144026756287e-01" purity="6.6670483350753784e-01" nType="0">
          <Node pos="l" depth="2" NCoef="0" IVar="-1" Cut="0.0000000000000000e+00" cType="1" res="5.6233501527458429e-04" rms="4.2795571684837341e-01" purity="7.4385559558868408e-01" nType="-99"/>
          <Node pos="r" depth="2" NCoef="0" IVar="-1" Cut="0.0000000000000000e+00" cType="1" res="1.6030437836889178e-04" rms="4.8450192809104919e-01" purity="5.8263421058654785e-01" nType="-99"/>
        </Node>
      </Node>
    </BinaryTree>
    <BinaryTree type="DecisionTree" boostWeight="1.0000000000000000e+00" itree="317">
      <Node pos="s" depth="0" NCoef="0" IVar="5" Cut="3.7412484741210938e+02" cType="1" res="1.7519261687994003e-02" rms="4.7283864021301270e-01" purity="4.9037134647369385e-01" nType="0">
        <Node pos="l" depth="1" NCoef="0" IVar="3" Cut="4.3940258026123047e-01" cType="1" res="-9.6917591989040375e-02" rms="4.4285395741462708e-01" purity="3.0593141913414001e-01" nType="0">
          <Node pos="l" depth="2" NCoef="0" IVar="-1" Cut="0.0000000000000000e+00" cType="1" res="-1.2480200966820121e-03" rms="4.1762363910675049e-01" purity="2.3857629299163818e-01" nType="-99"/>
          <Node pos="r" depth="2" NCoef="0" IVar="-1" Cut="0.0000000000000000e+00" cType="1" res="7.4061455961782485e-05" rms="4.9627014994621277e-01" purity="5.1530021429061890e-01" nType="-99"/>
        </Node>
        <Node pos="r" depth="1" NCoef="0" IVar="4" Cut="6.8834364414215088e-01" cType="1" res="6.7669391632080078e-02" rms="4.7681736946105957e-01" purity="5.7119917869567871e-01" nType="0">
          <Node pos="l" depth="2" NCoef="0" IVar="-1" Cut="0.0000000000000000e+00" cType="1" res="6.0654047410935163e-04" rms="4.2579847574234009e-01" purity="7.4003082513809204e-01" nType="-99"/>
          <Node pos="r" depth="2" NCoef="0" IVar="-1" Cut="0.0000000000000000e+00" cType="1" res="1.4705063949804753e-04" rms="4.8176082968711853e-01" purity="5.3408527374267578e-01" nType="-99"/>
        </Node>
      </Node>
    </BinaryTree>
    <BinaryTree type="DecisionTree" boostWeight="1.0000000000000000e+00" itree="318">
      <Node pos="s" depth="0" NCoef="0" IVar="3" Cut="4.0002232789993286e-01" cType="1" res="3.0893513932824135e-02" rms="4.7261658310890198e-01" purity="5.0526064634323120e-01" nType="0">
        <Node pos="l" depth="1" NCoef="0" IVar="1" Cut="8.2848531007766724e-01" cType="1" res="-1.8007287755608559e-02" rms="4.7240072488784790e-01" purity="4.2090305685997009e-01" nType="0">
          <Node pos="l" depth="2" NCoef="0" IVar="-1" Cut="0.0000000000000000e+00" cType="1" res="-5.2035774569958448e-04" rms="4.5962330698966980e-01" purity="3.5071539878845215e-01" nType="-99"/>
          <Node pos="r" depth="2" NCoef="0" IVar="-1" Cut="0.0000000000000000e+00" cType="1" res="2.0342977950349450e-04" rms="4.7573393583297729e-01" purity="4.8965147137641907e-01" nType="-99"/>
        </Node>
        <Node pos="r" depth="1" NCoef="0" IVar="5" Cut="4.4212222290039062e+02" cType="1" res="1.3247095048427582e-01" rms="4.5662349462509155e-01" purity="6.8048948049545288e-01" nType="0">
          <Node pos="l" depth="2" NCoef="0" IVar="-1" Cut="0.0000000000000000e+00" cType="1" res="1.9956962205469608e-04" rms="4.8921447992324829e-01" purity="5.6679594516754150e-01" nType="-99"/>
          <Node pos="r" depth="2" NCoef="0" IVar="-1" Cut="0.0000000000000000e+00" cType="1" res="5.6326098274439573e-04" rms="4.1287493705749512e-01" purity="7.8044980764389038e-01" nType="-99"/>
        </Node>
      </Node>
    </BinaryTree>
    <BinaryTree type="DecisionTree" boostWeight="1.0000000000000000e+00" itree="319">
      <Node pos="s" depth="0" NCoef="0" IVar="5" Cut="3.2578851318359375e+02" cType="1" res="2.9779817909002304e-02" rms="4.7367042303085327e-01" purity="5.0254142284393311e-01" nType="0">
        <Node pos="l" depth="1" NCoef="0" IVar="6" Cut="1.1228787231445312e+02" cType="1" res="-1.1867050826549530e-01" rms="4.3278676271438599e-01" purity="2.6809006929397583e-01" nType="0">
          <Node pos="l" depth="2" NCoef="0" IVar="-1" Cut="0.0000000000000000e+00" cType="1" res="-5.6997995125129819e-04" rms="4.4729796051979065e-01" purity="3.0901464819908142e-01" nType="-99"/>
          <Node pos="r" depth="2" NCoef="0" IVar="-1" Cut="0.0000000000000000e+00" cType="1" res="-1.9386810017749667e-03" rms="4.0253177285194397e-01" purity="2.0452105998992920e-01" nType="-99"/>
        </Node>
        <Node pos="r" depth="1" NCoef="0" IVar="3" Cut="2.1930618584156036e-01" cType="1" res="6.2037400901317596e-02" rms="4.7601184248924255e-01" purity="5.5348658561706543e-01" nType="0">
          <Node pos="l" depth="2" NCoef="0" IVar="-1" Cut="0.0000000000000000e+00" cType="1" res="-4.1388021782040596e-04" rms="4.6708548069000244e-01" purity="3.3818823099136353e-01" nType="-99"/>
          <Node pos="r" depth="2" NCoef="0" IVar="-1" Cut="0.0000000000000000e+00" cType="1" res="3.4552166471257806e-04" rms="4.7220769524574280e-01" purity="6.1485046148300171e-01" nType="-99"/>
        </Node>
      </Node>
    </BinaryTree>
    <BinaryTree type="DecisionTree" boostWeight="1.0000000000000000e+00" itree="320">
      <Node pos="s" depth="0" NCoef="0" IVar="5" Cut="4.1522286987304688e+02" cType="1" res="2.7452124282717705e-02" rms="4.7344979643821716e-01" purity="5.0101393461227417e-01" nType="0">
        <Node pos="l" depth="1" NCoef="0" IVar="6" Cut="1.5024523925781250e+02" cType="1" res="-5.1163394004106522e-02" rms="4.6020784974098206e-01" purity="3.6547288298606873e-01" nType="0">
          <Node pos="l" depth="2" NCoef="0" IVar="-1" Cut="0.0000000000000000e+00" cType="1" res="-3.6205296055413783e-05" rms="4.6898224949836731e-01" purity="4.1102918982505798e-01" nType="-99"/>
          <Node pos="r" depth="2" NCoef="0" IVar="-1" Cut="0.0000000000000000e+00" cType="1" res="-1.7124869627878070e-03" rms="4.0570792555809021e-01" purity="2.3082080483436584e-01" nType="-99"/>
        </Node>
        <Node pos="r" depth="1" NCoef="0" IVar="3" Cut="2.8853642940521240e-01" cType="1" res="8.3461403846740723e-02" rms="4.7478708624839783e-01" purity="5.9757959842681885e-01" nType="0">
          <Node pos="l" depth="2" NCoef="0" IVar="-1" Cut="0.0000000000000000e+00" cType="1" res="1.3759155081061181e-05" rms="4.9049285054206848e-01" purity="4.5182842016220093e-01" nType="-99"/>
          <Node pos="r" depth="2" NCoef="0" IVar="-1" Cut="0.0000000000000000e+00" cType="1" res="4.2036344530060887e-04" rms="4.5710876584053040e-01" purity="6.9071966409683228e-01" nType="-99"/>
        </Node>
      </Node>
    </BinaryTree>
    <BinaryTree type="DecisionTree" boostWeight="1.0000000000000000e+00" itree="321">
      <Node pos="s" depth="0" NCoef="0" IVar="4" Cut="9.6212416887283325e-01" cType="1" res="1.9463606178760529e-02" rms="4.7148516774177551e-01" purity="4.9376857280731201e-01" nType="0">
        <Node pos="l" depth="1" NCoef="0" IVar="3" Cut="3.7635764479637146e-01" cType="1" res="9.2951200902462006e-02" rms="4.6571043133735657e-01" purity="5.7714188098907471e-01" nType="0">
          <Node pos="l" depth="2" NCoef="0" IVar="-1" Cut="0.0000000000000000e+00" cType="1" res="1.4817384362686425e-04" rms="4.7822314500808716e-01" purity="4.7514963150024414e-01" nType="-99"/>
          <Node pos="r" depth="2" NCoef="0" IVar="-1" Cut="0.0000000000000000e+00" cType="1" res="5.4663047194480896e-04" rms="4.2743763327598572e-01" purity="7.4248069524765015e-01" nType="-99"/>
        </Node>
        <Node pos="r" depth="1" NCoef="0" IVar="1" Cut="8.5488200187683105e-01" cType="1" res="-6.5180078148841858e-02" rms="4.6383953094482422e-01" purity="3.9773836731910706e-01" nType="0">
          <Node pos="l" depth="2" NCoef="0" IVar="-1" Cut="0.0000000000000000e+00" cType="1" res="-1.0301618603989482e-03" rms="4.3906053900718689e-01" purity="3.1014543771743774e-01" nType="-99"/>
          <Node pos="r" depth="2" NCoef="0" IVar="-1" Cut="0.0000000000000000e+00" cType="1" res="3.4642234822968021e-05" rms="4.7275534272193909e-01" purity="4.7471830248832703e-01" nType="-99"/>
        </Node>
      </Node>
    </BinaryTree>
    <BinaryTree type="DecisionTree" boostWeight="1.0000000000000000e+00" itree="322">
      <Node pos="s" depth="0" NCoef="0" IVar="4" Cut="7.6263648271560669e-01" cType="1" res="3.1605254858732224e-02" rms="4.7307780385017395e-01" purity="5.0542253255844116e-01" nType="0">
        <Node pos="l" depth="1" NCoef="0" IVar="3" Cut="2.4367642402648926e-01" cType="1" res="1.5865071117877960e-01" rms="4.5471072196960449e-01" purity="6.5803653001785278e-01" nType="0">
          <Node pos="l" depth="2" NCoef="0" IVar="-1" Cut="0.0000000000000000e+00" cType="1" res="2.8959047631360590e-04" rms="4.8707929253578186e-01" purity="4.9674373865127563e-01" nType="-99"/>
          <Node pos="r" depth="2" NCoef="0" IVar="-1" Cut="0.0000000000000000e+00" cType="1" res="5.7652388932183385e-04" rms="4.3734210729598999e-01" purity="7.1789908409118652e-01" nType="-99"/>
        </Node>
        <Node pos="r" depth="1" NCoef="0" IVar="7" Cut="1.6222233581542969e+02" cType="1" res="-1.0254571214318275e-02" rms="4.7153684496879578e-01" purity="4.5513817667961121e-01" nType="0">
          <Node pos="l" depth="2" NCoef="0" IVar="-1" Cut="0.0000000000000000e+00" cType="1" res="-3.3105941838584840e-04" rms="4.6213468909263611e-01" purity="3.8825604319572449e-01" nType="-99"/>
          <Node pos="r" depth="2" NCoef="0" IVar="-1" Cut="0.0000000000000000e+00" cType="1" res="3.7324498407542706e-04" rms="4.7268804907798767e-01" purity="6.2097102403640747e-01" nType="-99"/>
        </Node>
      </Node>
    </BinaryTree>
    <BinaryTree type="DecisionTree" boostWeight="1.0000000000000000e+00" itree="323">
      <Node pos="s" depth="0" NCoef="0" IVar="3" Cut="2.2223463654518127e-01" cType="1" res="3.2388016581535339e-02" rms="4.7231474518775940e-01" purity="5.0652432441711426e-01" nType="0">
        <Node pos="l" depth="1" NCoef="0" IVar="7" Cut="1.5060774230957031e+02" cType="1" res="-1.0264080017805099e-01" rms="4.3712946772575378e-01" purity="2.8226134181022644e-01" nType="0">
          <Node pos="l" depth="2" NCoef="0" IVar="-1" Cut="0.0000000000000000e+00" cType="1" res="-1.6213376075029373e-03" rms="4.0094307065010071e-01" purity="2.1021495759487152e-01" nType="-99"/>
          <Node pos="r" depth="2" NCoef="0" IVar="-1" Cut="0.0000000000000000e+00" cType="1" res="5.2570917432603892e-06" rms="4.9099969863891602e-01" purity="4.3840947747230530e-01" nType="-99"/>
        </Node>
        <Node pos="r" depth="1" NCoef="0" IVar="5" Cut="2.9093438720703125e+02" cType="1" res="7.3505587875843048e-02" rms="4.7495529055595398e-01" purity="5.7481455802917480e-01" nType="0">
          <Node pos="l" depth="2" NCoef="0" IVar="-1" Cut="0.0000000000000000e+00" cType="1" res="-1.0334815597161651e-03" rms="4.3918389081954956e-01" purity="2.7828255295753479e-01" nType="-99"/>
          <Node pos="r" depth="2" NCoef="0" IVar="-1" Cut="0.0000000000000000e+00" cType="1" res="3.3916888060048223e-04" rms="4.7313112020492554e-01" purity="6.0432893037796021e-01" nType="-99"/>
        </Node>
      </Node>
    </BinaryTree>
    <BinaryTree type="DecisionTree" boostWeight="1.0000000000000000e+00" itree="324">
      <Node pos="s" depth="0" NCoef="0" IVar="5" Cut="2.9511611938476562e+02" cType="1" res="2.4579063057899475e-02" rms="4.7391730546951294e-01" purity="4.9591773748397827e-01" nType="0">
        <Node pos="l" depth="1" NCoef="0" IVar="5" Cut="2.6506118774414062e+02" cType="1" res="-1.7508949339389801e-01" rms="3.9353355765342712e-01" purity="2.0657896995544434e-01" nType="0">
          <Node pos="l" depth="2" NCoef="0" IVar="-1" Cut="0.0000000000000000e+00" cType="1" res="-2.5074724107980728e-03" rms="3.6912262439727783e-01" purity="1.7491416633129120e-01" nType="-99"/>
          <Node pos="r" depth="2" NCoef="0" IVar="-1" Cut="0.0000000000000000e+00" cType="1" res="-1.2622557114809752e-03" rms="4.1370648145675659e-01" purity="2.3744142055511475e-01" nType="-99"/>
        </Node>
        <Node pos="r" depth="1" NCoef="0" IVar="4" Cut="9.3792855739593506e-01" cType="1" res="4.8021618276834488e-02" rms="4.7702622413635254e-01" purity="5.2988827228546143e-01" nType="0">
          <Node pos="l" depth="2" NCoef="0" IVar="-1" Cut="0.0000000000000000e+00" cType="1" res="4.1135726496577263e-04" rms="4.6585023403167725e-01" purity="6.0859417915344238e-01" nType="-99"/>
          <Node pos="r" depth="2" NCoef="0" IVar="-1" Cut="0.0000000000000000e+00" cType="1" res="-9.5356495876330882e-05" rms="4.7833666205406189e-01" purity="4.5134851336479187e-01" nType="-99"/>
        </Node>
      </Node>
    </BinaryTree>
    <BinaryTree type="DecisionTree" boostWeight="1.0000000000000000e+00" itree="325">
      <Node pos="s" depth="0" NCoef="0" IVar="5" Cut="3.5377038574218750e+02" cType="1" res="3.4689623862504959e-02" rms="4.7102269530296326e-01" purity="5.1028352975845337e-01" nType="0">
        <Node pos="l" depth="1" NCoef="0" IVar="3" Cut="4.4087114930152893e-01" cType="1" res="-9.9614031612873077e-02" rms="4.3737423419952393e-01" purity="2.9915499687194824e-01" nType="0">
          <Node pos="l" depth="2" NCoef="0" IVar="-1" Cut="0.0000000000000000e+00" cType="1" res="-1.5603594947606325e-03" rms="4.0422075986862183e-01" purity="2.1663898229598999e-01" nType="-99"/>
          <Node pos="r" depth="2" NCoef="0" IVar="-1" Cut="0.0000000000000000e+00" cType="1" res="1.7791283607948571e-04" rms="4.9392461776733398e-01" purity="5.3757834434509277e-01" nType="-99"/>
        </Node>
        <Node pos="r" depth="1" NCoef="0" IVar="4" Cut="7.1320462226867676e-01" cType="1" res="7.8341685235500336e-02" rms="4.7331702709197998e-01" purity="5.7890564203262329e-01" nType="0">
          <Node pos="l" depth="2" NCoef="0" IVar="-1" Cut="0.0000000000000000e+00" cType="1" res="6.2273861840367317e-04" rms="4.2746019363403320e-01" purity="7.3951297998428345e-01" nType="-99"/>
          <Node pos="r" depth="2" NCoef="0" IVar="-1" Cut="0.0000000000000000e+00" cType="1" res="1.6488751862198114e-04" rms="4.7809913754463196e-01" purity="5.3594207763671875e-01" nType="-99"/>
        </Node>
      </Node>
    </BinaryTree>
    <BinaryTree type="DecisionTree" boostWeight="1.0000000000000000e+00" itree="326">
      <Node pos="s" depth="0" NCoef="0" IVar="4" Cut="7.5436902046203613e-01" cType="1" res="1.6844332218170166e-02" rms="4.7083562612533569e-01" purity="4.9076598882675171e-01" nType="0">
        <Node pos="l" depth="1" NCoef="0" IVar="3" Cut="3.3208027482032776e-01" cType="1" res="1.5817561745643616e-01" rms="4.5214459300041199e-01" purity="6.5997493267059326e-01" nType="0">
          <Node pos="l" depth="2" NCoef="0" IVar="-1" Cut="0.0000000000000000e+00" cType="1" res="3.8377940654754639e-04" rms="4.8041343688964844e-01" purity="5.5407798290252686e-01" nType="-99"/>
          <Node pos="r" depth="2" NCoef="0" IVar="-1" Cut="0.0000000000000000e+00" cType="1" res="6.1862193979322910e-04" rms="4.1207423806190491e-01" purity="7.7007627487182617e-01" nType="-99"/>
        </Node>
        <Node pos="r" depth="1" NCoef="0" IVar="3" Cut="4.2170709371566772e-01" cType="1" res="-2.8859149664640427e-02" rms="4.6767166256904602e-01" purity="4.3604749441146851e-01" nType="0">
          <Node pos="l" depth="2" NCoef="0" IVar="-1" Cut="0.0000000000000000e+00" cType="1" res="-4.7967128921300173e-04" rms="4.5700848102569580e-01" purity="3.5279250144958496e-01" nType="-99"/>
          <Node pos="r" depth="2" NCoef="0" IVar="-1" Cut="0.0000000000000000e+00" cType="1" res="3.3590261591598392e-04" rms="4.6961003541946411e-01" purity="6.4314794540405273e-01" nType="-99"/>
        </Node>
      </Node>
    </BinaryTree>
    <BinaryTree type="DecisionTree" boostWeight="1.0000000000000000e+00" itree="327">
      <Node pos="s" depth="0" NCoef="0" IVar="4" Cut="7.0642042160034180e-01" cType="1" res="3.8031768053770065e-02" rms="4.7286066412925720e-01" purity="5.1159191131591797e-01" nType="0">
        <Node pos="l" depth="1" NCoef="0" IVar="5" Cut="4.5051446533203125e+02" cType="1" res="1.9168701767921448e-01" rms="4.3653818964958191e-01" purity="7.0208966732025146e-01" nType="0">
          <Node pos="l" depth="2" NCoef="0" IVar="-1" Cut="0.0000000000000000e+00" cType="1" res="4.4434019946493208e-04" rms="4.6986007690429688e-01" purity="5.8201980590820312e-01" nType="-99"/>
          <Node pos="r" depth="2" NCoef="0" IVar="-1" Cut="0.0000000000000000e+00" cType="1" res="6.4553268020972610e-04" rms="4.0651655197143555e-01" purity="7.7981388568878174e-01" nType="-99"/>
        </Node>
        <Node pos="r" depth="1" NCoef="0" IVar="3" Cut="4.6669271588325500e-01" cType="1" res="3.8382646162062883e-03" rms="4.7384032607078552e-01" purity="4.6919968724250793e-01" nType="0">
          <Node pos="l" depth="2" NCoef="0" IVar="-1" Cut="0.0000000000000000e+00" cType="1" res="-1.4933368947822601e-04" rms="4.7174140810966492e-01" purity="4.1699540615081787e-01" nType="-99"/>
          <Node pos="r" depth="2" NCoef="0" IVar="-1" Cut="0.0000000000000000e+00" cType="1" res="4.5117159606888890e-04" rms="4.5805558562278748e-01" purity="6.8337571620941162e-01" nType="-99"/>
        </Node>
      </Node>
    </BinaryTree>
    <BinaryTree type="DecisionTree" boostWeight="1.0000000000000000e+00" itree="328">
      <Node pos="s" depth="0" NCoef="0" IVar="5" Cut="4.4576040649414062e+02" cType="1" res="2.4911340326070786e-02" rms="4.7093874216079712e-01" purity="4.9919173121452332e-01" nType="0">
        <Node pos="l" depth="1" NCoef="0" IVar="3" Cut="4.6669271588325500e-01" cType="1" res="-4.9206323921680450e-02" rms="4.5860522985458374e-01" purity="3.7733840942382812e-01" nType="0">
          <Node pos="l" depth="2" NCoef="0" IVar="-1" Cut="0.0000000000000000e+00" cType="1" res="-6.3986727036535740e-04" rms="4.4485586881637573e-01" purity="3.1110930442810059e-01" nType="-99"/>
          <Node pos="r" depth="2" NCoef="0" IVar="-1" Cut="0.0000000000000000e+00" cType="1" res="3.8200241397134960e-04" rms="4.7572022676467896e-01" purity="6.2954145669937134e-01" nType="-99"/>
        </Node>
        <Node pos="r" depth="1" NCoef="0" IVar="3" Cut="2.6530340313911438e-01" cType="1" res="9.5189347863197327e-02" rms="4.7170546650886536e-01" purity="6.1473244428634644e-01" nType="0">
          <Node pos="l" depth="2" NCoef="0" IVar="-1" Cut="0.0000000000000000e+00" cType="1" res="-6.6146749304607511e-05" rms="4.9036005139350891e-01" purity="4.3600168824195862e-01" nType="-99"/>
          <Node pos="r" depth="2" NCoef="0" IVar="-1" Cut="0.0000000000000000e+00" cType="1" res="4.4378693564794958e-04" rms="4.5395585894584656e-01" purity="6.9758784770965576e-01" nType="-99"/>
        </Node>
      </Node>
    </BinaryTree>
    <BinaryTree type="DecisionTree" boostWeight="1.0000000000000000e+00" itree="329">
      <Node pos="s" depth="0" NCoef="0" IVar="3" Cut="4.1979673504829407e-01" cType="1" res="2.1408794447779655e-02" rms="4.7238460183143616e-01" purity="4.9455887079238892e-01" nType="0">
        <Node pos="l" depth="1" NCoef="0" IVar="7" Cut="1.6702061462402344e+02" cType="1" res="-2.3212170228362083e-02" rms="4.7175157070159912e-01" purity="4.1933509707450867e-01" nType="0">
          <Node pos="l" depth="2" NCoef="0" IVar="-1" Cut="0.0000000000000000e+00" cType="1" res="-3.4820317523553967e-04" rms="4.6300700306892395e-01" purity="3.6492455005645752e-01" nType="-99"/>
          <Node pos="r" depth="2" NCoef="0" IVar="-1" Cut="0.0000000000000000e+00" cType="1" res="3.0801797402091324e-04" rms="4.8102560639381409e-01" purity="5.8194136619567871e-01" nType="-99"/>
        </Node>
        <Node pos="r" depth="1" NCoef="0" IVar="5" Cut="3.7965078735351562e+02" cType="1" res="1.3283053040504456e-01" rms="4.5525059103965759e-01" purity="6.8239802122116089e-01" nType="0">
          <Node pos="l" depth="2" NCoef="0" IVar="-1" Cut="0.0000000000000000e+00" cType="1" res="5.0713639211608097e-05" rms="4.9502855539321899e-01" purity="5.1022469997406006e-01" nType="-99"/>
          <Node pos="r" depth="2" NCoef="0" IVar="-1" Cut="0.0000000000000000e+00" cType="1" res="5.3935777395963669e-04" rms="4.2457902431488037e-01" purity="7.6090854406356812e-01" nType="-99"/>
        </Node>
      </Node>
    </BinaryTree>
    <BinaryTree type="DecisionTree" boostWeight="1.0000000000000000e+00" itree="330">
      <Node pos="s" depth="0" NCoef="0" IVar="4" Cut="7.7968031167984009e-01" cType="1" res="2.6293946430087090e-02" rms="4.7145000100135803e-01" purity="5.0011378526687622e-01" nType="0">
        <Node pos="l" depth="1" NCoef="0" IVar="3" Cut="2.8245672583580017e-01" cType="1" res="1.4845798909664154e-01" rms="4.5652335882186890e-01" purity="6.4635431766510010e-01" nType="0">
          <Node pos="l" depth="2" NCoef="0" IVar="-1" Cut="0.0000000000000000e+00" cType="1" res="2.5379555881954730e-04" rms="4.8909562826156616e-01" purity="4.8561763763427734e-01" nType="-99"/>
          <Node pos="r" depth="2" NCoef="0" IVar="-1" Cut="0.0000000000000000e+00" cType="1" res="5.7972100330516696e-04" rms="4.2853665351867676e-01" purity="7.3745614290237427e-01" nType="-99"/>
        </Node>
        <Node pos="r" depth="1" NCoef="0" IVar="3" Cut="4.2170709371566772e-01" cType="1" res="-1.8845288082957268e-02" rms="4.6886163949966431e-01" purity="4.4607830047607422e-01" nType="0">
          <Node pos="l" depth="2" NCoef="0" IVar="-1" Cut="0.0000000000000000e+00" cType="1" res="-3.8941562524996698e-04" rms="4.6037477254867554e-01" purity="3.6541730165481567e-01" nType="-99"/>
          <Node pos="r" depth="2" NCoef="0" IVar="-1" Cut="0.0000000000000000e+00" cType="1" res="3.3695029560476542e-04" rms="4.6847054362297058e-01" purity="6.4591056108474731e-01" nType="-99"/>
        </Node>
      </Node>
    </BinaryTree>
    <BinaryTree type="DecisionTree" boostWeight="1.0000000000000000e+00" itree="331">
      <Node pos="s" depth="0" NCoef="0" IVar="5" Cut="4.6417013549804688e+02" cType="1" res="1.6591617837548256e-02" rms="4.7040939331054688e-01" purity="4.9038812518119812e-01" nType="0">
        <Node pos="l" depth="1" NCoef="0" IVar="3" Cut="3.7779888510704041e-01" cType="1" res="-5.2512891590595245e-02" rms="4.5792290568351746e-01" purity="3.7911650538444519e-01" nType="0">
          <Node pos="l" depth="2" NCoef="0" IVar="-1" Cut="0.0000000000000000e+00" cType="1" res="-1.0137564968317747e-03" rms="4.2667493224143982e-01" purity="2.6101008057594299e-01" nType="-99"/>
          <Node pos="r" depth="2" NCoef="0" IVar="-1" Cut="0.0000000000000000e+00" cType="1" res="1.9858630548696965e-04" rms="4.8688155412673950e-01" purity="5.7072520256042480e-01" nType="-99"/>
        </Node>
        <Node pos="r" depth="1" NCoef="0" IVar="3" Cut="2.8915214538574219e-01" cType="1" res="9.4129249453544617e-02" rms="4.7214496135711670e-01" purity="6.1523878574371338e-01" nType="0">
          <Node pos="l" depth="2" NCoef="0" IVar="-1" Cut="0.0000000000000000e+00" cType="1" res="2.7185140424990095e-05" rms="4.9326920509338379e-01" purity="4.6515074372291565e-01" nType="-99"/>
          <Node pos="r" depth="2" NCoef="0" IVar="-1" Cut="0.0000000000000000e+00" cType="1" res="4.4912871089763939e-04" rms="4.4957670569419861e-01" purity="7.0972263813018799e-01" nType="-99"/>
        </Node>
      </Node>
    </BinaryTree>
    <BinaryTree type="DecisionTree" boostWeight="1.0000000000000000e+00" itree="332">
      <Node pos="s" depth="0" NCoef="0" IVar="5" Cut="3.2493905639648438e+02" cType="1" res="2.5983162224292755e-02" rms="4.7128260135650635e-01" purity="4.9993965029716492e-01" nType="0">
        <Node pos="l" depth="1" NCoef="0" IVar="7" Cut="8.4805717468261719e+01" cType="1" res="-1.3145841658115387e-01" rms="4.2129158973693848e-01" purity="2.5514191389083862e-01" nType="0">
          <Node pos="l" depth="2" NCoef="0" IVar="-1" Cut="0.0000000000000000e+00" cType="1" res="-2.1961973980069160e-03" rms="3.8481029868125916e-01" purity="1.8903629481792450e-01" nType="-99"/>
          <Node pos="r" depth="2" NCoef="0" IVar="-1" Cut="0.0000000000000000e+00" cType="1" res="-4.9041304737329483e-04" rms="4.4716936349868774e-01" purity="3.2216602563858032e-01" nType="-99"/>
        </Node>
        <Node pos="r" depth="1" NCoef="0" IVar="3" Cut="3.5320341587066650e-01" cType="1" res="5.9022381901741028e-02" rms="4.7452884912490845e-01" purity="5.5131059885025024e-01" nType="0">
          <Node pos="l" depth="2" NCoef="0" IVar="-1" Cut="0.0000000000000000e+00" cType="1" res="-4.6183708036551252e-05" rms="4.8117190599441528e-01" purity="4.2890551686286926e-01" nType="-99"/>
          <Node pos="r" depth="2" NCoef="0" IVar="-1" Cut="0.0000000000000000e+00" cType="1" res="4.4122990220785141e-04" rms="4.5237565040588379e-01" purity="7.0173472166061401e-01" nType="-99"/>
        </Node>
      </Node>
    </BinaryTree>
    <BinaryTree type="DecisionTree" boostWeight="1.0000000000000000e+00" itree="333">
      <Node pos="s" depth="0" NCoef="0" IVar="5" Cut="4.4161532592773438e+02" cType="1" res="3.1268864870071411e-02" rms="4.7161954641342163e-01" purity="5.0526517629623413e-01" nType="0">
        <Node pos="l" depth="1" NCoef="0" IVar="3" Cut="4.6669271588325500e-01" cType="1" res="-4.3374437838792801e-02" rms="4.6168738603591919e-01" purity="3.7970182299613953e-01" nType="0">
          <Node pos="l" depth="2" NCoef="0" IVar="-1" Cut="0.0000000000000000e+00" cType="1" res="-5.5213872110471129e-04" rms="4.5018047094345093e-01" purity="3.1893515586853027e-01" nType="-99"/>
          <Node pos="r" depth="2" NCoef="0" IVar="-1" Cut="0.0000000000000000e+00" cType="1" res="3.5346014192327857e-04" rms="4.7847509384155273e-01" purity="6.1971187591552734e-01" nType="-99"/>
        </Node>
        <Node pos="r" depth="1" NCoef="0" IVar="4" Cut="7.7332377433776855e-01" cType="1" res="9.8395816981792450e-02" rms="4.7036656737327576e-01" purity="6.1818468570709229e-01" nType="0">
          <Node pos="l" depth="2" NCoef="0" IVar="-1" Cut="0.0000000000000000e+00" cType="1" res="5.9437955496832728e-04" rms="4.2524981498718262e-01" purity="7.4388045072555542e-01" nType="-99"/>
          <Node pos="r" depth="2" NCoef="0" IVar="-1" Cut="0.0000000000000000e+00" cType="1" res="1.9958829216193408e-04" rms="4.8120179772377014e-01" purity="5.6445729732513428e-01" nType="-99"/>
        </Node>
      </Node>
    </BinaryTree>
    <BinaryTree type="DecisionTree" boostWeight="1.0000000000000000e+00" itree="334">
      <Node pos="s" depth="0" NCoef="0" IVar="5" Cut="3.0015261840820312e+02" cType="1" res="3.3357430249452591e-02" rms="4.7148489952087402e-01" purity="5.0724256038665771e-01" nType="0">
        <Node pos="l" depth="1" NCoef="0" IVar="2" Cut="3.7124744415283203e+01" cType="1" res="-1.8228375911712646e-01" rms="3.8356560468673706e-01" purity="1.9807478785514832e-01" nType="0">
          <Node pos="l" depth="2" NCoef="0" IVar="-1" Cut="0.0000000000000000e+00" cType="1" res="-3.3559452276676893e-03" rms="3.4687435626983643e-01" purity="1.4948126673698425e-01" nType="-99"/>
          <Node pos="r" depth="2" NCoef="0" IVar="-1" Cut="0.0000000000000000e+00" cType="1" res="-1.3784721959382296e-03" rms="4.0870371460914612e-01" purity="2.3951789736747742e-01" nType="-99"/>
        </Node>
        <Node pos="r" depth="1" NCoef="0" IVar="3" Cut="1.9916993379592896e-01" cType="1" res="6.0045707970857620e-02" rms="4.7448346018791199e-01" purity="5.4550588130950928e-01" nType="0">
          <Node pos="l" depth="2" NCoef="0" IVar="-1" Cut="0.0000000000000000e+00" cType="1" res="-6.1537849251180887e-04" rms="4.5182353258132935e-01" purity="3.0859333276748657e-01" nType="-99"/>
          <Node pos="r" depth="2" NCoef="0" IVar="-1" Cut="0.0000000000000000e+00" cType="1" res="3.3155511482618749e-04" rms="4.7329339385032654e-01" purity="5.9733027219772339e-01" nType="-99"/>
        </Node>
      </Node>
    </BinaryTree>
    <BinaryTree type="DecisionTree" boostWeight="1.0000000000000000e+00" itree="335">
      <Node pos="s" depth="0" NCoef="0" IVar="3" Cut="4.2260697484016418e-01" cType="1" res="2.7512406930327415e-02" rms="4.7078546881675720e-01" purity="5.0215744972229004e-01" nType="0">
        <Node pos="l" depth="1" NCoef="0" IVar="5" Cut="4.0320974731445312e+02" cType="1" res="-1.8974451348185539e-02" rms="4.7038328647613525e-01" purity="4.2598658800125122e-01" nType="0">
          <Node pos="l" depth="2" NCoef="0" IVar="-1" Cut="0.0000000000000000e+00" cType="1" res="-9.1437401715666056e-04" rms="4.2896446585655212e-01" purity="2.6335468888282776e-01" nType="-99"/>
          <Node pos="r" depth="2" NCoef="0" IVar="-1" Cut="0.0000000000000000e+00" cType="1" res="1.4595894026570022e-04" rms="4.8570063710212708e-01" purity="5.2559989690780640e-01" nType="-99"/>
        </Node>
        <Node pos="r" depth="1" NCoef="0" IVar="7" Cut="8.8886444091796875e+01" cType="1" res="1.4492785930633545e-01" rms="4.5094388723373413e-01" purity="6.9454807043075562e-01" nType="0">
          <Node pos="l" depth="2" NCoef="0" IVar="-1" Cut="0.0000000000000000e+00" cType="1" res="8.4540704847313464e-05" rms="4.8650357127189636e-01" purity="5.4632687568664551e-01" nType="-99"/>
          <Node pos="r" depth="2" NCoef="0" IVar="-1" Cut="0.0000000000000000e+00" cType="1" res="5.4112944053485990e-04" rms="4.3176889419555664e-01" purity="7.4147564172744751e-01" nType="-99"/>
        </Node>
      </Node>
    </BinaryTree>
    <BinaryTree type="DecisionTree" boostWeight="1.0000000000000000e+00" itree="336">
      <Node pos="s" depth="0" NCoef="0" IVar="3" Cut="3.5557541251182556e-01" cType="1" res="1.2740802019834518e-02" rms="4.6895441412925720e-01" purity="4.8785275220870972e-01" nType="0">
        <Node pos="l" depth="1" NCoef="0" IVar="4" Cut="9.2637896537780762e-01" cType="1" res="-5.9399470686912537e-02" rms="4.5899540185928345e-01" purity="3.5958859324455261e-01" nType="0">
          <Node pos="l" depth="2" NCoef="0" IVar="-1" Cut="0.0000000000000000e+00" cType="1" res="5.9605779824778438e-05" rms="4.7512030601501465e-01" purity="4.4843447208404541e-01" nType="-99"/>
          <Node pos="r" depth="2" NCoef="0" IVar="-1" Cut="0.0000000000000000e+00" cType="1" res="-9.4815291231498122e-04" rms="4.3327447772026062e-01" purity="2.7798527479171753e-01" nType="-99"/>
        </Node>
        <Node pos="r" depth="1" NCoef="0" IVar="4" Cut="1.0202422142028809e+00" cType="1" res="1.0370437800884247e-01" rms="4.6554756164550781e-01" purity="6.4958441257476807e-01" nType="0">
          <Node pos="l" depth="2" NCoef="0" IVar="-1" Cut="0.0000000000000000e+00" cType="1" res="5.0304527394473553e-04" rms="4.3878802657127380e-01" purity="7.1750825643539429e-01" nType="-99"/>
          <Node pos="r" depth="2" NCoef="0" IVar="-1" Cut="0.0000000000000000e+00" cType="1" res="1.9660190446302295e-05" rms="4.8898339271545410e-01" purity="5.4209452867507935e-01" nType="-99"/>
        </Node>
      </Node>
    </BinaryTree>
    <BinaryTree type="DecisionTree" boostWeight="1.0000000000000000e+00" itree="337">
      <Node pos="s" depth="0" NCoef="0" IVar="3" Cut="3.9926239848136902e-01" cType="1" res="2.4513056501746178e-02" rms="4.7206619381904602e-01" purity="4.9714601039886475e-01" nType="0">
        <Node pos="l" depth="1" NCoef="0" IVar="5" Cut="5.5013421630859375e+02" cType="1" res="-2.4352701380848885e-02" rms="4.7102382779121399e-01" purity="4.1075158119201660e-01" nType="0">
          <Node pos="l" depth="2" NCoef="0" IVar="-1" Cut="0.0000000000000000e+00" cType="1" res="-4.6637805644422770e-04" rms="4.5697590708732605e-01" purity="3.3195507526397705e-01" nType="-99"/>
          <Node pos="r" depth="2" NCoef="0" IVar="-1" Cut="0.0000000000000000e+00" cType="1" res="2.8219691012054682e-04" rms="4.8449066281318665e-01" purity="5.7951444387435913e-01" nType="-99"/>
        </Node>
        <Node pos="r" depth="1" NCoef="0" IVar="5" Cut="3.3372976684570312e+02" cType="1" res="1.2477072328329086e-01" rms="4.5816218852996826e-01" purity="6.7440098524093628e-01" nType="0">
          <Node pos="l" depth="2" NCoef="0" IVar="-1" Cut="0.0000000000000000e+00" cType="1" res="-2.0038694492541254e-04" rms="4.9309504032135010e-01" purity="4.4117474555969238e-01" nType="-99"/>
          <Node pos="r" depth="2" NCoef="0" IVar="-1" Cut="0.0000000000000000e+00" cType="1" res="4.8568253987468779e-04" rms="4.4086775183677673e-01" purity="7.2851258516311646e-01" nType="-99"/>
        </Node>
      </Node>
    </BinaryTree>
    <BinaryTree type="DecisionTree" boostWeight="1.0000000000000000e+00" itree="338">
      <Node pos="s" depth="0" NCoef="0" IVar="5" Cut="3.1098364257812500e+02" cType="1" res="2.8870752081274986e-02" rms="4.7176069021224976e-01" purity="5.0215864181518555e-01" nType="0">
        <Node pos="l" depth="1" NCoef="0" IVar="2" Cut="3.4265296936035156e+01" cType="1" res="-1.4643089473247528e-01" rms="4.1267958283424377e-01" purity="2.3165777325630188e-01" nType="0">
          <Node pos="l" depth="2" NCoef="0" IVar="-1" Cut="0.0000000000000000e+00" cType="1" res="-2.6753952261060476e-03" rms="3.7012600898742676e-01" purity="1.6814500093460083e-01" nType="-99"/>
          <Node pos="r" depth="2" NCoef="0" IVar="-1" Cut="0.0000000000000000e+00" cType="1" res="-8.8225828949362040e-04" rms="4.3355578184127808e-01" purity="2.7178487181663513e-01" nType="-99"/>
        </Node>
        <Node pos="r" depth="1" NCoef="0" IVar="3" Cut="2.6452270150184631e-01" cType="1" res="5.6877609342336655e-02" rms="4.7456544637680054e-01" purity="5.4537492990493774e-01" nType="0">
          <Node pos="l" depth="2" NCoef="0" IVar="-1" Cut="0.0000000000000000e+00" cType="1" res="-2.7742685051634908e-04" rms="4.6953043341636658e-01" purity="3.5951608419418335e-01" nType="-99"/>
          <Node pos="r" depth="2" NCoef="0" IVar="-1" Cut="0.0000000000000000e+00" cType="1" res="3.6468839971348643e-04" rms="4.6871399879455566e-01" purity="6.3723009824752808e-01" nType="-99"/>
        </Node>
      </Node>
    </BinaryTree>
    <BinaryTree type="DecisionTree" boostWeight="1.0000000000000000e+00" itree="339">
      <Node pos="s" depth="0" NCoef="0" IVar="3" Cut="2.6668027043342590e-01" cType="1" res="2.3442925885319710e-02" rms="4.7225844860076904e-01" purity="4.9666187167167664e-01" nType="0">
        <Node pos="l" depth="1" NCoef="0" IVar="7" Cut="1.6462013244628906e+02" cType="1" res="-7.1850024163722992e-02" rms="4.5101585984230042e-01" purity="3.1741961836814880e-01" nType="0">
          <Node pos="l" depth="2" NCoef="0" IVar="-1" Cut="0.0000000000000000e+00" cType="1" res="-8.9035794371739030e-04" rms="4.3017479777336121e-01" purity="2.6246809959411621e-01" nType="-99"/>
          <Node pos="r" depth="2" NCoef="0" IVar="-1" Cut="0.0000000000000000e+00" cType="1" res="1.3107449922244996e-04" rms="4.9380207061767578e-01" purity="4.7974517941474915e-01" nType="-99"/>
        </Node>
        <Node pos="r" depth="1" NCoef="0" IVar="4" Cut="7.3727059364318848e-01" cType="1" res="7.3171928524971008e-02" rms="4.7544845938682556e-01" purity="5.9020018577575684e-01" nType="0">
          <Node pos="l" depth="2" NCoef="0" IVar="-1" Cut="0.0000000000000000e+00" cType="1" res="5.9298780979588628e-04" rms="4.2785641551017761e-01" purity="7.3853534460067749e-01" nType="-99"/>
          <Node pos="r" depth="2" NCoef="0" IVar="-1" Cut="0.0000000000000000e+00" cType="1" res="1.3887594104744494e-04" rms="4.8193067312240601e-01" purity="5.4673111438751221e-01" nType="-99"/>
        </Node>
      </Node>
    </BinaryTree>
    <BinaryTree type="DecisionTree" boostWeight="1.0000000000000000e+00" itree="340">
      <Node pos="s" depth="0" NCoef="0" IVar="4" Cut="7.7332377433776855e-01" cType="1" res="3.2634042203426361e-02" rms="4.7094795107841492e-01" purity="5.0686234235763550e-01" nType="0">
        <Node pos="l" depth="1" NCoef="0" IVar="3" Cut="3.3228603005409241e-01" cType="1" res="1.5270602703094482e-01" rms="4.5092371106147766e-01" purity="6.5536099672317505e-01" nType="0">
          <Node pos="l" depth="2" NCoef="0" IVar="-1" Cut="0.0000000000000000e+00" cType="1" res="3.2162724528461695e-04" rms="4.8269778490066528e-01" purity="5.2797657251358032e-01" nType="-99"/>
          <Node pos="r" depth="2" NCoef="0" IVar="-1" Cut="0.0000000000000000e+00" cType="1" res="6.2891893321648240e-04" rms="4.0600454807281494e-01" purity="7.7725505828857422e-01" nType="-99"/>
        </Node>
        <Node pos="r" depth="1" NCoef="0" IVar="7" Cut="1.6427159118652344e+02" cType="1" res="-1.0903029702603817e-02" rms="4.7049152851104736e-01" purity="4.5301797986030579e-01" nType="0">
          <Node pos="l" depth="2" NCoef="0" IVar="-1" Cut="0.0000000000000000e+00" cType="1" res="-3.2938286312855780e-04" rms="4.6185940504074097e-01" purity="3.8583284616470337e-01" nType="-99"/>
          <Node pos="r" depth="2" NCoef="0" IVar="-1" Cut="0.0000000000000000e+00" cType="1" res="3.8254953688010573e-04" rms="4.7016933560371399e-01" purity="6.2383073568344116e-01" nType="-99"/>
        </Node>
      </Node>
    </BinaryTree>
    <BinaryTree type="DecisionTree" boostWeight="1.0000000000000000e+00" itree="341">
      <Node pos="s" depth="0" NCoef="0" IVar="5" Cut="3.0866448974609375e+02" cType="1" res="2.1103065460920334e-02" rms="4.7188934683799744e-01" purity="4.9329322576522827e-01" nType="0">
        <Node pos="l" depth="1" NCoef="0" IVar="1" Cut="8.4157639741897583e-01" cType="1" res="-1.6880594193935394e-01" rms="3.9571359753608704e-01" purity="2.0950540900230408e-01" nType="0">
          <Node pos="l" depth="2" NCoef="0" IVar="-1" Cut="0.0000000000000000e+00" cType="1" res="-2.8013433329761028e-03" rms="3.5190385580062866e-01" purity="1.5608263015747070e-01" nType="-99"/>
          <Node pos="r" depth="2" NCoef="0" IVar="-1" Cut="0.0000000000000000e+00" cType="1" res="-9.1061310376971960e-04" rms="4.3278998136520386e-01" purity="2.7070525288581848e-01" nType="-99"/>
        </Node>
        <Node pos="r" depth="1" NCoef="0" IVar="3" Cut="4.4277369976043701e-01" cType="1" res="5.0137519836425781e-02" rms="4.7584339976310730e-01" purity="5.3668040037155151e-01" nType="0">
          <Node pos="l" depth="2" NCoef="0" IVar="-1" Cut="0.0000000000000000e+00" cType="1" res="5.4255760915111750e-05" rms="4.8103505373001099e-01" purity="4.7507610917091370e-01" nType="-99"/>
          <Node pos="r" depth="2" NCoef="0" IVar="-1" Cut="0.0000000000000000e+00" cType="1" res="5.1592895761132240e-04" rms="4.3700489401817322e-01" purity="7.3408609628677368e-01" nType="-99"/>
        </Node>
      </Node>
    </BinaryTree>
    <BinaryTree type="DecisionTree" boostWeight="1.0000000000000000e+00" itree="342">
      <Node pos="s" depth="0" NCoef="0" IVar="5" Cut="4.5165258789062500e+02" cType="1" res="3.0697872862219810e-02" rms="4.7308546304702759e-01" purity="5.0208348035812378e-01" nType="0">
        <Node pos="l" depth="1" NCoef="0" IVar="6" Cut="1.7504739379882812e+02" cType="1" res="-3.3093243837356567e-02" rms="4.6780401468276978e-01" purity="3.8812598586082458e-01" nType="0">
          <Node pos="l" depth="2" NCoef="0" IVar="-1" Cut="0.0000000000000000e+00" cType="1" res="-1.0947078408207744e-05" rms="4.7235697507858276e-01" purity="4.1822320222854614e-01" nType="-99"/>
          <Node pos="r" depth="2" NCoef="0" IVar="-1" Cut="0.0000000000000000e+00" cType="1" res="-1.3868507230654359e-03" rms="4.2334002256393433e-01" purity="2.6033398509025574e-01" nType="-99"/>
        </Node>
        <Node pos="r" depth="1" NCoef="0" IVar="3" Cut="2.6634132862091064e-01" cType="1" res="9.5996789634227753e-02" rms="4.6953928470611572e-01" purity="6.1873459815979004e-01" nType="0">
          <Node pos="l" depth="2" NCoef="0" IVar="-1" Cut="0.0000000000000000e+00" cType="1" res="-9.8563177743926644e-05" rms="4.8986852169036865e-01" purity="4.3098130822181702e-01" nType="-99"/>
          <Node pos="r" depth="2" NCoef="0" IVar="-1" Cut="0.0000000000000000e+00" cType="1" res="4.5272539136931300e-04" rms="4.5016396045684814e-01" purity="7.0447021722793579e-01" nType="-99"/>
        </Node>
      </Node>
    </BinaryTree>
    <BinaryTree type="DecisionTree" boostWeight="1.0000000000000000e+00" itree="343">
      <Node pos="s" depth="0" NCoef="0" IVar="3" Cut="3.1078669428825378e-01" cType="1" res="2.9570804908871651e-02" rms="4.7261637449264526e-01" purity="5.0194603204727173e-01" nType="0">
        <Node pos="l" depth="1" NCoef="0" IVar="1" Cut="7.6307082176208496e-01" cType="1" res="-4.8473663628101349e-02" rms="4.6223151683807373e-01" purity="3.5196161270141602e-01" nType="0">
          <Node pos="l" depth="2" NCoef="0" IVar="-1" Cut="0.0000000000000000e+00" cType="1" res="-1.1015420313924551e-03" rms="4.2502614855766296e-01" purity="2.6237770915031433e-01" nType="-99"/>
          <Node pos="r" depth="2" NCoef="0" IVar="-1" Cut="0.0000000000000000e+00" cType="1" res="6.6584520936885383e-06" rms="4.7486731410026550e-01" purity="4.0264698863029480e-01" nType="-99"/>
        </Node>
        <Node pos="r" depth="1" NCoef="0" IVar="4" Cut="8.6649364233016968e-01" cType="1" res="9.2873893678188324e-02" rms="4.7147965431213379e-01" purity="6.2360072135925293e-01" nType="0">
          <Node pos="l" depth="2" NCoef="0" IVar="-1" Cut="0.0000000000000000e+00" cType="1" res="5.5620947387069464e-04" rms="4.3419072031974792e-01" purity="7.2557556629180908e-01" nType="-99"/>
          <Node pos="r" depth="2" NCoef="0" IVar="-1" Cut="0.0000000000000000e+00" cType="1" res="1.2155959848314524e-04" rms="4.8553162813186646e-01" purity="5.5466562509536743e-01" nType="-99"/>
        </Node>
      </Node>
    </BinaryTree>
    <BinaryTree type="DecisionTree" boostWeight="1.0000000000000000e+00" itree="344">
      <Node pos="s" depth="0" NCoef="0" IVar="3" Cut="2.8890362381935120e-01" cType="1" res="1.5433976426720619e-02" rms="4.7010001540184021e-01" purity="4.8919582366943359e-01" nType="0">
        <Node pos="l" depth="1" NCoef="0" IVar="4" Cut="7.5846195220947266e-01" cType="1" res="-7.6384387910366058e-02" rms="4.5014002919197083e-01" purity="3.1699350476264954e-01" nType="0">
          <Node pos="l" depth="2" NCoef="0" IVar="-1" Cut="0.0000000000000000e+00" cType="1" res="1.6598180809523910e-04" rms="4.8604553937911987e-01" purity="4.7163629531860352e-01" nType="-99"/>
          <Node pos="r" depth="2" NCoef="0" IVar="-1" Cut="0.0000000000000000e+00" cType="1" res="-8.7329745292663574e-04" rms="4.3421256542205811e-01" purity="2.7333337068557739e-01" nType="-99"/>
        </Node>
        <Node pos="r" depth="1" NCoef="0" IVar="5" Cut="4.0473803710937500e+02" cType="1" res="7.5103782117366791e-02" rms="4.7317174077033997e-01" purity="6.0110455751419067e-01" nType="0">
          <Node pos="l" depth="2" NCoef="0" IVar="-1" Cut="0.0000000000000000e+00" cType="1" res="-1.4950467448215932e-04" rms="4.8478743433952332e-01" purity="4.4018378853797913e-01" nType="-99"/>
          <Node pos="r" depth="2" NCoef="0" IVar="-1" Cut="0.0000000000000000e+00" cType="1" res="4.2282466893084347e-04" rms="4.5545628666877747e-01" purity="6.9317245483398438e-01" nType="-99"/>
        </Node>
      </Node>
    </BinaryTree>
    <BinaryTree type="DecisionTree" boostWeight="1.0000000000000000e+00" itree="345">
      <Node pos="s" depth="0" NCoef="0" IVar="5" Cut="4.7326678466796875e+02" cType="1" res="2.5820069015026093e-02" rms="4.7124955058097839e-01" purity="4.9886861443519592e-01" nType="0">
        <Node pos="l" depth="1" NCoef="0" IVar="3" Cut="5.1016861200332642e-01" cType="1" res="-3.8591716438531876e-02" rms="4.6366417407989502e-01" purity="3.9203488826751709e-01" nType="0">
          <Node pos="l" depth="2" NCoef="0" IVar="-1" Cut="0.0000000000000000e+00" cType="1" res="-4.3500165338627994e-04" rms="4.5678731799125671e-01" purity="3.4626147150993347e-01" nType="-99"/>
          <Node pos="r" depth="2" NCoef="0" IVar="-1" Cut="0.0000000000000000e+00" cType="1" res="4.6851453953422606e-04" rms="4.6378433704376221e-01" purity="6.6855740547180176e-01" nType="-99"/>
        </Node>
        <Node pos="r" depth="1" NCoef="0" IVar="3" Cut="3.3208027482032776e-01" cType="1" res="1.0308853536844254e-01" rms="4.6865329146385193e-01" purity="6.2702655792236328e-01" nType="0">
          <Node pos="l" depth="2" NCoef="0" IVar="-1" Cut="0.0000000000000000e+00" cType="1" res="1.2170981062809005e-04" rms="4.9363571405410767e-01" purity="5.0155848264694214e-01" nType="-99"/>
          <Node pos="r" depth="2" NCoef="0" IVar="-1" Cut="0.0000000000000000e+00" cType="1" res="4.9806799506768584e-04" rms="4.3131026625633240e-01" purity="7.4813324213027954e-01" nType="-99"/>
        </Node>
      </Node>
    </BinaryTree>
    <BinaryTree type="DecisionTree" boostWeight="1.0000000000000000e+00" itree="346">
      <Node pos="s" depth="0" NCoef="0" IVar="3" Cut="3.5512176156044006e-01" cType="1" res="2.5505190715193748e-02" rms="4.6997869014739990e-01" purity="4.9988648295402527e-01" nType="0">
        <Node pos="l" depth="1" NCoef="0" IVar="4" Cut="7.1004682779312134e-01" cType="1" res="-3.9374593645334244e-02" rms="4.6507480740547180e-01" purity="3.7809833884239197e-01" nType="0">
          <Node pos="l" depth="2" NCoef="0" IVar="-1" Cut="0.0000000000000000e+00" cType="1" res="3.7553405854851007e-04" rms="4.7787341475486755e-01" purity="5.7271665334701538e-01" nType="-99"/>
          <Node pos="r" depth="2" NCoef="0" IVar="-1" Cut="0.0000000000000000e+00" cType="1" res="-4.4262112351134419e-04" rms="4.5658484101295471e-01" purity="3.3623996376991272e-01" nType="-99"/>
        </Node>
        <Node pos="r" depth="1" NCoef="0" IVar="5" Cut="3.0809622192382812e+02" cType="1" res="1.0820680111646652e-01" rms="4.6316272020339966e-01" purity="6.5512859821319580e-01" nType="0">
          <Node pos="l" depth="2" NCoef="0" IVar="-1" Cut="0.0000000000000000e+00" cType="1" res="-6.0504878638312221e-04" rms="4.7784909605979919e-01" purity="3.6317276954650879e-01" nType="-99"/>
          <Node pos="r" depth="2" NCoef="0" IVar="-1" Cut="0.0000000000000000e+00" cType="1" res="4.2871959158219397e-04" rms="4.5329329371452332e-01" purity="6.9641917943954468e-01" nType="-99"/>
        </Node>
      </Node>
    </BinaryTree>
    <BinaryTree type="DecisionTree" boostWeight="1.0000000000000000e+00" itree="347">
      <Node pos="s" depth="0" NCoef="0" IVar="4" Cut="7.8661054372787476e-01" cType="1" res="2.8271019458770752e-02" rms="4.7210600972175598e-01" purity="5.0086140632629395e-01" nType="0">
        <Node pos="l" depth="1" NCoef="0" IVar="3" Cut="3.1013363599777222e-01" cType="1" res="1.3992635905742645e-01" rms="4.5466542243957520e-01" purity="6.4028549194335938e-01" nType="0">
          <Node pos="l" depth="2" NCoef="0" IVar="-1" Cut="0.0000000000000000e+00" cType="1" res="2.5681595434434712e-04" rms="4.8102328181266785e-01" purity="5.0153642892837524e-01" nType="-99"/>
          <Node pos="r" depth="2" NCoef="0" IVar="-1" Cut="0.0000000000000000e+00" cType="1" res="5.6730728829279542e-04" rms="4.2281502485275269e-01" purity="7.4857479333877563e-01" nType="-99"/>
        </Node>
        <Node pos="r" depth="1" NCoef="0" IVar="5" Cut="7.0829602050781250e+02" cType="1" res="-1.5468542464077473e-02" rms="4.7161319851875305e-01" purity="4.4624385237693787e-01" nType="0">
          <Node pos="l" depth="2" NCoef="0" IVar="-1" Cut="0.0000000000000000e+00" cType="1" res="-2.2315145179163665e-04" rms="4.6883395314216614e-01" purity="4.0839001536369324e-01" nType="-99"/>
          <Node pos="r" depth="2" NCoef="0" IVar="-1" Cut="0.0000000000000000e+00" cType="1" res="4.4011021964251995e-04" rms="4.5860862731933594e-01" purity="6.6624277830123901e-01" nType="-99"/>
        </Node>
      </Node>
    </BinaryTree>
    <BinaryTree type="DecisionTree" boostWeight="1.0000000000000000e+00" itree="348">
      <Node pos="s" depth="0" NCoef="0" IVar="3" Cut="4.2236644029617310e-01" cType="1" res="2.3018239066004753e-02" rms="4.7169795632362366e-01" purity="4.9580907821655273e-01" nType="0">
        <Node pos="l" depth="1" NCoef="0" IVar="5" Cut="3.9581933593750000e+02" cType="1" res="-2.2023586556315422e-02" rms="4.7081434726715088e-01" purity="4.2045059800148010e-01" nType="0">
          <Node pos="l" depth="2" NCoef="0" IVar="-1" Cut="0.0000000000000000e+00" cType="1" res="-1.0495963506400585e-03" rms="4.2206618189811707e-01" purity="2.4930176138877869e-01" nType="-99"/>
          <Node pos="r" depth="2" NCoef="0" IVar="-1" Cut="0.0000000000000000e+00" cType="1" res="1.3023425708524883e-04" rms="4.8774898052215576e-01" purity="5.1623272895812988e-01" nType="-99"/>
        </Node>
        <Node pos="r" depth="1" NCoef="0" IVar="4" Cut="8.7369418144226074e-01" cType="1" res="1.3699060678482056e-01" rms="4.5440405607223511e-01" purity="6.8649375438690186e-01" nType="0">
          <Node pos="l" depth="2" NCoef="0" IVar="-1" Cut="0.0000000000000000e+00" cType="1" res="6.2741903821006417e-04" rms="4.0579640865325928e-01" purity="7.8127264976501465e-01" nType="-99"/>
          <Node pos="r" depth="2" NCoef="0" IVar="-1" Cut="0.0000000000000000e+00" cType="1" res="2.8298262623138726e-04" rms="4.7496163845062256e-01" purity="6.2492346763610840e-01" nType="-99"/>
        </Node>
      </Node>
    </BinaryTree>
    <BinaryTree type="DecisionTree" boostWeight="1.0000000000000000e+00" itree="349">
      <Node pos="s" depth="0" NCoef="0" IVar="5" Cut="4.0320974731445312e+02" cType="1" res="3.2877635210752487e-02" rms="4.6920588612556458e-01" purity="5.0825685262680054e-01" nType="0">
        <Node pos="l" depth="1" NCoef="0" IVar="3" Cut="4.6669048070907593e-01" cType="1" res="-6.3105836510658264e-02" rms="4.5108273625373840e-01" purity="3.4658527374267578e-01" nType="0">
          <Node pos="l" depth="2" NCoef="0" IVar="-1" Cut="0.0000000000000000e+00" cType="1" res="-8.4888405399397016e-04" rms="4.3175208568572998e-01" purity="2.7624207735061646e-01" nType="-99"/>
          <Node pos="r" depth="2" NCoef="0" IVar="-1" Cut="0.0000000000000000e+00" cType="1" res="3.5091856261715293e-04" rms="4.8349422216415405e-01" purity="6.0523140430450439e-01" nType="-99"/>
        </Node>
        <Node pos="r" depth="1" NCoef="0" IVar="3" Cut="2.6690965890884399e-01" cType="1" res="9.0161472558975220e-02" rms="4.7045543789863586e-01" purity="6.0474401712417603e-01" nType="0">
          <Node pos="l" depth="2" NCoef="0" IVar="-1" Cut="0.0000000000000000e+00" cType="1" res="-7.6471653301268816e-05" rms="4.8624953627586365e-01" purity="4.2172810435295105e-01" nType="-99"/>
          <Node pos="r" depth="2" NCoef="0" IVar="-1" Cut="0.0000000000000000e+00" cType="1" res="4.3273318442516029e-04" rms="4.5416018366813660e-01" purity="6.9189339876174927e-01" nType="-99"/>
        </Node>
      </Node>
    </BinaryTree>
    <BinaryTree type="DecisionTree" boostWeight="1.0000000000000000e+00" itree="350">
      <Node pos="s" depth="0" NCoef="0" IVar="3" Cut="3.5421895980834961e-01" cType="1" res="2.0233221352100372e-02" rms="4.6998012065887451e-01" purity="4.9407023191452026e-01" nType="0">
        <Node pos="l" depth="1" NCoef="0" IVar="4" Cut="6.9979852437973022e-01" cType="1" res="-4.5333869755268097e-02" rms="4.6414178609848022e-01" purity="3.7036007642745972e-01" nType="0">
          <Node pos="l" depth="2" NCoef="0" IVar="-1" Cut="0.0000000000000000e+00" cType="1" res="3.7949174293316901e-04" rms="4.7683456540107727e-01" purity="5.7755464315414429e-01" nType="-99"/>
          <Node pos="r" depth="2" NCoef="0" IVar="-1" Cut="0.0000000000000000e+00" cType="1" res="-4.9107003724202514e-04" rms="4.5568820834159851e-01" purity="3.2882720232009888e-01" nType="-99"/>
        </Node>
        <Node pos="r" depth="1" NCoef="0" IVar="5" Cut="3.9384729003906250e+02" cType="1" res="1.0325998812913895e-01" rms="4.6416592597961426e-01" purity="6.5072280168533325e-01" nType="0">
          <Node pos="l" depth="2" NCoef="0" IVar="-1" Cut="0.0000000000000000e+00" cType="1" res="-4.7626268496969715e-05" rms="4.9195331335067749e-01" purity="4.8323288559913635e-01" nType="-99"/>
          <Node pos="r" depth="2" NCoef="0" IVar="-1" Cut="0.0000000000000000e+00" cType="1" res="4.7103068209253252e-04" rms="4.3797710537910461e-01" purity="7.3634827136993408e-01" nType="-99"/>
        </Node>
      </Node>
    </BinaryTree>
    <BinaryTree type="DecisionTree" boostWeight="1.0000000000000000e+00" itree="351">
      <Node pos="s" depth="0" NCoef="0" IVar="5" Cut="5.5195538330078125e+02" cType="1" res="2.3493781685829163e-02" rms="4.7255447506904602e-01" purity="4.9482870101928711e-01" nType="0">
        <Node pos="l" depth="1" NCoef="0" IVar="0" Cut="1.5190182495117188e+02" cType="1" res="-2.1075086668133736e-02" rms="4.6942266821861267e-01" purity="4.2444208264350891e-01" nType="0">
          <Node pos="l" depth="2" NCoef="0" IVar="-1" Cut="0.0000000000000000e+00" cType="1" res="2.9814082154189236e-05" rms="4.7046101093292236e-01" purity="4.4937223196029663e-01" nType="-99"/>
          <Node pos="r" depth="2" NCoef="0" IVar="-1" Cut="0.0000000000000000e+00" cType="1" res="-1.6928963596001267e-03" rms="4.1644001007080078e-01" purity="2.5263336300849915e-01" nType="-99"/>
        </Node>
        <Node pos="r" depth="1" NCoef="0" IVar="3" Cut="3.5138249397277832e-01" cType="1" res="1.2152709811925888e-01" rms="4.6456104516983032e-01" purity="6.4965057373046875e-01" nType="0">
          <Node pos="l" depth="2" NCoef="0" IVar="-1" Cut="0.0000000000000000e+00" cType="1" res="2.4667929392307997e-04" rms="4.9137321114540100e-01" purity="5.5141413211822510e-01" nType="-99"/>
          <Node pos="r" depth="2" NCoef="0" IVar="-1" Cut="0.0000000000000000e+00" cType="1" res="5.4128246847540140e-04" rms="4.1823527216911316e-01" purity="7.7167916297912598e-01" nType="-99"/>
        </Node>
      </Node>
    </BinaryTree>
    <BinaryTree type="DecisionTree" boostWeight="1.0000000000000000e+00" itree="352">
      <Node pos="s" depth="0" NCoef="0" IVar="3" Cut="3.3344718813896179e-01" cType="1" res="2.2352404892444611e-02" rms="4.7108435630798340e-01" purity="4.9470388889312744e-01" nType="0">
        <Node pos="l" depth="1" NCoef="0" IVar="4" Cut="7.4588704109191895e-01" cType="1" res="-4.4735971838235855e-02" rms="4.6442335844039917e-01" purity="3.6158582568168640e-01" nType="0">
          <Node pos="l" depth="2" NCoef="0" IVar="-1" Cut="0.0000000000000000e+00" cType="1" res="2.7529138606041670e-04" rms="4.8297092318534851e-01" purity="5.2399235963821411e-01" nType="-99"/>
          <Node pos="r" depth="2" NCoef="0" IVar="-1" Cut="0.0000000000000000e+00" cType="1" res="-5.1706528756767511e-04" rms="4.5428535342216492e-01" purity="3.1712105870246887e-01" nType="-99"/>
        </Node>
        <Node pos="r" depth="1" NCoef="0" IVar="5" Cut="4.0430267333984375e+02" cType="1" res="9.2296622693538666e-02" rms="4.6779537200927734e-01" purity="6.3348853588104248e-01" nType="0">
          <Node pos="l" depth="2" NCoef="0" IVar="-1" Cut="0.0000000000000000e+00" cType="1" res="-6.9753739808220416e-05" rms="4.8917138576507568e-01" purity="4.7407981753349304e-01" nType="-99"/>
          <Node pos="r" depth="2" NCoef="0" IVar="-1" Cut="0.0000000000000000e+00" cType="1" res="4.6256132191047072e-04" rms="4.4362729787826538e-01" purity="7.2427684068679810e-01" nType="-99"/>
        </Node>
      </Node>
    </BinaryTree>
    <BinaryTree type="DecisionTree" boostWeight="1.0000000000000000e+00" itree="353">
      <Node pos="s" depth="0" NCoef="0" IVar="3" Cut="3.5351303219795227e-01" cType="1" res="2.4239907041192055e-02" rms="4.7034582495689392e-01" purity="4.9769261479377747e-01" nType="0">
        <Node pos="l" depth="1" NCoef="0" IVar="4" Cut="7.6805812120437622e-01" cType="1" res="-4.0590431541204453e-02" rms="4.6456164121627808e-01" purity="3.7535125017166138e-01" nType="0">
          <Node pos="l" depth="2" NCoef="0" IVar="-1" Cut="0.0000000000000000e+00" cType="1" res="3.2181918504647911e-04" rms="4.7973218560218811e-01" purity="5.4152977466583252e-01" nType="-99"/>
          <Node pos="r" depth="2" NCoef="0" IVar="-1" Cut="0.0000000000000000e+00" cType="1" res="-5.5961054749786854e-04" rms="4.5165181159973145e-01" purity="3.1855347752571106e-01" nType="-99"/>
        </Node>
        <Node pos="r" depth="1" NCoef="0" IVar="4" Cut="9.4364756345748901e-01" cType="1" res="1.0614915192127228e-01" rms="4.6479904651641846e-01" purity="6.5226358175277710e-01" nType="0">
          <Node pos="l" depth="2" NCoef="0" IVar="-1" Cut="0.0000000000000000e+00" cType="1" res="5.2875821711495519e-04" rms="4.3002566695213318e-01" purity="7.3584717512130737e-01" nType="-99"/>
          <Node pos="r" depth="2" NCoef="0" IVar="-1" Cut="0.0000000000000000e+00" cType="1" res="9.6181523986160755e-05" rms="4.8667502403259277e-01" purity="5.6214112043380737e-01" nType="-99"/>
        </Node>
      </Node>
    </BinaryTree>
    <BinaryTree type="DecisionTree" boostWeight="1.0000000000000000e+00" itree="354">
      <Node pos="s" depth="0" NCoef="0" IVar="3" Cut="2.4395577609539032e-01" cType="1" res="3.0049515888094902e-02" rms="4.7225666046142578e-01" purity="5.0172269344329834e-01" nType="0">
        <Node pos="l" depth="1" NCoef="0" IVar="1" Cut="8.5503357648849487e-01" cType="1" res="-7.2680979967117310e-02" rms="4.5035064220428467e-01" purity="3.0800762772560120e-01" nType="0">
          <Node pos="l" depth="2" NCoef="0" IVar="-1" Cut="0.0000000000000000e+00" cType="1" res="-8.4232242079451680e-04" rms="4.3611103296279907e-01" purity="2.7132275700569153e-01" nType="-99"/>
          <Node pos="r" depth="2" NCoef="0" IVar="-1" Cut="0.0000000000000000e+00" cType="1" res="-1.2332065671216697e-04" rms="4.6545717120170593e-01" purity="3.6125689744949341e-01" nType="-99"/>
        </Node>
        <Node pos="r" depth="1" NCoef="0" IVar="4" Cut="8.7972885370254517e-01" cType="1" res="7.2499111294746399e-02" rms="4.7456806898117065e-01" purity="5.8176827430725098e-01" nType="0">
          <Node pos="l" depth="2" NCoef="0" IVar="-1" Cut="0.0000000000000000e+00" cType="1" res="4.8545555910095572e-04" rms="4.5173266530036926e-01" purity="6.7388784885406494e-01" nType="-99"/>
          <Node pos="r" depth="2" NCoef="0" IVar="-1" Cut="0.0000000000000000e+00" cType="1" res="5.8497564168646932e-05" rms="4.8218527436256409e-01" purity="5.1459121704101562e-01" nType="-99"/>
        </Node>
      </Node>
    </BinaryTree>
    <BinaryTree type="DecisionTree" boostWeight="1.0000000000000000e+00" itree="355">
      <Node pos="s" depth="0" NCoef="0" IVar="5" Cut="2.9277999877929688e+02" cType="1" res="2.2893616929650307e-02" rms="4.7146654129028320e-01" purity="4.9505168199539185e-01" nType="0">
        <Node pos="l" depth="1" NCoef="0" IVar="-1" Cut="0.0000000000000000e+00" cType="1" res="-2.4035822134464979e-03" rms="3.7353089451789856e-01" purity="1.7838448286056519e-01" nType="-99"/>
        <Node pos="r" depth="1" NCoef="0" IVar="3" Cut="4.2178195714950562e-01" cType="1" res="4.6336144208908081e-02" rms="4.7490808367729187e-01" purity="5.2914804220199585e-01" nType="0">
          <Node pos="l" depth="2" NCoef="0" IVar="-1" Cut="0.0000000000000000e+00" cType="1" res="1.8136857761419378e-05" rms="4.7884255647659302e-01" purity="4.5725545287132263e-01" nType="-99"/>
          <Node pos="r" depth="2" NCoef="0" IVar="-1" Cut="0.0000000000000000e+00" cType="1" res="4.8071990022435784e-04" rms="4.4619843363761902e-01" purity="7.1525406837463379e-01" nType="-99"/>
        </Node>
      </Node>
    </BinaryTree>
    <BinaryTree type="DecisionTree" boostWeight="1.0000000000000000e+00" itree="356">
      <Node pos="s" depth="0" NCoef="0" IVar="3" Cut="4.0013661980628967e-01" cType="1" res="3.8050852715969086e-02" rms="4.7026494145393372e-01" purity="5.1242589950561523e-01" nType="0">
        <Node pos="l" depth="1" NCoef="0" IVar="5" Cut="5.5145324707031250e+02" cType="1" res="-1.3584949076175690e-02" rms="4.7124454379081726e-01" purity="4.2203345894813538e-01" nType="0">
          <Node pos="l" depth="2" NCoef="0" IVar="-1" Cut="0.0000000000000000e+00" cType="1" res="-4.0078806341625750e-04" rms="4.5776197314262390e-01" purity="3.3908477425575256e-01" nType="-99"/>
          <Node pos="r" depth="2" NCoef="0" IVar="-1" Cut="0.0000000000000000e+00" cType="1" res="3.1997173209674656e-04" rms="4.8171219229698181e-01" purity="5.9552925825119019e-01" nType="-99"/>
        </Node>
        <Node pos="r" depth="1" NCoef="0" IVar="4" Cut="9.5579785108566284e-01" cType="1" res="1.4115527272224426e-01" rms="4.5094692707061768e-01" purity="6.9291806221008301e-01" nType="0">
          <Node pos="l" depth="2" NCoef="0" IVar="-1" Cut="0.0000000000000000e+00" cType="1" res="6.0862652026116848e-04" rms="4.0881454944610596e-01" purity="7.7488327026367188e-01" nType="-99"/>
          <Node pos="r" depth="2" NCoef="0" IVar="-1" Cut="0.0000000000000000e+00" cType="1" res="1.9138981588184834e-04" rms="4.8123529553413391e-01" purity="5.9634560346603394e-01" nType="-99"/>
        </Node>
      </Node>
    </BinaryTree>
    <BinaryTree type="DecisionTree" boostWeight="1.0000000000000000e+00" itree="357">
      <Node pos="s" depth="0" NCoef="0" IVar="5" Cut="3.1430752563476562e+02" cType="1" res="2.3005781695246696e-02" rms="4.6955510973930359e-01" purity="4.9660924077033997e-01" nType="0">
        <Node pos="l" depth="1" NCoef="0" IVar="3" Cut="3.7540587782859802e-01" cType="1" res="-1.5315610170364380e-01" rms="3.9958092570304871e-01" purity="2.2657760977745056e-01" nType="0">
          <Node pos="l" depth="2" NCoef="0" IVar="-1" Cut="0.0000000000000000e+00" cType="1" res="-3.1514472793787718e-03" rms="3.3477890491485596e-01" purity="1.3225080072879791e-01" nType="-99"/>
          <Node pos="r" depth="2" NCoef="0" IVar="-1" Cut="0.0000000000000000e+00" cType="1" res="-4.5505867456085980e-04" rms="4.8372998833656311e-01" purity="3.9088740944862366e-01" nType="-99"/>
        </Node>
        <Node pos="r" depth="1" NCoef="0" IVar="3" Cut="2.6690965890884399e-01" cType="1" res="5.3110670298337936e-02" rms="4.7398903965950012e-01" purity="5.4275578260421753e-01" nType="0">
          <Node pos="l" depth="2" NCoef="0" IVar="-1" Cut="0.0000000000000000e+00" cType="1" res="-2.8382492018863559e-04" rms="4.6897938847541809e-01" purity="3.5735175013542175e-01" nType="-99"/>
          <Node pos="r" depth="2" NCoef="0" IVar="-1" Cut="0.0000000000000000e+00" cType="1" res="3.5401846980676055e-04" rms="4.6833810210227966e-01" purity="6.3734894990921021e-01" nType="-99"/>
        </Node>
      </Node>
    </BinaryTree>
    <BinaryTree type="DecisionTree" boostWeight="1.0000000000000000e+00" itree="358">
      <Node pos="s" depth="0" NCoef="0" IVar="3" Cut="3.5587954521179199e-01" cType="1" res="2.6626920327544212e-02" rms="4.6906027197837830e-01" purity="5.0164598226547241e-01" nType="0">
        <Node pos="l" depth="1" NCoef="0" IVar="4" Cut="8.0593323707580566e-01" cType="1" res="-4.2580138891935349e-02" rms="4.6279329061508179e-01" purity="3.7420848011970520e-01" nType="0">
          <Node pos="l" depth="2" NCoef="0" IVar="-1" Cut="0.0000000000000000e+00" cType="1" res="2.5640163221396506e-04" rms="4.7864395380020142e-01" purity="5.1328253746032715e-01" nType="-99"/>
          <Node pos="r" depth="2" NCoef="0" IVar="-1" Cut="0.0000000000000000e+00" cType="1" res="-6.0300459153950214e-04" rms="4.4820842146873474e-01" purity="3.1364032626152039e-01" nType="-99"/>
        </Node>
        <Node pos="r" depth="1" NCoef="0" IVar="4" Cut="8.0496853590011597e-01" cType="1" res="1.1280379444360733e-01" rms="4.6249207854270935e-01" purity="6.6033160686492920e-01" nType="0">
          <Node pos="l" depth="2" NCoef="0" IVar="-1" Cut="0.0000000000000000e+00" cType="1" res="6.1554805142804980e-04" rms="4.0782108902931213e-01" purity="7.7853655815124512e-01" nType="-99"/>
          <Node pos="r" depth="2" NCoef="0" IVar="-1" Cut="0.0000000000000000e+00" cType="1" res="2.3049989249557257e-04" rms="4.7759914398193359e-01" purity="6.0621535778045654e-01" nType="-99"/>
        </Node>
      </Node>
    </BinaryTree>
    <BinaryTree type="DecisionTree" boostWeight="1.0000000000000000e+00" itree="359">
      <Node pos="s" depth="0" NCoef="0" IVar="3" Cut="3.5587954521179199e-01" cType="1" res="1.5200870111584663e-02" rms="4.6877002716064453e-01" purity="4.8930898308753967e-01" nType="0">
        <Node pos="l" depth="1" NCoef="0" IVar="7" Cut="1.6305734252929688e+02" cType="1" res="-5.2163250744342804e-02" rms="4.6175035834312439e-01" purity="3.6275058984756470e-01" nType="0">
          <Node pos="l" depth="2" NCoef="0" IVar="-1" Cut="0.0000000000000000e+00" cType="1" res="-6.2170909950509667e-04" rms="4.4482606649398804e-01" purity="3.0795592069625854e-01" nType="-99"/>
          <Node pos="r" depth="2" NCoef="0" IVar="-1" Cut="0.0000000000000000e+00" cType="1" res="1.9740368588827550e-04" rms="4.9328941106796265e-01" purity="5.1937532424926758e-01" nType="-99"/>
        </Node>
        <Node pos="r" depth="1" NCoef="0" IVar="5" Cut="4.0874719238281250e+02" cType="1" res="1.0089719295501709e-01" rms="4.6361422538757324e-01" purity="6.5030831098556519e-01" nType="0">
          <Node pos="l" depth="2" NCoef="0" IVar="-1" Cut="0.0000000000000000e+00" cType="1" res="-3.1133629818214104e-05" rms="4.9069306254386902e-01" purity="4.9311408400535583e-01" nType="-99"/>
          <Node pos="r" depth="2" NCoef="0" IVar="-1" Cut="0.0000000000000000e+00" cType="1" res="4.7851883573457599e-04" rms="4.3452209234237671e-01" purity="7.4287861585617065e-01" nType="-99"/>
        </Node>
      </Node>
    </BinaryTree>
    <BinaryTree type="DecisionTree" boostWeight="1.0000000000000000e+00" itree="360">
      <Node pos="s" depth="0" NCoef="0" IVar="3" Cut="2.6690965890884399e-01" cType="1" res="3.0866639688611031e-02" rms="4.7005686163902283e-01" purity="5.0451034307479858e-01" nType="0">
        <Node pos="l" depth="1" NCoef="0" IVar="3" Cut="1.7559570074081421e-01" cType="1" res="-7.1360923349857330e-02" rms="4.5038351416587830e-01" purity="3.1282860040664673e-01" nType="0">
          <Node pos="l" depth="2" NCoef="0" IVar="-1" Cut="0.0000000000000000e+00" cType="1" res="-1.3854329008609056e-03" rms="4.0720394253730774e-01" purity="2.2665867209434509e-01" nType="-99"/>
          <Node pos="r" depth="2" NCoef="0" IVar="-1" Cut="0.0000000000000000e+00" cType="1" res="-1.5768963203299791e-04" rms="4.6838817000389099e-01" purity="3.6413645744323730e-01" nType="-99"/>
        </Node>
        <Node pos="r" depth="1" NCoef="0" IVar="5" Cut="3.2493905639648438e+02" cType="1" res="8.3191901445388794e-02" rms="4.7131210565567017e-01" purity="6.0262274742126465e-01" nType="0">
          <Node pos="l" depth="2" NCoef="0" IVar="-1" Cut="0.0000000000000000e+00" cType="1" res="-5.7459599338471889e-04" rms="4.6932873129844666e-01" purity="3.4238293766975403e-01" nType="-99"/>
          <Node pos="r" depth="2" NCoef="0" IVar="-1" Cut="0.0000000000000000e+00" cType="1" res="3.8230841164477170e-04" rms="4.6452677249908447e-01" purity="6.5212309360504150e-01" nType="-99"/>
        </Node>
      </Node>
    </BinaryTree>
    <BinaryTree type="DecisionTree" boostWeight="1.0000000000000000e+00" itree="361">
      <Node pos="s" depth="0" NCoef="0" IVar="3" Cut="3.1139460206031799e-01" cType="1" res="2.8969964012503624e-02" rms="4.7193983197212219e-01" purity="5.0017774105072021e-01" nType="0">
        <Node pos="l" depth="1" NCoef="0" IVar="5" Cut="3.8182760620117188e+02" cType="1" res="-3.7509869784116745e-02" rms="4.6341466903686523e-01" purity="3.6247429251670837e-01" nType="0">
          <Node pos="l" depth="2" NCoef="0" IVar="-1" Cut="0.0000000000000000e+00" cType="1" res="-1.2541253818199039e-03" rms="4.0078839659690857e-01" purity="2.0672094821929932e-01" nType="-99"/>
          <Node pos="r" depth="2" NCoef="0" IVar="-1" Cut="0.0000000000000000e+00" cType="1" res="1.2313817933318205e-05" rms="4.8814731836318970e-01" purity="4.4370597600936890e-01" nType="-99"/>
        </Node>
        <Node pos="r" depth="1" NCoef="0" IVar="4" Cut="9.2813897132873535e-01" cType="1" res="8.5861273109912872e-02" rms="4.7173336148262024e-01" purity="6.1801987886428833e-01" nType="0">
          <Node pos="l" depth="2" NCoef="0" IVar="-1" Cut="0.0000000000000000e+00" cType="1" res="4.9241731176152825e-04" rms="4.4630309939384460e-01" purity="6.9778829813003540e-01" nType="-99"/>
          <Node pos="r" depth="2" NCoef="0" IVar="-1" Cut="0.0000000000000000e+00" cType="1" res="7.7927623351570219e-05" rms="4.8490792512893677e-01" purity="5.4368960857391357e-01" nType="-99"/>
        </Node>
      </Node>
    </BinaryTree>
    <BinaryTree type="DecisionTree" boostWeight="1.0000000000000000e+00" itree="362">
      <Node pos="s" depth="0" NCoef="0" IVar="3" Cut="4.2089563608169556e-01" cType="1" res="2.2583758458495140e-02" rms="4.7197771072387695e-01" purity="4.9395185708999634e-01" nType="0">
        <Node pos="l" depth="1" NCoef="0" IVar="4" Cut="9.8480188846588135e-01" cType="1" res="-1.7658622935414314e-02" rms="4.7183495759963989e-01" purity="4.2267465591430664e-01" nType="0">
          <Node pos="l" depth="2" NCoef="0" IVar="-1" Cut="0.0000000000000000e+00" cType="1" res="1.7155773821286857e-04" rms="4.7715318202972412e-01" purity="4.9192556738853455e-01" nType="-99"/>
          <Node pos="r" depth="2" NCoef="0" IVar="-1" Cut="0.0000000000000000e+00" cType="1" res="-5.9102696832269430e-04" rms="4.5471945405006409e-01" purity="3.3492502570152283e-01" nType="-99"/>
        </Node>
        <Node pos="r" depth="1" NCoef="0" IVar="5" Cut="4.4940362548828125e+02" cType="1" res="1.2734094262123108e-01" rms="4.5598676800727844e-01" purity="6.7949753999710083e-01" nType="0">
          <Node pos="l" depth="2" NCoef="0" IVar="-1" Cut="0.0000000000000000e+00" cType="1" res="2.2384860494639724e-04" rms="4.8532351851463318e-01" purity="5.7967400550842285e-01" nType="-99"/>
          <Node pos="r" depth="2" NCoef="0" IVar="-1" Cut="0.0000000000000000e+00" cType="1" res="5.3742912132292986e-04" rms="4.1387644410133362e-01" purity="7.7883392572402954e-01" nType="-99"/>
        </Node>
      </Node>
    </BinaryTree>
    <BinaryTree type="DecisionTree" boostWeight="1.0000000000000000e+00" itree="363">
      <Node pos="s" depth="0" NCoef="0" IVar="3" Cut="3.1112697720527649e-01" cType="1" res="3.1978890299797058e-02" rms="4.7017183899879456e-01" purity="5.0539702177047729e-01" nType="0">
        <Node pos="l" depth="1" NCoef="0" IVar="4" Cut="7.8229910135269165e-01" cType="1" res="-4.4700037688016891e-02" rms="4.6197408437728882e-01" purity="3.5335856676101685e-01" nType="0">
          <Node pos="l" depth="2" NCoef="0" IVar="-1" Cut="0.0000000000000000e+00" cType="1" res="2.5868313969112933e-04" rms="4.8592466115951538e-01" purity="4.9763730168342590e-01" nType="-99"/>
          <Node pos="r" depth="2" NCoef="0" IVar="-1" Cut="0.0000000000000000e+00" cType="1" res="-5.8840197743847966e-04" rms="4.4705793261528015e-01" purity="3.0159261822700500e-01" nType="-99"/>
        </Node>
        <Node pos="r" depth="1" NCoef="0" IVar="5" Cut="3.4522433471679688e+02" cType="1" res="9.4276390969753265e-02" rms="4.6755960583686829e-01" purity="6.2892013788223267e-01" nType="0">
          <Node pos="l" depth="2" NCoef="0" IVar="-1" Cut="0.0000000000000000e+00" cType="1" res="-3.0789646552875638e-04" rms="4.8181316256523132e-01" purity="4.0267294645309448e-01" nType="-99"/>
          <Node pos="r" depth="2" NCoef="0" IVar="-1" Cut="0.0000000000000000e+00" cType="1" res="4.2884744470939040e-04" rms="4.5506653189659119e-01" purity="6.9005501270294189e-01" nType="-99"/>
        </Node>
      </Node>
    </BinaryTree>
    <BinaryTree type="DecisionTree" boostWeight="1.0000000000000000e+00" itree="364">
      <Node pos="s" depth="0" NCoef="0" IVar="3" Cut="3.7812203168869019e-01" cType="1" res="3.1374238431453705e-02" rms="4.7097417712211609e-01" purity="5.0367045402526855e-01" nType="0">
        <Node pos="l" depth="1" NCoef="0" IVar="5" Cut="5.5563775634765625e+02" cType="1" res="-1.9408948719501495e-02" rms="4.6944928169250488e-01" purity="4.0675956010818481e-01" nType="0">
          <Node pos="l" depth="2" NCoef="0" IVar="-1" Cut="0.0000000000000000e+00" cType="1" res="-4.3764707515947521e-04" rms="4.5483919978141785e-01" purity="3.2871899008750916e-01" nType="-99"/>
          <Node pos="r" depth="2" NCoef="0" IVar="-1" Cut="0.0000000000000000e+00" cType="1" res="3.0259569757618010e-04" rms="4.8502954840660095e-01" purity="5.8121627569198608e-01" nType="-99"/>
        </Node>
        <Node pos="r" depth="1" NCoef="0" IVar="5" Cut="3.1495974731445312e+02" cType="1" res="1.1629623919725418e-01" rms="4.6118369698524475e-01" purity="6.6572928428649902e-01" nType="0">
          <Node pos="l" depth="2" NCoef="0" IVar="-1" Cut="0.0000000000000000e+00" cType="1" res="-4.0959767648018897e-04" rms="4.8528963327407837e-01" purity="3.9302888512611389e-01" nType="-99"/>
          <Node pos="r" depth="2" NCoef="0" IVar="-1" Cut="0.0000000000000000e+00" cType="1" res="4.5167445205152035e-04" rms="4.4928762316703796e-01" purity="7.1035283803939819e-01" nType="-99"/>
        </Node>
      </Node>
    </BinaryTree>
    <BinaryTree type="DecisionTree" boostWeight="1.0000000000000000e+00" itree="365">
      <Node pos="s" depth="0" NCoef="0" IVar="5" Cut="3.8923953247070312e+02" cType="1" res="2.0484397187829018e-02" rms="4.7090148925781250e-01" purity="4.9248901009559631e-01" nType="0">
        <Node pos="l" depth="1" NCoef="0" IVar="3" Cut="4.0002042055130005e-01" cType="1" res="-6.9959841668605804e-02" rms="4.4798201322555542e-01" purity="3.3289009332656860e-01" nType="0">
          <Node pos="l" depth="2" NCoef="0" IVar="-1" Cut="0.0000000000000000e+00" cType="1" res="-1.1908934684470296e-03" rms="4.1452369093894958e-01" purity="2.3075619339942932e-01" nType="-99"/>
          <Node pos="r" depth="2" NCoef="0" IVar="-1" Cut="0.0000000000000000e+00" cType="1" res="1.4265597565099597e-04" rms="4.9155268073081970e-01" purity="5.3609436750411987e-01" nType="-99"/>
        </Node>
        <Node pos="r" depth="1" NCoef="0" IVar="3" Cut="3.3344718813896179e-01" cType="1" res="6.9163516163825989e-02" rms="4.7572150826454163e-01" purity="5.7838875055313110e-01" nType="0">
          <Node pos="l" depth="2" NCoef="0" IVar="-1" Cut="0.0000000000000000e+00" cType="1" res="4.0065508073894307e-05" rms="4.8898923397064209e-01" purity="4.6018949151039124e-01" nType="-99"/>
          <Node pos="r" depth="2" NCoef="0" IVar="-1" Cut="0.0000000000000000e+00" cType="1" res="4.1072207386605442e-04" rms="4.5251092314720154e-01" purity="7.0380228757858276e-01" nType="-99"/>
        </Node>
      </Node>
    </BinaryTree>
    <BinaryTree type="DecisionTree" boostWeight="1.0000000000000000e+00" itree="366">
      <Node pos="s" depth="0" NCoef="0" IVar="3" Cut="3.5567700862884521e-01" cType="1" res="4.0160577744245529e-02" rms="4.7093367576599121e-01" purity="5.1309263706207275e-01" nType="0">
        <Node pos="l" depth="1" NCoef="0" IVar="4" Cut="9.1427022218704224e-01" cType="1" res="-1.6018087044358253e-02" rms="4.7098046541213989e-01" purity="3.9853698015213013e-01" nType="0">
          <Node pos="l" depth="2" NCoef="0" IVar="-1" Cut="0.0000000000000000e+00" cType="1" res="2.2455430007539690e-04" rms="4.7913774847984314e-01" purity="4.8453122377395630e-01" nType="-99"/>
          <Node pos="r" depth="2" NCoef="0" IVar="-1" Cut="0.0000000000000000e+00" cType="1" res="-5.0354818813502789e-04" rms="4.5597445964813232e-01" purity="3.2467669248580933e-01" nType="-99"/>
        </Node>
        <Node pos="r" depth="1" NCoef="0" IVar="5" Cut="3.7899694824218750e+02" cType="1" res="1.1327265202999115e-01" rms="4.6072602272033691e-01" purity="6.6217780113220215e-01" nType="0">
          <Node pos="l" depth="2" NCoef="0" IVar="-1" Cut="0.0000000000000000e+00" cType="1" res="-2.5821505914791487e-05" rms="4.9298390746116638e-01" purity="4.8277392983436584e-01" nType="-99"/>
          <Node pos="r" depth="2" NCoef="0" IVar="-1" Cut="0.0000000000000000e+00" cType="1" res="4.8710123519413173e-04" rms="4.3638741970062256e-01" purity="7.3896986246109009e-01" nType="-99"/>
        </Node>
      </Node>
    </BinaryTree>
    <BinaryTree type="DecisionTree" boostWeight="1.0000000000000000e+00" itree="367">
      <Node pos="s" depth="0" NCoef="0" IVar="3" Cut="2.4357193708419800e-01" cType="1" res="2.4068476632237434e-02" rms="4.6885803341865540e-01" purity="4.9773666262626648e-01" nType="0">
        <Node pos="l" depth="1" NCoef="0" IVar="7" Cut="1.7092372131347656e+02" cType="1" res="-1.0300028324127197e-01" rms="4.3266949057579041e-01" purity="2.7605950832366943e-01" nType="0">
          <Node pos="l" depth="2" NCoef="0" IVar="-1" Cut="0.0000000000000000e+00" cType="1" res="-1.2091330718249083e-03" rms="4.0749850869178772e-01" purity="2.2840981185436249e-01" nType="-99"/>
          <Node pos="r" depth="2" NCoef="0" IVar="-1" Cut="0.0000000000000000e+00" cType="1" res="1.2751995200233068e-05" rms="4.9766394495964050e-01" purity="4.4456419348716736e-01" nType="-99"/>
        </Node>
        <Node pos="r" depth="1" NCoef="0" IVar="5" Cut="3.0531979370117188e+02" cType="1" res="7.3561139404773712e-02" rms="4.7307145595550537e-01" purity="5.8407884836196899e-01" nType="0">
          <Node pos="l" depth="2" NCoef="0" IVar="-1" Cut="0.0000000000000000e+00" cType="1" res="-9.3817943707108498e-04" rms="4.4465470314025879e-01" purity="2.9155907034873962e-01" nType="-99"/>
          <Node pos="r" depth="2" NCoef="0" IVar="-1" Cut="0.0000000000000000e+00" cType="1" res="3.4751684870570898e-04" rms="4.7047862410545349e-01" purity="6.2187510728836060e-01" nType="-99"/>
        </Node>
      </Node>
    </BinaryTree>
    <BinaryTree type="DecisionTree" boostWeight="1.0000000000000000e+00" itree="368">
      <Node pos="s" depth="0" NCoef="0" IVar="3" Cut="2.4452793598175049e-01" cType="1" res="2.0322900265455246e-02" rms="4.7103917598724365e-01" purity="4.9090790748596191e-01" nType="0">
        <Node pos="l" depth="1" NCoef="0" IVar="4" Cut="7.6621860265731812e-01" cType="1" res="-7.6407894492149353e-02" rms="4.4529592990875244e-01" purity="3.0296269059181213e-01" nType="0">
          <Node pos="l" depth="2" NCoef="0" IVar="-1" Cut="0.0000000000000000e+00" cType="1" res="1.0896662570303306e-04" rms="4.8207521438598633e-01" purity="4.4778004288673401e-01" nType="-99"/>
          <Node pos="r" depth="2" NCoef="0" IVar="-1" Cut="0.0000000000000000e+00" cType="1" res="-8.6740392725914717e-04" rms="4.2996713519096375e-01" purity="2.6154103875160217e-01" nType="-99"/>
        </Node>
        <Node pos="r" depth="1" NCoef="0" IVar="4" Cut="9.7415047883987427e-01" cType="1" res="6.1316676437854767e-02" rms="4.7563543915748596e-01" purity="5.7055771350860596e-01" nType="0">
          <Node pos="l" depth="2" NCoef="0" IVar="-1" Cut="0.0000000000000000e+00" cType="1" res="4.1428662370890379e-04" rms="4.6165481209754944e-01" purity="6.3831180334091187e-01" nType="-99"/>
          <Node pos="r" depth="2" NCoef="0" IVar="-1" Cut="0.0000000000000000e+00" cType="1" res="-4.8002697440097108e-05" rms="4.8235312104225159e-01" purity="4.8828372359275818e-01" nType="-99"/>
        </Node>
      </Node>
    </BinaryTree>
    <BinaryTree type="DecisionTree" boostWeight="1.0000000000000000e+00" itree="369">
      <Node pos="s" depth="0" NCoef="0" IVar="4" Cut="9.4238555431365967e-01" cType="1" res="2.0566910505294800e-02" rms="4.7210526466369629e-01" purity="4.9053442478179932e-01" nType="0">
        <Node pos="l" depth="1" NCoef="0" IVar="5" Cut="3.9160015869140625e+02" cType="1" res="8.8411897420883179e-02" rms="4.6637389063835144e-01" purity="5.7275497913360596e-01" nType="0">
          <Node pos="l" depth="2" NCoef="0" IVar="-1" Cut="0.0000000000000000e+00" cType="1" res="-1.0506878606975079e-04" rms="4.6925723552703857e-01" purity="3.8947927951812744e-01" nType="-99"/>
          <Node pos="r" depth="2" NCoef="0" IVar="-1" Cut="0.0000000000000000e+00" cType="1" res="4.5648173545487225e-04" rms="4.5589059591293335e-01" purity="6.6244649887084961e-01" nType="-99"/>
        </Node>
        <Node pos="r" depth="1" NCoef="0" IVar="1" Cut="7.6298141479492188e-01" cType="1" res="-4.7978874295949936e-02" rms="4.6794092655181885e-01" purity="4.0746459364891052e-01" nType="0">
          <Node pos="l" depth="2" NCoef="0" IVar="-1" Cut="0.0000000000000000e+00" cType="1" res="-1.3663670979440212e-03" rms="4.3216145038604736e-01" purity="2.6920691132545471e-01" nType="-99"/>
          <Node pos="r" depth="2" NCoef="0" IVar="-1" Cut="0.0000000000000000e+00" cType="1" res="1.0807644684973639e-05" rms="4.7248363494873047e-01" purity="4.6345135569572449e-01" nType="-99"/>
        </Node>
      </Node>
    </BinaryTree>
    <BinaryTree type="DecisionTree" boostWeight="1.0000000000000000e+00" itree="370">
      <Node pos="s" depth="0" NCoef="0" IVar="3" Cut="2.6668155193328857e-01" cType="1" res="2.0083701238036156e-02" rms="4.6925029158592224e-01" purity="4.9307104945182800e-01" nType="0">
        <Node pos="l" depth="1" NCoef="0" IVar="4" Cut="7.4847388267517090e-01" cType="1" res="-8.3957664668560028e-02" rms="4.4212758541107178e-01" purity="3.0018517374992371e-01" nType="0">
          <Node pos="l" depth="2" NCoef="0" IVar="-1" Cut="0.0000000000000000e+00" cType="1" res="2.1691266738343984e-04" rms="4.8668396472930908e-01" purity="4.8001113533973694e-01" nType="-99"/>
          <Node pos="r" depth="2" NCoef="0" IVar="-1" Cut="0.0000000000000000e+00" cType="1" res="-1.0315950494259596e-03" rms="4.2219439148902893e-01" purity="2.5139060616493225e-01" nType="-99"/>
        </Node>
        <Node pos="r" depth="1" NCoef="0" IVar="5" Cut="4.1458825683593750e+02" cType="1" res="7.3411054909229279e-02" rms="4.7378662228584290e-01" purity="5.9193646907806396e-01" nType="0">
          <Node pos="l" depth="2" NCoef="0" IVar="-1" Cut="0.0000000000000000e+00" cType="1" res="-3.0988987418822944e-05" rms="4.8399296402931213e-01" purity="4.5854285359382629e-01" nType="-99"/>
          <Node pos="r" depth="2" NCoef="0" IVar="-1" Cut="0.0000000000000000e+00" cType="1" res="4.0124051156453788e-04" rms="4.5912051200866699e-01" purity="6.8125510215759277e-01" nType="-99"/>
        </Node>
      </Node>
    </BinaryTree>
    <BinaryTree type="DecisionTree" boostWeight="1.0000000000000000e+00" itree="371">
      <Node pos="s" depth="0" NCoef="0" IVar="3" Cut="4.4277369976043701e-01" cType="1" res="2.7759015560150146e-02" rms="4.7032263875007629e-01" purity="5.0042164325714111e-01" nType="0">
        <Node pos="l" depth="1" NCoef="0" IVar="5" Cut="3.9576910400390625e+02" cType="1" res="-1.0525648482143879e-02" rms="4.7111314535140991e-01" purity="4.3637380003929138e-01" nType="0">
          <Node pos="l" depth="2" NCoef="0" IVar="-1" Cut="0.0000000000000000e+00" cType="1" res="-7.5237575219944119e-04" rms="4.3562239408493042e-01" purity="2.7638754248619080e-01" nType="-99"/>
          <Node pos="r" depth="2" NCoef="0" IVar="-1" Cut="0.0000000000000000e+00" cType="1" res="1.4754188305232674e-04" rms="4.8410448431968689e-01" purity="5.2862966060638428e-01" nType="-99"/>
        </Node>
        <Node pos="r" depth="1" NCoef="0" IVar="4" Cut="1.0271143913269043e+00" cType="1" res="1.4835317432880402e-01" rms="4.4687724113464355e-01" purity="7.0216816663742065e-01" nType="0">
          <Node pos="l" depth="2" NCoef="0" IVar="-1" Cut="0.0000000000000000e+00" cType="1" res="5.9322442393749952e-04" rms="4.1538152098655701e-01" purity="7.6346313953399658e-01" nType="-99"/>
          <Node pos="r" depth="2" NCoef="0" IVar="-1" Cut="0.0000000000000000e+00" cType="1" res="2.2022663324605674e-04" rms="4.7845664620399475e-01" purity="6.0770082473754883e-01" nType="-99"/>
        </Node>
      </Node>
    </BinaryTree>
    <BinaryTree type="DecisionTree" boostWeight="1.0000000000000000e+00" itree="372">
      <Node pos="s" depth="0" NCoef="0" IVar="4" Cut="9.4503015279769897e-01" cType="1" res="2.6182074099779129e-02" rms="4.6864241361618042e-01" purity="5.0002396106719971e-01" nType="0">
        <Node pos="l" depth="1" NCoef="0" IVar="5" Cut="3.9160015869140625e+02" cType="1" res="9.9067643284797668e-02" rms="4.6139788627624512e-01" purity="5.8670359849929810e-01" nType="0">
          <Node pos="l" depth="2" NCoef="0" IVar="-1" Cut="0.0000000000000000e+00" cType="1" res="-3.1875417334958911e-05" rms="4.6662271022796631e-01" purity="4.0772256255149841e-01" nType="-99"/>
          <Node pos="r" depth="2" NCoef="0" IVar="-1" Cut="0.0000000000000000e+00" cType="1" res="4.7039214405231178e-04" rms="4.4996538758277893e-01" purity="6.7432868480682373e-01" nType="-99"/>
        </Node>
        <Node pos="r" depth="1" NCoef="0" IVar="7" Cut="1.6246199035644531e+02" cType="1" res="-5.1687538623809814e-02" rms="4.6377250552177429e-01" purity="4.0741696953773499e-01" nType="0">
          <Node pos="l" depth="2" NCoef="0" IVar="-1" Cut="0.0000000000000000e+00" cType="1" res="-6.9510581670328975e-04" rms="4.4643226265907288e-01" purity="3.3314505219459534e-01" nType="-99"/>
          <Node pos="r" depth="2" NCoef="0" IVar="-1" Cut="0.0000000000000000e+00" cType="1" res="2.8250549803487957e-04" rms="4.7907471656799316e-01" purity="5.8588618040084839e-01" nType="-99"/>
        </Node>
      </Node>
    </BinaryTree>
    <BinaryTree type="DecisionTree" boostWeight="1.0000000000000000e+00" itree="373">
      <Node pos="s" depth="0" NCoef="0" IVar="5" Cut="4.3910516357421875e+02" cType="1" res="2.4051275104284286e-02" rms="4.6968081593513489e-01" purity="4.9576139450073242e-01" nType="0">
        <Node pos="l" depth="1" NCoef="0" IVar="3" Cut="4.8891618847846985e-01" cType="1" res="-5.8702651411294937e-02" rms="4.5441874861717224e-01" purity="3.5799053311347961e-01" nType="0">
          <Node pos="l" depth="2" NCoef="0" IVar="-1" Cut="0.0000000000000000e+00" cType="1" res="-6.4734142506495118e-04" rms="4.4297167658805847e-01" purity="3.0653446912765503e-01" nType="-99"/>
          <Node pos="r" depth="2" NCoef="0" IVar="-1" Cut="0.0000000000000000e+00" cType="1" res="3.5773505805991590e-04" rms="4.7837403416633606e-01" purity="6.2032496929168701e-01" nType="-99"/>
        </Node>
        <Node pos="r" depth="1" NCoef="0" IVar="3" Cut="2.4466720223426819e-01" cType="1" res="9.5992267131805420e-02" rms="4.7088429331779480e-01" purity="6.1553061008453369e-01" nType="0">
          <Node pos="l" depth="2" NCoef="0" IVar="-1" Cut="0.0000000000000000e+00" cType="1" res="-6.0770020354539156e-05" rms="4.9010095000267029e-01" purity="4.2822051048278809e-01" nType="-99"/>
          <Node pos="r" depth="2" NCoef="0" IVar="-1" Cut="0.0000000000000000e+00" cType="1" res="4.2731297435238957e-04" rms="4.5697230100631714e-01" purity="6.8545752763748169e-01" nType="-99"/>
        </Node>
      </Node>
    </BinaryTree>
    <BinaryTree type="DecisionTree" boostWeight="1.0000000000000000e+00" itree="374">
      <Node pos="s" depth="0" NCoef="0" IVar="4" Cut="8.7972885370254517e-01" cType="1" res="3.2301526516675949e-02" rms="4.6960538625717163e-01" purity="5.0496494770050049e-01" nType="0">
        <Node pos="l" depth="1" NCoef="0" IVar="3" Cut="2.8221896290779114e-01" cType="1" res="1.1224939674139023e-01" rms="4.6075087785720825e-01" purity="6.0292828083038330e-01" nType="0">
          <Node pos="l" depth="2" NCoef="0" IVar="-1" Cut="0.0000000000000000e+00" cType="1" res="1.4485963038168848e-04" rms="4.8102551698684692e-01" purity="4.3837282061576843e-01" nType="-99"/>
          <Node pos="r" depth="2" NCoef="0" IVar="-1" Cut="0.0000000000000000e+00" cType="1" res="4.9448153004050255e-04" rms="4.4092136621475220e-01" purity="7.0022618770599365e-01" nType="-99"/>
        </Node>
        <Node pos="r" depth="1" NCoef="0" IVar="7" Cut="2.0406678771972656e+02" cType="1" res="-2.4209065362811089e-02" rms="4.6759033203125000e-01" purity="4.3572026491165161e-01" nType="0">
          <Node pos="l" depth="2" NCoef="0" IVar="-1" Cut="0.0000000000000000e+00" cType="1" res="-3.3649391843937337e-04" rms="4.6131864190101624e-01" purity="3.8709270954132080e-01" nType="-99"/>
          <Node pos="r" depth="2" NCoef="0" IVar="-1" Cut="0.0000000000000000e+00" cType="1" res="4.7824863577261567e-04" rms="4.5905214548110962e-01" purity="6.6918104887008667e-01" nType="-99"/>
        </Node>
      </Node>
    </BinaryTree>
    <BinaryTree type="DecisionTree" boostWeight="1.0000000000000000e+00" itree="375">
      <Node pos="s" depth="0" NCoef="0" IVar="7" Cut="1.8903683471679688e+02" cType="1" res="3.6255221813917160e-02" rms="4.7047942876815796e-01" purity="5.0876313447952271e-01" nType="0">
        <Node pos="l" depth="1" NCoef="0" IVar="4" Cut="7.0833355188369751e-01" cType="1" res="2.8103883378207684e-03" rms="4.7080987691879272e-01" purity="4.6088784933090210e-01" nType="0">
          <Node pos="l" depth="2" NCoef="0" IVar="-1" Cut="0.0000000000000000e+00" cType="1" res="5.2051042439416051e-04" rms="4.5054599642753601e-01" purity="6.6541880369186401e-01" nType="-99"/>
          <Node pos="r" depth="2" NCoef="0" IVar="-1" Cut="0.0000000000000000e+00" cType="1" res="-1.7400959040969610e-04" rms="4.6787843108177185e-01" purity="4.1533136367797852e-01" nType="-99"/>
        </Node>
        <Node pos="r" depth="1" NCoef="0" IVar="3" Cut="2.6490256190299988e-01" cType="1" res="1.6912655532360077e-01" rms="4.4499036669731140e-01" purity="6.9896453619003296e-01" nType="0">
          <Node pos="l" depth="2" NCoef="0" IVar="-1" Cut="0.0000000000000000e+00" cType="1" res="2.4826137814670801e-04" rms="4.9785920977592468e-01" purity="5.1408565044403076e-01" nType="-99"/>
          <Node pos="r" depth="2" NCoef="0" IVar="-1" Cut="0.0000000000000000e+00" cType="1" res="5.7481508702039719e-04" rms="4.1493707895278931e-01" purity="7.7125144004821777e-01" nType="-99"/>
        </Node>
      </Node>
    </BinaryTree>
    <BinaryTree type="DecisionTree" boostWeight="1.0000000000000000e+00" itree="376">
      <Node pos="s" depth="0" NCoef="0" IVar="3" Cut="2.8853642940521240e-01" cType="1" res="3.0381575226783752e-02" rms="4.7046276926994324e-01" purity="5.0271749496459961e-01" nType="0">
        <Node pos="l" depth="1" NCoef="0" IVar="4" Cut="8.6137771606445312e-01" cType="1" res="-4.9795076251029968e-02" rms="4.5838889479637146e-01" purity="3.3885294198989868e-01" nType="0">
          <Node pos="l" depth="2" NCoef="0" IVar="-1" Cut="0.0000000000000000e+00" cType="1" res="1.2286739365663379e-04" rms="4.8258459568023682e-01" purity="4.3642809987068176e-01" nType="-99"/>
          <Node pos="r" depth="2" NCoef="0" IVar="-1" Cut="0.0000000000000000e+00" cType="1" res="-7.1787438355386257e-04" rms="4.3802136182785034e-01" purity="2.8248456120491028e-01" nType="-99"/>
        </Node>
        <Node pos="r" depth="1" NCoef="0" IVar="5" Cut="4.7772796630859375e+02" cType="1" res="8.3215996623039246e-02" rms="4.7084808349609375e-01" purity="6.1070013046264648e-01" nType="0">
          <Node pos="l" depth="2" NCoef="0" IVar="-1" Cut="0.0000000000000000e+00" cType="1" res="7.6097639976069331e-05" rms="4.8595407605171204e-01" purity="5.1126945018768311e-01" nType="-99"/>
          <Node pos="r" depth="2" NCoef="0" IVar="-1" Cut="0.0000000000000000e+00" cType="1" res="4.6753426431678236e-04" rms="4.4081223011016846e-01" purity="7.2583407163619995e-01" nType="-99"/>
        </Node>
      </Node>
    </BinaryTree>
    <BinaryTree type="DecisionTree" boostWeight="1.0000000000000000e+00" itree="377">
      <Node pos="s" depth="0" NCoef="0" IVar="5" Cut="3.8681591796875000e+02" cType="1" res="2.5099897757172585e-02" rms="4.6996992826461792e-01" purity="4.9749743938446045e-01" nType="0">
        <Node pos="l" depth="1" NCoef="0" IVar="3" Cut="4.4165396690368652e-01" cType="1" res="-7.3971740901470184e-02" rms="4.4632902741432190e-01" purity="3.2409104704856873e-01" nType="0">
          <Node pos="l" depth="2" NCoef="0" IVar="-1" Cut="0.0000000000000000e+00" cType="1" res="-9.8815001547336578e-04" rms="4.2411658167839050e-01" purity="2.5290340185165405e-01" nType="-99"/>
          <Node pos="r" depth="2" NCoef="0" IVar="-1" Cut="0.0000000000000000e+00" cType="1" res="1.7543099238537252e-04" rms="4.9142971634864807e-01" purity="5.4658567905426025e-01" nType="-99"/>
        </Node>
        <Node pos="r" depth="1" NCoef="0" IVar="4" Cut="9.7963339090347290e-01" cType="1" res="7.5455315411090851e-02" rms="4.7366395592689514e-01" purity="5.8563518524169922e-01" nType="0">
          <Node pos="l" depth="2" NCoef="0" IVar="-1" Cut="0.0000000000000000e+00" cType="1" res="4.3202537926845253e-04" rms="4.5588868856430054e-01" purity="6.5495365858078003e-01" nType="-99"/>
          <Node pos="r" depth="2" NCoef="0" IVar="-1" Cut="0.0000000000000000e+00" cType="1" res="2.7670246254274389e-06" rms="4.8549589514732361e-01" purity="4.9630403518676758e-01" nType="-99"/>
        </Node>
      </Node>
    </BinaryTree>
    <BinaryTree type="DecisionTree" boostWeight="1.0000000000000000e+00" itree="378">
      <Node pos="s" depth="0" NCoef="0" IVar="5" Cut="3.0804876708984375e+02" cType="1" res="3.0649516731500626e-02" rms="4.6954837441444397e-01" purity="5.0410622358322144e-01" nType="0">
        <Node pos="l" depth="1" NCoef="0" IVar="4" Cut="9.0951931476593018e-01" cType="1" res="-1.6217827796936035e-01" rms="3.9530664682388306e-01" purity="2.0709788799285889e-01" nType="0">
          <Node pos="l" depth="2" NCoef="0" IVar="-1" Cut="0.0000000000000000e+00" cType="1" res="-6.2305555911734700e-04" rms="4.4961985945701599e-01" purity="2.9380688071250916e-01" nType="-99"/>
          <Node pos="r" depth="2" NCoef="0" IVar="-1" Cut="0.0000000000000000e+00" cType="1" res="-3.1580368522554636e-03" rms="3.4122344851493835e-01" purity="1.4562346041202545e-01" nType="-99"/>
        </Node>
        <Node pos="r" depth="1" NCoef="0" IVar="4" Cut="7.6313936710357666e-01" cType="1" res="5.8866199105978012e-02" rms="4.7289979457855225e-01" purity="5.4756772518157959e-01" nType="0">
          <Node pos="l" depth="2" NCoef="0" IVar="-1" Cut="0.0000000000000000e+00" cType="1" res="5.3112761816009879e-04" rms="4.3940663337707520e-01" purity="6.9304376840591431e-01" nType="-99"/>
          <Node pos="r" depth="2" NCoef="0" IVar="-1" Cut="0.0000000000000000e+00" cType="1" res="8.0874626291915774e-05" rms="4.7792765498161316e-01" purity="4.9541524052619934e-01" nType="-99"/>
        </Node>
      </Node>
    </BinaryTree>
    <BinaryTree type="DecisionTree" boostWeight="1.0000000000000000e+00" itree="379">
      <Node pos="s" depth="0" NCoef="0" IVar="5" Cut="5.4311877441406250e+02" cType="1" res="3.1567826867103577e-02" rms="4.6965205669403076e-01" purity="5.0502437353134155e-01" nType="0">
        <Node pos="l" depth="1" NCoef="0" IVar="0" Cut="1.5358889770507812e+02" cType="1" res="-1.4619940891861916e-02" rms="4.6757167577743530e-01" purity="4.2980170249938965e-01" nType="0">
          <Node pos="l" depth="2" NCoef="0" IVar="-1" Cut="0.0000000000000000e+00" cType="1" res="4.6117242163745686e-05" rms="4.6825337409973145e-01" purity="4.5176398754119873e-01" nType="-99"/>
          <Node pos="r" depth="2" NCoef="0" IVar="-1" Cut="0.0000000000000000e+00" cType="1" res="-1.5279409708455205e-03" rms="4.2440316081047058e-01" purity="2.7302983403205872e-01" nType="-99"/>
        </Node>
        <Node pos="r" depth="1" NCoef="0" IVar="3" Cut="2.3841378092765808e-01" cType="1" res="1.2535980343818665e-01" rms="4.5978626608848572e-01" purity="6.5777653455734253e-01" nType="0">
          <Node pos="l" depth="2" NCoef="0" IVar="-1" Cut="0.0000000000000000e+00" cType="1" res="2.2300882847048342e-05" rms="4.9305978417396545e-01" purity="4.6239185333251953e-01" nType="-99"/>
          <Node pos="r" depth="2" NCoef="0" IVar="-1" Cut="0.0000000000000000e+00" cType="1" res="4.7795285354368389e-04" rms="4.4242662191390991e-01" purity="7.1811497211456299e-01" nType="-99"/>
        </Node>
      </Node>
    </BinaryTree>
    <BinaryTree type="DecisionTree" boostWeight="1.0000000000000000e+00" itree="380">
      <Node pos="s" depth="0" NCoef="0" IVar="4" Cut="1.0136595964431763e+00" cType="1" res="2.5939354673027992e-02" rms="4.7072392702102661e-01" purity="4.9731004238128662e-01" nType="0">
        <Node pos="l" depth="1" NCoef="0" IVar="3" Cut="3.3335193991661072e-01" cType="1" res="8.2387492060661316e-02" rms="4.6697744727134705e-01" purity="5.6314426660537720e-01" nType="0">
          <Node pos="l" depth="2" NCoef="0" IVar="-1" Cut="0.0000000000000000e+00" cType="1" res="7.9459590779151767e-05" rms="4.7728651762008667e-01" purity="4.3146261572837830e-01" nType="-99"/>
          <Node pos="r" depth="2" NCoef="0" IVar="-1" Cut="0.0000000000000000e+00" cType="1" res="4.6781465061940253e-04" rms="4.4597542285919189e-01" purity="6.9850206375122070e-01" nType="-99"/>
        </Node>
        <Node pos="r" depth="1" NCoef="0" IVar="7" Cut="1.5960823059082031e+02" cType="1" res="-5.7977057993412018e-02" rms="4.6370753645896912e-01" purity="3.9944010972976685e-01" nType="0">
          <Node pos="l" depth="2" NCoef="0" IVar="-1" Cut="0.0000000000000000e+00" cType="1" res="-6.9293740671128035e-04" rms="4.4806477427482605e-01" purity="3.3067736029624939e-01" nType="-99"/>
          <Node pos="r" depth="2" NCoef="0" IVar="-1" Cut="0.0000000000000000e+00" cType="1" res="2.0062626572325826e-04" rms="4.8067560791969299e-01" purity="5.6105989217758179e-01" nType="-99"/>
        </Node>
      </Node>
    </BinaryTree>
    <BinaryTree type="DecisionTree" boostWeight="1.0000000000000000e+00" itree="381">
      <Node pos="s" depth="0" NCoef="0" IVar="4" Cut="7.1329838037490845e-01" cType="1" res="2.7079230174422264e-02" rms="4.7079578042030334e-01" purity="4.9826025962829590e-01" nType="0">
        <Node pos="l" depth="1" NCoef="0" IVar="5" Cut="4.4243859863281250e+02" cType="1" res="1.6887633502483368e-01" rms="4.4539409875869751e-01" purity="6.8055647611618042e-01" nType="0">
          <Node pos="l" depth="2" NCoef="0" IVar="-1" Cut="0.0000000000000000e+00" cType="1" res="3.9281972567550838e-04" rms="4.7417569160461426e-01" purity="5.6227308511734009e-01" nType="-99"/>
          <Node pos="r" depth="2" NCoef="0" IVar="-1" Cut="0.0000000000000000e+00" cType="1" res="5.8948429068550467e-04" rms="4.2118984460830688e-01" purity="7.5521814823150635e-01" nType="-99"/>
        </Node>
        <Node pos="r" depth="1" NCoef="0" IVar="1" Cut="7.6303267478942871e-01" cType="1" res="-5.0470153801143169e-03" rms="4.7046145796775818e-01" purity="4.5695832371711731e-01" nType="0">
          <Node pos="l" depth="2" NCoef="0" IVar="-1" Cut="0.0000000000000000e+00" cType="1" res="-6.2752771191298962e-04" rms="4.5516529679298401e-01" purity="3.4865462779998779e-01" nType="-99"/>
          <Node pos="r" depth="2" NCoef="0" IVar="-1" Cut="0.0000000000000000e+00" cType="1" res="1.8167187226936221e-04" rms="4.7053098678588867e-01" purity="5.1024776697158813e-01" nType="-99"/>
        </Node>
      </Node>
    </BinaryTree>
    <BinaryTree type="DecisionTree" boostWeight="1.0000000000000000e+00" itree="382">
      <Node pos="s" depth="0" NCoef="0" IVar="3" Cut="4.3966969847679138e-01" cType="1" res="2.5468371808528900e-02" rms="4.6898791193962097e-01" purity="4.9841940402984619e-01" nType="0">
        <Node pos="l" depth="1" NCoef="0" IVar="4" Cut="7.5031864643096924e-01" cType="1" res="-1.4379762113094330e-02" rms="4.6933460235595703e-01" purity="4.3148624897003174e-01" nType="0">
          <Node pos="l" depth="2" NCoef="0" IVar="-1" Cut="0.0000000000000000e+00" cType="1" res="3.8305495399981737e-04" rms="4.7195050120353699e-01" purity="5.9205573797225952e-01" nType="-99"/>
          <Node pos="r" depth="2" NCoef="0" IVar="-1" Cut="0.0000000000000000e+00" cType="1" res="-2.7532284730114043e-04" rms="4.6286666393280029e-01" purity="3.8445913791656494e-01" nType="-99"/>
        </Node>
        <Node pos="r" depth="1" NCoef="0" IVar="4" Cut="1.0201588869094849e+00" cType="1" res="1.4559380710124969e-01" rms="4.4693636894226074e-01" purity="7.0019501447677612e-01" nType="0">
          <Node pos="l" depth="2" NCoef="0" IVar="-1" Cut="0.0000000000000000e+00" cType="1" res="5.8431056095287204e-04" rms="4.1138401627540588e-01" purity="7.6793175935745239e-01" nType="-99"/>
          <Node pos="r" depth="2" NCoef="0" IVar="-1" Cut="0.0000000000000000e+00" cType="1" res="1.8254813039675355e-04" rms="4.8256173729896545e-01" purity="5.9315520524978638e-01" nType="-99"/>
        </Node>
      </Node>
    </BinaryTree>
    <BinaryTree type="DecisionTree" boostWeight="1.0000000000000000e+00" itree="383">
      <Node pos="s" depth="0" NCoef="0" IVar="5" Cut="4.5165258789062500e+02" cType="1" res="2.0961092785000801e-02" rms="4.6904489398002625e-01" purity="4.9297943711280823e-01" nType="0">
        <Node pos="l" depth="1" NCoef="0" IVar="6" Cut="1.4719758605957031e+02" cType="1" res="-4.9188937991857529e-02" rms="4.5863333344459534e-01" purity="3.6973929405212402e-01" nType="0">
          <Node pos="l" depth="2" NCoef="0" IVar="-1" Cut="0.0000000000000000e+00" cType="1" res="-4.3618296331260353e-05" rms="4.6591472625732422e-01" purity="4.1047871112823486e-01" nType="-99"/>
          <Node pos="r" depth="2" NCoef="0" IVar="-1" Cut="0.0000000000000000e+00" cType="1" res="-1.1116353562101722e-03" rms="4.2609620094299316e-01" purity="2.7497708797454834e-01" nType="-99"/>
        </Node>
        <Node pos="r" depth="1" NCoef="0" IVar="3" Cut="3.7790682911872864e-01" cType="1" res="9.0841412544250488e-02" rms="4.6887013316154480e-01" purity="6.1574572324752808e-01" nType="0">
          <Node pos="l" depth="2" NCoef="0" IVar="-1" Cut="0.0000000000000000e+00" cType="1" res="1.2286174751352519e-04" rms="4.8907279968261719e-01" purity="5.1588815450668335e-01" nType="-99"/>
          <Node pos="r" depth="2" NCoef="0" IVar="-1" Cut="0.0000000000000000e+00" cType="1" res="5.1405309932306409e-04" rms="4.1930174827575684e-01" purity="7.6935243606567383e-01" nType="-99"/>
        </Node>
      </Node>
    </BinaryTree>
    <BinaryTree type="DecisionTree" boostWeight="1.0000000000000000e+00" itree="384">
      <Node pos="s" depth="0" NCoef="0" IVar="5" Cut="5.4710064697265625e+02" cType="1" res="3.5273212939500809e-02" rms="4.6980890631675720e-01" purity="5.0833058357238770e-01" nType="0">
        <Node pos="l" depth="1" NCoef="0" IVar="4" Cut="7.7955579757690430e-01" cType="1" res="-1.3090698979794979e-02" rms="4.6821248531341553e-01" purity="4.3126961588859558e-01" nType="0">
          <Node pos="l" depth="2" NCoef="0" IVar="-1" Cut="0.0000000000000000e+00" cType="1" res="3.8358962046913803e-04" rms="4.6750935912132263e-01" purity="5.7883787155151367e-01" nType="-99"/>
          <Node pos="r" depth="2" NCoef="0" IVar="-1" Cut="0.0000000000000000e+00" cType="1" res="-2.9932134202681482e-04" rms="4.6211504936218262e-01" purity="3.8127526640892029e-01" nType="-99"/>
        </Node>
        <Node pos="r" depth="1" NCoef="0" IVar="4" Cut="9.2867237329483032e-01" cType="1" res="1.3461631536483765e-01" rms="4.5729929208755493e-01" purity="6.6661947965621948e-01" nType="0">
          <Node pos="l" depth="2" NCoef="0" IVar="-1" Cut="0.0000000000000000e+00" cType="1" res="5.5813067592680454e-04" rms="4.2600262165069580e-01" purity="7.4130731821060181e-01" nType="-99"/>
          <Node pos="r" depth="2" NCoef="0" IVar="-1" Cut="0.0000000000000000e+00" cType="1" res="2.4791739997453988e-04" rms="4.7899436950683594e-01" purity="5.8855742216110229e-01" nType="-99"/>
        </Node>
      </Node>
    </BinaryTree>
    <BinaryTree type="DecisionTree" boostWeight="1.0000000000000000e+00" itree="385">
      <Node pos="s" depth="0" NCoef="0" IVar="5" Cut="3.1430752563476562e+02" cType="1" res="3.1575825065374374e-02" rms="4.7035741806030273e-01" purity="5.0337284803390503e-01" nType="0">
        <Node pos="l" depth="1" NCoef="0" IVar="7" Cut="7.2961425781250000e+01" cType="1" res="-1.2462804466485977e-01" rms="4.1611880064010620e-01" purity="2.4937468767166138e-01" nType="0">
          <Node pos="l" depth="2" NCoef="0" IVar="-1" Cut="0.0000000000000000e+00" cType="1" res="-2.5463108904659748e-03" rms="3.7302064895629883e-01" purity="1.7544946074485779e-01" nType="-99"/>
          <Node pos="r" depth="2" NCoef="0" IVar="-1" Cut="0.0000000000000000e+00" cType="1" res="-6.7156669683754444e-04" rms="4.3356886506080627e-01" purity="2.8973510861396790e-01" nType="-99"/>
        </Node>
        <Node pos="r" depth="1" NCoef="0" IVar="3" Cut="3.9817157387733459e-01" cType="1" res="5.8723390102386475e-02" rms="4.7393551468849182e-01" purity="5.4751664400100708e-01" nType="0">
          <Node pos="l" depth="2" NCoef="0" IVar="-1" Cut="0.0000000000000000e+00" cType="1" res="5.6769393268041313e-05" rms="4.8143419623374939e-01" purity="4.6257922053337097e-01" nType="-99"/>
          <Node pos="r" depth="2" NCoef="0" IVar="-1" Cut="0.0000000000000000e+00" cType="1" res="4.6583329094573855e-04" rms="4.4374945759773254e-01" purity="7.1971762180328369e-01" nType="-99"/>
        </Node>
      </Node>
    </BinaryTree>
    <BinaryTree type="DecisionTree" boostWeight="1.0000000000000000e+00" itree="386">
      <Node pos="s" depth="0" NCoef="0" IVar="4" Cut="8.2072329521179199e-01" cType="1" res="3.0415240675210953e-02" rms="4.7064325213432312e-01" purity="5.0217193365097046e-01" nType="0">
        <Node pos="l" depth="1" NCoef="0" IVar="3" Cut="3.2936793565750122e-01" cType="1" res="1.3087692856788635e-01" rms="4.5725148916244507e-01" purity="6.2829649448394775e-01" nType="0">
          <Node pos="l" depth="2" NCoef="0" IVar="-1" Cut="0.0000000000000000e+00" cType="1" res="2.6319784228689969e-04" rms="4.8219138383865356e-01" purity="4.9730795621871948e-01" nType="-99"/>
          <Node pos="r" depth="2" NCoef="0" IVar="-1" Cut="0.0000000000000000e+00" cType="1" res="5.6486751418560743e-04" rms="4.2229628562927246e-01" purity="7.5085979700088501e-01" nType="-99"/>
        </Node>
        <Node pos="r" depth="1" NCoef="0" IVar="1" Cut="8.5509359836578369e-01" cType="1" res="-2.0408948883414268e-02" rms="4.6915087103843689e-01" purity="4.3836480379104614e-01" nType="0">
          <Node pos="l" depth="2" NCoef="0" IVar="-1" Cut="0.0000000000000000e+00" cType="1" res="-4.8137878184206784e-04" rms="4.5896753668785095e-01" purity="3.6841768026351929e-01" nType="-99"/>
          <Node pos="r" depth="2" NCoef="0" IVar="-1" Cut="0.0000000000000000e+00" cType="1" res="2.0050688181072474e-04" rms="4.7058117389678955e-01" purity="5.1233005523681641e-01" nType="-99"/>
        </Node>
      </Node>
    </BinaryTree>
    <BinaryTree type="DecisionTree" boostWeight="1.0000000000000000e+00" itree="387">
      <Node pos="s" depth="0" NCoef="0" IVar="4" Cut="8.0679893493652344e-01" cType="1" res="2.6722654700279236e-02" rms="4.7042912244796753e-01" purity="4.9818408489227295e-01" nType="0">
        <Node pos="l" depth="1" NCoef="0" IVar="3" Cut="2.2152401506900787e-01" cType="1" res="1.3015985488891602e-01" rms="4.5492660999298096e-01" purity="6.3168442249298096e-01" nType="0">
          <Node pos="l" depth="2" NCoef="0" IVar="-1" Cut="0.0000000000000000e+00" cType="1" res="-1.5915579569991678e-04" rms="4.7758129239082336e-01" purity="3.7518134713172913e-01" nType="-99"/>
          <Node pos="r" depth="2" NCoef="0" IVar="-1" Cut="0.0000000000000000e+00" cType="1" res="5.2054721163585782e-04" rms="4.4048231840133667e-01" purity="6.9479507207870483e-01" nType="-99"/>
        </Node>
        <Node pos="r" depth="1" NCoef="0" IVar="7" Cut="1.4735633850097656e+02" cType="1" res="-2.0045863464474678e-02" rms="4.6985614299774170e-01" purity="4.3782272934913635e-01" nType="0">
          <Node pos="l" depth="2" NCoef="0" IVar="-1" Cut="0.0000000000000000e+00" cType="1" res="-4.1727232746779919e-04" rms="4.5837044715881348e-01" purity="3.6425912380218506e-01" nType="-99"/>
          <Node pos="r" depth="2" NCoef="0" IVar="-1" Cut="0.0000000000000000e+00" cType="1" res="2.7394242351874709e-04" rms="4.7722417116165161e-01" purity="5.7797288894653320e-01" nType="-99"/>
        </Node>
      </Node>
    </BinaryTree>
    <BinaryTree type="DecisionTree" boostWeight="1.0000000000000000e+00" itree="388">
      <Node pos="s" depth="0" NCoef="0" IVar="3" Cut="4.4484946131706238e-01" cType="1" res="1.7984818667173386e-02" rms="4.6899208426475525e-01" purity="4.9028941988945007e-01" nType="0">
        <Node pos="l" depth="1" NCoef="0" IVar="5" Cut="3.5553356933593750e+02" cType="1" res="-1.9648645073175430e-02" rms="4.6837532520294189e-01" purity="4.2767581343650818e-01" nType="0">
          <Node pos="l" depth="2" NCoef="0" IVar="-1" Cut="0.0000000000000000e+00" cType="1" res="-1.2848685728386045e-03" rms="4.0830993652343750e-01" purity="2.2724820673465729e-01" nType="-99"/>
          <Node pos="r" depth="2" NCoef="0" IVar="-1" Cut="0.0000000000000000e+00" cType="1" res="7.8874800237827003e-05" rms="4.8184621334075928e-01" purity="4.9755349755287170e-01" nType="-99"/>
        </Node>
        <Node pos="r" depth="1" NCoef="0" IVar="5" Cut="3.4442398071289062e+02" cType="1" res="1.4092826843261719e-01" rms="4.4955575466156006e-01" purity="6.9483965635299683e-01" nType="0">
          <Node pos="l" depth="2" NCoef="0" IVar="-1" Cut="0.0000000000000000e+00" cType="1" res="7.3623479693196714e-05" rms="4.9531999230384827e-01" purity="5.0404822826385498e-01" nType="-99"/>
          <Node pos="r" depth="2" NCoef="0" IVar="-1" Cut="0.0000000000000000e+00" cType="1" res="5.2668037824332714e-04" rms="4.2746615409851074e-01" purity="7.5328731536865234e-01" nType="-99"/>
        </Node>
      </Node>
    </BinaryTree>
    <BinaryTree type="DecisionTree" boostWeight="1.0000000000000000e+00" itree="389">
      <Node pos="s" depth="0" NCoef="0" IVar="5" Cut="4.2396908569335938e+02" cType="1" res="1.4708340167999268e-02" rms="4.6961736679077148e-01" purity="4.8595249652862549e-01" nType="0">
        <Node pos="l" depth="1" NCoef="0" IVar="6" Cut="1.6962960815429688e+02" cType="1" res="-5.6754581630229950e-02" rms="4.5382750034332275e-01" purity="3.5292565822601318e-01" nType="0">
          <Node pos="l" depth="2" NCoef="0" IVar="-1" Cut="0.0000000000000000e+00" cType="1" res="-1.2521278404165059e-04" rms="4.6219465136528015e-01" purity="3.8909587264060974e-01" nType="-99"/>
          <Node pos="r" depth="2" NCoef="0" IVar="-1" Cut="0.0000000000000000e+00" cType="1" res="-2.3579553235322237e-03" rms="3.7872532010078430e-01" purity="1.9497606158256531e-01" nType="-99"/>
        </Node>
        <Node pos="r" depth="1" NCoef="0" IVar="3" Cut="2.6544773578643799e-01" cType="1" res="7.0333957672119141e-02" rms="4.7415268421173096e-01" purity="5.8949851989746094e-01" nType="0">
          <Node pos="l" depth="2" NCoef="0" IVar="-1" Cut="0.0000000000000000e+00" cType="1" res="-1.3653378118760884e-04" rms="4.8539367318153381e-01" purity="4.1434597969055176e-01" nType="-99"/>
          <Node pos="r" depth="2" NCoef="0" IVar="-1" Cut="0.0000000000000000e+00" cType="1" res="3.7631325540132821e-04" rms="4.6134331822395325e-01" purity="6.7422121763229370e-01" nType="-99"/>
        </Node>
      </Node>
    </BinaryTree>
    <BinaryTree type="DecisionTree" boostWeight="1.0000000000000000e+00" itree="390">
      <Node pos="s" depth="0" NCoef="0" IVar="5" Cut="3.0313430786132812e+02" cType="1" res="3.1267598271369934e-02" rms="4.6987578272819519e-01" purity="5.0273817777633667e-01" nType="0">
        <Node pos="l" depth="1" NCoef="0" IVar="6" Cut="9.8936706542968750e+01" cType="1" res="-1.5078388154506683e-01" rms="3.9806237816810608e-01" purity="2.1784125268459320e-01" nType="0">
          <Node pos="l" depth="2" NCoef="0" IVar="-1" Cut="0.0000000000000000e+00" cType="1" res="-9.6236070385202765e-04" rms="4.2184439301490784e-01" purity="2.6407101750373840e-01" nType="-99"/>
          <Node pos="r" depth="2" NCoef="0" IVar="-1" Cut="0.0000000000000000e+00" cType="1" res="-2.7140297461301088e-03" rms="3.6377546191215515e-01" purity="1.6558521986007690e-01" nType="-99"/>
        </Node>
        <Node pos="r" depth="1" NCoef="0" IVar="6" Cut="1.5244363403320312e+02" cType="1" res="5.6294538080692291e-02" rms="4.7346517443656921e-01" purity="5.4190349578857422e-01" nType="0">
          <Node pos="l" depth="2" NCoef="0" IVar="-1" Cut="0.0000000000000000e+00" cType="1" res="4.1346505167894065e-04" rms="4.6373787522315979e-01" purity="5.9625953435897827e-01" nType="-99"/>
          <Node pos="r" depth="2" NCoef="0" IVar="-1" Cut="0.0000000000000000e+00" cType="1" res="-1.2611468264367431e-04" rms="4.7511336207389832e-01" purity="4.6261724829673767e-01" nType="-99"/>
        </Node>
      </Node>
    </BinaryTree>
    <BinaryTree type="DecisionTree" boostWeight="1.0000000000000000e+00" itree="391">
      <Node pos="s" depth="0" NCoef="0" IVar="4" Cut="6.6125959157943726e-01" cType="1" res="3.3647116273641586e-02" rms="4.7097715735435486e-01" purity="5.0456845760345459e-01" nType="0">
        <Node pos="l" depth="1" NCoef="0" IVar="-1" Cut="0.0000000000000000e+00" cType="1" res="5.8787281159311533e-04" rms="4.3354743719100952e-01" purity="7.1219366788864136e-01" nType="-99"/>
        <Node pos="r" depth="1" NCoef="0" IVar="3" Cut="4.4355595111846924e-01" cType="1" res="1.1067642830312252e-02" rms="4.7162145376205444e-01" purity="4.7543510794639587e-01" nType="0">
          <Node pos="l" depth="2" NCoef="0" IVar="-1" Cut="0.0000000000000000e+00" cType="1" res="-1.4300939801614732e-04" rms="4.7046127915382385e-01" purity="4.0932604670524597e-01" nType="-99"/>
          <Node pos="r" depth="2" NCoef="0" IVar="-1" Cut="0.0000000000000000e+00" cType="1" res="4.2508705519139767e-04" rms="4.5488971471786499e-01" purity="6.8327218294143677e-01" nType="-99"/>
        </Node>
      </Node>
    </BinaryTree>
    <BinaryTree type="DecisionTree" boostWeight="1.0000000000000000e+00" itree="392">
      <Node pos="s" depth="0" NCoef="0" IVar="3" Cut="1.7696514725685120e-01" cType="1" res="3.1939953565597534e-02" rms="4.7018891572952271e-01" purity="5.0340843200683594e-01" nType="0">
        <Node pos="l" depth="1" NCoef="0" IVar="7" Cut="1.2829211425781250e+02" cType="1" res="-1.3498149812221527e-01" rms="4.0930110216140747e-01" purity="2.3944243788719177e-01" nType="0">
          <Node pos="l" depth="2" NCoef="0" IVar="-1" Cut="0.0000000000000000e+00" cType="1" res="-2.8328655753284693e-03" rms="3.4104529023170471e-01" purity="1.4725905656814575e-01" nType="-99"/>
          <Node pos="r" depth="2" NCoef="0" IVar="-1" Cut="0.0000000000000000e+00" cType="1" res="-3.3362957765348256e-04" rms="4.7132712602615356e-01" purity="3.5690760612487793e-01" nType="-99"/>
        </Node>
        <Node pos="r" depth="1" NCoef="0" IVar="4" Cut="7.3866224288940430e-01" cType="1" res="5.7563554495573044e-02" rms="4.7367104887962341e-01" purity="5.4392904043197632e-01" nType="0">
          <Node pos="l" depth="2" NCoef="0" IVar="-1" Cut="0.0000000000000000e+00" cType="1" res="5.5357464589178562e-04" rms="4.4556090235710144e-01" purity="6.9277465343475342e-01" nType="-99"/>
          <Node pos="r" depth="2" NCoef="0" IVar="-1" Cut="0.0000000000000000e+00" cType="1" res="1.0492944420548156e-04" rms="4.7587510943412781e-01" purity="5.0240832567214966e-01" nType="-99"/>
        </Node>
      </Node>
    </BinaryTree>
    <BinaryTree type="DecisionTree" boostWeight="1.0000000000000000e+00" itree="393">
      <Node pos="s" depth="0" NCoef="0" IVar="3" Cut="2.6675775647163391e-01" cType="1" res="2.5042517110705376e-02" rms="4.6935465931892395e-01" purity="4.9705207347869873e-01" nType="0">
        <Node pos="l" depth="1" NCoef="0" IVar="4" Cut="7.6265442371368408e-01" cType="1" res="-8.2250155508518219e-02" rms="4.4195386767387390e-01" purity="2.9793873429298401e-01" nType="0">
          <Node pos="l" depth="2" NCoef="0" IVar="-1" Cut="0.0000000000000000e+00" cType="1" res="6.9525936851277947e-05" rms="4.8229303956031799e-01" purity="4.4355240464210510e-01" nType="-99"/>
          <Node pos="r" depth="2" NCoef="0" IVar="-1" Cut="0.0000000000000000e+00" cType="1" res="-9.3885144451633096e-04" rms="4.2601379752159119e-01" purity="2.5714150071144104e-01" nType="-99"/>
        </Node>
        <Node pos="r" depth="1" NCoef="0" IVar="4" Cut="8.7149125337600708e-01" cType="1" res="7.9052649438381195e-02" rms="4.7344669699668884e-01" purity="5.9728389978408813e-01" nType="0">
          <Node pos="l" depth="2" NCoef="0" IVar="-1" Cut="0.0000000000000000e+00" cType="1" res="5.2496581338346004e-04" rms="4.3932136893272400e-01" purity="7.0588338375091553e-01" nType="-99"/>
          <Node pos="r" depth="2" NCoef="0" IVar="-1" Cut="0.0000000000000000e+00" cType="1" res="4.0117713069776073e-05" rms="4.8622709512710571e-01" purity="5.1530766487121582e-01" nType="-99"/>
        </Node>
      </Node>
    </BinaryTree>
    <BinaryTree type="DecisionTree" boostWeight="1.0000000000000000e+00" itree="394">
      <Node pos="s" depth="0" NCoef="0" IVar="3" Cut="4.0036448836326599e-01" cType="1" res="1.9333111122250557e-02" rms="4.6750026941299438e-01" purity="4.9239873886108398e-01" nType="0">
        <Node pos="l" depth="1" NCoef="0" IVar="4" Cut="7.7888280153274536e-01" cType="1" res="-3.3670477569103241e-02" rms="4.6521964669227600e-01" purity="3.9821889996528625e-01" nType="0">
          <Node pos="l" depth="2" NCoef="0" IVar="-1" Cut="0.0000000000000000e+00" cType="1" res="2.9295758577063680e-04" rms="4.7578445076942444e-01" purity="5.4996806383132935e-01" nType="-99"/>
          <Node pos="r" depth="2" NCoef="0" IVar="-1" Cut="0.0000000000000000e+00" cType="1" res="-4.6573457075282931e-04" rms="4.5461821556091309e-01" purity="3.4259563684463501e-01" nType="-99"/>
        </Node>
        <Node pos="r" depth="1" NCoef="0" IVar="5" Cut="3.6437271118164062e+02" cType="1" res="1.2524372339248657e-01" rms="4.5384612679481506e-01" purity="6.8058675527572632e-01" nType="0">
          <Node pos="l" depth="2" NCoef="0" IVar="-1" Cut="0.0000000000000000e+00" cType="1" res="-4.4941543819732033e-06" rms="4.9217414855957031e-01" purity="4.9141454696655273e-01" nType="-99"/>
          <Node pos="r" depth="2" NCoef="0" IVar="-1" Cut="0.0000000000000000e+00" cType="1" res="4.9627461703494191e-04" rms="4.2982429265975952e-01" purity="7.4978595972061157e-01" nType="-99"/>
        </Node>
      </Node>
    </BinaryTree>
    <BinaryTree type="DecisionTree" boostWeight="1.0000000000000000e+00" itree="395">
      <Node pos="s" depth="0" NCoef="0" IVar="3" Cut="3.7779888510704041e-01" cType="1" res="3.8761761039495468e-02" rms="4.6825078129768372e-01" purity="5.1251518726348877e-01" nType="0">
        <Node pos="l" depth="1" NCoef="0" IVar="5" Cut="4.5298846435546875e+02" cType="1" res="-1.4087975025177002e-02" rms="4.6804130077362061e-01" purity="4.1079941391944885e-01" nType="0">
          <Node pos="l" depth="2" NCoef="0" IVar="-1" Cut="0.0000000000000000e+00" cType="1" res="-6.3653365941718221e-04" rms="4.3884497880935669e-01" purity="2.8356966376304626e-01" nType="-99"/>
          <Node pos="r" depth="2" NCoef="0" IVar="-1" Cut="0.0000000000000000e+00" cType="1" res="2.0148177281953394e-04" rms="4.8695948719978333e-01" purity="5.3984063863754272e-01" nType="-99"/>
        </Node>
        <Node pos="r" depth="1" NCoef="0" IVar="4" Cut="9.8484712839126587e-01" cType="1" res="1.2412468343973160e-01" rms="4.5582598447799683e-01" purity="6.7680656909942627e-01" nType="0">
          <Node pos="l" depth="2" NCoef="0" IVar="-1" Cut="0.0000000000000000e+00" cType="1" res="5.3761142771691084e-04" rms="4.2547196149826050e-01" purity="7.4301183223724365e-01" nType="-99"/>
          <Node pos="r" depth="2" NCoef="0" IVar="-1" Cut="0.0000000000000000e+00" cType="1" res="1.9162787066306919e-04" rms="4.8169171810150146e-01" purity="5.9320753812789917e-01" nType="-99"/>
        </Node>
      </Node>
    </BinaryTree>
    <BinaryTree type="DecisionTree" boostWeight="1.0000000000000000e+00" itree="396">
      <Node pos="s" depth="0" NCoef="0" IVar="3" Cut="4.6573376655578613e-01" cType="1" res="2.4041466414928436e-02" rms="4.6921679377555847e-01" purity="4.9581602215766907e-01" nType="0">
        <Node pos="l" depth="1" NCoef="0" IVar="4" Cut="8.0534237623214722e-01" cType="1" res="-9.3910060822963715e-03" rms="4.6996822953224182e-01" purity="4.4138774275779724e-01" nType="0">
          <Node pos="l" depth="2" NCoef="0" IVar="-1" Cut="0.0000000000000000e+00" cType="1" res="3.5595553345046937e-04" rms="4.6863391995429993e-01" purity="5.8098119497299194e-01" nType="-99"/>
          <Node pos="r" depth="2" NCoef="0" IVar="-1" Cut="0.0000000000000000e+00" cType="1" res="-3.2745944918133318e-04" rms="4.6265044808387756e-01" purity="3.7778091430664062e-01" nType="-99"/>
        </Node>
        <Node pos="r" depth="1" NCoef="0" IVar="7" Cut="1.0907321166992188e+02" cType="1" res="1.5730080008506775e-01" rms="4.4174453616142273e-01" purity="7.1276301145553589e-01" nType="0">
          <Node pos="l" depth="2" NCoef="0" IVar="-1" Cut="0.0000000000000000e+00" cType="1" res="2.6070413878187537e-04" rms="4.8084905743598938e-01" purity="5.9898841381072998e-01" nType="-99"/>
          <Node pos="r" depth="2" NCoef="0" IVar="-1" Cut="0.0000000000000000e+00" cType="1" res="5.9706729371100664e-04" rms="4.0559348464012146e-01" purity="7.8470230102539062e-01" nType="-99"/>
        </Node>
      </Node>
    </BinaryTree>
    <BinaryTree type="DecisionTree" boostWeight="1.0000000000000000e+00" itree="397">
      <Node pos="s" depth="0" NCoef="0" IVar="3" Cut="2.6675775647163391e-01" cType="1" res="3.0373506247997284e-02" rms="4.6850085258483887e-01" purity="5.0323295593261719e-01" nType="0">
        <Node pos="l" depth="1" NCoef="0" IVar="3" Cut="1.4741399884223938e-01" cType="1" res="-6.6245645284652710e-02" rms="4.4848078489303589e-01" purity="3.1439968943595886e-01" nType="0">
          <Node pos="l" depth="2" NCoef="0" IVar="-1" Cut="0.0000000000000000e+00" cType="1" res="-2.2662656847387552e-03" rms="3.6847510933876038e-01" purity="1.7618145048618317e-01" nType="-99"/>
          <Node pos="r" depth="2" NCoef="0" IVar="-1" Cut="0.0000000000000000e+00" cType="1" res="-2.0984307047910988e-04" rms="4.6165367960929871e-01" purity="3.5072746872901917e-01" nType="-99"/>
        </Node>
        <Node pos="r" depth="1" NCoef="0" IVar="4" Cut="1.0136020183563232e+00" cType="1" res="8.0227211117744446e-02" rms="4.7081127762794495e-01" purity="6.0066747665405273e-01" nType="0">
          <Node pos="l" depth="2" NCoef="0" IVar="-1" Cut="0.0000000000000000e+00" cType="1" res="4.3608344276435673e-04" rms="4.5415422320365906e-01" purity="6.6212844848632812e-01" nType="-99"/>
          <Node pos="r" depth="2" NCoef="0" IVar="-1" Cut="0.0000000000000000e+00" cType="1" res="9.6846979431575164e-06" rms="4.8400649428367615e-01" purity="5.0979208946228027e-01" nType="-99"/>
        </Node>
      </Node>
    </BinaryTree>
    <BinaryTree type="DecisionTree" boostWeight="1.0000000000000000e+00" itree="398">
      <Node pos="s" depth="0" NCoef="0" IVar="3" Cut="2.4236679077148438e-01" cType="1" res="3.4045379608869553e-02" rms="4.6889862418174744e-01" purity="5.0679314136505127e-01" nType="0">
        <Node pos="l" depth="1" NCoef="0" IVar="7" Cut="1.6589588928222656e+02" cType="1" res="-7.0491604506969452e-02" rms="4.4395473599433899e-01" purity="3.0668318271636963e-01" nType="0">
          <Node pos="l" depth="2" NCoef="0" IVar="-1" Cut="0.0000000000000000e+00" cType="1" res="-1.0025560623034835e-03" rms="4.1879048943519592e-01" purity="2.4518901109695435e-01" nType="-99"/>
          <Node pos="r" depth="2" NCoef="0" IVar="-1" Cut="0.0000000000000000e+00" cType="1" res="1.8415873637422919e-04" rms="4.9356326460838318e-01" purity="4.8809242248535156e-01" nType="-99"/>
        </Node>
        <Node pos="r" depth="1" NCoef="0" IVar="5" Cut="3.9137020874023438e+02" cType="1" res="7.5304113328456879e-02" rms="4.7205668687820435e-01" purity="5.8577269315719604e-01" nType="0">
          <Node pos="l" depth="2" NCoef="0" IVar="-1" Cut="0.0000000000000000e+00" cType="1" res="-7.1069247496780008e-05" rms="4.8015114665031433e-01" purity="4.2799445986747742e-01" nType="-99"/>
          <Node pos="r" depth="2" NCoef="0" IVar="-1" Cut="0.0000000000000000e+00" cType="1" res="3.9446304435841739e-04" rms="4.6134033799171448e-01" purity="6.6572809219360352e-01" nType="-99"/>
        </Node>
      </Node>
    </BinaryTree>
    <BinaryTree type="DecisionTree" boostWeight="1.0000000000000000e+00" itree="399">
      <Node pos="s" depth="0" NCoef="0" IVar="5" Cut="3.9576910400390625e+02" cType="1" res="3.0196007341146469e-02" rms="4.6774789690971375e-01" purity="5.0346374511718750e-01" nType="0">
        <Node pos="l" depth="1" NCoef="0" IVar="3" Cut="4.6129351854324341e-01" cType="1" res="-6.2628388404846191e-02" rms="4.4727593660354614e-01" purity="3.3794549107551575e-01" nType="0">
          <Node pos="l" depth="2" NCoef="0" IVar="-1" Cut="0.0000000000000000e+00" cType="1" res="-8.3208875730633736e-04" rms="4.2844876646995544e-01" purity="2.6945888996124268e-01" nType="-99"/>
          <Node pos="r" depth="2" NCoef="0" IVar="-1" Cut="0.0000000000000000e+00" cType="1" res="3.1060454784892499e-04" rms="4.8410069942474365e-01" purity="5.8899849653244019e-01" nType="-99"/>
        </Node>
        <Node pos="r" depth="1" NCoef="0" IVar="4" Cut="9.2813897132873535e-01" cType="1" res="8.2541331648826599e-02" rms="4.7090619802474976e-01" purity="5.9680241346359253e-01" nType="0">
          <Node pos="l" depth="2" NCoef="0" IVar="-1" Cut="0.0000000000000000e+00" cType="1" res="4.7897110925987363e-04" rms="4.4969677925109863e-01" purity="6.7689806222915649e-01" nType="-99"/>
          <Node pos="r" depth="2" NCoef="0" IVar="-1" Cut="0.0000000000000000e+00" cType="1" res="6.6543463617563248e-05" rms="4.8184868693351746e-01" purity="5.1768624782562256e-01" nType="-99"/>
        </Node>
      </Node>
    </BinaryTree>
    <BinaryTree type="DecisionTree" boostWeight="1.0000000000000000e+00" itree="400">
      <Node pos="s" depth="0" NCoef="0" IVar="4" Cut="7.6796150207519531e-01" cType="1" res="3.1898077577352524e-02" rms="4.6944960951805115e-01" purity="5.0445580482482910e-01" nType="0">
        <Node pos="l" depth="1" NCoef="0" IVar="3" Cut="2.4367642402648926e-01" cType="1" res="1.4732547104358673e-01" rms="4.5590367913246155e-01" purity="6.5011316537857056e-01" nType="0">
          <Node pos="l" depth="2" NCoef="0" IVar="-1" Cut="0.0000000000000000e+00" cType="1" res="2.3600678832735866e-04" rms="4.8667237162590027e-01" purity="4.7628551721572876e-01" nType="-99"/>
          <Node pos="r" depth="2" NCoef="0" IVar="-1" Cut="0.0000000000000000e+00" cType="1" res="5.5915303528308868e-04" rms="4.3889686465263367e-01" purity="7.1384024620056152e-01" nType="-99"/>
        </Node>
        <Node pos="r" depth="1" NCoef="0" IVar="5" Cut="5.9455310058593750e+02" cType="1" res="-6.8122539669275284e-03" rms="4.6756809949874878e-01" purity="4.5560744404792786e-01" nType="0">
          <Node pos="l" depth="2" NCoef="0" IVar="-1" Cut="0.0000000000000000e+00" cType="1" res="-2.4689367273822427e-04" rms="4.6098467707633972e-01" purity="3.9674118161201477e-01" nType="-99"/>
          <Node pos="r" depth="2" NCoef="0" IVar="-1" Cut="0.0000000000000000e+00" cType="1" res="3.6795323831029236e-04" rms="4.6856775879859924e-01" purity="6.3443583250045776e-01" nType="-99"/>
        </Node>
      </Node>
    </BinaryTree>
    <BinaryTree type="DecisionTree" boostWeight="1.0000000000000000e+00" itree="401">
      <Node pos="s" depth="0" NCoef="0" IVar="4" Cut="8.1238251924514771e-01" cType="1" res="3.3647652715444565e-02" rms="4.6878826618194580e-01" purity="5.0638747215270996e-01" nType="0">
        <Node pos="l" depth="1" NCoef="0" IVar="3" Cut="2.4367642402648926e-01" cType="1" res="1.3239093124866486e-01" rms="4.5572197437286377e-01" purity="6.3202339410781860e-01" nType="0">
          <Node pos="l" depth="2" NCoef="0" IVar="-1" Cut="0.0000000000000000e+00" cType="1" res="7.4492112617008388e-05" rms="4.7871589660644531e-01" purity="4.2760339379310608e-01" nType="-99"/>
          <Node pos="r" depth="2" NCoef="0" IVar="-1" Cut="0.0000000000000000e+00" cType="1" res="5.3553190082311630e-04" rms="4.3996113538742065e-01" purity="7.0393425226211548e-01" nType="-99"/>
        </Node>
        <Node pos="r" depth="1" NCoef="0" IVar="7" Cut="2.0289489746093750e+02" cType="1" res="-1.2451814487576485e-02" rms="4.6768036484718323e-01" purity="4.4773286581039429e-01" nType="0">
          <Node pos="l" depth="2" NCoef="0" IVar="-1" Cut="0.0000000000000000e+00" cType="1" res="-2.2883359633851796e-04" rms="4.6371442079544067e-01" purity="4.0421447157859802e-01" nType="-99"/>
          <Node pos="r" depth="2" NCoef="0" IVar="-1" Cut="0.0000000000000000e+00" cType="1" res="4.4896296458318830e-04" rms="4.5805341005325317e-01" purity="6.6509556770324707e-01" nType="-99"/>
        </Node>
      </Node>
    </BinaryTree>
    <BinaryTree type="DecisionTree" boostWeight="1.0000000000000000e+00" itree="402">
      <Node pos="s" depth="0" NCoef="0" IVar="3" Cut="3.1121736764907837e-01" cType="1" res="3.3988390117883682e-02" rms="4.6990385651588440e-01" purity="5.0563818216323853e-01" nType="0">
        <Node pos="l" depth="1" NCoef="0" IVar="7" Cut="1.6286111450195312e+02" cType="1" res="-3.2047249376773834e-02" rms="4.6245688199996948e-01" purity="3.6393865942955017e-01" nType="0">
          <Node pos="l" depth="2" NCoef="0" IVar="-1" Cut="0.0000000000000000e+00" cType="1" res="-5.0793739501386881e-04" rms="4.4549405574798584e-01" purity="3.0319425463676453e-01" nType="-99"/>
          <Node pos="r" depth="2" NCoef="0" IVar="-1" Cut="0.0000000000000000e+00" cType="1" res="2.8123590163886547e-04" rms="4.9134275317192078e-01" purity="5.2991122007369995e-01" nType="-99"/>
        </Node>
        <Node pos="r" depth="1" NCoef="0" IVar="4" Cut="1.0591555833816528e+00" cType="1" res="8.9456498622894287e-02" rms="4.6893730759620667e-01" purity="6.2466186285018921e-01" nType="0">
          <Node pos="l" depth="2" NCoef="0" IVar="-1" Cut="0.0000000000000000e+00" cType="1" res="4.4619364780373871e-04" rms="4.5186522603034973e-01" purity="6.8015629053115845e-01" nType="-99"/>
          <Node pos="r" depth="2" NCoef="0" IVar="-1" Cut="0.0000000000000000e+00" cType="1" res="-2.0072266124770977e-05" rms="4.8565787076950073e-01" purity="5.2027189731597900e-01" nType="-99"/>
        </Node>
      </Node>
    </BinaryTree>
    <BinaryTree type="DecisionTree" boostWeight="1.0000000000000000e+00" itree="403">
      <Node pos="s" depth="0" NCoef="0" IVar="3" Cut="3.5587954521179199e-01" cType="1" res="2.3951618000864983e-02" rms="4.6828591823577881e-01" purity="4.9633002281188965e-01" nType="0">
        <Node pos="l" depth="1" NCoef="0" IVar="4" Cut="7.4438643455505371e-01" cType="1" res="-3.6256451159715652e-02" rms="4.6341943740844727e-01" purity="3.7606921792030334e-01" nType="0">
          <Node pos="l" depth="2" NCoef="0" IVar="-1" Cut="0.0000000000000000e+00" cType="1" res="3.3909143530763686e-04" rms="4.7750458121299744e-01" purity="5.5662226676940918e-01" nType="-99"/>
          <Node pos="r" depth="2" NCoef="0" IVar="-1" Cut="0.0000000000000000e+00" cType="1" res="-4.7559541417285800e-04" rms="4.5285928249359131e-01" purity="3.2412475347518921e-01" nType="-99"/>
        </Node>
        <Node pos="r" depth="1" NCoef="0" IVar="5" Cut="3.6805935668945312e+02" cType="1" res="1.0221397131681442e-01" rms="4.6297779679298401e-01" purity="6.5265274047851562e-01" nType="0">
          <Node pos="l" depth="2" NCoef="0" IVar="-1" Cut="0.0000000000000000e+00" cType="1" res="-5.2705596317537129e-05" rms="4.9040934443473816e-01" purity="4.7296869754791260e-01" nType="-99"/>
          <Node pos="r" depth="2" NCoef="0" IVar="-1" Cut="0.0000000000000000e+00" cType="1" res="4.3673068284988403e-04" rms="4.4420701265335083e-01" purity="7.2208327054977417e-01" nType="-99"/>
        </Node>
      </Node>
    </BinaryTree>
    <BinaryTree type="DecisionTree" boostWeight="1.0000000000000000e+00" itree="404">
      <Node pos="s" depth="0" NCoef="0" IVar="4" Cut="9.7047132253646851e-01" cType="1" res="2.5185778737068176e-02" rms="4.6883654594421387e-01" purity="4.9702581763267517e-01" nType="0">
        <Node pos="l" depth="1" NCoef="0" IVar="5" Cut="4.6890304565429688e+02" cType="1" res="8.6311548948287964e-02" rms="4.6572610735893250e-01" purity="5.6977707147598267e-01" nType="0">
          <Node pos="l" depth="2" NCoef="0" IVar="-1" Cut="0.0000000000000000e+00" cType="1" res="1.1759162589441985e-04" rms="4.7131714224815369e-01" purity="4.6269080042839050e-01" nType="-99"/>
          <Node pos="r" depth="2" NCoef="0" IVar="-1" Cut="0.0000000000000000e+00" cType="1" res="4.7864060616120696e-04" rms="4.4961524009704590e-01" purity="6.8962085247039795e-01" nType="-99"/>
        </Node>
        <Node pos="r" depth="1" NCoef="0" IVar="3" Cut="3.3344718813896179e-01" cType="1" res="-4.5929349958896637e-02" rms="4.6236929297447205e-01" purity="4.1238528490066528e-01" nType="0">
          <Node pos="l" depth="2" NCoef="0" IVar="-1" Cut="0.0000000000000000e+00" cType="1" res="-1.0414789430797100e-03" rms="4.2590451240539551e-01" purity="2.6167857646942139e-01" nType="-99"/>
          <Node pos="r" depth="2" NCoef="0" IVar="-1" Cut="0.0000000000000000e+00" cType="1" res="1.2073381367372349e-04" rms="4.8406857252120972e-01" purity="5.6351625919342041e-01" nType="-99"/>
        </Node>
      </Node>
    </BinaryTree>
    <BinaryTree type="DecisionTree" boostWeight="1.0000000000000000e+00" itree="405">
      <Node pos="s" depth="0" NCoef="0" IVar="5" Cut="4.4844699096679688e+02" cType="1" res="3.4421950578689575e-02" rms="4.6855321526527405e-01" purity="5.0754100084304810e-01" nType="0">
        <Node pos="l" depth="1" NCoef="0" IVar="6" Cut="1.9854609680175781e+02" cType="1" res="-3.2833062112331390e-02" rms="4.6221280097961426e-01" purity="3.8422611355781555e-01" nType="0">
          <Node pos="l" depth="2" NCoef="0" IVar="-1" Cut="0.0000000000000000e+00" cType="1" res="-4.6596338506788015e-05" rms="4.6580037474632263e-01" purity="4.0885180234909058e-01" nType="-99"/>
          <Node pos="r" depth="2" NCoef="0" IVar="-1" Cut="0.0000000000000000e+00" cType="1" res="-2.2708233445882797e-03" rms="3.9687910676002502e-01" purity="2.1197523176670074e-01" nType="-99"/>
        </Node>
        <Node pos="r" depth="1" NCoef="0" IVar="3" Cut="3.5443842411041260e-01" cType="1" res="9.8778069019317627e-02" rms="4.6553111076354980e-01" purity="6.2554067373275757e-01" nType="0">
          <Node pos="l" depth="2" NCoef="0" IVar="-1" Cut="0.0000000000000000e+00" cType="1" res="1.3027645763941109e-04" rms="4.8986440896987915e-01" purity="5.0789803266525269e-01" nType="-99"/>
          <Node pos="r" depth="2" NCoef="0" IVar="-1" Cut="0.0000000000000000e+00" cType="1" res="5.0071347504854202e-04" rms="4.2163872718811035e-01" purity="7.6436126232147217e-01" nType="-99"/>
        </Node>
      </Node>
    </BinaryTree>
    <BinaryTree type="DecisionTree" boostWeight="1.0000000000000000e+00" itree="406">
      <Node pos="s" depth="0" NCoef="0" IVar="3" Cut="2.4452793598175049e-01" cType="1" res="3.0097687616944313e-02" rms="4.6807780861854553e-01" purity="5.0278800725936890e-01" nType="0">
        <Node pos="l" depth="1" NCoef="0" IVar="7" Cut="1.5915447998046875e+02" cType="1" res="-7.0681944489479065e-02" rms="4.4247815012931824e-01" purity="3.0690780282020569e-01" nType="0">
          <Node pos="l" depth="2" NCoef="0" IVar="-1" Cut="0.0000000000000000e+00" cType="1" res="-1.0316990083083510e-03" rms="4.1251787543296814e-01" purity="2.3811125755310059e-01" nType="-99"/>
          <Node pos="r" depth="2" NCoef="0" IVar="-1" Cut="0.0000000000000000e+00" cType="1" res="1.8168403767049313e-04" rms="4.9371203780174255e-01" purity="4.8306465148925781e-01" nType="-99"/>
        </Node>
        <Node pos="r" depth="1" NCoef="0" IVar="5" Cut="3.6805935668945312e+02" cType="1" res="7.1100890636444092e-02" rms="4.7198215126991272e-01" purity="5.8248376846313477e-01" nType="0">
          <Node pos="l" depth="2" NCoef="0" IVar="-1" Cut="0.0000000000000000e+00" cType="1" res="-2.0178758131805807e-04" rms="4.7742405533790588e-01" purity="3.9711332321166992e-01" nType="-99"/>
          <Node pos="r" depth="2" NCoef="0" IVar="-1" Cut="0.0000000000000000e+00" cType="1" res="3.7289518513716757e-04" rms="4.6335956454277039e-01" purity="6.5312165021896362e-01" nType="-99"/>
        </Node>
      </Node>
    </BinaryTree>
    <BinaryTree type="DecisionTree" boostWeight="1.0000000000000000e+00" itree="407">
      <Node pos="s" depth="0" NCoef="0" IVar="4" Cut="9.3728756904602051e-01" cType="1" res="2.2426560521125793e-02" rms="4.7057771682739258e-01" purity="4.9248307943344116e-01" nType="0">
        <Node pos="l" depth="1" NCoef="0" IVar="3" Cut="2.2152401506900787e-01" cType="1" res="8.3046309649944305e-02" rms="4.6541357040405273e-01" purity="5.6951624155044556e-01" nType="0">
          <Node pos="l" depth="2" NCoef="0" IVar="-1" Cut="0.0000000000000000e+00" cType="1" res="-2.6932178298011422e-04" rms="4.6194294095039368e-01" purity="3.4404820203781128e-01" nType="-99"/>
          <Node pos="r" depth="2" NCoef="0" IVar="-1" Cut="0.0000000000000000e+00" cType="1" res="4.0928935050033033e-04" rms="4.6005007624626160e-01" purity="6.3420844078063965e-01" nType="-99"/>
        </Node>
        <Node pos="r" depth="1" NCoef="0" IVar="7" Cut="1.7447122192382812e+02" cType="1" res="-3.5637415945529938e-02" rms="4.6816870570182800e-01" purity="4.1869774460792542e-01" nType="0">
          <Node pos="l" depth="2" NCoef="0" IVar="-1" Cut="0.0000000000000000e+00" cType="1" res="-4.8902962589636445e-04" rms="4.5694690942764282e-01" purity="3.5448658466339111e-01" nType="-99"/>
          <Node pos="r" depth="2" NCoef="0" IVar="-1" Cut="0.0000000000000000e+00" cType="1" res="3.4420989686623216e-04" rms="4.7598642110824585e-01" purity="6.1081123352050781e-01" nType="-99"/>
        </Node>
      </Node>
    </BinaryTree>
    <BinaryTree type="DecisionTree" boostWeight="1.0000000000000000e+00" itree="408">
      <Node pos="s" depth="0" NCoef="0" IVar="4" Cut="8.8831233978271484e-01" cType="1" res="2.3491568863391876e-02" rms="4.6876782178878784e-01" purity="4.9521517753601074e-01" nType="0">
        <Node pos="l" depth="1" NCoef="0" IVar="3" Cut="3.2731735706329346e-01" cType="1" res="9.9709264934062958e-02" rms="4.6096488833427429e-01" purity="5.9210348129272461e-01" nType="0">
          <Node pos="l" depth="2" NCoef="0" IVar="-1" Cut="0.0000000000000000e+00" cType="1" res="1.1274691496510059e-04" rms="4.7800329327583313e-01" purity="4.4807681441307068e-01" nType="-99"/>
          <Node pos="r" depth="2" NCoef="0" IVar="-1" Cut="0.0000000000000000e+00" cType="1" res="5.1188713405281305e-04" rms="4.3273299932479858e-01" purity="7.2579771280288696e-01" nType="-99"/>
        </Node>
        <Node pos="r" depth="1" NCoef="0" IVar="1" Cut="8.4171181917190552e-01" cType="1" res="-3.3313527703285217e-02" rms="4.6646946668624878e-01" purity="4.2300429940223694e-01" nType="0">
          <Node pos="l" depth="2" NCoef="0" IVar="-1" Cut="0.0000000000000000e+00" cType="1" res="-7.0236285682767630e-04" rms="4.4960007071495056e-01" purity="3.4093862771987915e-01" nType="-99"/>
          <Node pos="r" depth="2" NCoef="0" IVar="-1" Cut="0.0000000000000000e+00" cType="1" res="1.3618060620501637e-04" rms="4.7097212076187134e-01" purity="4.9265703558921814e-01" nType="-99"/>
        </Node>
      </Node>
    </BinaryTree>
    <BinaryTree type="DecisionTree" boostWeight="1.0000000000000000e+00" itree="409">
      <Node pos="s" depth="0" NCoef="0" IVar="3" Cut="2.1992212533950806e-01" cType="1" res="2.1313879638910294e-02" rms="4.6890398859977722e-01" purity="4.9330887198448181e-01" nType="0">
        <Node pos="l" depth="1" NCoef="0" IVar="1" Cut="6.8389332294464111e-01" cType="1" res="-9.7654402256011963e-02" rms="4.3222194910049438e-01" purity="2.7334204316139221e-01" nType="0">
          <Node pos="l" depth="2" NCoef="0" IVar="-1" Cut="0.0000000000000000e+00" cType="1" res="-2.5889414828270674e-03" rms="3.7012159824371338e-01" purity="1.6881540417671204e-01" nType="-99"/>
          <Node pos="r" depth="2" NCoef="0" IVar="-1" Cut="0.0000000000000000e+00" cType="1" res="-5.0470599671825767e-04" rms="4.4441244006156921e-01" purity="3.0317920446395874e-01" nType="-99"/>
        </Node>
        <Node pos="r" depth="1" NCoef="0" IVar="7" Cut="1.1999278259277344e+02" cType="1" res="5.7066772133111954e-02" rms="4.7357481718063354e-01" purity="5.5941432714462280e-01" nType="0">
          <Node pos="l" depth="2" NCoef="0" IVar="-1" Cut="0.0000000000000000e+00" cType="1" res="-2.2969303245190531e-05" rms="4.7690901160240173e-01" purity="4.6885353326797485e-01" nType="-99"/>
          <Node pos="r" depth="2" NCoef="0" IVar="-1" Cut="0.0000000000000000e+00" cType="1" res="3.9081866270862520e-04" rms="4.6244323253631592e-01" purity="6.4722055196762085e-01" nType="-99"/>
        </Node>
      </Node>
    </BinaryTree>
    <BinaryTree type="DecisionTree" boostWeight="1.0000000000000000e+00" itree="410">
      <Node pos="s" depth="0" NCoef="0" IVar="3" Cut="3.1112849712371826e-01" cType="1" res="2.4727735668420792e-02" rms="4.6797844767570496e-01" purity="4.9731749296188354e-01" nType="0">
        <Node pos="l" depth="1" NCoef="0" IVar="5" Cut="5.5457910156250000e+02" cType="1" res="-4.7587253153324127e-02" rms="4.5726683735847473e-01" purity="3.4694534540176392e-01" nType="0">
          <Node pos="l" depth="2" NCoef="0" IVar="-1" Cut="0.0000000000000000e+00" cType="1" res="-7.3527335189282894e-04" rms="4.3512910604476929e-01" purity="2.7199569344520569e-01" nType="-99"/>
          <Node pos="r" depth="2" NCoef="0" IVar="-1" Cut="0.0000000000000000e+00" cType="1" res="1.8867239123210311e-04" rms="4.9243888258934021e-01" purity="5.2248591184616089e-01" nType="-99"/>
        </Node>
        <Node pos="r" depth="1" NCoef="0" IVar="4" Cut="1.1123856306076050e+00" cType="1" res="8.4155440330505371e-02" rms="4.6831539273262024e-01" purity="6.2089180946350098e-01" nType="0">
          <Node pos="l" depth="2" NCoef="0" IVar="-1" Cut="0.0000000000000000e+00" cType="1" res="4.2844831477850676e-04" rms="4.5248365402221680e-01" purity="6.7415475845336914e-01" nType="-99"/>
          <Node pos="r" depth="2" NCoef="0" IVar="-1" Cut="0.0000000000000000e+00" cType="1" res="-1.7108520842157304e-04" rms="4.8457321524620056e-01" purity="4.8794093728065491e-01" nType="-99"/>
        </Node>
      </Node>
    </BinaryTree>
    <BinaryTree type="DecisionTree" boostWeight="1.0000000000000000e+00" itree="411">
      <Node pos="s" depth="0" NCoef="0" IVar="3" Cut="3.3363708853721619e-01" cType="1" res="3.0769288539886475e-02" rms="4.6723350882530212e-01" purity="5.0438630580902100e-01" nType="0">
        <Node pos="l" depth="1" NCoef="0" IVar="7" Cut="1.6460197448730469e+02" cType="1" res="-3.5680565983057022e-02" rms="4.6238306164741516e-01" purity="3.6680689454078674e-01" nType="0">
          <Node pos="l" depth="2" NCoef="0" IVar="-1" Cut="0.0000000000000000e+00" cType="1" res="-4.4597013038583100e-04" rms="4.4770386815071106e-01" purity="3.1762579083442688e-01" nType="-99"/>
          <Node pos="r" depth="2" NCoef="0" IVar="-1" Cut="0.0000000000000000e+00" cType="1" res="2.1952686074655503e-04" rms="4.9392005801200867e-01" purity="5.1675277948379517e-01" nType="-99"/>
        </Node>
        <Node pos="r" depth="1" NCoef="0" IVar="5" Cut="3.0784585571289062e+02" cType="1" res="9.8439604043960571e-02" rms="4.6241009235382080e-01" purity="6.4449262619018555e-01" nType="0">
          <Node pos="l" depth="2" NCoef="0" IVar="-1" Cut="0.0000000000000000e+00" cType="1" res="-6.4275041222572327e-04" rms="4.7006353735923767e-01" purity="3.4521317481994629e-01" nType="-99"/>
          <Node pos="r" depth="2" NCoef="0" IVar="-1" Cut="0.0000000000000000e+00" cType="1" res="4.0407484630122781e-04" rms="4.5435607433319092e-01" purity="6.8549674749374390e-01" nType="-99"/>
        </Node>
      </Node>
    </BinaryTree>
    <BinaryTree type="DecisionTree" boostWeight="1.0000000000000000e+00" itree="412">
      <Node pos="s" depth="0" NCoef="0" IVar="3" Cut="3.1073153018951416e-01" cType="1" res="2.3485634475946426e-02" rms="4.6670678257942200e-01" purity="4.9747568368911743e-01" nType="0">
        <Node pos="l" depth="1" NCoef="0" IVar="5" Cut="6.3217053222656250e+02" cType="1" res="-5.0624925643205643e-02" rms="4.5585867762565613e-01" purity="3.4294167160987854e-01" nType="0">
          <Node pos="l" depth="2" NCoef="0" IVar="-1" Cut="0.0000000000000000e+00" cType="1" res="-5.6772294919937849e-04" rms="4.4262397289276123e-01" purity="2.9542818665504456e-01" nType="-99"/>
          <Node pos="r" depth="2" NCoef="0" IVar="-1" Cut="0.0000000000000000e+00" cType="1" res="2.1669291891157627e-04" rms="4.9184066057205200e-01" purity="5.3465300798416138e-01" nType="-99"/>
        </Node>
        <Node pos="r" depth="1" NCoef="0" IVar="5" Cut="4.8909146118164062e+02" cType="1" res="8.3001427352428436e-02" rms="4.6679711341857910e-01" purity="6.2157696485519409e-01" nType="0">
          <Node pos="l" depth="2" NCoef="0" IVar="-1" Cut="0.0000000000000000e+00" cType="1" res="7.1996095357462764e-05" rms="4.8208543658256531e-01" purity="5.2522414922714233e-01" nType="-99"/>
          <Node pos="r" depth="2" NCoef="0" IVar="-1" Cut="0.0000000000000000e+00" cType="1" res="4.7538816579617560e-04" rms="4.3303915858268738e-01" purity="7.4249452352523804e-01" nType="-99"/>
        </Node>
      </Node>
    </BinaryTree>
    <BinaryTree type="DecisionTree" boostWeight="1.0000000000000000e+00" itree="413">
      <Node pos="s" depth="0" NCoef="0" IVar="5" Cut="3.2087207031250000e+02" cType="1" res="2.4515936151146889e-02" rms="4.6676757931709290e-01" purity="4.9822744727134705e-01" nType="0">
        <Node pos="l" depth="1" NCoef="0" IVar="5" Cut="2.9530264282226562e+02" cType="1" res="-1.3121378421783447e-01" rms="4.0917307138442993e-01" purity="2.4084779620170593e-01" nType="0">
          <Node pos="l" depth="2" NCoef="0" IVar="-1" Cut="0.0000000000000000e+00" cType="1" res="-2.3408615961670876e-03" rms="3.7009334564208984e-01" purity="1.7862635850906372e-01" nType="-99"/>
          <Node pos="r" depth="2" NCoef="0" IVar="-1" Cut="0.0000000000000000e+00" cType="1" res="-2.9547626036219299e-04" rms="4.5242589712142944e-01" purity="3.4206962585449219e-01" nType="-99"/>
        </Node>
        <Node pos="r" depth="1" NCoef="0" IVar="3" Cut="3.5587954521179199e-01" cType="1" res="5.4864000529050827e-02" rms="4.7122848033905029e-01" purity="5.4838466644287109e-01" nType="0">
          <Node pos="l" depth="2" NCoef="0" IVar="-1" Cut="0.0000000000000000e+00" cType="1" res="-4.4469186832429841e-05" rms="4.7739169001579285e-01" purity="4.2568653821945190e-01" nType="-99"/>
          <Node pos="r" depth="2" NCoef="0" IVar="-1" Cut="0.0000000000000000e+00" cType="1" res="4.2007333831861615e-04" rms="4.5081230998039246e-01" purity="7.0238137245178223e-01" nType="-99"/>
        </Node>
      </Node>
    </BinaryTree>
    <BinaryTree type="DecisionTree" boostWeight="1.0000000000000000e+00" itree="414">
      <Node pos="s" depth="0" NCoef="0" IVar="7" Cut="1.2517662811279297e+02" cType="1" res="2.0233780145645142e-02" rms="4.6934142708778381e-01" purity="4.9066376686096191e-01" nType="0">
        <Node pos="l" depth="1" NCoef="0" IVar="4" Cut="7.9043966531753540e-01" cType="1" res="-3.7257269024848938e-02" rms="4.6200293302536011e-01" purity="4.0246477723121643e-01" nType="0">
          <Node pos="l" depth="2" NCoef="0" IVar="-1" Cut="0.0000000000000000e+00" cType="1" res="2.7238062466494739e-04" rms="4.7133520245552063e-01" purity="5.4094398021697998e-01" nType="-99"/>
          <Node pos="r" depth="2" NCoef="0" IVar="-1" Cut="0.0000000000000000e+00" cType="1" res="-4.7422628267668188e-04" rms="4.5231649279594421e-01" purity="3.5075560212135315e-01" nType="-99"/>
        </Node>
        <Node pos="r" depth="1" NCoef="0" IVar="6" Cut="1.9043882751464844e+02" cType="1" res="8.6359158158302307e-02" rms="4.6900781989097595e-01" purity="5.9210890531539917e-01" nType="0">
          <Node pos="l" depth="2" NCoef="0" IVar="-1" Cut="0.0000000000000000e+00" cType="1" res="4.5001431135460734e-04" rms="4.5573672652244568e-01" purity="6.3805127143859863e-01" nType="-99"/>
          <Node pos="r" depth="2" NCoef="0" IVar="-1" Cut="0.0000000000000000e+00" cType="1" res="2.5540235583321191e-05" rms="4.7948884963989258e-01" purity="5.1611357927322388e-01" nType="-99"/>
        </Node>
      </Node>
    </BinaryTree>
    <BinaryTree type="DecisionTree" boostWeight="1.0000000000000000e+00" itree="415">
      <Node pos="s" depth="0" NCoef="0" IVar="5" Cut="4.6496731567382812e+02" cType="1" res="1.9035544246435165e-02" rms="4.6926417946815491e-01" purity="4.8937138915061951e-01" nType="0">
        <Node pos="l" depth="1" NCoef="0" IVar="0" Cut="1.2848835754394531e+02" cType="1" res="-4.6290367841720581e-02" rms="4.5840609073638916e-01" purity="3.7462630867958069e-01" nType="0">
          <Node pos="l" depth="2" NCoef="0" IVar="-1" Cut="0.0000000000000000e+00" cType="1" res="-4.9309044698020443e-05" rms="4.6534630656242371e-01" purity="4.0970873832702637e-01" nType="-99"/>
          <Node pos="r" depth="2" NCoef="0" IVar="-1" Cut="0.0000000000000000e+00" cType="1" res="-1.6879177419468760e-03" rms="3.9978137612342834e-01" purity="2.3985989391803741e-01" nType="-99"/>
        </Node>
        <Node pos="r" depth="1" NCoef="0" IVar="3" Cut="2.6248538494110107e-01" cType="1" res="9.1250672936439514e-02" rms="4.7054362297058105e-01" purity="6.1621737480163574e-01" nType="0">
          <Node pos="l" depth="2" NCoef="0" IVar="-1" Cut="0.0000000000000000e+00" cType="1" res="1.0104159855472972e-06" rms="4.9206885695457458e-01" purity="4.4775220751762390e-01" nType="-99"/>
          <Node pos="r" depth="2" NCoef="0" IVar="-1" Cut="0.0000000000000000e+00" cType="1" res="4.1882981895469129e-04" rms="4.5390662550926208e-01" purity="6.9500929117202759e-01" nType="-99"/>
        </Node>
      </Node>
    </BinaryTree>
    <BinaryTree type="DecisionTree" boostWeight="1.0000000000000000e+00" itree="416">
      <Node pos="s" depth="0" NCoef="0" IVar="5" Cut="3.1463327026367188e+02" cType="1" res="3.6801382899284363e-02" rms="4.6903982758522034e-01" purity="5.0873887538909912e-01" nType="0">
        <Node pos="l" depth="1" NCoef="0" IVar="6" Cut="1.0348769378662109e+02" cType="1" res="-1.3304658234119415e-01" rms="4.0748649835586548e-01" purity="2.3537012934684753e-01" nType="0">
          <Node pos="l" depth="2" NCoef="0" IVar="-1" Cut="0.0000000000000000e+00" cType="1" res="-7.5444468529894948e-04" rms="4.3226164579391479e-01" purity="2.8127357363700867e-01" nType="-99"/>
          <Node pos="r" depth="2" NCoef="0" IVar="-1" Cut="0.0000000000000000e+00" cType="1" res="-2.2920570336282253e-03" rms="3.6651536822319031e-01" purity="1.7648747563362122e-01" nType="-99"/>
        </Node>
        <Node pos="r" depth="1" NCoef="0" IVar="4" Cut="7.6952284574508667e-01" cType="1" res="6.5854296088218689e-02" rms="4.7270342707633972e-01" purity="5.5549925565719604e-01" nType="0">
          <Node pos="l" depth="2" NCoef="0" IVar="-1" Cut="0.0000000000000000e+00" cType="1" res="5.3781352471560240e-04" rms="4.4165217876434326e-01" purity="6.9657832384109497e-01" nType="-99"/>
          <Node pos="r" depth="2" NCoef="0" IVar="-1" Cut="0.0000000000000000e+00" cType="1" res="1.0723436571424827e-04" rms="4.7740718722343445e-01" purity="5.0273013114929199e-01" nType="-99"/>
        </Node>
      </Node>
    </BinaryTree>
    <BinaryTree type="DecisionTree" boostWeight="1.0000000000000000e+00" itree="417">
      <Node pos="s" depth="0" NCoef="0" IVar="4" Cut="7.8192496299743652e-01" cType="1" res="3.6249231547117233e-02" rms="4.7002485394477844e-01" purity="5.0740551948547363e-01" nType="0">
        <Node pos="l" depth="1" NCoef="0" IVar="3" Cut="2.4352553486824036e-01" cType="1" res="1.3197006285190582e-01" rms="4.5537474751472473e-01" purity="6.3688975572586060e-01" nType="0">
          <Node pos="l" depth="2" NCoef="0" IVar="-1" Cut="0.0000000000000000e+00" cType="1" res="1.0249119804939255e-04" rms="4.8228582739830017e-01" purity="4.3791458010673523e-01" nType="-99"/>
          <Node pos="r" depth="2" NCoef="0" IVar="-1" Cut="0.0000000000000000e+00" cType="1" res="5.3410482360050082e-04" rms="4.3895259499549866e-01" purity="7.0671474933624268e-01" nType="-99"/>
        </Node>
        <Node pos="r" depth="1" NCoef="0" IVar="3" Cut="4.6682605147361755e-01" cType="1" res="1.5439866110682487e-03" rms="4.7043842077255249e-01" purity="4.6045878529548645e-01" nType="0">
          <Node pos="l" depth="2" NCoef="0" IVar="-1" Cut="0.0000000000000000e+00" cType="1" res="-1.4924895367585123e-04" rms="4.6840012073516846e-01" purity="4.0783423185348511e-01" nType="-99"/>
          <Node pos="r" depth="2" NCoef="0" IVar="-1" Cut="0.0000000000000000e+00" cType="1" res="4.0056699072010815e-04" rms="4.5912861824035645e-01" purity="6.7314964532852173e-01" nType="-99"/>
        </Node>
      </Node>
    </BinaryTree>
    <BinaryTree type="DecisionTree" boostWeight="1.0000000000000000e+00" itree="418">
      <Node pos="s" depth="0" NCoef="0" IVar="5" Cut="5.7617443847656250e+02" cType="1" res="1.9226353615522385e-02" rms="4.6582227945327759e-01" purity="4.9275815486907959e-01" nType="0">
        <Node pos="l" depth="1" NCoef="0" IVar="3" Cut="4.4484946131706238e-01" cType="1" res="-2.6694515720009804e-02" rms="4.6120136976242065e-01" purity="4.2208644747734070e-01" nType="0">
          <Node pos="l" depth="2" NCoef="0" IVar="-1" Cut="0.0000000000000000e+00" cType="1" res="-4.1610337211750448e-04" rms="4.5159706473350525e-01" purity="3.5072731971740723e-01" nType="-99"/>
          <Node pos="r" depth="2" NCoef="0" IVar="-1" Cut="0.0000000000000000e+00" cType="1" res="3.5962721449322999e-04" rms="4.6659407019615173e-01" purity="6.4839190244674683e-01" nType="-99"/>
        </Node>
        <Node pos="r" depth="1" NCoef="0" IVar="0" Cut="2.0960404968261719e+02" cType="1" res="1.3307486474514008e-01" rms="4.5762559771537781e-01" purity="6.6796988248825073e-01" nType="0">
          <Node pos="l" depth="2" NCoef="0" IVar="-1" Cut="0.0000000000000000e+00" cType="1" res="5.0854211440309882e-04" rms="4.4568949937820435e-01" purity="7.0017582178115845e-01" nType="-99"/>
          <Node pos="r" depth="2" NCoef="0" IVar="-1" Cut="0.0000000000000000e+00" cType="1" res="4.4261847506277263e-05" rms="4.8242944478988647e-01" purity="5.4236984252929688e-01" nType="-99"/>
        </Node>
      </Node>
    </BinaryTree>
    <BinaryTree type="DecisionTree" boostWeight="1.0000000000000000e+00" itree="419">
      <Node pos="s" depth="0" NCoef="0" IVar="3" Cut="2.8835618495941162e-01" cType="1" res="2.8301140293478966e-02" rms="4.6771293878555298e-01" purity="5.0033950805664062e-01" nType="0">
        <Node pos="l" depth="1" NCoef="0" IVar="5" Cut="5.6079876708984375e+02" cType="1" res="-5.3012825548648834e-02" rms="4.5189481973648071e-01" purity="3.3355516195297241e-01" nType="0">
          <Node pos="l" depth="2" NCoef="0" IVar="-1" Cut="0.0000000000000000e+00" cType="1" res="-7.6576397987082601e-04" rms="4.2901289463043213e-01" purity="2.6432120800018311e-01" nType="-99"/>
          <Node pos="r" depth="2" NCoef="0" IVar="-1" Cut="0.0000000000000000e+00" cType="1" res="1.7180162831209600e-04" rms="4.9318808317184448e-01" purity="5.1146537065505981e-01" nType="-99"/>
        </Node>
        <Node pos="r" depth="1" NCoef="0" IVar="4" Cut="9.8567038774490356e-01" cType="1" res="8.1808596849441528e-02" rms="4.7022709250450134e-01" purity="6.1008954048156738e-01" nType="0">
          <Node pos="l" depth="2" NCoef="0" IVar="-1" Cut="0.0000000000000000e+00" cType="1" res="4.5096274698153138e-04" rms="4.4864946603775024e-01" purity="6.8164646625518799e-01" nType="-99"/>
          <Node pos="r" depth="2" NCoef="0" IVar="-1" Cut="0.0000000000000000e+00" cType="1" res="4.3039440242864657e-06" rms="4.8570743203163147e-01" purity="5.1533424854278564e-01" nType="-99"/>
        </Node>
      </Node>
    </BinaryTree>
    <BinaryTree type="DecisionTree" boostWeight="1.0000000000000000e+00" itree="420">
      <Node pos="s" depth="0" NCoef="0" IVar="3" Cut="2.8890502452850342e-01" cType="1" res="3.3150479197502136e-02" rms="4.6910047531127930e-01" purity="5.0476294755935669e-01" nType="0">
        <Node pos="l" depth="1" NCoef="0" IVar="1" Cut="7.3668169975280762e-01" cType="1" res="-4.5562207698822021e-02" rms="4.5733383297920227e-01" purity="3.3869835734367371e-01" nType="0">
          <Node pos="l" depth="2" NCoef="0" IVar="-1" Cut="0.0000000000000000e+00" cType="1" res="-1.0607200674712658e-03" rms="4.2372408509254456e-01" purity="2.5383096933364868e-01" nType="-99"/>
          <Node pos="r" depth="2" NCoef="0" IVar="-1" Cut="0.0000000000000000e+00" cType="1" res="-5.4147563787410036e-05" rms="4.6753606200218201e-01" purity="3.7766635417938232e-01" nType="-99"/>
        </Node>
        <Node pos="r" depth="1" NCoef="0" IVar="4" Cut="8.8409364223480225e-01" cType="1" res="8.4642596542835236e-02" rms="4.6955505013465881e-01" purity="6.1339873075485229e-01" nType="0">
          <Node pos="l" depth="2" NCoef="0" IVar="-1" Cut="0.0000000000000000e+00" cType="1" res="5.0659227417781949e-04" rms="4.3750548362731934e-01" purity="7.0953488349914551e-01" nType="-99"/>
          <Node pos="r" depth="2" NCoef="0" IVar="-1" Cut="0.0000000000000000e+00" cType="1" res="9.1234578576404601e-05" rms="4.8402935266494751e-01" purity="5.3854811191558838e-01" nType="-99"/>
        </Node>
      </Node>
    </BinaryTree>
    <BinaryTree type="DecisionTree" boostWeight="1.0000000000000000e+00" itree="421">
      <Node pos="s" depth="0" NCoef="0" IVar="4" Cut="8.5242009162902832e-01" cType="1" res="2.7282938361167908e-02" rms="4.6945145726203918e-01" purity="4.9818435311317444e-01" nType="0">
        <Node pos="l" depth="1" NCoef="0" IVar="3" Cut="2.4153648316860199e-01" cType="1" res="1.0615625977516174e-01" rms="4.6091198921203613e-01" purity="6.0060501098632812e-01" nType="0">
          <Node pos="l" depth="2" NCoef="0" IVar="-1" Cut="0.0000000000000000e+00" cType="1" res="1.2902290109195746e-05" rms="4.7592237591743469e-01" purity="4.0021163225173950e-01" nType="-99"/>
          <Node pos="r" depth="2" NCoef="0" IVar="-1" Cut="0.0000000000000000e+00" cType="1" res="4.6791223576292396e-04" rms="4.4950687885284424e-01" purity="6.7305701971054077e-01" nType="-99"/>
        </Node>
        <Node pos="r" depth="1" NCoef="0" IVar="7" Cut="1.8901741027832031e+02" cType="1" res="-1.8314458429813385e-02" rms="4.6829703450202942e-01" purity="4.3897408246994019e-01" nType="0">
          <Node pos="l" depth="2" NCoef="0" IVar="-1" Cut="0.0000000000000000e+00" cType="1" res="-2.6959972456097603e-04" rms="4.6333029866218567e-01" purity="3.9224410057067871e-01" nType="-99"/>
          <Node pos="r" depth="2" NCoef="0" IVar="-1" Cut="0.0000000000000000e+00" cType="1" res="3.5892595769837499e-04" rms="4.6833106875419617e-01" purity="6.2779283523559570e-01" nType="-99"/>
        </Node>
      </Node>
    </BinaryTree>
    <BinaryTree type="DecisionTree" boostWeight="1.0000000000000000e+00" itree="422">
      <Node pos="s" depth="0" NCoef="0" IVar="3" Cut="4.2236644029617310e-01" cType="1" res="1.8740305677056313e-02" rms="4.6895319223403931e-01" purity="4.8934486508369446e-01" nType="0">
        <Node pos="l" depth="1" NCoef="0" IVar="4" Cut="6.8470454216003418e-01" cType="1" res="-1.8859224393963814e-02" rms="4.6842730045318604e-01" purity="4.1858816146850586e-01" nType="0">
          <Node pos="l" depth="2" NCoef="0" IVar="-1" Cut="0.0000000000000000e+00" cType="1" res="4.6433179522864521e-04" rms="4.6465465426445007e-01" purity="6.3735395669937134e-01" nType="-99"/>
          <Node pos="r" depth="2" NCoef="0" IVar="-1" Cut="0.0000000000000000e+00" cType="1" res="-2.7757210773415864e-04" rms="4.6299263834953308e-01" purity="3.7748661637306213e-01" nType="-99"/>
        </Node>
        <Node pos="r" depth="1" NCoef="0" IVar="5" Cut="4.3678625488281250e+02" cType="1" res="1.1751054972410202e-01" rms="4.5578807592391968e-01" purity="6.7521566152572632e-01" nType="0">
          <Node pos="l" depth="2" NCoef="0" IVar="-1" Cut="0.0000000000000000e+00" cType="1" res="1.3662772835232317e-04" rms="4.8981577157974243e-01" purity="5.5035758018493652e-01" nType="-99"/>
          <Node pos="r" depth="2" NCoef="0" IVar="-1" Cut="0.0000000000000000e+00" cType="1" res="5.2516499999910593e-04" rms="4.1284677386283875e-01" purity="7.7896344661712646e-01" nType="-99"/>
        </Node>
      </Node>
    </BinaryTree>
    <BinaryTree type="DecisionTree" boostWeight="1.0000000000000000e+00" itree="423">
      <Node pos="s" depth="0" NCoef="0" IVar="4" Cut="7.5811648368835449e-01" cType="1" res="1.7095100134611130e-02" rms="4.6799293160438538e-01" purity="4.8866936564445496e-01" nType="0">
        <Node pos="l" depth="1" NCoef="0" IVar="3" Cut="2.8245672583580017e-01" cType="1" res="1.3463540375232697e-01" rms="4.5527634024620056e-01" purity="6.4309579133987427e-01" nType="0">
          <Node pos="l" depth="2" NCoef="0" IVar="-1" Cut="0.0000000000000000e+00" cType="1" res="2.6492442702874541e-04" rms="4.8570087552070618e-01" purity="4.9607005715370178e-01" nType="-99"/>
          <Node pos="r" depth="2" NCoef="0" IVar="-1" Cut="0.0000000000000000e+00" cType="1" res="5.3279736312106252e-04" rms="4.3047562241554260e-01" purity="7.3003733158111572e-01" nType="-99"/>
        </Node>
        <Node pos="r" depth="1" NCoef="0" IVar="3" Cut="3.5557371377944946e-01" cType="1" res="-2.0441088825464249e-02" rms="4.6577441692352295e-01" purity="4.3935367465019226e-01" nType="0">
          <Node pos="l" depth="2" NCoef="0" IVar="-1" Cut="0.0000000000000000e+00" cType="1" res="-5.4038368398323655e-04" rms="4.4802060723304749e-01" purity="3.1551989912986755e-01" nType="-99"/>
          <Node pos="r" depth="2" NCoef="0" IVar="-1" Cut="0.0000000000000000e+00" cType="1" res="1.9930329290218651e-04" rms="4.7724610567092896e-01" purity="6.0060173273086548e-01" nType="-99"/>
        </Node>
      </Node>
    </BinaryTree>
    <BinaryTree type="DecisionTree" boostWeight="1.0000000000000000e+00" itree="424">
      <Node pos="s" depth="0" NCoef="0" IVar="5" Cut="2.9136495971679688e+02" cType="1" res="3.0904142186045647e-02" rms="4.6801221370697021e-01" purity="5.0332784652709961e-01" nType="0">
        <Node pos="l" depth="1" NCoef="0" IVar="-1" Cut="0.0000000000000000e+00" cType="1" res="-2.1808589808642864e-03" rms="3.7039676308631897e-01" purity="1.8227040767669678e-01" nType="-99"/>
        <Node pos="r" depth="1" NCoef="0" IVar="3" Cut="3.3271867036819458e-01" cType="1" res="5.2625712007284164e-02" rms="4.7157925367355347e-01" purity="5.3633207082748413e-01" nType="0">
          <Node pos="l" depth="2" NCoef="0" IVar="-1" Cut="0.0000000000000000e+00" cType="1" res="-6.7373322963248938e-05" rms="4.7472649812698364e-01" purity="4.0024417638778687e-01" nType="-99"/>
          <Node pos="r" depth="2" NCoef="0" IVar="-1" Cut="0.0000000000000000e+00" cType="1" res="3.8090246380306780e-04" rms="4.5930007100105286e-01" purity="6.7225986719131470e-01" nType="-99"/>
        </Node>
      </Node>
    </BinaryTree>
    <BinaryTree type="DecisionTree" boostWeight="1.0000000000000000e+00" itree="425">
      <Node pos="s" depth="0" NCoef="0" IVar="3" Cut="2.4445691704750061e-01" cType="1" res="3.0110271647572517e-02" rms="4.6655467152595520e-01" purity="5.0340646505355835e-01" nType="0">
        <Node pos="l" depth="1" NCoef="0" IVar="7" Cut="1.8559655761718750e+02" cType="1" res="-7.5296320021152496e-02" rms="4.4207715988159180e-01" purity="2.9679882526397705e-01" nType="0">
          <Node pos="l" depth="2" NCoef="0" IVar="-1" Cut="0.0000000000000000e+00" cType="1" res="-9.5837475964799523e-04" rms="4.2246067523956299e-01" purity="2.4762679636478424e-01" nType="-99"/>
          <Node pos="r" depth="2" NCoef="0" IVar="-1" Cut="0.0000000000000000e+00" cType="1" res="2.6047037681564689e-04" rms="4.9630939960479736e-01" purity="5.1358669996261597e-01" nType="-99"/>
        </Node>
        <Node pos="r" depth="1" NCoef="0" IVar="5" Cut="4.2579531860351562e+02" cType="1" res="7.2604507207870483e-02" rms="4.6941956877708435e-01" purity="5.8669948577880859e-01" nType="0">
          <Node pos="l" depth="2" NCoef="0" IVar="-1" Cut="0.0000000000000000e+00" cType="1" res="-2.3098597011994570e-05" rms="4.7774937748908997e-01" purity="4.5298278331756592e-01" nType="-99"/>
          <Node pos="r" depth="2" NCoef="0" IVar="-1" Cut="0.0000000000000000e+00" cType="1" res="4.0833425009623170e-04" rms="4.5520529150962830e-01" purity="6.8325209617614746e-01" nType="-99"/>
        </Node>
      </Node>
    </BinaryTree>
    <BinaryTree type="DecisionTree" boostWeight="1.0000000000000000e+00" itree="426">
      <Node pos="s" depth="0" NCoef="0" IVar="5" Cut="4.3061676025390625e+02" cType="1" res="2.9489867389202118e-02" rms="4.6814024448394775e-01" purity="5.0156188011169434e-01" nType="0">
        <Node pos="l" depth="1" NCoef="0" IVar="6" Cut="1.5001013183593750e+02" cType="1" res="-4.1330229490995407e-02" rms="4.5755788683891296e-01" purity="3.6843004822731018e-01" nType="0">
          <Node pos="l" depth="2" NCoef="0" IVar="-1" Cut="0.0000000000000000e+00" cType="1" res="-3.7368623452493921e-05" rms="4.6336156129837036e-01" purity="4.0423873066902161e-01" nType="-99"/>
          <Node pos="r" depth="2" NCoef="0" IVar="-1" Cut="0.0000000000000000e+00" cType="1" res="-1.0371312964707613e-03" rms="4.2945748567581177e-01" purity="2.7557158470153809e-01" nType="-99"/>
        </Node>
        <Node pos="r" depth="1" NCoef="0" IVar="4" Cut="1.0221010446548462e+00" cType="1" res="8.7637282907962799e-02" rms="4.6872091293334961e-01" purity="6.1087095737457275e-01" nType="0">
          <Node pos="l" depth="2" NCoef="0" IVar="-1" Cut="0.0000000000000000e+00" cType="1" res="4.4830943807028234e-04" rms="4.5183816552162170e-01" purity="6.7184698581695557e-01" nType="-99"/>
          <Node pos="r" depth="2" NCoef="0" IVar="-1" Cut="0.0000000000000000e+00" cType="1" res="2.7460626370157115e-05" rms="4.8319566249847412e-01" purity="5.1468735933303833e-01" nType="-99"/>
        </Node>
      </Node>
    </BinaryTree>
    <BinaryTree type="DecisionTree" boostWeight="1.0000000000000000e+00" itree="427">
      <Node pos="s" depth="0" NCoef="0" IVar="3" Cut="2.8831136226654053e-01" cType="1" res="3.8702353835105896e-02" rms="4.6638908982276917e-01" purity="5.1332980394363403e-01" nType="0">
        <Node pos="l" depth="1" NCoef="0" IVar="1" Cut="8.2849746942520142e-01" cType="1" res="-4.1707586497068405e-02" rms="4.5718705654144287e-01" purity="3.4253945946693420e-01" nType="0">
          <Node pos="l" depth="2" NCoef="0" IVar="-1" Cut="0.0000000000000000e+00" cType="1" res="-6.4813770586624742e-04" rms="4.3749839067459106e-01" purity="2.9536163806915283e-01" nType="-99"/>
          <Node pos="r" depth="2" NCoef="0" IVar="-1" Cut="0.0000000000000000e+00" cType="1" res="4.8223824705928564e-05" rms="4.7226369380950928e-01" purity="3.9315640926361084e-01" nType="-99"/>
        </Node>
        <Node pos="r" depth="1" NCoef="0" IVar="5" Cut="4.3995858764648438e+02" cType="1" res="9.0019248425960541e-02" rms="4.6495464444160461e-01" purity="6.2232667207717896e-01" nType="0">
          <Node pos="l" depth="2" NCoef="0" IVar="-1" Cut="0.0000000000000000e+00" cType="1" res="4.4214677473064512e-05" rms="4.8339679837226868e-01" purity="4.9249657988548279e-01" nType="-99"/>
          <Node pos="r" depth="2" NCoef="0" IVar="-1" Cut="0.0000000000000000e+00" cType="1" res="4.5722103095613420e-04" rms="4.3967032432556152e-01" purity="7.2490704059600830e-01" nType="-99"/>
        </Node>
      </Node>
    </BinaryTree>
    <BinaryTree type="DecisionTree" boostWeight="1.0000000000000000e+00" itree="428">
      <Node pos="s" depth="0" NCoef="0" IVar="5" Cut="3.3592700195312500e+02" cType="1" res="2.6192933320999146e-02" rms="4.6733951568603516e-01" purity="4.9868011474609375e-01" nType="0">
        <Node pos="l" depth="1" NCoef="0" IVar="3" Cut="4.4135448336601257e-01" cType="1" res="-1.0076402872800827e-01" rms="4.2446017265319824e-01" purity="2.7734923362731934e-01" nType="0">
          <Node pos="l" depth="2" NCoef="0" IVar="-1" Cut="0.0000000000000000e+00" cType="1" res="-1.5932057285681367e-03" rms="3.8961270451545715e-01" purity="1.9985277950763702e-01" nType="-99"/>
          <Node pos="r" depth="2" NCoef="0" IVar="-1" Cut="0.0000000000000000e+00" cType="1" res="1.0070850112242624e-04" rms="4.9375674128532410e-01" purity="5.0752818584442139e-01" nType="-99"/>
        </Node>
        <Node pos="r" depth="1" NCoef="0" IVar="4" Cut="1.3835183382034302e+00" cType="1" res="5.8797385543584824e-02" rms="4.7225457429885864e-01" purity="5.5552119016647339e-01" nType="0">
          <Node pos="l" depth="2" NCoef="0" IVar="-1" Cut="0.0000000000000000e+00" cType="1" res="2.9882488888688385e-04" rms="4.6882200241088867e-01" purity="5.7808965444564819e-01" nType="-99"/>
          <Node pos="r" depth="2" NCoef="0" IVar="-1" Cut="0.0000000000000000e+00" cType="1" res="-7.9232681309804320e-04" rms="4.6064469218254089e-01" purity="3.5466891527175903e-01" nType="-99"/>
        </Node>
      </Node>
    </BinaryTree>
    <BinaryTree type="DecisionTree" boostWeight="1.0000000000000000e+00" itree="429">
      <Node pos="s" depth="0" NCoef="0" IVar="4" Cut="7.1778750419616699e-01" cType="1" res="2.9029387980699539e-02" rms="4.6818259358406067e-01" purity="5.0053942203521729e-01" nType="0">
        <Node pos="l" depth="1" NCoef="0" IVar="1" Cut="7.8797799348831177e-01" cType="1" res="1.6431616246700287e-01" rms="4.4093772768974304e-01" purity="6.8358230590820312e-01" nType="0">
          <Node pos="l" depth="2" NCoef="0" IVar="-1" Cut="0.0000000000000000e+00" cType="1" res="3.8789166137576103e-04" rms="4.6037447452545166e-01" purity="6.2305712699890137e-01" nType="-99"/>
          <Node pos="r" depth="2" NCoef="0" IVar="-1" Cut="0.0000000000000000e+00" cType="1" res="6.2490080017596483e-04" rms="4.1405463218688965e-01" purity="7.4306720495223999e-01" nType="-99"/>
        </Node>
        <Node pos="r" depth="1" NCoef="0" IVar="7" Cut="1.6526733398437500e+02" cType="1" res="-3.6194252315908670e-03" rms="4.6871048212051392e-01" purity="4.5636555552482605e-01" nType="0">
          <Node pos="l" depth="2" NCoef="0" IVar="-1" Cut="0.0000000000000000e+00" cType="1" res="-2.7292504091747105e-04" rms="4.6008250117301941e-01" purity="3.9196497201919556e-01" nType="-99"/>
          <Node pos="r" depth="2" NCoef="0" IVar="-1" Cut="0.0000000000000000e+00" cType="1" res="3.8655864773318172e-04" rms="4.7099447250366211e-01" purity="6.2748861312866211e-01" nType="-99"/>
        </Node>
      </Node>
    </BinaryTree>
    <BinaryTree type="DecisionTree" boostWeight="1.0000000000000000e+00" itree="430">
      <Node pos="s" depth="0" NCoef="0" IVar="3" Cut="4.0002232789993286e-01" cType="1" res="3.0429773032665253e-02" rms="4.6730327606201172e-01" purity="5.0321942567825317e-01" nType="0">
        <Node pos="l" depth="1" NCoef="0" IVar="5" Cut="6.4725848388671875e+02" cType="1" res="-1.6929702833294868e-02" rms="4.6715694665908813e-01" purity="4.1406816244125366e-01" nType="0">
          <Node pos="l" depth="2" NCoef="0" IVar="-1" Cut="0.0000000000000000e+00" cType="1" res="-2.9506577993743122e-04" rms="4.5996764302253723e-01" purity="3.6056891083717346e-01" nType="-99"/>
          <Node pos="r" depth="2" NCoef="0" IVar="-1" Cut="0.0000000000000000e+00" cType="1" res="3.7079845787957311e-04" rms="4.7410523891448975e-01" purity="6.2042838335037231e-01" nType="-99"/>
        </Node>
        <Node pos="r" depth="1" NCoef="0" IVar="4" Cut="8.5986173152923584e-01" cType="1" res="1.2599293887615204e-01" rms="4.5275840163230896e-01" purity="6.8311101198196411e-01" nType="0">
          <Node pos="l" depth="2" NCoef="0" IVar="-1" Cut="0.0000000000000000e+00" cType="1" res="6.0862884856760502e-04" rms="4.0069785714149475e-01" purity="7.8788256645202637e-01" nType="-99"/>
          <Node pos="r" depth="2" NCoef="0" IVar="-1" Cut="0.0000000000000000e+00" cType="1" res="2.3040956875775009e-04" rms="4.7392162680625916e-01" purity="6.1456388235092163e-01" nType="-99"/>
        </Node>
      </Node>
    </BinaryTree>
    <BinaryTree type="DecisionTree" boostWeight="1.0000000000000000e+00" itree="431">
      <Node pos="s" depth="0" NCoef="0" IVar="4" Cut="9.7953271865844727e-01" cType="1" res="2.4054810404777527e-02" rms="4.7100985050201416e-01" purity="4.9254354834556580e-01" nType="0">
        <Node pos="l" depth="1" NCoef="0" IVar="3" Cut="1.9730357825756073e-01" cType="1" res="8.2927852869033813e-02" rms="4.6755847334861755e-01" purity="5.6440174579620361e-01" nType="0">
          <Node pos="l" depth="2" NCoef="0" IVar="-1" Cut="0.0000000000000000e+00" cType="1" res="-3.8158390088938177e-04" rms="4.5464971661567688e-01" purity="3.1911683082580566e-01" nType="-99"/>
          <Node pos="r" depth="2" NCoef="0" IVar="-1" Cut="0.0000000000000000e+00" cType="1" res="3.9478638791479170e-04" rms="4.6482026576995850e-01" purity="6.1463904380798340e-01" nType="-99"/>
        </Node>
        <Node pos="r" depth="1" NCoef="0" IVar="1" Cut="8.6811757087707520e-01" cType="1" res="-4.8179224133491516e-02" rms="4.6513915061950684e-01" purity="4.0437737107276917e-01" nType="0">
          <Node pos="l" depth="2" NCoef="0" IVar="-1" Cut="0.0000000000000000e+00" cType="1" res="-7.3681049980223179e-04" rms="4.5067143440246582e-01" purity="3.3269068598747253e-01" nType="-99"/>
          <Node pos="r" depth="2" NCoef="0" IVar="-1" Cut="0.0000000000000000e+00" cType="1" res="7.7308999607339501e-05" rms="4.7037890553474426e-01" purity="4.7656965255737305e-01" nType="-99"/>
        </Node>
      </Node>
    </BinaryTree>
    <BinaryTree type="DecisionTree" boostWeight="1.0000000000000000e+00" itree="432">
      <Node pos="s" depth="0" NCoef="0" IVar="3" Cut="2.8898757696151733e-01" cType="1" res="2.5725621730089188e-02" rms="4.6793836355209351e-01" purity="4.9726018309593201e-01" nType="0">
        <Node pos="l" depth="1" NCoef="0" IVar="1" Cut="8.5502851009368896e-01" cType="1" res="-5.1347870379686356e-02" rms="4.5485007762908936e-01" purity="3.3085444569587708e-01" nType="0">
          <Node pos="l" depth="2" NCoef="0" IVar="-1" Cut="0.0000000000000000e+00" cType="1" res="-7.5137644307687879e-04" rms="4.3297916650772095e-01" purity="2.8116804361343384e-01" nType="-99"/>
          <Node pos="r" depth="2" NCoef="0" IVar="-1" Cut="0.0000000000000000e+00" cType="1" res="8.8805471023079008e-05" rms="4.7480070590972900e-01" purity="3.9839097857475281e-01" nType="-99"/>
        </Node>
        <Node pos="r" depth="1" NCoef="0" IVar="5" Cut="4.6667059326171875e+02" cType="1" res="7.6459072530269623e-02" rms="4.6950227022171021e-01" purity="6.0679632425308228e-01" nType="0">
          <Node pos="l" depth="2" NCoef="0" IVar="-1" Cut="0.0000000000000000e+00" cType="1" res="3.4916844015242532e-05" rms="4.8313146829605103e-01" purity="4.9793428182601929e-01" nType="-99"/>
          <Node pos="r" depth="2" NCoef="0" IVar="-1" Cut="0.0000000000000000e+00" cType="1" res="4.4601160334423184e-04" rms="4.4392243027687073e-01" purity="7.1955966949462891e-01" nType="-99"/>
        </Node>
      </Node>
    </BinaryTree>
    <BinaryTree type="DecisionTree" boostWeight="1.0000000000000000e+00" itree="433">
      <Node pos="s" depth="0" NCoef="0" IVar="3" Cut="4.2170709371566772e-01" cType="1" res="3.4822743386030197e-02" rms="4.6662700176239014e-01" purity="5.0848436355590820e-01" nType="0">
        <Node pos="l" depth="1" NCoef="0" IVar="4" Cut="6.6637390851974487e-01" cType="1" res="-1.1504895985126495e-02" rms="4.6684136986732483e-01" purity="4.2807549238204956e-01" nType="0">
          <Node pos="l" depth="2" NCoef="0" IVar="-1" Cut="0.0000000000000000e+00" cType="1" res="5.3258053958415985e-04" rms="4.5404249429702759e-01" purity="6.6880100965499878e-01" nType="-99"/>
          <Node pos="r" depth="2" NCoef="0" IVar="-1" Cut="0.0000000000000000e+00" cType="1" res="-2.2119187633506954e-04" rms="4.6250125765800476e-01" purity="3.8918268680572510e-01" nType="-99"/>
        </Node>
        <Node pos="r" depth="1" NCoef="0" IVar="3" Cut="5.3269064426422119e-01" cType="1" res="1.4755940437316895e-01" rms="4.4645431637763977e-01" purity="7.0415639877319336e-01" nType="0">
          <Node pos="l" depth="2" NCoef="0" IVar="-1" Cut="0.0000000000000000e+00" cType="1" res="3.0319090001285076e-04" rms="4.6542981266975403e-01" purity="6.4846539497375488e-01" nType="-99"/>
          <Node pos="r" depth="2" NCoef="0" IVar="-1" Cut="0.0000000000000000e+00" cType="1" res="6.4699433278292418e-04" rms="4.0463495254516602e-01" purity="7.8319287300109863e-01" nType="-99"/>
        </Node>
      </Node>
    </BinaryTree>
    <BinaryTree type="DecisionTree" boostWeight="1.0000000000000000e+00" itree="434">
      <Node pos="s" depth="0" NCoef="0" IVar="3" Cut="3.7738385796546936e-01" cType="1" res="3.5655114799737930e-02" rms="4.6795892715454102e-01" purity="5.0891810655593872e-01" nType="0">
        <Node pos="l" depth="1" NCoef="0" IVar="5" Cut="5.2845349121093750e+02" cType="1" res="-1.5712738037109375e-02" rms="4.6820071339607239e-01" purity="4.0588849782943726e-01" nType="0">
          <Node pos="l" depth="2" NCoef="0" IVar="-1" Cut="0.0000000000000000e+00" cType="1" res="-4.0059682214632630e-04" rms="4.5240649580955505e-01" purity="3.2167205214500427e-01" nType="-99"/>
          <Node pos="r" depth="2" NCoef="0" IVar="-1" Cut="0.0000000000000000e+00" cType="1" res="2.4379840760957450e-04" rms="4.8590725660324097e-01" purity="5.6242513656616211e-01" nType="-99"/>
        </Node>
        <Node pos="r" depth="1" NCoef="0" IVar="5" Cut="3.1051196289062500e+02" cType="1" res="1.1765640228986740e-01" rms="4.5572775602340698e-01" purity="6.7338985204696655e-01" nType="0">
          <Node pos="l" depth="2" NCoef="0" IVar="-1" Cut="0.0000000000000000e+00" cType="1" res="-2.6647167396731675e-04" rms="4.8650839924812317e-01" purity="4.1224500536918640e-01" nType="-99"/>
          <Node pos="r" depth="2" NCoef="0" IVar="-1" Cut="0.0000000000000000e+00" cType="1" res="4.3845039908774197e-04" rms="4.4531008601188660e-01" purity="7.1303999423980713e-01" nType="-99"/>
        </Node>
      </Node>
    </BinaryTree>
    <BinaryTree type="DecisionTree" boostWeight="1.0000000000000000e+00" itree="435">
      <Node pos="s" depth="0" NCoef="0" IVar="4" Cut="8.3056825399398804e-01" cType="1" res="1.9049266353249550e-02" rms="4.6764194965362549e-01" purity="4.9006193876266479e-01" nType="0">
        <Node pos="l" depth="1" NCoef="0" IVar="3" Cut="3.1013363599777222e-01" cType="1" res="1.1202594637870789e-01" rms="4.5971691608428955e-01" purity="6.1049801111221313e-01" nType="0">
          <Node pos="l" depth="2" NCoef="0" IVar="-1" Cut="0.0000000000000000e+00" cType="1" res="1.6276825044769794e-04" rms="4.8241347074508667e-01" purity="4.5757719874382019e-01" nType="-99"/>
          <Node pos="r" depth="2" NCoef="0" IVar="-1" Cut="0.0000000000000000e+00" cType="1" res="5.1539792912080884e-04" rms="4.3211886286735535e-01" purity="7.2729903459548950e-01" nType="-99"/>
        </Node>
        <Node pos="r" depth="1" NCoef="0" IVar="3" Cut="4.4484946131706238e-01" cType="1" res="-2.9103292152285576e-02" rms="4.6443459391593933e-01" purity="4.2768818140029907e-01" nType="0">
          <Node pos="l" depth="2" NCoef="0" IVar="-1" Cut="0.0000000000000000e+00" cType="1" res="-4.0819935384206474e-04" rms="4.5588332414627075e-01" purity="3.5928076505661011e-01" nType="-99"/>
          <Node pos="r" depth="2" NCoef="0" IVar="-1" Cut="0.0000000000000000e+00" cType="1" res="3.2424138044007123e-04" rms="4.7000175714492798e-01" purity="6.4156562089920044e-01" nType="-99"/>
        </Node>
      </Node>
    </BinaryTree>
    <BinaryTree type="DecisionTree" boostWeight="1.0000000000000000e+00" itree="436">
      <Node pos="s" depth="0" NCoef="0" IVar="3" Cut="2.8858765959739685e-01" cType="1" res="1.7029652372002602e-02" rms="4.6711245179176331e-01" purity="4.8845070600509644e-01" nType="0">
        <Node pos="l" depth="1" NCoef="0" IVar="4" Cut="7.5578314065933228e-01" cType="1" res="-6.1086095869541168e-02" rms="4.5014816522598267e-01" purity="3.2074421644210815e-01" nType="0">
          <Node pos="l" depth="2" NCoef="0" IVar="-1" Cut="0.0000000000000000e+00" cType="1" res="1.8162373453378677e-04" rms="4.8538669943809509e-01" purity="4.7644034028053284e-01" nType="-99"/>
          <Node pos="r" depth="2" NCoef="0" IVar="-1" Cut="0.0000000000000000e+00" cType="1" res="-7.2052027098834515e-04" rms="4.3551576137542725e-01" purity="2.7716496586799622e-01" nType="-99"/>
        </Node>
        <Node pos="r" depth="1" NCoef="0" IVar="5" Cut="4.4825805664062500e+02" cType="1" res="6.8392284214496613e-02" rms="4.7093006968498230e-01" purity="5.9872102737426758e-01" nType="0">
          <Node pos="l" depth="2" NCoef="0" IVar="-1" Cut="0.0000000000000000e+00" cType="1" res="-6.4272113377228379e-05" rms="4.8474463820457458e-01" purity="4.6763113141059875e-01" nType="-99"/>
          <Node pos="r" depth="2" NCoef="0" IVar="-1" Cut="0.0000000000000000e+00" cType="1" res="4.2561476584523916e-04" rms="4.4670206308364868e-01" purity="7.1170133352279663e-01" nType="-99"/>
        </Node>
      </Node>
    </BinaryTree>
    <BinaryTree type="DecisionTree" boostWeight="1.0000000000000000e+00" itree="437">
      <Node pos="s" depth="0" NCoef="0" IVar="3" Cut="4.6669048070907593e-01" cType="1" res="3.1370718032121658e-02" rms="4.6638476848602295e-01" purity="5.0431543588638306e-01" nType="0">
        <Node pos="l" depth="1" NCoef="0" IVar="5" Cut="3.8681591796875000e+02" cType="1" res="-1.3557834317907691e-03" rms="4.6745964884757996e-01" purity="4.5053923130035400e-01" nType="0">
          <Node pos="l" depth="2" NCoef="0" IVar="-1" Cut="0.0000000000000000e+00" cType="1" res="-8.4383873036131263e-04" rms="4.2429473996162415e-01" purity="2.6324075460433960e-01" nType="-99"/>
          <Node pos="r" depth="2" NCoef="0" IVar="-1" Cut="0.0000000000000000e+00" cType="1" res="1.9242624694015831e-04" rms="4.7969883680343628e-01" purity="5.4378169775009155e-01" nType="-99"/>
        </Node>
        <Node pos="r" depth="1" NCoef="0" IVar="4" Cut="1.0294294357299805e+00" cType="1" res="1.6356161236763000e-01" rms="4.3778952956199646e-01" purity="7.2153180837631226e-01" nType="0">
          <Node pos="l" depth="2" NCoef="0" IVar="-1" Cut="0.0000000000000000e+00" cType="1" res="6.1818124959245324e-04" rms="4.0368142724037170e-01" purity="7.8207099437713623e-01" nType="-99"/>
          <Node pos="r" depth="2" NCoef="0" IVar="-1" Cut="0.0000000000000000e+00" cType="1" res="2.8283905703574419e-04" rms="4.7323307394981384e-01" purity="6.2956887483596802e-01" nType="-99"/>
        </Node>
      </Node>
    </BinaryTree>
    <BinaryTree type="DecisionTree" boostWeight="1.0000000000000000e+00" itree="438">
      <Node pos="s" depth="0" NCoef="0" IVar="3" Cut="2.2223463654518127e-01" cType="1" res="2.5285849347710609e-02" rms="4.6654766798019409e-01" purity="4.9768632650375366e-01" nType="0">
        <Node pos="l" depth="1" NCoef="0" IVar="7" Cut="1.3771038818359375e+02" cType="1" res="-9.6786372363567352e-02" rms="4.2804121971130371e-01" purity="2.7172422409057617e-01" nType="0">
          <Node pos="l" depth="2" NCoef="0" IVar="-1" Cut="0.0000000000000000e+00" cType="1" res="-1.7000124789774418e-03" rms="3.8272184133529663e-01" purity="1.9202284514904022e-01" nType="-99"/>
          <Node pos="r" depth="2" NCoef="0" IVar="-1" Cut="0.0000000000000000e+00" cType="1" res="-7.9773293691687286e-05" rms="4.8387604951858521e-01" purity="4.0545016527175903e-01" nType="-99"/>
        </Node>
        <Node pos="r" depth="1" NCoef="0" IVar="4" Cut="7.4991989135742188e-01" cType="1" res="6.2764205038547516e-02" rms="4.7144779562950134e-01" purity="5.6706076860427856e-01" nType="0">
          <Node pos="l" depth="2" NCoef="0" IVar="-1" Cut="0.0000000000000000e+00" cType="1" res="5.5700284428894520e-04" rms="4.3613934516906738e-01" purity="7.1594327688217163e-01" nType="-99"/>
          <Node pos="r" depth="2" NCoef="0" IVar="-1" Cut="0.0000000000000000e+00" cType="1" res="1.0109198046848178e-04" rms="4.7591105103492737e-01" purity="5.1893305778503418e-01" nType="-99"/>
        </Node>
      </Node>
    </BinaryTree>
    <BinaryTree type="DecisionTree" boostWeight="1.0000000000000000e+00" itree="439">
      <Node pos="s" depth="0" NCoef="0" IVar="3" Cut="2.4342991411685944e-01" cType="1" res="2.3765705525875092e-02" rms="4.6770533919334412e-01" purity="4.9507546424865723e-01" nType="0">
        <Node pos="l" depth="1" NCoef="0" IVar="7" Cut="1.6462013244628906e+02" cType="1" res="-7.3758438229560852e-02" rms="4.4223570823669434e-01" purity="2.9559788107872009e-01" nType="0">
          <Node pos="l" depth="2" NCoef="0" IVar="-1" Cut="0.0000000000000000e+00" cType="1" res="-9.2658767243847251e-04" rms="4.1962495446205139e-01" purity="2.4580785632133484e-01" nType="-99"/>
          <Node pos="r" depth="2" NCoef="0" IVar="-1" Cut="0.0000000000000000e+00" cType="1" res="6.2178682128433138e-05" rms="4.9618998169898987e-01" purity="4.5044383406639099e-01" nType="-99"/>
        </Node>
        <Node pos="r" depth="1" NCoef="0" IVar="4" Cut="8.0618268251419067e-01" cType="1" res="6.3050799071788788e-02" rms="4.7192111611366272e-01" purity="5.7542985677719116e-01" nType="0">
          <Node pos="l" depth="2" NCoef="0" IVar="-1" Cut="0.0000000000000000e+00" cType="1" res="4.9131247214972973e-04" rms="4.4222798943519592e-01" purity="6.9372123479843140e-01" nType="-99"/>
          <Node pos="r" depth="2" NCoef="0" IVar="-1" Cut="0.0000000000000000e+00" cType="1" res="8.0009376688394696e-05" rms="4.7888603806495667e-01" purity="5.2047020196914673e-01" nType="-99"/>
        </Node>
      </Node>
    </BinaryTree>
    <BinaryTree type="DecisionTree" boostWeight="1.0000000000000000e+00" itree="440">
      <Node pos="s" depth="0" NCoef="0" IVar="3" Cut="4.4277369976043701e-01" cType="1" res="2.6882436126470566e-02" rms="4.6766489744186401e-01" purity="4.9864813685417175e-01" nType="0">
        <Node pos="l" depth="1" NCoef="0" IVar="4" Cut="6.8796819448471069e-01" cType="1" res="-1.1771135032176971e-02" rms="4.6908655762672424e-01" purity="4.3097609281539917e-01" nType="0">
          <Node pos="l" depth="2" NCoef="0" IVar="-1" Cut="0.0000000000000000e+00" cType="1" res="4.3812484364025295e-04" rms="4.6084460616111755e-01" purity="6.3607990741729736e-01" nType="-99"/>
          <Node pos="r" depth="2" NCoef="0" IVar="-1" Cut="0.0000000000000000e+00" cType="1" res="-2.1025832393206656e-04" rms="4.6584287285804749e-01" purity="3.9300760626792908e-01" nType="-99"/>
        </Node>
        <Node pos="r" depth="1" NCoef="0" IVar="5" Cut="3.8682470703125000e+02" cType="1" res="1.4620499312877655e-01" rms="4.4243565201759338e-01" purity="7.0754998922348022e-01" nType="0">
          <Node pos="l" depth="2" NCoef="0" IVar="-1" Cut="0.0000000000000000e+00" cType="1" res="2.1638894395437092e-04" rms="4.8941060900688171e-01" purity="5.5934584140777588e-01" nType="-99"/>
          <Node pos="r" depth="2" NCoef="0" IVar="-1" Cut="0.0000000000000000e+00" cType="1" res="5.4226914653554559e-04" rms="4.0893965959548950e-01" purity="7.8285503387451172e-01" nType="-99"/>
        </Node>
      </Node>
    </BinaryTree>
    <BinaryTree type="DecisionTree" boostWeight="1.0000000000000000e+00" itree="441">
      <Node pos="s" depth="0" NCoef="0" IVar="3" Cut="4.2236644029617310e-01" cType="1" res="2.9138257727026939e-02" rms="4.6729472279548645e-01" purity="5.0120955705642700e-01" nType="0">
        <Node pos="l" depth="1" NCoef="0" IVar="4" Cut="7.6313936710357666e-01" cType="1" res="-1.2195660732686520e-02" rms="4.6761572360992432e-01" purity="4.2587971687316895e-01" nType="0">
          <Node pos="l" depth="2" NCoef="0" IVar="-1" Cut="0.0000000000000000e+00" cType="1" res="3.4052619594149292e-04" rms="4.7302937507629395e-01" purity="5.7589775323867798e-01" nType="-99"/>
          <Node pos="r" depth="2" NCoef="0" IVar="-1" Cut="0.0000000000000000e+00" cType="1" res="-2.6309330132789910e-04" rms="4.6083104610443115e-01" purity="3.7679061293601990e-01" nType="-99"/>
        </Node>
        <Node pos="r" depth="1" NCoef="0" IVar="4" Cut="9.0356254577636719e-01" cType="1" res="1.3449186086654663e-01" rms="4.4960579276084900e-01" purity="6.9321328401565552e-01" nType="0">
          <Node pos="l" depth="2" NCoef="0" IVar="-1" Cut="0.0000000000000000e+00" cType="1" res="5.9866922674700618e-04" rms="4.0536361932754517e-01" purity="7.7911186218261719e-01" nType="-99"/>
          <Node pos="r" depth="2" NCoef="0" IVar="-1" Cut="0.0000000000000000e+00" cType="1" res="2.6953051565214992e-04" rms="4.7377616167068481e-01" purity="6.2485677003860474e-01" nType="-99"/>
        </Node>
      </Node>
    </BinaryTree>
    <BinaryTree type="DecisionTree" boostWeight="1.0000000000000000e+00" itree="442">
      <Node pos="s" depth="0" NCoef="0" IVar="5" Cut="3.7533294677734375e+02" cType="1" res="2.0978473126888275e-02" rms="4.6887788176536560e-01" purity="4.9073392152786255e-01" nType="0">
        <Node pos="l" depth="1" NCoef="0" IVar="3" Cut="4.6291470527648926e-01" cType="1" res="-6.5234266221523285e-02" rms="4.4399073719978333e-01" purity="3.2336065173149109e-01" nType="0">
          <Node pos="l" depth="2" NCoef="0" IVar="-1" Cut="0.0000000000000000e+00" cType="1" res="-8.7577378144487739e-04" rms="4.2338854074478149e-01" purity="2.5782847404479980e-01" nType="-99"/>
          <Node pos="r" depth="2" NCoef="0" IVar="-1" Cut="0.0000000000000000e+00" cType="1" res="2.7663516812026501e-04" rms="4.9083563685417175e-01" purity="5.7009011507034302e-01" nType="-99"/>
        </Node>
        <Node pos="r" depth="1" NCoef="0" IVar="4" Cut="1.0087504386901855e+00" cType="1" res="6.0721699148416519e-02" rms="4.7467216849327087e-01" purity="5.6789135932922363e-01" nType="0">
          <Node pos="l" depth="2" NCoef="0" IVar="-1" Cut="0.0000000000000000e+00" cType="1" res="3.7635298212990165e-04" rms="4.6275198459625244e-01" purity="6.2737321853637695e-01" nType="-99"/>
          <Node pos="r" depth="2" NCoef="0" IVar="-1" Cut="0.0000000000000000e+00" cType="1" res="-2.9434184398269281e-05" rms="4.8281824588775635e-01" purity="4.8483195900917053e-01" nType="-99"/>
        </Node>
      </Node>
    </BinaryTree>
    <BinaryTree type="DecisionTree" boostWeight="1.0000000000000000e+00" itree="443">
      <Node pos="s" depth="0" NCoef="0" IVar="5" Cut="4.5165258789062500e+02" cType="1" res="3.6143053323030472e-02" rms="4.6712082624435425e-01" purity="5.0871998071670532e-01" nType="0">
        <Node pos="l" depth="1" NCoef="0" IVar="5" Cut="2.8989215087890625e+02" cType="1" res="-2.9206242412328720e-02" rms="4.5934638381004333e-01" purity="3.8783997297286987e-01" nType="0">
          <Node pos="l" depth="2" NCoef="0" IVar="-1" Cut="0.0000000000000000e+00" cType="1" res="-1.8666806863620877e-03" rms="3.7792348861694336e-01" purity="1.8997758626937866e-01" nType="-99"/>
          <Node pos="r" depth="2" NCoef="0" IVar="-1" Cut="0.0000000000000000e+00" cType="1" res="9.5607465482316911e-06" rms="4.6981158852577209e-01" purity="4.3153497576713562e-01" nType="-99"/>
        </Node>
        <Node pos="r" depth="1" NCoef="0" IVar="4" Cut="1.2319357395172119e+00" cType="1" res="1.0044509172439575e-01" rms="4.6578145027160645e-01" purity="6.2766289710998535e-01" nType="0">
          <Node pos="l" depth="2" NCoef="0" IVar="-1" Cut="0.0000000000000000e+00" cType="1" res="4.2905888403765857e-04" rms="4.5539662241935730e-01" purity="6.6444033384323120e-01" nType="-99"/>
          <Node pos="r" depth="2" NCoef="0" IVar="-1" Cut="0.0000000000000000e+00" cType="1" res="-1.7658199067227542e-04" rms="4.8290634155273438e-01" purity="4.7332856059074402e-01" nType="-99"/>
        </Node>
      </Node>
    </BinaryTree>
    <BinaryTree type="DecisionTree" boostWeight="1.0000000000000000e+00" itree="444">
      <Node pos="s" depth="0" NCoef="0" IVar="4" Cut="1.0337311029434204e+00" cType="1" res="2.6138508692383766e-02" rms="4.6608588099479675e-01" purity="4.9934047460556030e-01" nType="0">
        <Node pos="l" depth="1" NCoef="0" IVar="3" Cut="2.6668155193328857e-01" cType="1" res="7.7873878180980682e-02" rms="4.6132636070251465e-01" purity="5.6252974271774292e-01" nType="0">
          <Node pos="l" depth="2" NCoef="0" IVar="-1" Cut="0.0000000000000000e+00" cType="1" res="-1.8586227088235319e-04" rms="4.6256938576698303e-01" purity="3.5302853584289551e-01" nType="-99"/>
          <Node pos="r" depth="2" NCoef="0" IVar="-1" Cut="0.0000000000000000e+00" cType="1" res="4.2726742685772479e-04" rms="4.5140558481216431e-01" purity="6.6354328393936157e-01" nType="-99"/>
        </Node>
        <Node pos="r" depth="1" NCoef="0" IVar="1" Cut="7.6298141479492188e-01" cType="1" res="-5.9106446802616119e-02" rms="4.6133741736412048e-01" purity="3.9522281289100647e-01" nType="0">
          <Node pos="l" depth="2" NCoef="0" IVar="-1" Cut="0.0000000000000000e+00" cType="1" res="-1.6610737657174468e-03" rms="4.0693843364715576e-01" purity="2.5101810693740845e-01" nType="-99"/>
          <Node pos="r" depth="2" NCoef="0" IVar="-1" Cut="0.0000000000000000e+00" cType="1" res="-4.4686756154987961e-05" rms="4.7078618407249451e-01" purity="4.4987863302230835e-01" nType="-99"/>
        </Node>
      </Node>
    </BinaryTree>
    <BinaryTree type="DecisionTree" boostWeight="1.0000000000000000e+00" itree="445">
      <Node pos="s" depth="0" NCoef="0" IVar="3" Cut="2.8707507252693176e-01" cType="1" res="2.6893785223364830e-02" rms="4.6779957413673401e-01" purity="4.9859201908111572e-01" nType="0">
        <Node pos="l" depth="1" NCoef="0" IVar="4" Cut="7.0702052116394043e-01" cType="1" res="-4.7128524631261826e-02" rms="4.5364469289779663e-01" purity="3.3558923006057739e-01" nType="0">
          <Node pos="l" depth="2" NCoef="0" IVar="-1" Cut="0.0000000000000000e+00" cType="1" res="2.9650624492205679e-04" rms="4.8618438839912415e-01" purity="5.2437347173690796e-01" nType="-99"/>
          <Node pos="r" depth="2" NCoef="0" IVar="-1" Cut="0.0000000000000000e+00" cType="1" res="-5.0915573956444860e-04" rms="4.4319486618041992e-01" purity="2.9917588829994202e-01" nType="-99"/>
        </Node>
        <Node pos="r" depth="1" NCoef="0" IVar="5" Cut="3.0483813476562500e+02" cType="1" res="7.4939168989658356e-02" rms="4.7057133913040161e-01" purity="6.0439157485961914e-01" nType="0">
          <Node pos="l" depth="2" NCoef="0" IVar="-1" Cut="0.0000000000000000e+00" cType="1" res="-7.5960834510624409e-04" rms="4.6031865477561951e-01" purity="3.1579655408859253e-01" nType="-99"/>
          <Node pos="r" depth="2" NCoef="0" IVar="-1" Cut="0.0000000000000000e+00" cType="1" res="3.3432719646953046e-04" rms="4.6653312444686890e-01" purity="6.4262014627456665e-01" nType="-99"/>
        </Node>
      </Node>
    </BinaryTree>
    <BinaryTree type="DecisionTree" boostWeight="1.0000000000000000e+00" itree="446">
      <Node pos="s" depth="0" NCoef="0" IVar="3" Cut="3.5557541251182556e-01" cType="1" res="4.0077984333038330e-02" rms="4.6904274821281433e-01" purity="5.1159882545471191e-01" nType="0">
        <Node pos="l" depth="1" NCoef="0" IVar="4" Cut="6.9952291250228882e-01" cType="1" res="-1.3590142130851746e-02" rms="4.7038501501083374e-01" purity="3.9272192120552063e-01" nType="0">
          <Node pos="l" depth="2" NCoef="0" IVar="-1" Cut="0.0000000000000000e+00" cType="1" res="4.3410193757154047e-04" rms="4.7400692105293274e-01" purity="5.9883469343185425e-01" nType="-99"/>
          <Node pos="r" depth="2" NCoef="0" IVar="-1" Cut="0.0000000000000000e+00" cType="1" res="-2.5691071641631424e-04" rms="4.6484458446502686e-01" purity="3.5067355632781982e-01" nType="-99"/>
        </Node>
        <Node pos="r" depth="1" NCoef="0" IVar="4" Cut="1.0657832622528076e+00" cType="1" res="1.0833164304494858e-01" rms="4.5834028720855713e-01" purity="6.6278332471847534e-01" nType="0">
          <Node pos="l" depth="2" NCoef="0" IVar="-1" Cut="0.0000000000000000e+00" cType="1" res="4.8151283408515155e-04" rms="4.3532246351242065e-01" purity="7.2046762704849243e-01" nType="-99"/>
          <Node pos="r" depth="2" NCoef="0" IVar="-1" Cut="0.0000000000000000e+00" cType="1" res="1.9173015971318819e-05" rms="4.8578354716300964e-01" purity="5.4532176256179810e-01" nType="-99"/>
        </Node>
      </Node>
    </BinaryTree>
    <BinaryTree type="DecisionTree" boostWeight="1.0000000000000000e+00" itree="447">
      <Node pos="s" depth="0" NCoef="0" IVar="3" Cut="4.2170709371566772e-01" cType="1" res="3.1731441617012024e-02" rms="4.6891930699348450e-01" purity="5.0228482484817505e-01" nType="0">
        <Node pos="l" depth="1" NCoef="0" IVar="4" Cut="7.3866224288940430e-01" cType="1" res="-9.7272470593452454e-03" rms="4.7093102335929871e-01" purity="4.2498353123664856e-01" nType="0">
          <Node pos="l" depth="2" NCoef="0" IVar="-1" Cut="0.0000000000000000e+00" cType="1" res="3.7025209167040884e-04" rms="4.7464373707771301e-01" purity="5.9187382459640503e-01" nType="-99"/>
          <Node pos="r" depth="2" NCoef="0" IVar="-1" Cut="0.0000000000000000e+00" cType="1" res="-2.3312511621043086e-04" rms="4.6510869264602661e-01" purity="3.7997016310691833e-01" nType="-99"/>
        </Node>
        <Node pos="r" depth="1" NCoef="0" IVar="4" Cut="9.2771476507186890e-01" cType="1" res="1.3538046181201935e-01" rms="4.4734564423561096e-01" purity="6.9554233551025391e-01" nType="0">
          <Node pos="l" depth="2" NCoef="0" IVar="-1" Cut="0.0000000000000000e+00" cType="1" res="6.0143729206174612e-04" rms="4.0252768993377686e-01" purity="7.8204542398452759e-01" nType="-99"/>
          <Node pos="r" depth="2" NCoef="0" IVar="-1" Cut="0.0000000000000000e+00" cType="1" res="2.3172568762674928e-04" rms="4.7527951002120972e-01" purity="6.1360591650009155e-01" nType="-99"/>
        </Node>
      </Node>
    </BinaryTree>
    <BinaryTree type="DecisionTree" boostWeight="1.0000000000000000e+00" itree="448">
      <Node pos="s" depth="0" NCoef="0" IVar="4" Cut="7.8906720876693726e-01" cType="1" res="2.1075958386063576e-02" rms="4.6786046028137207e-01" purity="4.9201250076293945e-01" nType="0">
        <Node pos="l" depth="1" NCoef="0" IVar="3" Cut="2.3804758489131927e-01" cType="1" res="1.2284055352210999e-01" rms="4.5388427376747131e-01" purity="6.3185942173004150e-01" nType="0">
          <Node pos="l" depth="2" NCoef="0" IVar="-1" Cut="0.0000000000000000e+00" cType="1" res="-2.3092537958291359e-05" rms="4.7331058979034424e-01" purity="4.1117507219314575e-01" nType="-99"/>
          <Node pos="r" depth="2" NCoef="0" IVar="-1" Cut="0.0000000000000000e+00" cType="1" res="5.0211045891046524e-04" rms="4.4029831886291504e-01" purity="7.0013266801834106e-01" nType="-99"/>
        </Node>
        <Node pos="r" depth="1" NCoef="0" IVar="3" Cut="4.8891618847846985e-01" cType="1" res="-1.9084932282567024e-02" rms="4.6720185875892639e-01" purity="4.3682256340980530e-01" nType="0">
          <Node pos="l" depth="2" NCoef="0" IVar="-1" Cut="0.0000000000000000e+00" cType="1" res="-2.5806634221225977e-04" rms="4.6483960747718811e-01" purity="3.8963720202445984e-01" nType="-99"/>
          <Node pos="r" depth="2" NCoef="0" IVar="-1" Cut="0.0000000000000000e+00" cType="1" res="3.8863078225404024e-04" rms="4.5447394251823425e-01" purity="6.7654222249984741e-01" nType="-99"/>
        </Node>
      </Node>
    </BinaryTree>
    <BinaryTree type="DecisionTree" boostWeight="1.0000000000000000e+00" itree="449">
      <Node pos="s" depth="0" NCoef="0" IVar="3" Cut="2.4466720223426819e-01" cType="1" res="2.1614266559481621e-02" rms="4.6517461538314819e-01" purity="4.9486565589904785e-01" nType="0">
        <Node pos="l" depth="1" NCoef="0" IVar="7" Cut="1.2822303771972656e+02" cType="1" res="-8.7005324661731720e-02" rms="4.3381854891777039e-01" purity="2.8220781683921814e-01" nType="0">
          <Node pos="l" depth="2" NCoef="0" IVar="-1" Cut="0.0000000000000000e+00" cType="1" res="-1.4911608304828405e-03" rms="3.8713508844375610e-01" purity="1.9839489459991455e-01" nType="-99"/>
          <Node pos="r" depth="2" NCoef="0" IVar="-1" Cut="0.0000000000000000e+00" cType="1" res="-1.1014223127858713e-04" rms="4.8097074031829834e-01" purity="3.9353477954864502e-01" nType="-99"/>
        </Node>
        <Node pos="r" depth="1" NCoef="0" IVar="5" Cut="4.4515029907226562e+02" cType="1" res="6.5013967454433441e-02" rms="4.7016260027885437e-01" purity="5.7983458042144775e-01" nType="0">
          <Node pos="l" depth="2" NCoef="0" IVar="-1" Cut="0.0000000000000000e+00" cType="1" res="-5.6494009186280891e-05" rms="4.7905567288398743e-01" purity="4.4990617036819458e-01" nType="-99"/>
          <Node pos="r" depth="2" NCoef="0" IVar="-1" Cut="0.0000000000000000e+00" cType="1" res="4.0896257269196212e-04" rms="4.5238366723060608e-01" purity="6.9010990858078003e-01" nType="-99"/>
        </Node>
      </Node>
    </BinaryTree>
    <BinaryTree type="DecisionTree" boostWeight="1.0000000000000000e+00" itree="450">
      <Node pos="s" depth="0" NCoef="0" IVar="5" Cut="4.0183456420898438e+02" cType="1" res="4.1008401662111282e-02" rms="4.6584442257881165e-01" purity="5.1444363594055176e-01" nType="0">
        <Node pos="l" depth="1" NCoef="0" IVar="6" Cut="1.4891229248046875e+02" cType="1" res="-4.7838259488344193e-02" rms="4.5161381363868713e-01" purity="3.4984701871871948e-01" nType="0">
          <Node pos="l" depth="2" NCoef="0" IVar="-1" Cut="0.0000000000000000e+00" cType="1" res="-1.8574968635221012e-05" rms="4.6139121055603027e-01" purity="3.9820730686187744e-01" nType="-99"/>
          <Node pos="r" depth="2" NCoef="0" IVar="-1" Cut="0.0000000000000000e+00" cType="1" res="-2.0603849552571774e-03" rms="3.8792988657951355e-01" purity="1.9876335561275482e-01" nType="-99"/>
        </Node>
        <Node pos="r" depth="1" NCoef="0" IVar="3" Cut="2.8853642940521240e-01" cType="1" res="9.3663357198238373e-02" rms="4.6615222096443176e-01" purity="6.1199182271957397e-01" nType="0">
          <Node pos="l" depth="2" NCoef="0" IVar="-1" Cut="0.0000000000000000e+00" cType="1" res="3.4510918339947239e-05" rms="4.8874858021736145e-01" purity="4.4138848781585693e-01" nType="-99"/>
          <Node pos="r" depth="2" NCoef="0" IVar="-1" Cut="0.0000000000000000e+00" cType="1" res="4.3850101064890623e-04" rms="4.4414612650871277e-01" purity="7.1398138999938965e-01" nType="-99"/>
        </Node>
      </Node>
    </BinaryTree>
    <BinaryTree type="DecisionTree" boostWeight="1.0000000000000000e+00" itree="451">
      <Node pos="s" depth="0" NCoef="0" IVar="5" Cut="4.7345574951171875e+02" cType="1" res="2.2139845415949821e-02" rms="4.6615785360336304e-01" purity="4.9412482976913452e-01" nType="0">
        <Node pos="l" depth="1" NCoef="0" IVar="3" Cut="5.1057815551757812e-01" cType="1" res="-3.7865586578845978e-02" rms="4.5788291096687317e-01" purity="3.8463175296783447e-01" nType="0">
          <Node pos="l" depth="2" NCoef="0" IVar="-1" Cut="0.0000000000000000e+00" cType="1" res="-4.2899887193925679e-04" rms="4.5081162452697754e-01" purity="3.3815088868141174e-01" nType="-99"/>
          <Node pos="r" depth="2" NCoef="0" IVar="-1" Cut="0.0000000000000000e+00" cType="1" res="4.4708061614073813e-04" rms="4.6267372369766235e-01" purity="6.6616815328598022e-01" nType="-99"/>
        </Node>
        <Node pos="r" depth="1" NCoef="0" IVar="3" Cut="3.3214354515075684e-01" cType="1" res="9.3623600900173187e-02" rms="4.6584632992744446e-01" purity="6.2456274032592773e-01" nType="0">
          <Node pos="l" depth="2" NCoef="0" IVar="-1" Cut="0.0000000000000000e+00" cType="1" res="1.0200883116340265e-04" rms="4.9038425087928772e-01" purity="4.9595183134078979e-01" nType="-99"/>
          <Node pos="r" depth="2" NCoef="0" IVar="-1" Cut="0.0000000000000000e+00" cType="1" res="4.6602502698078752e-04" rms="4.3058201670646667e-01" purity="7.4777930974960327e-01" nType="-99"/>
        </Node>
      </Node>
    </BinaryTree>
    <BinaryTree type="DecisionTree" boostWeight="1.0000000000000000e+00" itree="452">
      <Node pos="s" depth="0" NCoef="0" IVar="5" Cut="3.4072567749023438e+02" cType="1" res="2.7716757729649544e-02" rms="4.6695026755332947e-01" purity="4.9957197904586792e-01" nType="0">
        <Node pos="l" depth="1" NCoef="0" IVar="0" Cut="1.0059876251220703e+02" cType="1" res="-9.5437094569206238e-02" rms="4.3054813146591187e-01" purity="2.7654412388801575e-01" nType="0">
          <Node pos="l" depth="2" NCoef="0" IVar="-1" Cut="0.0000000000000000e+00" cType="1" res="-3.7517203600145876e-04" rms="4.5057210326194763e-01" purity="3.2108116149902344e-01" nType="-99"/>
          <Node pos="r" depth="2" NCoef="0" IVar="-1" Cut="0.0000000000000000e+00" cType="1" res="-2.2078000474721193e-03" rms="3.6714231967926025e-01" purity="1.8047438561916351e-01" nType="-99"/>
        </Node>
        <Node pos="r" depth="1" NCoef="0" IVar="3" Cut="2.8853642940521240e-01" cType="1" res="6.1105776578187943e-02" rms="4.7082200646400452e-01" purity="5.6003844738006592e-01" nType="0">
          <Node pos="l" depth="2" NCoef="0" IVar="-1" Cut="0.0000000000000000e+00" cType="1" res="-1.3498154294211417e-04" rms="4.7555994987487793e-01" purity="3.8606446981430054e-01" nType="-99"/>
          <Node pos="r" depth="2" NCoef="0" IVar="-1" Cut="0.0000000000000000e+00" cType="1" res="3.7138629704713821e-04" rms="4.5990774035453796e-01" purity="6.6840845346450806e-01" nType="-99"/>
        </Node>
      </Node>
    </BinaryTree>
    <BinaryTree type="DecisionTree" boostWeight="1.0000000000000000e+00" itree="453">
      <Node pos="s" depth="0" NCoef="0" IVar="3" Cut="2.6668155193328857e-01" cType="1" res="2.4471074342727661e-02" rms="4.6576264500617981e-01" purity="4.9755132198333740e-01" nType="0">
        <Node pos="l" depth="1" NCoef="0" IVar="1" Cut="8.4161823987960815e-01" cType="1" res="-7.2198592126369476e-02" rms="4.4236624240875244e-01" purity="3.0060845613479614e-01" nType="0">
          <Node pos="l" depth="2" NCoef="0" IVar="-1" Cut="0.0000000000000000e+00" cType="1" res="-1.1291075497865677e-03" rms="4.1396495699882507e-01" purity="2.4089109897613525e-01" nType="-99"/>
          <Node pos="r" depth="2" NCoef="0" IVar="-1" Cut="0.0000000000000000e+00" cType="1" res="-3.1396371923619881e-05" rms="4.6474111080169678e-01" purity="3.7080693244934082e-01" nType="-99"/>
        </Node>
        <Node pos="r" depth="1" NCoef="0" IVar="4" Cut="8.2585984468460083e-01" cType="1" res="7.2759054601192474e-02" rms="4.6962571144104004e-01" purity="5.9592729806900024e-01" nType="0">
          <Node pos="l" depth="2" NCoef="0" IVar="-1" Cut="0.0000000000000000e+00" cType="1" res="5.1377946510910988e-04" rms="4.3607613444328308e-01" purity="7.1093547344207764e-01" nType="-99"/>
          <Node pos="r" depth="2" NCoef="0" IVar="-1" Cut="0.0000000000000000e+00" cType="1" res="9.2218666395638138e-05" rms="4.7940289974212646e-01" purity="5.3393805027008057e-01" nType="-99"/>
        </Node>
      </Node>
    </BinaryTree>
    <BinaryTree type="DecisionTree" boostWeight="1.0000000000000000e+00" itree="454">
      <Node pos="s" depth="0" NCoef="0" IVar="3" Cut="4.4285807013511658e-01" cType="1" res="2.2293364629149437e-02" rms="4.6735474467277527e-01" purity="4.9298104643821716e-01" nType="0">
        <Node pos="l" depth="1" NCoef="0" IVar="7" Cut="1.8783612060546875e+02" cType="1" res="-1.7057634890079498e-02" rms="4.6695378422737122e-01" purity="4.2526671290397644e-01" nType="0">
          <Node pos="l" depth="2" NCoef="0" IVar="-1" Cut="0.0000000000000000e+00" cType="1" res="-2.7581999893300235e-04" rms="4.6042850613594055e-01" purity="3.7861371040344238e-01" nType="-99"/>
          <Node pos="r" depth="2" NCoef="0" IVar="-1" Cut="0.0000000000000000e+00" cType="1" res="3.8463392411358654e-04" rms="4.7234624624252319e-01" purity="6.2326949834823608e-01" nType="-99"/>
        </Node>
        <Node pos="r" depth="1" NCoef="0" IVar="4" Cut="9.1305965185165405e-01" cType="1" res="1.4329156279563904e-01" rms="4.4740405678749084e-01" purity="7.0119220018386841e-01" nType="0">
          <Node pos="l" depth="2" NCoef="0" IVar="-1" Cut="0.0000000000000000e+00" cType="1" res="5.9481494827196002e-04" rms="4.0892329812049866e-01" purity="7.7623581886291504e-01" nType="-99"/>
          <Node pos="r" depth="2" NCoef="0" IVar="-1" Cut="0.0000000000000000e+00" cType="1" res="3.2142444979399443e-04" rms="4.7000926733016968e-01" purity="6.4067453145980835e-01" nType="-99"/>
        </Node>
      </Node>
    </BinaryTree>
    <BinaryTree type="DecisionTree" boostWeight="1.0000000000000000e+00" itree="455">
      <Node pos="s" depth="0" NCoef="0" IVar="5" Cut="3.8179888916015625e+02" cType="1" res="2.9811453074216843e-02" rms="4.6633386611938477e-01" purity="5.0247049331665039e-01" nType="0">
        <Node pos="l" depth="1" NCoef="0" IVar="3" Cut="4.6573376655578613e-01" cType="1" res="-6.4614869654178619e-02" rms="4.4380089640617371e-01" purity="3.2555419206619263e-01" nType="0">
          <Node pos="l" depth="2" NCoef="0" IVar="-1" Cut="0.0000000000000000e+00" cType="1" res="-8.6666172137483954e-04" rms="4.2341384291648865e-01" purity="2.6027867197990417e-01" nType="-99"/>
          <Node pos="r" depth="2" NCoef="0" IVar="-1" Cut="0.0000000000000000e+00" cType="1" res="2.6880489895120263e-04" rms="4.9032866954803467e-01" purity="5.7232230901718140e-01" nType="-99"/>
        </Node>
        <Node pos="r" depth="1" NCoef="0" IVar="3" Cut="3.5567700862884521e-01" cType="1" res="7.4906133115291595e-02" rms="4.7007396817207336e-01" purity="5.8695948123931885e-01" nType="0">
          <Node pos="l" depth="2" NCoef="0" IVar="-1" Cut="0.0000000000000000e+00" cType="1" res="8.4351413534022868e-05" rms="4.8655939102172852e-01" purity="4.7286999225616455e-01" nType="-99"/>
          <Node pos="r" depth="2" NCoef="0" IVar="-1" Cut="0.0000000000000000e+00" cType="1" res="4.3900031596422195e-04" rms="4.3798220157623291e-01" purity="7.3213261365890503e-01" nType="-99"/>
        </Node>
      </Node>
    </BinaryTree>
    <BinaryTree type="DecisionTree" boostWeight="1.0000000000000000e+00" itree="456">
      <Node pos="s" depth="0" NCoef="0" IVar="4" Cut="6.8908357620239258e-01" cType="1" res="2.9043782502412796e-02" rms="4.6745732426643372e-01" purity="5.0013649463653564e-01" nType="0">
        <Node pos="l" depth="1" NCoef="0" IVar="-1" Cut="0.0000000000000000e+00" cType="1" res="5.2180199418216944e-04" rms="4.4072329998016357e-01" purity="6.9103831052780151e-01" nType="-99"/>
        <Node pos="r" depth="1" NCoef="0" IVar="1" Cut="8.5495001077651978e-01" cType="1" res="3.2354777213186026e-03" rms="4.6765625476837158e-01" purity="4.6499052643775940e-01" nType="0">
          <Node pos="l" depth="2" NCoef="0" IVar="-1" Cut="0.0000000000000000e+00" cType="1" res="-3.1588299316354096e-04" rms="4.5895865559577942e-01" purity="3.9754691720008850e-01" nType="-99"/>
          <Node pos="r" depth="2" NCoef="0" IVar="-1" Cut="0.0000000000000000e+00" cType="1" res="3.0046314350329340e-04" rms="4.6757096052169800e-01" purity="5.4327458143234253e-01" nType="-99"/>
        </Node>
      </Node>
    </BinaryTree>
    <BinaryTree type="DecisionTree" boostWeight="1.0000000000000000e+00" itree="457">
      <Node pos="s" depth="0" NCoef="0" IVar="5" Cut="4.3369241333007812e+02" cType="1" res="2.4340767413377762e-02" rms="4.6733412146568298e-01" purity="4.9536153674125671e-01" nType="0">
        <Node pos="l" depth="1" NCoef="0" IVar="3" Cut="5.0333762168884277e-01" cType="1" res="-4.1736755520105362e-02" rms="4.5767164230346680e-01" purity="3.6439010500907898e-01" nType="0">
          <Node pos="l" depth="2" NCoef="0" IVar="-1" Cut="0.0000000000000000e+00" cType="1" res="-4.7746641212143004e-04" rms="4.4997510313987732e-01" purity="3.1910085678100586e-01" nType="-99"/>
          <Node pos="r" depth="2" NCoef="0" IVar="-1" Cut="0.0000000000000000e+00" cType="1" res="3.7087622331455350e-04" rms="4.7397974133491516e-01" purity="6.2994724512100220e-01" nType="-99"/>
        </Node>
        <Node pos="r" depth="1" NCoef="0" IVar="6" Cut="1.8299659729003906e+02" cType="1" res="8.0251865088939667e-02" rms="4.6812751889228821e-01" purity="6.0618221759796143e-01" nType="0">
          <Node pos="l" depth="2" NCoef="0" IVar="-1" Cut="0.0000000000000000e+00" cType="1" res="4.3172889854758978e-04" rms="4.5310544967651367e-01" purity="6.6394132375717163e-01" nType="-99"/>
          <Node pos="r" depth="2" NCoef="0" IVar="-1" Cut="0.0000000000000000e+00" cType="1" res="-7.5538628152571619e-05" rms="4.7758752107620239e-01" purity="5.0619477033615112e-01" nType="-99"/>
        </Node>
      </Node>
    </BinaryTree>
    <BinaryTree type="DecisionTree" boostWeight="1.0000000000000000e+00" itree="458">
      <Node pos="s" depth="0" NCoef="0" IVar="5" Cut="5.4281237792968750e+02" cType="1" res="3.4685119986534119e-02" rms="4.6719583868980408e-01" purity="5.0642222166061401e-01" nType="0">
        <Node pos="l" depth="1" NCoef="0" IVar="3" Cut="4.8791155219078064e-01" cType="1" res="-7.7651161700487137e-03" rms="4.6509408950805664e-01" purity="4.3269157409667969e-01" nType="0">
          <Node pos="l" depth="2" NCoef="0" IVar="-1" Cut="0.0000000000000000e+00" cType="1" res="-2.1658347395714372e-04" rms="4.6137374639511108e-01" purity="3.8152441382408142e-01" nType="-99"/>
          <Node pos="r" depth="2" NCoef="0" IVar="-1" Cut="0.0000000000000000e+00" cType="1" res="4.4554716441780329e-04" rms="4.5529004931449890e-01" purity="6.8312257528305054e-01" nType="-99"/>
        </Node>
        <Node pos="r" depth="1" NCoef="0" IVar="0" Cut="1.5787600708007812e+02" cType="1" res="1.2150841206312180e-01" rms="4.5940792560577393e-01" purity="6.5722310543060303e-01" nType="0">
          <Node pos="l" depth="2" NCoef="0" IVar="-1" Cut="0.0000000000000000e+00" cType="1" res="5.3140067029744387e-04" rms="4.3597355484962463e-01" purity="7.1730524301528931e-01" nType="-99"/>
          <Node pos="r" depth="2" NCoef="0" IVar="-1" Cut="0.0000000000000000e+00" cType="1" res="1.7106527229771018e-04" rms="4.7840455174446106e-01" purity="5.7694453001022339e-01" nType="-99"/>
        </Node>
      </Node>
    </BinaryTree>
    <BinaryTree type="DecisionTree" boostWeight="1.0000000000000000e+00" itree="459">
      <Node pos="s" depth="0" NCoef="0" IVar="4" Cut="7.8541678190231323e-01" cType="1" res="3.5398308187723160e-02" rms="4.6949306130409241e-01" purity="5.0485032796859741e-01" nType="0">
        <Node pos="l" depth="1" NCoef="0" IVar="5" Cut="3.4646401977539062e+02" cType="1" res="1.3383437693119049e-01" rms="4.5278447866439819e-01" purity="6.4077931642532349e-01" nType="0">
          <Node pos="l" depth="2" NCoef="0" IVar="-1" Cut="0.0000000000000000e+00" cType="1" res="-4.5846110879210755e-05" rms="4.6468749642372131e-01" purity="4.0027102828025818e-01" nType="-99"/>
          <Node pos="r" depth="2" NCoef="0" IVar="-1" Cut="0.0000000000000000e+00" cType="1" res="5.1770661957561970e-04" rms="4.4401347637176514e-01" purity="6.9401496648788452e-01" nType="-99"/>
        </Node>
        <Node pos="r" depth="1" NCoef="0" IVar="7" Cut="2.1468333435058594e+02" cType="1" res="-2.3048706352710724e-03" rms="4.7031179070472717e-01" purity="4.5278659462928772e-01" nType="0">
          <Node pos="l" depth="2" NCoef="0" IVar="-1" Cut="0.0000000000000000e+00" cType="1" res="-1.5137664740905166e-04" rms="4.6865662932395935e-01" purity="4.1325178742408752e-01" nType="-99"/>
          <Node pos="r" depth="2" NCoef="0" IVar="-1" Cut="0.0000000000000000e+00" cType="1" res="4.7473303857259452e-04" rms="4.4988784193992615e-01" purity="6.8536031246185303e-01" nType="-99"/>
        </Node>
      </Node>
    </BinaryTree>
    <BinaryTree type="DecisionTree" boostWeight="1.0000000000000000e+00" itree="460">
      <Node pos="s" depth="0" NCoef="0" IVar="5" Cut="3.8681591796875000e+02" cType="1" res="3.9844293147325516e-02" rms="4.6869915723800659e-01" purity="5.1018440723419189e-01" nType="0">
        <Node pos="l" depth="1" NCoef="0" IVar="6" Cut="1.3213873291015625e+02" cType="1" res="-4.4955275952816010e-02" rms="4.5216974616050720e-01" purity="3.4429895877838135e-01" nType="0">
          <Node pos="l" depth="2" NCoef="0" IVar="-1" Cut="0.0000000000000000e+00" cType="1" res="-2.1336578356567770e-05" rms="4.6434938907623291e-01" purity="3.8684341311454773e-01" nType="-99"/>
          <Node pos="r" depth="2" NCoef="0" IVar="-1" Cut="0.0000000000000000e+00" cType="1" res="-1.1157403932884336e-03" rms="4.1451299190521240e-01" purity="2.5909909605979919e-01" nType="-99"/>
        </Node>
        <Node pos="r" depth="1" NCoef="0" IVar="6" Cut="1.8818127441406250e+02" cType="1" res="8.3275116980075836e-02" rms="4.7106850147247314e-01" purity="5.9514403343200684e-01" nType="0">
          <Node pos="l" depth="2" NCoef="0" IVar="-1" Cut="0.0000000000000000e+00" cType="1" res="4.2474479414522648e-04" rms="4.6092373132705688e-01" purity="6.3775461912155151e-01" nType="-99"/>
          <Node pos="r" depth="2" NCoef="0" IVar="-1" Cut="0.0000000000000000e+00" cType="1" res="5.5467453421442769e-06" rms="4.7966518998146057e-01" purity="5.1242828369140625e-01" nType="-99"/>
        </Node>
      </Node>
    </BinaryTree>
    <BinaryTree type="DecisionTree" boostWeight="1.0000000000000000e+00" itree="461">
      <Node pos="s" depth="0" NCoef="0" IVar="3" Cut="2.2177797555923462e-01" cType="1" res="2.5360886007547379e-02" rms="4.6548718214035034e-01" purity="4.9828022718429565e-01" nType="0">
        <Node pos="l" depth="1" NCoef="0" IVar="3" Cut="1.7508326470851898e-01" cType="1" res="-8.9220203459262848e-02" rms="4.3023768067359924e-01" purity="2.7683427929878235e-01" nType="0">
          <Node pos="l" depth="2" NCoef="0" IVar="-1" Cut="0.0000000000000000e+00" cType="1" res="-1.1274340795353055e-03" rms="4.0503752231597900e-01" purity="2.3305942118167877e-01" nType="-99"/>
          <Node pos="r" depth="2" NCoef="0" IVar="-1" Cut="0.0000000000000000e+00" cType="1" res="-2.6252007228322327e-04" rms="4.5397254824638367e-01" purity="3.2937836647033691e-01" nType="-99"/>
        </Node>
        <Node pos="r" depth="1" NCoef="0" IVar="5" Cut="3.0271298217773438e+02" cType="1" res="6.0543391853570938e-02" rms="4.7021707892417908e-01" purity="5.6627595424652100e-01" nType="0">
          <Node pos="l" depth="2" NCoef="0" IVar="-1" Cut="0.0000000000000000e+00" cType="1" res="-1.0862504132091999e-03" rms="4.3101730942726135e-01" purity="2.6534792780876160e-01" nType="-99"/>
          <Node pos="r" depth="2" NCoef="0" IVar="-1" Cut="0.0000000000000000e+00" cType="1" res="3.0356892966665328e-04" rms="4.6953690052032471e-01" purity="6.0360825061798096e-01" nType="-99"/>
        </Node>
      </Node>
    </BinaryTree>
    <BinaryTree type="DecisionTree" boostWeight="1.0000000000000000e+00" itree="462">
      <Node pos="s" depth="0" NCoef="0" IVar="3" Cut="3.5567700862884521e-01" cType="1" res="2.7150109410285950e-02" rms="4.6698060631752014e-01" purity="4.9879601597785950e-01" nType="0">
        <Node pos="l" depth="1" NCoef="0" IVar="5" Cut="6.0106951904296875e+02" cType="1" res="-2.5291129946708679e-02" rms="4.6420049667358398e-01" purity="3.8242211937904358e-01" nType="0">
          <Node pos="l" depth="2" NCoef="0" IVar="-1" Cut="0.0000000000000000e+00" cType="1" res="-4.0900672320276499e-04" rms="4.5252871513366699e-01" purity="3.1793555617332458e-01" nType="-99"/>
          <Node pos="r" depth="2" NCoef="0" IVar="-1" Cut="0.0000000000000000e+00" cType="1" res="2.8994993772357702e-04" rms="4.8263320326805115e-01" purity="5.7800042629241943e-01" nType="-99"/>
        </Node>
        <Node pos="r" depth="1" NCoef="0" IVar="5" Cut="3.8486837768554688e+02" cType="1" res="9.5593884587287903e-02" rms="4.6170964837074280e-01" purity="6.5068161487579346e-01" nType="0">
          <Node pos="l" depth="2" NCoef="0" IVar="-1" Cut="0.0000000000000000e+00" cType="1" res="-1.3594777556136250e-05" rms="4.9051517248153687e-01" purity="4.8492541909217834e-01" nType="-99"/>
          <Node pos="r" depth="2" NCoef="0" IVar="-1" Cut="0.0000000000000000e+00" cType="1" res="4.3398223351687193e-04" rms="4.3976977467536926e-01" purity="7.2917425632476807e-01" nType="-99"/>
        </Node>
      </Node>
    </BinaryTree>
    <BinaryTree type="DecisionTree" boostWeight="1.0000000000000000e+00" itree="463">
      <Node pos="s" depth="0" NCoef="0" IVar="3" Cut="4.6669048070907593e-01" cType="1" res="2.2625919431447983e-02" rms="4.6735739707946777e-01" purity="4.9253666400909424e-01" nType="0">
        <Node pos="l" depth="1" NCoef="0" IVar="4" Cut="1.0832104682922363e+00" cType="1" res="-8.6293900385499001e-03" rms="4.6814006567001343e-01" purity="4.3907323479652405e-01" nType="0">
          <Node pos="l" depth="2" NCoef="0" IVar="-1" Cut="0.0000000000000000e+00" cType="1" res="1.5550317766610533e-04" rms="4.7142031788825989e-01" purity="4.9265903234481812e-01" nType="-99"/>
          <Node pos="r" depth="2" NCoef="0" IVar="-1" Cut="0.0000000000000000e+00" cType="1" res="-6.5776868723332882e-04" rms="4.4742092490196228e-01" purity="3.2728973031044006e-01" nType="-99"/>
        </Node>
        <Node pos="r" depth="1" NCoef="0" IVar="7" Cut="1.1069157409667969e+02" cType="1" res="1.5065746009349823e-01" rms="4.4162189960479736e-01" purity="7.1153956651687622e-01" nType="0">
          <Node pos="l" depth="2" NCoef="0" IVar="-1" Cut="0.0000000000000000e+00" cType="1" res="3.0251083080656826e-04" rms="4.7692203521728516e-01" purity="6.1670160293579102e-01" nType="-99"/>
          <Node pos="r" depth="2" NCoef="0" IVar="-1" Cut="0.0000000000000000e+00" cType="1" res="5.6779896840453148e-04" rms="4.0855914354324341e-01" purity="7.7859920263290405e-01" nType="-99"/>
        </Node>
      </Node>
    </BinaryTree>
    <BinaryTree type="DecisionTree" boostWeight="1.0000000000000000e+00" itree="464">
      <Node pos="s" depth="0" NCoef="0" IVar="3" Cut="4.6609732508659363e-01" cType="1" res="3.7373002618551254e-02" rms="4.6574130654335022e-01" purity="5.1070046424865723e-01" nType="0">
        <Node pos="l" depth="1" NCoef="0" IVar="5" Cut="3.1410748291015625e+02" cType="1" res="4.5604370534420013e-03" rms="4.6833762526512146e-01" purity="4.5473739504814148e-01" nType="0">
          <Node pos="l" depth="2" NCoef="0" IVar="-1" Cut="0.0000000000000000e+00" cType="1" res="-2.1391254849731922e-03" rms="3.7499889731407166e-01" purity="1.7122539877891541e-01" nType="-99"/>
          <Node pos="r" depth="2" NCoef="0" IVar="-1" Cut="0.0000000000000000e+00" cType="1" res="1.3780323206447065e-04" rms="4.7667911648750305e-01" purity="5.0192642211914062e-01" nType="-99"/>
        </Node>
        <Node pos="r" depth="1" NCoef="0" IVar="7" Cut="1.1219282531738281e+02" cType="1" res="1.6543166339397430e-01" rms="4.3226066231727600e-01" purity="7.2910958528518677e-01" nType="0">
          <Node pos="l" depth="2" NCoef="0" IVar="-1" Cut="0.0000000000000000e+00" cType="1" res="3.4805457107722759e-04" rms="4.6835911273956299e-01" purity="6.3990443944931030e-01" nType="-99"/>
          <Node pos="r" depth="2" NCoef="0" IVar="-1" Cut="0.0000000000000000e+00" cType="1" res="5.9267110191285610e-04" rms="3.9772045612335205e-01" purity="7.9411059617996216e-01" nType="-99"/>
        </Node>
      </Node>
    </BinaryTree>
    <BinaryTree type="DecisionTree" boostWeight="1.0000000000000000e+00" itree="465">
      <Node pos="s" depth="0" NCoef="0" IVar="5" Cut="4.4509860229492188e+02" cType="1" res="2.4893118068575859e-02" rms="4.6515911817550659e-01" purity="4.9716714024543762e-01" nType="0">
        <Node pos="l" depth="1" NCoef="0" IVar="6" Cut="1.4899214172363281e+02" cType="1" res="-4.8014126718044281e-02" rms="4.5271554589271545e-01" purity="3.6363166570663452e-01" nType="0">
          <Node pos="l" depth="2" NCoef="0" IVar="-1" Cut="0.0000000000000000e+00" cType="1" res="-4.3674015614669770e-05" rms="4.5937827229499817e-01" purity="4.0651568770408630e-01" nType="-99"/>
          <Node pos="r" depth="2" NCoef="0" IVar="-1" Cut="0.0000000000000000e+00" cType="1" res="-1.2610906269401312e-03" rms="4.1863197088241577e-01" purity="2.5526165962219238e-01" nType="-99"/>
        </Node>
        <Node pos="r" depth="1" NCoef="0" IVar="4" Cut="7.2725641727447510e-01" cType="1" res="9.1671831905841827e-02" rms="4.6637588739395142e-01" purity="6.1947768926620483e-01" nType="0">
          <Node pos="l" depth="2" NCoef="0" IVar="-1" Cut="0.0000000000000000e+00" cType="1" res="5.7690212270244956e-04" rms="4.1319966316223145e-01" purity="7.6697897911071777e-01" nType="-99"/>
          <Node pos="r" depth="2" NCoef="0" IVar="-1" Cut="0.0000000000000000e+00" cType="1" res="1.9997399067506194e-04" rms="4.7636204957962036e-01" purity="5.7066667079925537e-01" nType="-99"/>
        </Node>
      </Node>
    </BinaryTree>
    <BinaryTree type="DecisionTree" boostWeight="1.0000000000000000e+00" itree="466">
      <Node pos="s" depth="0" NCoef="0" IVar="4" Cut="7.4125051498413086e-01" cType="1" res="2.9764164239168167e-02" rms="4.6869587898254395e-01" purity="5.0003027915954590e-01" nType="0">
        <Node pos="l" depth="1" NCoef="0" IVar="3" Cut="3.0296966433525085e-01" cType="1" res="1.4124514162540436e-01" rms="4.5055255293846130e-01" purity="6.5764617919921875e-01" nType="0">
          <Node pos="l" depth="2" NCoef="0" IVar="-1" Cut="0.0000000000000000e+00" cType="1" res="2.4654937442392111e-04" rms="4.8999875783920288e-01" purity="4.9563536047935486e-01" nType="-99"/>
          <Node pos="r" depth="2" NCoef="0" IVar="-1" Cut="0.0000000000000000e+00" cType="1" res="5.7060882681980729e-04" rms="4.1388246417045593e-01" purity="7.6158612966537476e-01" nType="-99"/>
        </Node>
        <Node pos="r" depth="1" NCoef="0" IVar="7" Cut="1.5981954956054688e+02" cType="1" res="-7.4848055373877287e-04" rms="4.6894362568855286e-01" purity="4.5689037442207336e-01" nType="0">
          <Node pos="l" depth="2" NCoef="0" IVar="-1" Cut="0.0000000000000000e+00" cType="1" res="-1.9583197718020529e-04" rms="4.6226194500923157e-01" purity="4.0019300580024719e-01" nType="-99"/>
          <Node pos="r" depth="2" NCoef="0" IVar="-1" Cut="0.0000000000000000e+00" cType="1" res="3.1931302510201931e-04" rms="4.7414267063140869e-01" purity="6.0130172967910767e-01" nType="-99"/>
        </Node>
      </Node>
    </BinaryTree>
    <BinaryTree type="DecisionTree" boostWeight="1.0000000000000000e+00" itree="467">
      <Node pos="s" depth="0" NCoef="0" IVar="4" Cut="7.4364906549453735e-01" cType="1" res="3.2037232071161270e-02" rms="4.6687275171279907e-01" purity="5.0401580333709717e-01" nType="0">
        <Node pos="l" depth="1" NCoef="0" IVar="3" Cut="2.4352553486824036e-01" cType="1" res="1.4535005390644073e-01" rms="4.4754850864410400e-01" purity="6.6184097528457642e-01" nType="0">
          <Node pos="l" depth="2" NCoef="0" IVar="-1" Cut="0.0000000000000000e+00" cType="1" res="1.2701973901130259e-04" rms="4.8085296154022217e-01" purity="4.5682021975517273e-01" nType="-99"/>
          <Node pos="r" depth="2" NCoef="0" IVar="-1" Cut="0.0000000000000000e+00" cType="1" res="5.5505469208583236e-04" rms="4.2877444624900818e-01" purity="7.3013365268707275e-01" nType="-99"/>
        </Node>
        <Node pos="r" depth="1" NCoef="0" IVar="1" Cut="8.5507673025131226e-01" cType="1" res="3.0407678423216566e-05" rms="4.6723678708076477e-01" purity="4.5943579077720642e-01" nType="0">
          <Node pos="l" depth="2" NCoef="0" IVar="-1" Cut="0.0000000000000000e+00" cType="1" res="-3.4100230550393462e-04" rms="4.5798656344413757e-01" purity="3.9233127236366272e-01" nType="-99"/>
          <Node pos="r" depth="2" NCoef="0" IVar="-1" Cut="0.0000000000000000e+00" cType="1" res="2.7895925450138748e-04" rms="4.6799221634864807e-01" purity="5.3477078676223755e-01" nType="-99"/>
        </Node>
      </Node>
    </BinaryTree>
    <BinaryTree type="DecisionTree" boostWeight="1.0000000000000000e+00" itree="468">
      <Node pos="s" depth="0" NCoef="0" IVar="3" Cut="3.7812203168869019e-01" cType="1" res="2.7991110458970070e-02" rms="4.6552327275276184e-01" purity="5.0147140026092529e-01" nType="0">
        <Node pos="l" depth="1" NCoef="0" IVar="4" Cut="6.9512784481048584e-01" cType="1" res="-2.7992030605673790e-02" rms="4.6373426914215088e-01" purity="3.9100015163421631e-01" nType="0">
          <Node pos="l" depth="2" NCoef="0" IVar="-1" Cut="0.0000000000000000e+00" cType="1" res="3.5966810537502170e-04" rms="4.6918091177940369e-01" purity="5.9386855363845825e-01" nType="-99"/>
          <Node pos="r" depth="2" NCoef="0" IVar="-1" Cut="0.0000000000000000e+00" cType="1" res="-3.2520160311833024e-04" rms="4.5851722359657288e-01" purity="3.5248959064483643e-01" nType="-99"/>
        </Node>
        <Node pos="r" depth="1" NCoef="0" IVar="1" Cut="7.3658210039138794e-01" cType="1" res="1.1544804275035858e-01" rms="4.5471325516700745e-01" purity="6.7404973506927490e-01" nType="0">
          <Node pos="l" depth="2" NCoef="0" IVar="-1" Cut="0.0000000000000000e+00" cType="1" res="3.1449148082174361e-05" rms="4.7846704721450806e-01" purity="5.6454378366470337e-01" nType="-99"/>
          <Node pos="r" depth="2" NCoef="0" IVar="-1" Cut="0.0000000000000000e+00" cType="1" res="4.7604576684534550e-04" rms="4.3897217512130737e-01" purity="7.1458798646926880e-01" nType="-99"/>
        </Node>
      </Node>
    </BinaryTree>
    <BinaryTree type="DecisionTree" boostWeight="1.0000000000000000e+00" itree="469">
      <Node pos="s" depth="0" NCoef="0" IVar="3" Cut="3.9958289265632629e-01" cType="1" res="2.9528075829148293e-02" rms="4.6648499369621277e-01" purity="5.0160002708435059e-01" nType="0">
        <Node pos="l" depth="1" NCoef="0" IVar="4" Cut="6.4300262928009033e-01" cType="1" res="-2.0279038697481155e-02" rms="4.6605059504508972e-01" purity="4.0714505314826965e-01" nType="0">
          <Node pos="l" depth="2" NCoef="0" IVar="-1" Cut="0.0000000000000000e+00" cType="1" res="4.6509449020959437e-04" rms="4.5087745785713196e-01" purity="6.5534889698028564e-01" nType="-99"/>
          <Node pos="r" depth="2" NCoef="0" IVar="-1" Cut="0.0000000000000000e+00" cType="1" res="-2.3634432000108063e-04" rms="4.6381443738937378e-01" purity="3.7567278742790222e-01" nType="-99"/>
        </Node>
        <Node pos="r" depth="1" NCoef="0" IVar="7" Cut="1.1020456695556641e+02" cType="1" res="1.2682439386844635e-01" rms="4.5175981521606445e-01" purity="6.8611425161361694e-01" nType="0">
          <Node pos="l" depth="2" NCoef="0" IVar="-1" Cut="0.0000000000000000e+00" cType="1" res="1.9099326163996011e-04" rms="4.8179844021797180e-01" purity="5.8072185516357422e-01" nType="-99"/>
          <Node pos="r" depth="2" NCoef="0" IVar="-1" Cut="0.0000000000000000e+00" cType="1" res="5.2627950208261609e-04" rms="4.2264738678932190e-01" purity="7.5687998533248901e-01" nType="-99"/>
        </Node>
      </Node>
    </BinaryTree>
    <BinaryTree type="DecisionTree" boostWeight="1.0000000000000000e+00" itree="470">
      <Node pos="s" depth="0" NCoef="0" IVar="4" Cut="7.6313936710357666e-01" cType="1" res="3.5225331783294678e-02" rms="4.6752542257308960e-01" purity="5.0616002082824707e-01" nType="0">
        <Node pos="l" depth="1" NCoef="0" IVar="5" Cut="3.8357177734375000e+02" cType="1" res="1.3745729625225067e-01" rms="4.5288178324699402e-01" purity="6.4812332391738892e-01" nType="0">
          <Node pos="l" depth="2" NCoef="0" IVar="-1" Cut="0.0000000000000000e+00" cType="1" res="2.4144498456735164e-04" rms="4.7613924741744995e-01" purity="4.8004546761512756e-01" nType="-99"/>
          <Node pos="r" depth="2" NCoef="0" IVar="-1" Cut="0.0000000000000000e+00" cType="1" res="5.0744466716423631e-04" rms="4.3973934650421143e-01" purity="7.1115010976791382e-01" nType="-99"/>
        </Node>
        <Node pos="r" depth="1" NCoef="0" IVar="7" Cut="1.6188261413574219e+02" cType="1" res="3.2578827813267708e-03" rms="4.6744468808174133e-01" purity="4.6176877617835999e-01" nType="0">
          <Node pos="l" depth="2" NCoef="0" IVar="-1" Cut="0.0000000000000000e+00" cType="1" res="-2.0058119844179600e-04" rms="4.6128514409065247e-01" purity="3.9919489622116089e-01" nType="-99"/>
          <Node pos="r" depth="2" NCoef="0" IVar="-1" Cut="0.0000000000000000e+00" cType="1" res="3.6864256253466010e-04" rms="4.6778643131256104e-01" purity="6.2089514732360840e-01" nType="-99"/>
        </Node>
      </Node>
    </BinaryTree>
    <BinaryTree type="DecisionTree" boostWeight="1.0000000000000000e+00" itree="471">
      <Node pos="s" depth="0" NCoef="0" IVar="3" Cut="2.2229813039302826e-01" cType="1" res="3.1765561550855637e-02" rms="4.6663105487823486e-01" purity="5.0378441810607910e-01" nType="0">
        <Node pos="l" depth="1" NCoef="0" IVar="1" Cut="8.4169816970825195e-01" cType="1" res="-7.8258663415908813e-02" rms="4.3804344534873962e-01" purity="2.8420805931091309e-01" nType="0">
          <Node pos="l" depth="2" NCoef="0" IVar="-1" Cut="0.0000000000000000e+00" cType="1" res="-1.0875718435272574e-03" rms="4.1238683462142944e-01" purity="2.4155153334140778e-01" nType="-99"/>
          <Node pos="r" depth="2" NCoef="0" IVar="-1" Cut="0.0000000000000000e+00" cType="1" res="-1.6456950106658041e-04" rms="4.6257290244102478e-01" purity="3.3758407831192017e-01" nType="-99"/>
        </Node>
        <Node pos="r" depth="1" NCoef="0" IVar="5" Cut="3.4187228393554688e+02" cType="1" res="6.5573096275329590e-02" rms="4.6992424130439758e-01" purity="5.7125449180603027e-01" nType="0">
          <Node pos="l" depth="2" NCoef="0" IVar="-1" Cut="0.0000000000000000e+00" cType="1" res="-3.4487657831050456e-04" rms="4.6725946664810181e-01" purity="3.5354787111282349e-01" nType="-99"/>
          <Node pos="r" depth="2" NCoef="0" IVar="-1" Cut="0.0000000000000000e+00" cType="1" res="3.4022339968942106e-04" rms="4.6541175246238708e-01" purity="6.2950724363327026e-01" nType="-99"/>
        </Node>
      </Node>
    </BinaryTree>
    <BinaryTree type="DecisionTree" boostWeight="1.0000000000000000e+00" itree="472">
      <Node pos="s" depth="0" NCoef="0" IVar="4" Cut="7.1796905994415283e-01" cType="1" res="2.8444880619645119e-02" rms="4.6561995148658752e-01" purity="5.0076425075531006e-01" nType="0">
        <Node pos="l" depth="1" NCoef="0" IVar="3" Cut="3.0194553732872009e-01" cType="1" res="1.6312035918235779e-01" rms="4.3845000863075256e-01" purity="6.8725198507308960e-01" nType="0">
          <Node pos="l" depth="2" NCoef="0" IVar="-1" Cut="0.0000000000000000e+00" cType="1" res="3.2665193430148065e-04" rms="4.8240107297897339e-01" purity="5.3586077690124512e-01" nType="-99"/>
          <Node pos="r" depth="2" NCoef="0" IVar="-1" Cut="0.0000000000000000e+00" cType="1" res="5.9749983483925462e-04" rms="3.9881402254104614e-01" purity="7.8524357080459595e-01" nType="-99"/>
        </Node>
        <Node pos="r" depth="1" NCoef="0" IVar="5" Cut="3.9425656127929688e+02" cType="1" res="-4.1131991893053055e-03" rms="4.6614956855773926e-01" purity="4.5568040013313293e-01" nType="0">
          <Node pos="l" depth="2" NCoef="0" IVar="-1" Cut="0.0000000000000000e+00" cType="1" res="-6.3306104857474566e-04" rms="4.3605482578277588e-01" purity="3.0119904875755310e-01" nType="-99"/>
          <Node pos="r" depth="2" NCoef="0" IVar="-1" Cut="0.0000000000000000e+00" cType="1" res="1.7111163469962776e-04" rms="4.7710677981376648e-01" purity="5.4913437366485596e-01" nType="-99"/>
        </Node>
      </Node>
    </BinaryTree>
    <BinaryTree type="DecisionTree" boostWeight="1.0000000000000000e+00" itree="473">
      <Node pos="s" depth="0" NCoef="0" IVar="3" Cut="4.4285807013511658e-01" cType="1" res="2.5431679561734200e-02" rms="4.6502172946929932e-01" purity="4.9849960207939148e-01" nType="0">
        <Node pos="l" depth="1" NCoef="0" IVar="4" Cut="1.0072673559188843e+00" cType="1" res="-1.0669231414794922e-02" rms="4.6580839157104492e-01" purity="4.3312582373619080e-01" nType="0">
          <Node pos="l" depth="2" NCoef="0" IVar="-1" Cut="0.0000000000000000e+00" cType="1" res="1.7832667799666524e-04" rms="4.7083613276481628e-01" purity="5.0057351589202881e-01" nType="-99"/>
          <Node pos="r" depth="2" NCoef="0" IVar="-1" Cut="0.0000000000000000e+00" cType="1" res="-5.5096438154578209e-04" rms="4.4799754023551941e-01" purity="3.3685758709907532e-01" nType="-99"/>
        </Node>
        <Node pos="r" depth="1" NCoef="0" IVar="7" Cut="9.5033973693847656e+01" cType="1" res="1.3791772723197937e-01" rms="4.4412803649902344e-01" purity="7.0219635963439941e-01" nType="0">
          <Node pos="l" depth="2" NCoef="0" IVar="-1" Cut="0.0000000000000000e+00" cType="1" res="8.6933374404907227e-05" rms="4.8573091626167297e-01" purity="5.5108261108398438e-01" nType="-99"/>
          <Node pos="r" depth="2" NCoef="0" IVar="-1" Cut="0.0000000000000000e+00" cType="1" res="5.2087969379499555e-04" rms="4.1971293091773987e-01" purity="7.5800269842147827e-01" nType="-99"/>
        </Node>
      </Node>
    </BinaryTree>
    <BinaryTree type="DecisionTree" boostWeight="1.0000000000000000e+00" itree="474">
      <Node pos="s" depth="0" NCoef="0" IVar="3" Cut="3.1112849712371826e-01" cType="1" res="3.2180663198232651e-02" rms="4.6615844964981079e-01" purity="5.0489723682403564e-01" nType="0">
        <Node pos="l" depth="1" NCoef="0" IVar="1" Cut="6.3139998912811279e-01" cType="1" res="-3.4956201910972595e-02" rms="4.5980554819107056e-01" purity="3.5299557447433472e-01" nType="0">
          <Node pos="l" depth="2" NCoef="0" IVar="-1" Cut="0.0000000000000000e+00" cType="1" res="-1.8599780742079020e-03" rms="3.8825592398643494e-01" purity="2.0256666839122772e-01" nType="-99"/>
          <Node pos="r" depth="2" NCoef="0" IVar="-1" Cut="0.0000000000000000e+00" cType="1" res="-7.8289631346706301e-05" rms="4.6607428789138794e-01" purity="3.7595921754837036e-01" nType="-99"/>
        </Node>
        <Node pos="r" depth="1" NCoef="0" IVar="7" Cut="1.2391446685791016e+02" cType="1" res="8.6747631430625916e-02" rms="4.6415930986404419e-01" purity="6.2835866212844849e-01" nType="0">
          <Node pos="l" depth="2" NCoef="0" IVar="-1" Cut="0.0000000000000000e+00" cType="1" res="8.5778090578969568e-05" rms="4.8038011789321899e-01" purity="5.3532665967941284e-01" nType="-99"/>
          <Node pos="r" depth="2" NCoef="0" IVar="-1" Cut="0.0000000000000000e+00" cType="1" res="4.6149309491738677e-04" rms="4.3729996681213379e-01" purity="7.2230857610702515e-01" nType="-99"/>
        </Node>
      </Node>
    </BinaryTree>
    <BinaryTree type="DecisionTree" boostWeight="1.0000000000000000e+00" itree="475">
      <Node pos="s" depth="0" NCoef="0" IVar="4" Cut="7.7855271100997925e-01" cType="1" res="3.1791392713785172e-02" rms="4.6524155139923096e-01" purity="5.0491899251937866e-01" nType="0">
        <Node pos="l" depth="1" NCoef="0" IVar="3" Cut="2.4357193708419800e-01" cType="1" res="1.4414799213409424e-01" rms="4.5121002197265625e-01" purity="6.5347075462341309e-01" nType="0">
          <Node pos="l" depth="2" NCoef="0" IVar="-1" Cut="0.0000000000000000e+00" cType="1" res="2.3231479281093925e-04" rms="4.8807817697525024e-01" purity="4.6186965703964233e-01" nType="-99"/>
          <Node pos="r" depth="2" NCoef="0" IVar="-1" Cut="0.0000000000000000e+00" cType="1" res="5.3848983952775598e-04" rms="4.3298205733299255e-01" purity="7.1977609395980835e-01" nType="-99"/>
        </Node>
        <Node pos="r" depth="1" NCoef="0" IVar="7" Cut="1.7834504699707031e+02" cType="1" res="-1.1123606935143471e-02" rms="4.6335497498512268e-01" purity="4.4817906618118286e-01" nType="0">
          <Node pos="l" depth="2" NCoef="0" IVar="-1" Cut="0.0000000000000000e+00" cType="1" res="-2.7034018421545625e-04" rms="4.5726269483566284e-01" purity="3.9034906029701233e-01" nType="-99"/>
          <Node pos="r" depth="2" NCoef="0" IVar="-1" Cut="0.0000000000000000e+00" cType="1" res="3.8246408803388476e-04" rms="4.6173226833343506e-01" purity="6.3983291387557983e-01" nType="-99"/>
        </Node>
      </Node>
    </BinaryTree>
    <BinaryTree type="DecisionTree" boostWeight="1.0000000000000000e+00" itree="476">
      <Node pos="s" depth="0" NCoef="0" IVar="3" Cut="4.2137816548347473e-01" cType="1" res="2.8867259621620178e-02" rms="4.6638450026512146e-01" purity="5.0088626146316528e-01" nType="0">
        <Node pos="l" depth="1" NCoef="0" IVar="4" Cut="7.1329838037490845e-01" cType="1" res="-1.2450560927391052e-02" rms="4.6739935874938965e-01" purity="4.2349958419799805e-01" nType="0">
          <Node pos="l" depth="2" NCoef="0" IVar="-1" Cut="0.0000000000000000e+00" cType="1" res="3.9585307240486145e-04" rms="4.6373644471168518e-01" purity="6.1362278461456299e-01" nType="-99"/>
          <Node pos="r" depth="2" NCoef="0" IVar="-1" Cut="0.0000000000000000e+00" cType="1" res="-2.3449912259820849e-04" rms="4.6362367272377014e-01" purity="3.8044443726539612e-01" nType="-99"/>
        </Node>
        <Node pos="r" depth="1" NCoef="0" IVar="4" Cut="1.0636762380599976e+00" cType="1" res="1.3303992152214050e-01" rms="4.4717901945114136e-01" purity="6.9599753618240356e-01" nType="0">
          <Node pos="l" depth="2" NCoef="0" IVar="-1" Cut="0.0000000000000000e+00" cType="1" res="5.5181182688102126e-04" rms="4.1717740893363953e-01" purity="7.5706356763839722e-01" nType="-99"/>
          <Node pos="r" depth="2" NCoef="0" IVar="-1" Cut="0.0000000000000000e+00" cType="1" res="9.2095069703646004e-05" rms="4.8386484384536743e-01" purity="5.7349759340286255e-01" nType="-99"/>
        </Node>
      </Node>
    </BinaryTree>
    <BinaryTree type="DecisionTree" boostWeight="1.0000000000000000e+00" itree="477">
      <Node pos="s" depth="0" NCoef="0" IVar="7" Cut="1.6926278686523438e+02" cType="1" res="3.4528236836194992e-02" rms="4.6649879217147827e-01" purity="5.0672090053558350e-01" nType="0">
        <Node pos="l" depth="1" NCoef="0" IVar="1" Cut="7.6276439428329468e-01" cType="1" res="-3.4365146420896053e-03" rms="4.6641185879707336e-01" purity="4.4697868824005127e-01" nType="0">
          <Node pos="l" depth="2" NCoef="0" IVar="-1" Cut="0.0000000000000000e+00" cType="1" res="-5.0128425937145948e-04" rms="4.4906353950500488e-01" purity="3.6110001802444458e-01" nType="-99"/>
          <Node pos="r" depth="2" NCoef="0" IVar="-1" Cut="0.0000000000000000e+00" cType="1" res="1.7489274614490569e-04" rms="4.7001352906227112e-01" purity="4.9376076459884644e-01" nType="-99"/>
        </Node>
        <Node pos="r" depth="1" NCoef="0" IVar="3" Cut="2.6057648658752441e-01" cType="1" res="1.4188107848167419e-01" rms="4.4972226023674011e-01" purity="6.7565393447875977e-01" nType="0">
          <Node pos="l" depth="2" NCoef="0" IVar="-1" Cut="0.0000000000000000e+00" cType="1" res="1.4001042291056365e-04" rms="4.9763309955596924e-01" purity="4.7165280580520630e-01" nType="-99"/>
          <Node pos="r" depth="2" NCoef="0" IVar="-1" Cut="0.0000000000000000e+00" cType="1" res="5.2846141625195742e-04" rms="4.2173689603805542e-01" purity="7.5487107038497925e-01" nType="-99"/>
        </Node>
      </Node>
    </BinaryTree>
    <BinaryTree type="DecisionTree" boostWeight="1.0000000000000000e+00" itree="478">
      <Node pos="s" depth="0" NCoef="0" IVar="5" Cut="3.2427322387695312e+02" cType="1" res="2.7988281100988388e-02" rms="4.6661138534545898e-01" purity="4.9982014298439026e-01" nType="0">
        <Node pos="l" depth="1" NCoef="0" IVar="5" Cut="2.7319769287109375e+02" cType="1" res="-9.4182968139648438e-02" rms="4.2610198259353638e-01" purity="2.6998135447502136e-01" nType="0">
          <Node pos="l" depth="2" NCoef="0" IVar="-1" Cut="0.0000000000000000e+00" cType="1" res="-2.2840704768896103e-03" rms="3.6816683411598206e-01" purity="1.7269921302795410e-01" nType="-99"/>
          <Node pos="r" depth="2" NCoef="0" IVar="-1" Cut="0.0000000000000000e+00" cType="1" res="-3.2716896384954453e-04" rms="4.4790714979171753e-01" purity="3.2319271564483643e-01" nType="-99"/>
        </Node>
        <Node pos="r" depth="1" NCoef="0" IVar="3" Cut="2.6613357663154602e-01" cType="1" res="5.4091442376375198e-02" rms="4.7072541713714600e-01" purity="5.4892760515213013e-01" nType="0">
          <Node pos="l" depth="2" NCoef="0" IVar="-1" Cut="0.0000000000000000e+00" cType="1" res="-1.7600448336452246e-04" rms="4.7041004896163940e-01" purity="3.6660128831863403e-01" nType="-99"/>
          <Node pos="r" depth="2" NCoef="0" IVar="-1" Cut="0.0000000000000000e+00" cType="1" res="3.2713063410483301e-04" rms="4.6524399518966675e-01" purity="6.4020937681198120e-01" nType="-99"/>
        </Node>
      </Node>
    </BinaryTree>
    <BinaryTree type="DecisionTree" boostWeight="1.0000000000000000e+00" itree="479">
      <Node pos="s" depth="0" NCoef="0" IVar="4" Cut="7.2315233945846558e-01" cType="1" res="2.5669390335679054e-02" rms="4.6658664941787720e-01" purity="4.9710741639137268e-01" nType="0">
        <Node pos="l" depth="1" NCoef="0" IVar="3" Cut="2.9412212967872620e-01" cType="1" res="1.5144513547420502e-01" rms="4.4354036450386047e-01" purity="6.7394131422042847e-01" nType="0">
          <Node pos="l" depth="2" NCoef="0" IVar="-1" Cut="0.0000000000000000e+00" cType="1" res="2.9586118762381375e-04" rms="4.8470169305801392e-01" purity="5.2268242835998535e-01" nType="-99"/>
          <Node pos="r" depth="2" NCoef="0" IVar="-1" Cut="0.0000000000000000e+00" cType="1" res="5.5940472520887852e-04" rms="4.0875214338302612e-01" purity="7.6789444684982300e-01" nType="-99"/>
        </Node>
        <Node pos="r" depth="1" NCoef="0" IVar="1" Cut="8.4194475412368774e-01" cType="1" res="-4.3571731075644493e-03" rms="4.6693927049636841e-01" purity="4.5489171147346497e-01" nType="0">
          <Node pos="l" depth="2" NCoef="0" IVar="-1" Cut="0.0000000000000000e+00" cType="1" res="-3.7850681110285223e-04" rms="4.5700740814208984e-01" purity="3.8477715849876404e-01" nType="-99"/>
          <Node pos="r" depth="2" NCoef="0" IVar="-1" Cut="0.0000000000000000e+00" cType="1" res="2.4754076730459929e-04" rms="4.6837612986564636e-01" purity="5.2615106105804443e-01" nType="-99"/>
        </Node>
      </Node>
    </BinaryTree>
    <BinaryTree type="DecisionTree" boostWeight="1.0000000000000000e+00" itree="480">
      <Node pos="s" depth="0" NCoef="0" IVar="3" Cut="4.4446927309036255e-01" cType="1" res="2.6567993685603142e-02" rms="4.6898514032363892e-01" purity="4.9505501985549927e-01" nType="0">
        <Node pos="l" depth="1" NCoef="0" IVar="4" Cut="7.4096828699111938e-01" cType="1" res="-5.3117633797228336e-03" rms="4.6957722306251526e-01" purity="4.3551576137542725e-01" nType="0">
          <Node pos="l" depth="2" NCoef="0" IVar="-1" Cut="0.0000000000000000e+00" cType="1" res="3.6524044116958976e-04" rms="4.6560579538345337e-01" purity="6.0279875993728638e-01" nType="-99"/>
          <Node pos="r" depth="2" NCoef="0" IVar="-1" Cut="0.0000000000000000e+00" cType="1" res="-2.0022864919155836e-04" rms="4.6616333723068237e-01" purity="3.8860142230987549e-01" nType="-99"/>
        </Node>
        <Node pos="r" depth="1" NCoef="0" IVar="1" Cut="7.6288259029388428e-01" cType="1" res="1.3238383829593658e-01" rms="4.5114544034004211e-01" purity="6.9267880916595459e-01" nType="0">
          <Node pos="l" depth="2" NCoef="0" IVar="-1" Cut="0.0000000000000000e+00" cType="1" res="1.3633529306389391e-04" rms="4.7573685646057129e-01" purity="5.9742271900177002e-01" nType="-99"/>
          <Node pos="r" depth="2" NCoef="0" IVar="-1" Cut="0.0000000000000000e+00" cType="1" res="5.2564998622983694e-04" rms="4.3292075395584106e-01" purity="7.3529034852981567e-01" nType="-99"/>
        </Node>
      </Node>
    </BinaryTree>
    <BinaryTree type="DecisionTree" boostWeight="1.0000000000000000e+00" itree="481">
      <Node pos="s" depth="0" NCoef="0" IVar="3" Cut="4.0013661980628967e-01" cType="1" res="2.8315499424934387e-02" rms="4.6594998240470886e-01" purity="5.0074988603591919e-01" nType="0">
        <Node pos="l" depth="1" NCoef="0" IVar="1" Cut="8.4194535017013550e-01" cType="1" res="-1.3855532743036747e-02" rms="4.6676719188690186e-01" purity="4.1427695751190186e-01" nType="0">
          <Node pos="l" depth="2" NCoef="0" IVar="-1" Cut="0.0000000000000000e+00" cType="1" res="-4.1942828102037311e-04" rms="4.5322155952453613e-01" purity="3.5468456149101257e-01" nType="-99"/>
          <Node pos="r" depth="2" NCoef="0" IVar="-1" Cut="0.0000000000000000e+00" cType="1" res="2.2448423260357231e-04" rms="4.7377440333366394e-01" purity="4.8241293430328369e-01" nType="-99"/>
        </Node>
        <Node pos="r" depth="1" NCoef="0" IVar="4" Cut="9.3875896930694580e-01" cType="1" res="1.1486645042896271e-01" rms="4.5211064815521240e-01" purity="6.7822504043579102e-01" nType="0">
          <Node pos="l" depth="2" NCoef="0" IVar="-1" Cut="0.0000000000000000e+00" cType="1" res="5.3623283747583628e-04" rms="4.1511511802673340e-01" purity="7.5936329364776611e-01" nType="-99"/>
          <Node pos="r" depth="2" NCoef="0" IVar="-1" Cut="0.0000000000000000e+00" cType="1" res="1.7468327132519335e-04" rms="4.7654780745506287e-01" purity="5.9764873981475830e-01" nType="-99"/>
        </Node>
      </Node>
    </BinaryTree>
    <BinaryTree type="DecisionTree" boostWeight="1.0000000000000000e+00" itree="482">
      <Node pos="s" depth="0" NCoef="0" IVar="3" Cut="5.1128566265106201e-01" cType="1" res="3.2279986888170242e-02" rms="4.6656697988510132e-01" purity="5.0394320487976074e-01" nType="0">
        <Node pos="l" depth="1" NCoef="0" IVar="5" Cut="3.9425656127929688e+02" cType="1" res="1.1122842319309711e-02" rms="4.6834895014762878e-01" purity="4.6938467025756836e-01" nType="0">
          <Node pos="l" depth="2" NCoef="0" IVar="-1" Cut="0.0000000000000000e+00" cType="1" res="-4.7257539699785411e-04" rms="4.4584205746650696e-01" purity="3.0749064683914185e-01" nType="-99"/>
          <Node pos="r" depth="2" NCoef="0" IVar="-1" Cut="0.0000000000000000e+00" cType="1" res="2.0193160162307322e-04" rms="4.7542622685432434e-01" purity="5.6008923053741455e-01" nType="-99"/>
        </Node>
        <Node pos="r" depth="1" NCoef="0" IVar="-1" Cut="0.0000000000000000e+00" cType="1" res="5.3782772738486528e-04" rms="4.2703178524971008e-01" purity="7.4002569913864136e-01" nType="-99"/>
      </Node>
    </BinaryTree>
    <BinaryTree type="DecisionTree" boostWeight="1.0000000000000000e+00" itree="483">
      <Node pos="s" depth="0" NCoef="0" IVar="3" Cut="5.3234988451004028e-01" cType="1" res="1.7844894900918007e-02" rms="4.6647799015045166e-01" purity="4.8859226703643799e-01" nType="0">
        <Node pos="l" depth="1" NCoef="0" IVar="4" Cut="7.2382229566574097e-01" cType="1" res="-4.1617606766521931e-03" rms="4.6736797690391541e-01" purity="4.5507666468620300e-01" nType="0">
          <Node pos="l" depth="2" NCoef="0" IVar="-1" Cut="0.0000000000000000e+00" cType="1" res="4.2845573625527322e-04" rms="4.5721969008445740e-01" purity="6.3883304595947266e-01" nType="-99"/>
          <Node pos="r" depth="2" NCoef="0" IVar="-1" Cut="0.0000000000000000e+00" cType="1" res="-1.9087795226369053e-04" rms="4.6431803703308105e-01" purity="4.0939134359359741e-01" nType="-99"/>
        </Node>
        <Node pos="r" depth="1" NCoef="0" IVar="-1" Cut="0.0000000000000000e+00" cType="1" res="5.6095304898917675e-04" rms="4.2060557007789612e-01" purity="7.5365006923675537e-01" nType="-99"/>
      </Node>
    </BinaryTree>
    <BinaryTree type="DecisionTree" boostWeight="1.0000000000000000e+00" itree="484">
      <Node pos="s" depth="0" NCoef="0" IVar="3" Cut="4.6669048070907593e-01" cType="1" res="2.8917182236909866e-02" rms="4.6520933508872986e-01" purity="5.0148993730545044e-01" nType="0">
        <Node pos="l" depth="1" NCoef="0" IVar="5" Cut="3.2471459960937500e+02" cType="1" res="-4.3545523658394814e-03" rms="4.6650221943855286e-01" purity="4.4502893090248108e-01" nType="0">
          <Node pos="l" depth="2" NCoef="0" IVar="-1" Cut="0.0000000000000000e+00" cType="1" res="-1.6972074517980218e-03" rms="3.8449993729591370e-01" purity="1.9342099130153656e-01" nType="-99"/>
          <Node pos="r" depth="2" NCoef="0" IVar="-1" Cut="0.0000000000000000e+00" cType="1" res="1.0675079101929441e-04" rms="4.7695052623748779e-01" purity="4.9806800484657288e-01" nType="-99"/>
        </Node>
        <Node pos="r" depth="1" NCoef="0" IVar="4" Cut="9.9415463209152222e-01" cType="1" res="1.5948267281055450e-01" rms="4.3623515963554382e-01" purity="7.2305506467819214e-01" nType="0">
          <Node pos="l" depth="2" NCoef="0" IVar="-1" Cut="0.0000000000000000e+00" cType="1" res="6.0160923749208450e-04" rms="4.0536069869995117e-01" purity="7.7911972999572754e-01" nType="-99"/>
          <Node pos="r" depth="2" NCoef="0" IVar="-1" Cut="0.0000000000000000e+00" cType="1" res="3.4398899879306555e-04" rms="4.6400773525238037e-01" purity="6.5630853176116943e-01" nType="-99"/>
        </Node>
      </Node>
    </BinaryTree>
    <BinaryTree type="DecisionTree" boostWeight="1.0000000000000000e+00" itree="485">
      <Node pos="s" depth="0" NCoef="0" IVar="3" Cut="2.6690965890884399e-01" cType="1" res="3.5157721489667892e-02" rms="4.6593683958053589e-01" purity="5.0785750150680542e-01" nType="0">
        <Node pos="l" depth="1" NCoef="0" IVar="4" Cut="7.3122251033782959e-01" cType="1" res="-5.2725732326507568e-02" rms="4.4899857044219971e-01" purity="3.1934696435928345e-01" nType="0">
          <Node pos="l" depth="2" NCoef="0" IVar="-1" Cut="0.0000000000000000e+00" cType="1" res="2.1133932750672102e-04" rms="4.8174825310707092e-01" purity="4.9027249217033386e-01" nType="-99"/>
          <Node pos="r" depth="2" NCoef="0" IVar="-1" Cut="0.0000000000000000e+00" cType="1" res="-5.9827300719916821e-04" rms="4.3809416890144348e-01" purity="2.8110542893409729e-01" nType="-99"/>
        </Node>
        <Node pos="r" depth="1" NCoef="0" IVar="4" Cut="8.3569777011871338e-01" cType="1" res="8.0175742506980896e-02" rms="4.6803063154220581e-01" purity="6.0442137718200684e-01" nType="0">
          <Node pos="l" depth="2" NCoef="0" IVar="-1" Cut="0.0000000000000000e+00" cType="1" res="5.0355115672573447e-04" rms="4.3444085121154785e-01" purity="7.1426695585250854e-01" nType="-99"/>
          <Node pos="r" depth="2" NCoef="0" IVar="-1" Cut="0.0000000000000000e+00" cType="1" res="1.2103757035220042e-04" rms="4.7919732332229614e-01" purity="5.4132264852523804e-01" nType="-99"/>
        </Node>
      </Node>
    </BinaryTree>
    <BinaryTree type="DecisionTree" boostWeight="1.0000000000000000e+00" itree="486">
      <Node pos="s" depth="0" NCoef="0" IVar="3" Cut="5.3277719020843506e-01" cType="1" res="3.0190723016858101e-02" rms="4.6683579683303833e-01" purity="5.0177824497222900e-01" nType="0">
        <Node pos="l" depth="1" NCoef="0" IVar="5" Cut="3.5820614624023438e+02" cType="1" res="6.9223833270370960e-03" rms="4.6904692053794861e-01" purity="4.6639543771743774e-01" nType="0">
          <Node pos="l" depth="2" NCoef="0" IVar="-1" Cut="0.0000000000000000e+00" cType="1" res="-7.3954951949417591e-04" rms="4.2945772409439087e-01" purity="2.7226233482360840e-01" nType="-99"/>
          <Node pos="r" depth="2" NCoef="0" IVar="-1" Cut="0.0000000000000000e+00" cType="1" res="1.6784615581855178e-04" rms="4.7766172885894775e-01" purity="5.3620439767837524e-01" nType="-99"/>
        </Node>
        <Node pos="r" depth="1" NCoef="0" IVar="-1" Cut="0.0000000000000000e+00" cType="1" res="6.0312153073027730e-04" rms="4.0751525759696960e-01" purity="7.7313685417175293e-01" nType="-99"/>
      </Node>
    </BinaryTree>
    <BinaryTree type="DecisionTree" boostWeight="1.0000000000000000e+00" itree="487">
      <Node pos="s" depth="0" NCoef="0" IVar="4" Cut="9.1561937332153320e-01" cType="1" res="2.4046584963798523e-02" rms="4.6682268381118774e-01" purity="4.9533727765083313e-01" nType="0">
        <Node pos="l" depth="1" NCoef="0" IVar="3" Cut="2.4357193708419800e-01" cType="1" res="9.1481305658817291e-02" rms="4.6099507808685303e-01" purity="5.8317363262176514e-01" nType="0">
          <Node pos="l" depth="2" NCoef="0" IVar="-1" Cut="0.0000000000000000e+00" cType="1" res="-2.1089871006552130e-04" rms="4.6332266926765442e-01" purity="3.4852641820907593e-01" nType="-99"/>
          <Node pos="r" depth="2" NCoef="0" IVar="-1" Cut="0.0000000000000000e+00" cType="1" res="4.4438632903620601e-04" rms="4.5176893472671509e-01" purity="6.6650152206420898e-01" nType="-99"/>
        </Node>
        <Node pos="r" depth="1" NCoef="0" IVar="1" Cut="9.2070823907852173e-01" cType="1" res="-3.4488871693611145e-02" rms="4.6394297480583191e-01" purity="4.1909253597259521e-01" nType="0">
          <Node pos="l" depth="2" NCoef="0" IVar="-1" Cut="0.0000000000000000e+00" cType="1" res="-4.6105650835670531e-04" rms="4.5340591669082642e-01" purity="3.7163451313972473e-01" nType="-99"/>
          <Node pos="r" depth="2" NCoef="0" IVar="-1" Cut="0.0000000000000000e+00" cType="1" res="2.6751667610369623e-04" rms="4.7164157032966614e-01" purity="5.2126324176788330e-01" nType="-99"/>
        </Node>
      </Node>
    </BinaryTree>
    <BinaryTree type="DecisionTree" boostWeight="1.0000000000000000e+00" itree="488">
      <Node pos="s" depth="0" NCoef="0" IVar="3" Cut="4.6453350782394409e-01" cType="1" res="3.0873965471982956e-02" rms="4.6626952290534973e-01" purity="5.0264567136764526e-01" nType="0">
        <Node pos="l" depth="1" NCoef="0" IVar="5" Cut="5.6706512451171875e+02" cType="1" res="-7.8437681077048182e-04" rms="4.6852684020996094e-01" purity="4.4649836421012878e-01" nType="0">
          <Node pos="l" depth="2" NCoef="0" IVar="-1" Cut="0.0000000000000000e+00" cType="1" res="-2.2561257355846465e-04" rms="4.6183764934539795e-01" purity="3.7656173110008240e-01" nType="-99"/>
          <Node pos="r" depth="2" NCoef="0" IVar="-1" Cut="0.0000000000000000e+00" cType="1" res="3.0817964579910040e-04" rms="4.7219929099082947e-01" purity="6.1543172597885132e-01" nType="-99"/>
        </Node>
        <Node pos="r" depth="1" NCoef="0" IVar="4" Cut="1.0819687843322754e+00" cType="1" res="1.5258571505546570e-01" rms="4.3660950660705566e-01" purity="7.1850621700286865e-01" nType="0">
          <Node pos="l" depth="2" NCoef="0" IVar="-1" Cut="0.0000000000000000e+00" cType="1" res="5.7222746545448899e-04" rms="4.0676668286323547e-01" purity="7.7145975828170776e-01" nType="-99"/>
          <Node pos="r" depth="2" NCoef="0" IVar="-1" Cut="0.0000000000000000e+00" cType="1" res="2.2395819541998208e-04" rms="4.7725978493690491e-01" purity="6.1495584249496460e-01" nType="-99"/>
        </Node>
      </Node>
    </BinaryTree>
    <BinaryTree type="DecisionTree" boostWeight="1.0000000000000000e+00" itree="489">
      <Node pos="s" depth="0" NCoef="0" IVar="4" Cut="9.5265537500381470e-01" cType="1" res="3.3435776829719543e-02" rms="4.6448701620101929e-01" purity="5.0817078351974487e-01" nType="0">
        <Node pos="l" depth="1" NCoef="0" IVar="3" Cut="3.5484477877616882e-01" cType="1" res="9.3755468726158142e-02" rms="4.5565950870513916e-01" purity="5.8835268020629883e-01" nType="0">
          <Node pos="l" depth="2" NCoef="0" IVar="-1" Cut="0.0000000000000000e+00" cType="1" res="1.2270100705791265e-04" rms="4.7209009528160095e-01" purity="4.5517471432685852e-01" nType="-99"/>
          <Node pos="r" depth="2" NCoef="0" IVar="-1" Cut="0.0000000000000000e+00" cType="1" res="5.1605992484837770e-04" rms="4.2153859138488770e-01" purity="7.4591124057769775e-01" nType="-99"/>
        </Node>
        <Node pos="r" depth="1" NCoef="0" IVar="1" Cut="7.6298141479492188e-01" cType="1" res="-3.2362103462219238e-02" rms="4.6509158611297607e-01" purity="4.2070692777633667e-01" nType="0">
          <Node pos="l" depth="2" NCoef="0" IVar="-1" Cut="0.0000000000000000e+00" cType="1" res="-1.1519956169649959e-03" rms="4.2821210622787476e-01" purity="2.8868830204010010e-01" nType="-99"/>
          <Node pos="r" depth="2" NCoef="0" IVar="-1" Cut="0.0000000000000000e+00" cType="1" res="6.9390567659866065e-05" rms="4.7081080079078674e-01" purity="4.7359392046928406e-01" nType="-99"/>
        </Node>
      </Node>
    </BinaryTree>
    <BinaryTree type="DecisionTree" boostWeight="1.0000000000000000e+00" itree="490">
      <Node pos="s" depth="0" NCoef="0" IVar="3" Cut="3.5329478979110718e-01" cType="1" res="1.3915826566517353e-02" rms="4.6488109230995178e-01" purity="4.8516443371772766e-01" nType="0">
        <Node pos="l" depth="1" NCoef="0" IVar="7" Cut="1.2187734222412109e+02" cType="1" res="-3.9680186659097672e-02" rms="4.5766794681549072e-01" purity="3.6642399430274963e-01" nType="0">
          <Node pos="l" depth="2" NCoef="0" IVar="-1" Cut="0.0000000000000000e+00" cType="1" res="-7.8588176984339952e-04" rms="4.2597001791000366e-01" purity="2.7218213677406311e-01" nType="-99"/>
          <Node pos="r" depth="2" NCoef="0" IVar="-1" Cut="0.0000000000000000e+00" cType="1" res="9.4445422291755676e-05" rms="4.8221316933631897e-01" purity="4.6780398488044739e-01" nType="-99"/>
        </Node>
        <Node pos="r" depth="1" NCoef="0" IVar="4" Cut="1.0441335439682007e+00" cType="1" res="8.2960009574890137e-02" rms="4.6499389410018921e-01" purity="6.3812977075576782e-01" nType="0">
          <Node pos="l" depth="2" NCoef="0" IVar="-1" Cut="0.0000000000000000e+00" cType="1" res="4.2580589069984853e-04" rms="4.4347241520881653e-01" purity="6.9984865188598633e-01" nType="-99"/>
          <Node pos="r" depth="2" NCoef="0" IVar="-1" Cut="0.0000000000000000e+00" cType="1" res="-3.8854122976772487e-05" rms="4.8706334829330444e-01" purity="5.2962809801101685e-01" nType="-99"/>
        </Node>
      </Node>
    </BinaryTree>
    <BinaryTree type="DecisionTree" boostWeight="1.0000000000000000e+00" itree="491">
      <Node pos="s" depth="0" NCoef="0" IVar="3" Cut="2.4466720223426819e-01" cType="1" res="3.4938566386699677e-02" rms="4.6668565273284912e-01" purity="5.0693684816360474e-01" nType="0">
        <Node pos="l" depth="1" NCoef="0" IVar="0" Cut="1.2609366607666016e+02" cType="1" res="-5.8629404753446579e-02" rms="4.4886887073516846e-01" purity="3.0390280485153198e-01" nType="0">
          <Node pos="l" depth="2" NCoef="0" IVar="-1" Cut="0.0000000000000000e+00" cType="1" res="-1.1269351671217009e-04" rms="4.5263984799385071e-01" purity="3.2471597194671631e-01" nType="-99"/>
          <Node pos="r" depth="2" NCoef="0" IVar="-1" Cut="0.0000000000000000e+00" cType="1" res="-9.6974615007638931e-04" rms="4.3560108542442322e-01" purity="2.7299094200134277e-01" nType="-99"/>
        </Node>
        <Node pos="r" depth="1" NCoef="0" IVar="4" Cut="1.0101090669631958e+00" cType="1" res="7.2619333863258362e-02" rms="4.6842184662818909e-01" purity="5.8870071172714233e-01" nType="0">
          <Node pos="l" depth="2" NCoef="0" IVar="-1" Cut="0.0000000000000000e+00" cType="1" res="4.1166838491335511e-04" rms="4.5269271731376648e-01" purity="6.5194165706634521e-01" nType="-99"/>
          <Node pos="r" depth="2" NCoef="0" IVar="-1" Cut="0.0000000000000000e+00" cType="1" res="-6.3706743276270572e-06" rms="4.8111018538475037e-01" purity="4.9584400653839111e-01" nType="-99"/>
        </Node>
      </Node>
    </BinaryTree>
    <BinaryTree type="DecisionTree" boostWeight="1.0000000000000000e+00" itree="492">
      <Node pos="s" depth="0" NCoef="0" IVar="3" Cut="4.4459626078605652e-01" cType="1" res="3.3537562936544418e-02" rms="4.6559274196624756e-01" purity="5.0597250461578369e-01" nType="0">
        <Node pos="l" depth="1" NCoef="0" IVar="4" Cut="6.9979852437973022e-01" cType="1" res="5.3980108350515366e-04" rms="4.6729880571365356e-01" purity="4.4418478012084961e-01" nType="0">
          <Node pos="l" depth="2" NCoef="0" IVar="-1" Cut="0.0000000000000000e+00" cType="1" res="4.8066815361380577e-04" rms="4.5466762781143188e-01" purity="6.5162253379821777e-01" nType="-99"/>
          <Node pos="r" depth="2" NCoef="0" IVar="-1" Cut="0.0000000000000000e+00" cType="1" res="-1.6041312483139336e-04" rms="4.6439820528030396e-01" purity="4.0002480149269104e-01" nType="-99"/>
        </Node>
        <Node pos="r" depth="1" NCoef="0" IVar="4" Cut="9.7783720493316650e-01" cType="1" res="1.3946315646171570e-01" rms="4.4379270076751709e-01" purity="7.0431637763977051e-01" nType="0">
          <Node pos="l" depth="2" NCoef="0" IVar="-1" Cut="0.0000000000000000e+00" cType="1" res="5.6673790095373988e-04" rms="4.0756332874298096e-01" purity="7.7354544401168823e-01" nType="-99"/>
          <Node pos="r" depth="2" NCoef="0" IVar="-1" Cut="0.0000000000000000e+00" cType="1" res="2.5196780916303396e-04" rms="4.7392642498016357e-01" purity="6.2278389930725098e-01" nType="-99"/>
        </Node>
      </Node>
    </BinaryTree>
    <BinaryTree type="DecisionTree" boostWeight="1.0000000000000000e+00" itree="493">
      <Node pos="s" depth="0" NCoef="0" IVar="4" Cut="7.3785567283630371e-01" cType="1" res="2.6352372020483017e-02" rms="4.6620103716850281e-01" purity="4.9787902832031250e-01" nType="0">
        <Node pos="l" depth="1" NCoef="0" IVar="5" Cut="4.4323815917968750e+02" cType="1" res="1.4978322386741638e-01" rms="4.4314172863960266e-01" purity="6.7178303003311157e-01" nType="0">
          <Node pos="l" depth="2" NCoef="0" IVar="-1" Cut="0.0000000000000000e+00" cType="1" res="3.1171060982160270e-04" rms="4.7664204239845276e-01" purity="5.2727484703063965e-01" nType="-99"/>
          <Node pos="r" depth="2" NCoef="0" IVar="-1" Cut="0.0000000000000000e+00" cType="1" res="5.5160478223115206e-04" rms="4.1396856307983398e-01" purity="7.6124691963195801e-01" nType="-99"/>
        </Node>
        <Node pos="r" depth="1" NCoef="0" IVar="3" Cut="4.4484946131706238e-01" cType="1" res="-8.0176526680588722e-03" rms="4.6664619445800781e-01" purity="4.4945448637008667e-01" nType="0">
          <Node pos="l" depth="2" NCoef="0" IVar="-1" Cut="0.0000000000000000e+00" cType="1" res="-2.3372634314000607e-04" rms="4.6261632442474365e-01" purity="3.8512372970581055e-01" nType="-99"/>
          <Node pos="r" depth="2" NCoef="0" IVar="-1" Cut="0.0000000000000000e+00" cType="1" res="3.3604764030314982e-04" rms="4.6356740593910217e-01" purity="6.5599185228347778e-01" nType="-99"/>
        </Node>
      </Node>
    </BinaryTree>
    <BinaryTree type="DecisionTree" boostWeight="1.0000000000000000e+00" itree="494">
      <Node pos="s" depth="0" NCoef="0" IVar="5" Cut="4.5505825805664062e+02" cType="1" res="2.8573188930749893e-02" rms="4.6410027146339417e-01" purity="5.0254809856414795e-01" nType="0">
        <Node pos="l" depth="1" NCoef="0" IVar="6" Cut="1.5021960449218750e+02" cType="1" res="-3.4107718616724014e-02" rms="4.5784714818000793e-01" purity="3.8012114167213440e-01" nType="0">
          <Node pos="l" depth="2" NCoef="0" IVar="-1" Cut="0.0000000000000000e+00" cType="1" res="2.3750957552692853e-05" rms="4.6341311931610107e-01" purity="4.2079350352287292e-01" nType="-99"/>
          <Node pos="r" depth="2" NCoef="0" IVar="-1" Cut="0.0000000000000000e+00" cType="1" res="-1.0194038040935993e-03" rms="4.2952209711074829e-01" purity="2.8042498230934143e-01" nType="-99"/>
        </Node>
        <Node pos="r" depth="1" NCoef="0" IVar="3" Cut="2.8853642940521240e-01" cType="1" res="9.1712169349193573e-02" rms="4.6179226040840149e-01" purity="6.2586981058120728e-01" nType="0">
          <Node pos="l" depth="2" NCoef="0" IVar="-1" Cut="0.0000000000000000e+00" cType="1" res="-7.0417634560726583e-05" rms="4.8795586824417114e-01" purity="4.3556922674179077e-01" nType="-99"/>
          <Node pos="r" depth="2" NCoef="0" IVar="-1" Cut="0.0000000000000000e+00" cType="1" res="4.4698212877847254e-04" rms="4.3586170673370361e-01" purity="7.3042881488800049e-01" nType="-99"/>
        </Node>
      </Node>
    </BinaryTree>
    <BinaryTree type="DecisionTree" boostWeight="1.0000000000000000e+00" itree="495">
      <Node pos="s" depth="0" NCoef="0" IVar="3" Cut="2.2229813039302826e-01" cType="1" res="4.5551758259534836e-02" rms="4.6576517820358276e-01" purity="5.1925653219223022e-01" nType="0">
        <Node pos="l" depth="1" NCoef="0" IVar="1" Cut="8.8100886344909668e-01" cType="1" res="-5.6288294494152069e-02" rms="4.4571110606193542e-01" purity="3.0694082379341125e-01" nType="0">
          <Node pos="l" depth="2" NCoef="0" IVar="-1" Cut="0.0000000000000000e+00" cType="1" res="-7.5445621041581035e-04" rms="4.2889481782913208e-01" purity="2.6677334308624268e-01" nType="-99"/>
          <Node pos="r" depth="2" NCoef="0" IVar="-1" Cut="0.0000000000000000e+00" cType="1" res="7.3334449552930892e-05" rms="4.6746614575386047e-01" purity="3.8141188025474548e-01" nType="-99"/>
        </Node>
        <Node pos="r" depth="1" NCoef="0" IVar="4" Cut="1.2822421789169312e+00" cType="1" res="7.7002882957458496e-02" rms="4.6732223033905029e-01" purity="5.8482575416564941e-01" nType="0">
          <Node pos="l" depth="2" NCoef="0" IVar="-1" Cut="0.0000000000000000e+00" cType="1" res="3.5922837560065091e-04" rms="4.6174335479736328e-01" purity="6.1184763908386230e-01" nType="-99"/>
          <Node pos="r" depth="2" NCoef="0" IVar="-1" Cut="0.0000000000000000e+00" cType="1" res="-3.0118238646537066e-04" rms="4.7432032227516174e-01" purity="4.3541896343231201e-01" nType="-99"/>
        </Node>
      </Node>
    </BinaryTree>
    <BinaryTree type="DecisionTree" boostWeight="1.0000000000000000e+00" itree="496">
      <Node pos="s" depth="0" NCoef="0" IVar="4" Cut="8.2675582170486450e-01" cType="1" res="3.4556742757558823e-02" rms="4.6608924865722656e-01" purity="5.0708591938018799e-01" nType="0">
        <Node pos="l" depth="1" NCoef="0" IVar="5" Cut="3.4422332763671875e+02" cType="1" res="1.2116321176290512e-01" rms="4.5420736074447632e-01" purity="6.2627589702606201e-01" nType="0">
          <Node pos="l" depth="2" NCoef="0" IVar="-1" Cut="0.0000000000000000e+00" cType="1" res="-5.0552134780446067e-05" rms="4.7003415226936340e-01" purity="3.8713493943214417e-01" nType="-99"/>
          <Node pos="r" depth="2" NCoef="0" IVar="-1" Cut="0.0000000000000000e+00" cType="1" res="4.8159586731344461e-04" rms="4.4532480835914612e-01" purity="6.8041878938674927e-01" nType="-99"/>
        </Node>
        <Node pos="r" depth="1" NCoef="0" IVar="7" Cut="2.1699052429199219e+02" cType="1" res="-9.5866592600941658e-03" rms="4.6587651968002319e-01" purity="4.4633468985557556e-01" nType="0">
          <Node pos="l" depth="2" NCoef="0" IVar="-1" Cut="0.0000000000000000e+00" cType="1" res="-2.0403946109581739e-04" rms="4.6171692013740540e-01" purity="4.0549874305725098e-01" nType="-99"/>
          <Node pos="r" depth="2" NCoef="0" IVar="-1" Cut="0.0000000000000000e+00" cType="1" res="5.0851970445364714e-04" rms="4.5451238751411438e-01" purity="6.8673592805862427e-01" nType="-99"/>
        </Node>
      </Node>
    </BinaryTree>
    <BinaryTree type="DecisionTree" boostWeight="1.0000000000000000e+00" itree="497">
      <Node pos="s" depth="0" NCoef="0" IVar="3" Cut="3.1112697720527649e-01" cType="1" res="2.5790244340896606e-02" rms="4.6402454376220703e-01" purity="4.9917817115783691e-01" nType="0">
        <Node pos="l" depth="1" NCoef="0" IVar="7" Cut="2.0841343688964844e+02" cType="1" res="-4.5250099152326584e-02" rms="4.5295348763465881e-01" purity="3.4317025542259216e-01" nType="0">
          <Node pos="l" depth="2" NCoef="0" IVar="-1" Cut="0.0000000000000000e+00" cType="1" res="-4.8030482139438391e-04" rms="4.4298565387725830e-01" purity="3.0760625004768372e-01" nType="-99"/>
          <Node pos="r" depth="2" NCoef="0" IVar="-1" Cut="0.0000000000000000e+00" cType="1" res="3.5990501055493951e-04" rms="4.8871862888336182e-01" purity="5.7014143466949463e-01" nType="-99"/>
        </Node>
        <Node pos="r" depth="1" NCoef="0" IVar="5" Cut="3.0557992553710938e+02" cType="1" res="8.3280593156814575e-02" rms="4.6491408348083496e-01" purity="6.2542968988418579e-01" nType="0">
          <Node pos="l" depth="2" NCoef="0" IVar="-1" Cut="0.0000000000000000e+00" cType="1" res="-7.7389937359839678e-04" rms="4.5255759358406067e-01" purity="3.1673198938369751e-01" nType="-99"/>
          <Node pos="r" depth="2" NCoef="0" IVar="-1" Cut="0.0000000000000000e+00" cType="1" res="3.5410316195338964e-04" rms="4.6017637848854065e-01" purity="6.6453737020492554e-01" nType="-99"/>
        </Node>
      </Node>
    </BinaryTree>
    <BinaryTree type="DecisionTree" boostWeight="1.0000000000000000e+00" itree="498">
      <Node pos="s" depth="0" NCoef="0" IVar="4" Cut="7.2457170486450195e-01" cType="1" res="2.8095051646232605e-02" rms="4.6775338053703308e-01" purity="4.9827700853347778e-01" nType="0">
        <Node pos="l" depth="1" NCoef="0" IVar="3" Cut="2.5881046056747437e-01" cType="1" res="1.3953451812267303e-01" rms="4.4823035597801208e-01" purity="6.6195428371429443e-01" nType="0">
          <Node pos="l" depth="2" NCoef="0" IVar="-1" Cut="0.0000000000000000e+00" cType="1" res="1.7712356930132955e-04" rms="4.8279994726181030e-01" purity="4.8049780726432800e-01" nType="-99"/>
          <Node pos="r" depth="2" NCoef="0" IVar="-1" Cut="0.0000000000000000e+00" cType="1" res="5.4182438179850578e-04" rms="4.2696341872215271e-01" purity="7.3580807447433472e-01" nType="-99"/>
        </Node>
        <Node pos="r" depth="1" NCoef="0" IVar="3" Cut="4.6369943022727966e-01" cType="1" res="1.1618721764534712e-03" rms="4.6838915348052979e-01" purity="4.5871871709823608e-01" nType="0">
          <Node pos="l" depth="2" NCoef="0" IVar="-1" Cut="0.0000000000000000e+00" cType="1" res="-1.5255750622600317e-04" rms="4.6629723906517029e-01" purity="4.0361624956130981e-01" nType="-99"/>
          <Node pos="r" depth="2" NCoef="0" IVar="-1" Cut="0.0000000000000000e+00" cType="1" res="3.9542478043586016e-04" rms="4.5801603794097900e-01" purity="6.7612528800964355e-01" nType="-99"/>
        </Node>
      </Node>
    </BinaryTree>
    <BinaryTree type="DecisionTree" boostWeight="1.0000000000000000e+00" itree="499">
      <Node pos="s" depth="0" NCoef="0" IVar="3" Cut="5.3336054086685181e-01" cType="1" res="2.1465325728058815e-02" rms="4.6536055207252502e-01" purity="4.9280819296836853e-01" nType="0">
        <Node pos="l" depth="1" NCoef="0" IVar="5" Cut="3.5327066040039062e+02" cType="1" res="-5.7406525593250990e-04" rms="4.6664738655090332e-01" purity="4.5919948816299438e-01" nType="0">
          <Node pos="l" depth="2" NCoef="0" IVar="-1" Cut="0.0000000000000000e+00" cType="1" res="-1.0476082097738981e-03" rms="4.1296464204788208e-01" purity="2.4493072926998138e-01" nType="-99"/>
          <Node pos="r" depth="2" NCoef="0" IVar="-1" Cut="0.0000000000000000e+00" cType="1" res="1.5101740427780896e-04" rms="4.7708791494369507e-01" purity="5.2978962659835815e-01" nType="-99"/>
        </Node>
        <Node pos="r" depth="1" NCoef="0" IVar="-1" Cut="0.0000000000000000e+00" cType="1" res="5.8497034478932619e-04" rms="4.1364365816116333e-01" purity="7.6483225822448730e-01" nType="-99"/>
      </Node>
    </BinaryTree>
    <BinaryTree type="DecisionTree" boostWeight="1.0000000000000000e+00" itree="500">
      <Node pos="s" depth="0" NCoef="0" IVar="3" Cut="2.6499238610267639e-01" cType="1" res="2.6726365089416504e-02" rms="4.6441018581390381e-01" purity="5.0011855363845825e-01" nType="0">
        <Node pos="l" depth="1" NCoef="0" IVar="4" Cut="7.2747504711151123e-01" cType="1" res="-5.7347349822521210e-02" rms="4.4671797752380371e-01" purity="3.1334599852561951e-01" nType="0">
          <Node pos="l" depth="2" NCoef="0" IVar="-1" Cut="0.0000000000000000e+00" cType="1" res="2.1364478743635118e-04" rms="4.8525327444076538e-01" purity="4.9028986692428589e-01" nType="-99"/>
          <Node pos="r" depth="2" NCoef="0" IVar="-1" Cut="0.0000000000000000e+00" cType="1" res="-6.6875008633360267e-04" rms="4.3424016237258911e-01" purity="2.7444073557853699e-01" nType="-99"/>
        </Node>
        <Node pos="r" depth="1" NCoef="0" IVar="5" Cut="4.8600927734375000e+02" cType="1" res="6.9400422275066376e-02" rms="4.6738642454147339e-01" purity="5.9492039680480957e-01" nType="0">
          <Node pos="l" depth="2" NCoef="0" IVar="-1" Cut="0.0000000000000000e+00" cType="1" res="3.7911340768914670e-05" rms="4.7880870103836060e-01" purity="4.9464315176010132e-01" nType="-99"/>
          <Node pos="r" depth="2" NCoef="0" IVar="-1" Cut="0.0000000000000000e+00" cType="1" res="4.3339183321222663e-04" rms="4.4197085499763489e-01" purity="7.1690094470977783e-01" nType="-99"/>
        </Node>
      </Node>
    </BinaryTree>
    <BinaryTree type="DecisionTree" boostWeight="1.0000000000000000e+00" itree="501">
      <Node pos="s" depth="0" NCoef="0" IVar="4" Cut="7.1290767192840576e-01" cType="1" res="3.0833568423986435e-02" rms="4.6495163440704346e-01" purity="5.0395548343658447e-01" nType="0">
        <Node pos="l" depth="1" NCoef="0" IVar="1" Cut="7.6269942522048950e-01" cType="1" res="1.6492466628551483e-01" rms="4.3961119651794434e-01" purity="6.9045495986938477e-01" nType="0">
          <Node pos="l" depth="2" NCoef="0" IVar="-1" Cut="0.0000000000000000e+00" cType="1" res="3.7078576860949397e-04" rms="4.6540132164955139e-01" purity="6.2162333726882935e-01" nType="-99"/>
          <Node pos="r" depth="2" NCoef="0" IVar="-1" Cut="0.0000000000000000e+00" cType="1" res="5.9669534675776958e-04" rms="4.1537559032440186e-01" purity="7.3942208290100098e-01" nType="-99"/>
        </Node>
        <Node pos="r" depth="1" NCoef="0" IVar="3" Cut="3.9874324202537537e-01" cType="1" res="-3.9694248698651791e-04" rms="4.6514043211936951e-01" purity="4.6051880717277527e-01" nType="0">
          <Node pos="l" depth="2" NCoef="0" IVar="-1" Cut="0.0000000000000000e+00" cType="1" res="-2.5342954904772341e-04" rms="4.5827192068099976e-01" purity="3.7002369761466980e-01" nType="-99"/>
          <Node pos="r" depth="2" NCoef="0" IVar="-1" Cut="0.0000000000000000e+00" cType="1" res="3.0062475707381964e-04" rms="4.6643367409706116e-01" purity="6.4337617158889771e-01" nType="-99"/>
        </Node>
      </Node>
    </BinaryTree>
    <BinaryTree type="DecisionTree" boostWeight="1.0000000000000000e+00" itree="502">
      <Node pos="s" depth="0" NCoef="0" IVar="4" Cut="7.7627986669540405e-01" cType="1" res="2.2887019440531731e-02" rms="4.6404856443405151e-01" purity="4.9668401479721069e-01" nType="0">
        <Node pos="l" depth="1" NCoef="0" IVar="3" Cut="3.2513600587844849e-01" cType="1" res="1.2834148108959198e-01" rms="4.4944939017295837e-01" purity="6.4395225048065186e-01" nType="0">
          <Node pos="l" depth="2" NCoef="0" IVar="-1" Cut="0.0000000000000000e+00" cType="1" res="2.3052506730891764e-04" rms="4.8034915328025818e-01" purity="5.0158166885375977e-01" nType="-99"/>
          <Node pos="r" depth="2" NCoef="0" IVar="-1" Cut="0.0000000000000000e+00" cType="1" res="5.5320543469861150e-04" rms="4.0953251719474792e-01" purity="7.6856309175491333e-01" nType="-99"/>
        </Node>
        <Node pos="r" depth="1" NCoef="0" IVar="7" Cut="1.8566244506835938e+02" cType="1" res="-1.5704412013292313e-02" rms="4.6331694722175598e-01" purity="4.4279068708419800e-01" nType="0">
          <Node pos="l" depth="2" NCoef="0" IVar="-1" Cut="0.0000000000000000e+00" cType="1" res="-3.0651845736429095e-04" rms="4.5692220330238342e-01" purity="3.8592559099197388e-01" nType="-99"/>
          <Node pos="r" depth="2" NCoef="0" IVar="-1" Cut="0.0000000000000000e+00" cType="1" res="3.9999949513003230e-04" rms="4.6052825450897217e-01" purity="6.5068542957305908e-01" nType="-99"/>
        </Node>
      </Node>
    </BinaryTree>
    <BinaryTree type="DecisionTree" boostWeight="1.0000000000000000e+00" itree="503">
      <Node pos="s" depth="0" NCoef="0" IVar="7" Cut="1.2187734222412109e+02" cType="1" res="2.3110065609216690e-02" rms="4.6729147434234619e-01" purity="4.9276289343833923e-01" nType="0">
        <Node pos="l" depth="1" NCoef="0" IVar="4" Cut="7.8906720876693726e-01" cType="1" res="-3.5495400428771973e-02" rms="4.6179065108299255e-01" purity="3.9703956246376038e-01" nType="0">
          <Node pos="l" depth="2" NCoef="0" IVar="-1" Cut="0.0000000000000000e+00" cType="1" res="3.0059844721108675e-04" rms="4.6647295355796814e-01" purity="5.5726724863052368e-01" nType="-99"/>
          <Node pos="r" depth="2" NCoef="0" IVar="-1" Cut="0.0000000000000000e+00" cType="1" res="-5.1657675066962838e-04" rms="4.5243799686431885e-01" purity="3.3400365710258484e-01" nType="-99"/>
        </Node>
        <Node pos="r" depth="1" NCoef="0" IVar="3" Cut="2.4445809423923492e-01" cType="1" res="8.3263717591762543e-02" rms="4.6525609493255615e-01" purity="5.9101492166519165e-01" nType="0">
          <Node pos="l" depth="2" NCoef="0" IVar="-1" Cut="0.0000000000000000e+00" cType="1" res="-8.9045366621576250e-05" rms="4.7652730345726013e-01" purity="3.9202603697776794e-01" nType="-99"/>
          <Node pos="r" depth="2" NCoef="0" IVar="-1" Cut="0.0000000000000000e+00" cType="1" res="3.9559582364745438e-04" rms="4.5507645606994629e-01" purity="6.6779422760009766e-01" nType="-99"/>
        </Node>
      </Node>
    </BinaryTree>
    <BinaryTree type="DecisionTree" boostWeight="1.0000000000000000e+00" itree="504">
      <Node pos="s" depth="0" NCoef="0" IVar="4" Cut="1.0342103242874146e+00" cType="1" res="2.7733225375413895e-02" rms="4.6618145704269409e-01" purity="4.9929478764533997e-01" nType="0">
        <Node pos="l" depth="1" NCoef="0" IVar="3" Cut="3.9524149894714355e-01" cType="1" res="7.6148346066474915e-02" rms="4.6079856157302856e-01" purity="5.6169480085372925e-01" nType="0">
          <Node pos="l" depth="2" NCoef="0" IVar="-1" Cut="0.0000000000000000e+00" cType="1" res="1.2740890088025481e-04" rms="4.7124624252319336e-01" purity="4.6688210964202881e-01" nType="-99"/>
          <Node pos="r" depth="2" NCoef="0" IVar="-1" Cut="0.0000000000000000e+00" cType="1" res="4.9940380267798901e-04" rms="4.2523881793022156e-01" purity="7.4143785238265991e-01" nType="-99"/>
        </Node>
        <Node pos="r" depth="1" NCoef="0" IVar="7" Cut="1.9795451354980469e+02" cType="1" res="-5.0351459532976151e-02" rms="4.6421453356742859e-01" purity="3.9865502715110779e-01" nType="0">
          <Node pos="l" depth="2" NCoef="0" IVar="-1" Cut="0.0000000000000000e+00" cType="1" res="-5.1196687854826450e-04" rms="4.5472916960716248e-01" purity="3.5100284218788147e-01" nType="-99"/>
          <Node pos="r" depth="2" NCoef="0" IVar="-1" Cut="0.0000000000000000e+00" cType="1" res="3.1864480115473270e-04" rms="4.7929403185844421e-01" purity="6.0820072889328003e-01" nType="-99"/>
        </Node>
      </Node>
    </BinaryTree>
    <BinaryTree type="DecisionTree" boostWeight="1.0000000000000000e+00" itree="505">
      <Node pos="s" depth="0" NCoef="0" IVar="5" Cut="5.5337738037109375e+02" cType="1" res="3.6119692027568817e-02" rms="4.6602857112884521e-01" purity="5.0797808170318604e-01" nType="0">
        <Node pos="l" depth="1" NCoef="0" IVar="6" Cut="1.6607780456542969e+02" cType="1" res="-1.9791172817349434e-03" rms="4.6493408083915710e-01" purity="4.3897855281829834e-01" nType="0">
          <Node pos="l" depth="2" NCoef="0" IVar="-1" Cut="0.0000000000000000e+00" cType="1" res="1.7121655400842428e-04" rms="4.6599951386451721e-01" purity="4.7503218054771423e-01" nType="-99"/>
          <Node pos="r" depth="2" NCoef="0" IVar="-1" Cut="0.0000000000000000e+00" cType="1" res="-7.2172674117609859e-04" rms="4.4439122080802917e-01" purity="3.3771914243698120e-01" nType="-99"/>
        </Node>
        <Node pos="r" depth="1" NCoef="0" IVar="0" Cut="2.0969929504394531e+02" cType="1" res="1.2003887444734573e-01" rms="4.5737001299858093e-01" purity="6.5996128320693970e-01" nType="0">
          <Node pos="l" depth="2" NCoef="0" IVar="-1" Cut="0.0000000000000000e+00" cType="1" res="4.7389790415763855e-04" rms="4.4474622607231140e-01" purity="6.9453722238540649e-01" nType="-99"/>
          <Node pos="r" depth="2" NCoef="0" IVar="-1" Cut="0.0000000000000000e+00" cType="1" res="-9.8932199762202799e-05" rms="4.8309564590454102e-01" purity="5.0996333360671997e-01" nType="-99"/>
        </Node>
      </Node>
    </BinaryTree>
    <BinaryTree type="DecisionTree" boostWeight="1.0000000000000000e+00" itree="506">
      <Node pos="s" depth="0" NCoef="0" IVar="3" Cut="2.6613357663154602e-01" cType="1" res="2.3418018594384193e-02" rms="4.6381646394729614e-01" purity="4.9620550870895386e-01" nType="0">
        <Node pos="l" depth="1" NCoef="0" IVar="6" Cut="1.9915133666992188e+02" cType="1" res="-6.9366537034511566e-02" rms="4.4195654988288879e-01" purity="2.9902705550193787e-01" nType="0">
          <Node pos="l" depth="2" NCoef="0" IVar="-1" Cut="0.0000000000000000e+00" cType="1" res="-2.4835555814206600e-04" rms="4.4859421253204346e-01" purity="3.2309806346893311e-01" nType="-99"/>
          <Node pos="r" depth="2" NCoef="0" IVar="-1" Cut="0.0000000000000000e+00" cType="1" res="-1.7726387595757842e-03" rms="3.9922043681144714e-01" purity="2.1691493690013885e-01" nType="-99"/>
        </Node>
        <Node pos="r" depth="1" NCoef="0" IVar="5" Cut="4.6454876708984375e+02" cType="1" res="7.0411242544651031e-02" rms="4.6753120422363281e-01" purity="5.9607183933258057e-01" nType="0">
          <Node pos="l" depth="2" NCoef="0" IVar="-1" Cut="0.0000000000000000e+00" cType="1" res="3.7812882510479540e-05" rms="4.7783759236335754e-01" purity="4.8955804109573364e-01" nType="-99"/>
          <Node pos="r" depth="2" NCoef="0" IVar="-1" Cut="0.0000000000000000e+00" cType="1" res="4.1386525845155120e-04" rms="4.4766780734062195e-01" purity="7.0632964372634888e-01" nType="-99"/>
        </Node>
      </Node>
    </BinaryTree>
    <BinaryTree type="DecisionTree" boostWeight="1.0000000000000000e+00" itree="507">
      <Node pos="s" depth="0" NCoef="0" IVar="4" Cut="7.8167504072189331e-01" cType="1" res="1.6496406868100166e-02" rms="4.6432816982269287e-01" purity="4.8826786875724792e-01" nType="0">
        <Node pos="l" depth="1" NCoef="0" IVar="5" Cut="3.6305636596679688e+02" cType="1" res="1.2356685101985931e-01" rms="4.5398998260498047e-01" purity="6.3526588678359985e-01" nType="0">
          <Node pos="l" depth="2" NCoef="0" IVar="-1" Cut="0.0000000000000000e+00" cType="1" res="6.1309125158004463e-05" rms="4.6832057833671570e-01" purity="4.2877349257469177e-01" nType="-99"/>
          <Node pos="r" depth="2" NCoef="0" IVar="-1" Cut="0.0000000000000000e+00" cType="1" res="4.9032346578314900e-04" rms="4.4475162029266357e-01" purity="6.9378149509429932e-01" nType="-99"/>
        </Node>
        <Node pos="r" depth="1" NCoef="0" IVar="7" Cut="1.6570640563964844e+02" cType="1" res="-2.4376403540372849e-02" rms="4.6171191334724426e-01" purity="4.3215325474739075e-01" nType="0">
          <Node pos="l" depth="2" NCoef="0" IVar="-1" Cut="0.0000000000000000e+00" cType="1" res="-3.7566071841865778e-04" rms="4.5370092988014221e-01" purity="3.6833846569061279e-01" nType="-99"/>
          <Node pos="r" depth="2" NCoef="0" IVar="-1" Cut="0.0000000000000000e+00" cType="1" res="2.9337190790101886e-04" rms="4.6666386723518372e-01" purity="6.0503661632537842e-01" nType="-99"/>
        </Node>
      </Node>
    </BinaryTree>
    <BinaryTree type="DecisionTree" boostWeight="1.0000000000000000e+00" itree="508">
      <Node pos="s" depth="0" NCoef="0" IVar="3" Cut="4.0002232789993286e-01" cType="1" res="2.2662743926048279e-02" rms="4.6709820628166199e-01" purity="4.9225151538848877e-01" nType="0">
        <Node pos="l" depth="1" NCoef="0" IVar="4" Cut="6.9512784481048584e-01" cType="1" res="-1.5501996502280235e-02" rms="4.6617016196250916e-01" purity="4.1038507223129272e-01" nType="0">
          <Node pos="l" depth="2" NCoef="0" IVar="-1" Cut="0.0000000000000000e+00" cType="1" res="4.1395620792172849e-04" rms="4.6907535195350647e-01" purity="6.1377567052841187e-01" nType="-99"/>
          <Node pos="r" depth="2" NCoef="0" IVar="-1" Cut="0.0000000000000000e+00" cType="1" res="-2.4736596969887614e-04" rms="4.6106958389282227e-01" purity="3.7040293216705322e-01" nType="-99"/>
        </Node>
        <Node pos="r" depth="1" NCoef="0" IVar="4" Cut="8.4684574604034424e-01" cType="1" res="1.0354756563901901e-01" rms="4.5867967605590820e-01" purity="6.6575598716735840e-01" nType="0">
          <Node pos="l" depth="2" NCoef="0" IVar="-1" Cut="0.0000000000000000e+00" cType="1" res="5.2612798754125834e-04" rms="4.1090676188468933e-01" purity="7.6814824342727661e-01" nType="-99"/>
          <Node pos="r" depth="2" NCoef="0" IVar="-1" Cut="0.0000000000000000e+00" cType="1" res="2.1298242791090161e-04" rms="4.7726115584373474e-01" purity="6.0898405313491821e-01" nType="-99"/>
        </Node>
      </Node>
    </BinaryTree>
    <BinaryTree type="DecisionTree" boostWeight="1.0000000000000000e+00" itree="509">
      <Node pos="s" depth="0" NCoef="0" IVar="5" Cut="4.5298846435546875e+02" cType="1" res="3.1292762607336044e-02" rms="4.6432051062583923e-01" purity="5.0502771139144897e-01" nType="0">
        <Node pos="l" depth="1" NCoef="0" IVar="6" Cut="1.4231584167480469e+02" cType="1" res="-3.1536694616079330e-02" rms="4.5710432529449463e-01" purity="3.8198798894882202e-01" nType="0">
          <Node pos="l" depth="2" NCoef="0" IVar="-1" Cut="0.0000000000000000e+00" cType="1" res="7.5372037827037275e-05" rms="4.6397820115089417e-01" purity="4.2967510223388672e-01" nType="-99"/>
          <Node pos="r" depth="2" NCoef="0" IVar="-1" Cut="0.0000000000000000e+00" cType="1" res="-1.0186616564169526e-03" rms="4.2519068717956543e-01" purity="2.7884936332702637e-01" nType="-99"/>
        </Node>
        <Node pos="r" depth="1" NCoef="0" IVar="3" Cut="3.0994158983230591e-01" cType="1" res="9.2870116233825684e-02" rms="4.6308696269989014e-01" purity="6.2561541795730591e-01" nType="0">
          <Node pos="l" depth="2" NCoef="0" IVar="-1" Cut="0.0000000000000000e+00" cType="1" res="3.2858468330232427e-05" rms="4.8996788263320923e-01" purity="4.6461716294288635e-01" nType="-99"/>
          <Node pos="r" depth="2" NCoef="0" IVar="-1" Cut="0.0000000000000000e+00" cType="1" res="4.5358718489296734e-04" rms="4.3270283937454224e-01" purity="7.4032521247863770e-01" nType="-99"/>
        </Node>
      </Node>
    </BinaryTree>
    <BinaryTree type="DecisionTree" boostWeight="1.0000000000000000e+00" itree="510">
      <Node pos="s" depth="0" NCoef="0" IVar="4" Cut="1.1088285446166992e+00" cType="1" res="2.5185273960232735e-02" rms="4.6450573205947876e-01" purity="4.9813440442085266e-01" nType="0">
        <Node pos="l" depth="1" NCoef="0" IVar="3" Cut="2.6668155193328857e-01" cType="1" res="6.4977474510669708e-02" rms="4.6166515350341797e-01" purity="5.4675775766372681e-01" nType="0">
          <Node pos="l" depth="2" NCoef="0" IVar="-1" Cut="0.0000000000000000e+00" cType="1" res="-2.0169322669971734e-04" rms="4.5740726590156555e-01" purity="3.4402000904083252e-01" nType="-99"/>
          <Node pos="r" depth="2" NCoef="0" IVar="-1" Cut="0.0000000000000000e+00" cType="1" res="3.8501492235809565e-04" rms="4.5625302195549011e-01" purity="6.4558798074722290e-01" nType="-99"/>
        </Node>
        <Node pos="r" depth="1" NCoef="0" IVar="1" Cut="9.4706028699874878e-01" cType="1" res="-6.8950720131397247e-02" rms="4.5758271217346191e-01" purity="3.8310667872428894e-01" nType="0">
          <Node pos="l" depth="2" NCoef="0" IVar="-1" Cut="0.0000000000000000e+00" cType="1" res="-8.2072231452912092e-04" rms="4.4354525208473206e-01" purity="3.2607403397560120e-01" nType="-99"/>
          <Node pos="r" depth="2" NCoef="0" IVar="-1" Cut="0.0000000000000000e+00" cType="1" res="2.6378288748674095e-04" rms="4.6611943840980530e-01" purity="5.2882808446884155e-01" nType="-99"/>
        </Node>
      </Node>
    </BinaryTree>
    <BinaryTree type="DecisionTree" boostWeight="1.0000000000000000e+00" itree="511">
      <Node pos="s" depth="0" NCoef="0" IVar="5" Cut="7.1609210205078125e+02" cType="1" res="2.9680339619517326e-02" rms="4.6609514951705933e-01" purity="5.0158482789993286e-01" nType="0">
        <Node pos="l" depth="1" NCoef="0" IVar="3" Cut="3.7812203168869019e-01" cType="1" res="5.7088281027972698e-03" rms="4.6679720282554626e-01" purity="4.6440622210502625e-01" nType="0">
          <Node pos="l" depth="2" NCoef="0" IVar="-1" Cut="0.0000000000000000e+00" cType="1" res="-2.4616805603727698e-04" rms="4.6168354153633118e-01" purity="3.5941508412361145e-01" nType="-99"/>
          <Node pos="r" depth="2" NCoef="0" IVar="-1" Cut="0.0000000000000000e+00" cType="1" res="2.7847880846820772e-04" rms="4.6558797359466553e-01" purity="6.3489919900894165e-01" nType="-99"/>
        </Node>
        <Node pos="r" depth="1" NCoef="0" IVar="-1" Cut="0.0000000000000000e+00" cType="1" res="4.9115787260234356e-04" rms="4.3855866789817810e-01" purity="7.0980888605117798e-01" nType="-99"/>
      </Node>
    </BinaryTree>
    <BinaryTree type="DecisionTree" boostWeight="1.0000000000000000e+00" itree="512">
      <Node pos="s" depth="0" NCoef="0" IVar="3" Cut="2.6668155193328857e-01" cType="1" res="2.1870059892535210e-02" rms="4.6591737866401672e-01" purity="4.9269425868988037e-01" nType="0">
        <Node pos="l" depth="1" NCoef="0" IVar="1" Cut="8.4162616729736328e-01" cType="1" res="-5.4255101829767227e-02" rms="4.4750982522964478e-01" purity="3.1490248441696167e-01" nType="0">
          <Node pos="l" depth="2" NCoef="0" IVar="-1" Cut="0.0000000000000000e+00" cType="1" res="-9.0462306980043650e-04" rms="4.1950929164886475e-01" purity="2.5674396753311157e-01" nType="-99"/>
          <Node pos="r" depth="2" NCoef="0" IVar="-1" Cut="0.0000000000000000e+00" cType="1" res="7.4414965638425201e-05" rms="4.7016149759292603e-01" purity="3.8461586833000183e-01" nType="-99"/>
        </Node>
        <Node pos="r" depth="1" NCoef="0" IVar="4" Cut="1.0255677700042725e+00" cType="1" res="6.2462843954563141e-02" rms="4.7043269872665405e-01" purity="5.8749949932098389e-01" nType="0">
          <Node pos="l" depth="2" NCoef="0" IVar="-1" Cut="0.0000000000000000e+00" cType="1" res="3.7410785444080830e-04" rms="4.5530769228935242e-01" purity="6.4865738153457642e-01" nType="-99"/>
          <Node pos="r" depth="2" NCoef="0" IVar="-1" Cut="0.0000000000000000e+00" cType="1" res="-7.0625799708068371e-05" rms="4.8326596617698669e-01" purity="4.9033650755882263e-01" nType="-99"/>
        </Node>
      </Node>
    </BinaryTree>
    <BinaryTree type="DecisionTree" boostWeight="1.0000000000000000e+00" itree="513">
      <Node pos="s" depth="0" NCoef="0" IVar="3" Cut="4.2089563608169556e-01" cType="1" res="1.8779831007122993e-02" rms="4.6296384930610657e-01" purity="4.9217835068702698e-01" nType="0">
        <Node pos="l" depth="1" NCoef="0" IVar="4" Cut="6.4072775840759277e-01" cType="1" res="-2.0732777193188667e-02" rms="4.6231395006179810e-01" purity="4.1545602679252625e-01" nType="0">
          <Node pos="l" depth="2" NCoef="0" IVar="-1" Cut="0.0000000000000000e+00" cType="1" res="5.5738532682880759e-04" rms="4.4471266865730286e-01" purity="6.8605208396911621e-01" nType="-99"/>
          <Node pos="r" depth="2" NCoef="0" IVar="-1" Cut="0.0000000000000000e+00" cType="1" res="-2.6814182638190687e-04" rms="4.5855301618576050e-01" purity="3.7880221009254456e-01" nType="-99"/>
        </Node>
        <Node pos="r" depth="1" NCoef="0" IVar="7" Cut="1.0746923828125000e+02" cType="1" res="1.1833229660987854e-01" rms="4.4945117831230164e-01" purity="6.8548113107681274e-01" nType="0">
          <Node pos="l" depth="2" NCoef="0" IVar="-1" Cut="0.0000000000000000e+00" cType="1" res="8.9520566689316183e-05" rms="4.8400336503982544e-01" purity="5.5643665790557861e-01" nType="-99"/>
          <Node pos="r" depth="2" NCoef="0" IVar="-1" Cut="0.0000000000000000e+00" cType="1" res="5.1060511032119393e-04" rms="4.1848167777061462e-01" purity="7.5989687442779541e-01" nType="-99"/>
        </Node>
      </Node>
    </BinaryTree>
    <BinaryTree type="DecisionTree" boostWeight="1.0000000000000000e+00" itree="514">
      <Node pos="s" depth="0" NCoef="0" IVar="5" Cut="3.4890423583984375e+02" cType="1" res="1.8168713897466660e-02" rms="4.6393492817878723e-01" purity="4.9018049240112305e-01" nType="0">
        <Node pos="l" depth="1" NCoef="0" IVar="4" Cut="8.1171113252639771e-01" cType="1" res="-9.4369173049926758e-02" rms="4.2671024799346924e-01" purity="2.7573096752166748e-01" nType="0">
          <Node pos="l" depth="2" NCoef="0" IVar="-1" Cut="0.0000000000000000e+00" cType="1" res="-7.6543954492080957e-05" rms="4.6028965711593628e-01" purity="3.9460507035255432e-01" nType="-99"/>
          <Node pos="r" depth="2" NCoef="0" IVar="-1" Cut="0.0000000000000000e+00" cType="1" res="-1.2037269771099091e-03" rms="4.1031485795974731e-01" purity="2.3346528410911560e-01" nType="-99"/>
        </Node>
        <Node pos="r" depth="1" NCoef="0" IVar="4" Cut="9.9138021469116211e-01" cType="1" res="5.3289864212274551e-02" rms="4.6946400403976440e-01" purity="5.5710655450820923e-01" nType="0">
          <Node pos="l" depth="2" NCoef="0" IVar="-1" Cut="0.0000000000000000e+00" cType="1" res="3.8131375913508236e-04" rms="4.5722842216491699e-01" purity="6.2862676382064819e-01" nType="-99"/>
          <Node pos="r" depth="2" NCoef="0" IVar="-1" Cut="0.0000000000000000e+00" cType="1" res="-1.1859522783197463e-04" rms="4.7465711832046509e-01" purity="4.5960083603858948e-01" nType="-99"/>
        </Node>
      </Node>
    </BinaryTree>
    <BinaryTree type="DecisionTree" boostWeight="1.0000000000000000e+00" itree="515">
      <Node pos="s" depth="0" NCoef="0" IVar="4" Cut="7.9966139793395996e-01" cType="1" res="3.3490911126136780e-02" rms="4.6603068709373474e-01" purity="5.0438886880874634e-01" nType="0">
        <Node pos="l" depth="1" NCoef="0" IVar="1" Cut="8.2812386751174927e-01" cType="1" res="1.2876079976558685e-01" rms="4.5250362157821655e-01" purity="6.3789874315261841e-01" nType="0">
          <Node pos="l" depth="2" NCoef="0" IVar="-1" Cut="0.0000000000000000e+00" cType="1" res="2.5628812727518380e-04" rms="4.6250122785568237e-01" purity="5.7233083248138428e-01" nType="-99"/>
          <Node pos="r" depth="2" NCoef="0" IVar="-1" Cut="0.0000000000000000e+00" cType="1" res="6.1882275622338057e-04" rms="4.2513501644134521e-01" purity="7.2545492649078369e-01" nType="-99"/>
        </Node>
        <Node pos="r" depth="1" NCoef="0" IVar="7" Cut="1.3355158996582031e+02" cType="1" res="-6.7229210399091244e-03" rms="4.6581214666366577e-01" purity="4.4803369045257568e-01" nType="0">
          <Node pos="l" depth="2" NCoef="0" IVar="-1" Cut="0.0000000000000000e+00" cType="1" res="-3.9167690556496382e-04" rms="4.5259872078895569e-01" purity="3.5689702630043030e-01" nType="-99"/>
          <Node pos="r" depth="2" NCoef="0" IVar="-1" Cut="0.0000000000000000e+00" cType="1" res="2.6839223573915660e-04" rms="4.7224527597427368e-01" purity="5.7181358337402344e-01" nType="-99"/>
        </Node>
      </Node>
    </BinaryTree>
    <BinaryTree type="DecisionTree" boostWeight="1.0000000000000000e+00" itree="516">
      <Node pos="s" depth="0" NCoef="0" IVar="5" Cut="3.5887973022460938e+02" cType="1" res="2.6379518210887909e-02" rms="4.6408030390739441e-01" purity="4.9896207451820374e-01" nType="0">
        <Node pos="l" depth="1" NCoef="0" IVar="6" Cut="1.4993528747558594e+02" cType="1" res="-8.3664573729038239e-02" rms="4.3313753604888916e-01" purity="2.9068735241889954e-01" nType="0">
          <Node pos="l" depth="2" NCoef="0" IVar="-1" Cut="0.0000000000000000e+00" cType="1" res="-3.6739173810929060e-04" rms="4.4692468643188477e-01" purity="3.2581326365470886e-01" nType="-99"/>
          <Node pos="r" depth="2" NCoef="0" IVar="-1" Cut="0.0000000000000000e+00" cType="1" res="-2.5659480597823858e-03" rms="3.5696732997894287e-01" purity="1.6317632794380188e-01" nType="-99"/>
        </Node>
        <Node pos="r" depth="1" NCoef="0" IVar="4" Cut="1.1723891496658325e+00" cType="1" res="6.5358527004718781e-02" rms="4.6839678287506104e-01" purity="5.7273560762405396e-01" nType="0">
          <Node pos="l" depth="2" NCoef="0" IVar="-1" Cut="0.0000000000000000e+00" cType="1" res="3.5068535362370312e-04" rms="4.6044644713401794e-01" purity="6.1462700366973877e-01" nType="-99"/>
          <Node pos="r" depth="2" NCoef="0" IVar="-1" Cut="0.0000000000000000e+00" cType="1" res="-2.3935028002597392e-04" rms="4.7559866309165955e-01" purity="4.3809500336647034e-01" nType="-99"/>
        </Node>
      </Node>
    </BinaryTree>
    <BinaryTree type="DecisionTree" boostWeight="1.0000000000000000e+00" itree="517">
      <Node pos="s" depth="0" NCoef="0" IVar="3" Cut="2.2223356366157532e-01" cType="1" res="2.3465374484658241e-02" rms="4.6388807892799377e-01" purity="4.9627858400344849e-01" nType="0">
        <Node pos="l" depth="1" NCoef="0" IVar="7" Cut="1.6404029846191406e+02" cType="1" res="-8.7315268814563751e-02" rms="4.2896479368209839e-01" purity="2.7250894904136658e-01" nType="0">
          <Node pos="l" depth="2" NCoef="0" IVar="-1" Cut="0.0000000000000000e+00" cType="1" res="-1.0778093710541725e-03" rms="4.0477299690246582e-01" purity="2.2531482577323914e-01" nType="-99"/>
          <Node pos="r" depth="2" NCoef="0" IVar="-1" Cut="0.0000000000000000e+00" cType="1" res="-4.3565582018345594e-05" rms="4.9084553122520447e-01" purity="4.2470061779022217e-01" nType="-99"/>
        </Node>
        <Node pos="r" depth="1" NCoef="0" IVar="5" Cut="3.4334744262695312e+02" cType="1" res="5.7555623352527618e-02" rms="4.6888038516044617e-01" purity="5.6513869762420654e-01" nType="0">
          <Node pos="l" depth="2" NCoef="0" IVar="-1" Cut="0.0000000000000000e+00" cType="1" res="-4.1697247070260346e-04" rms="4.5994824171066284e-01" purity="3.4433799982070923e-01" nType="-99"/>
          <Node pos="r" depth="2" NCoef="0" IVar="-1" Cut="0.0000000000000000e+00" cType="1" res="3.1316571403294802e-04" rms="4.6592497825622559e-01" purity="6.2446808815002441e-01" nType="-99"/>
        </Node>
      </Node>
    </BinaryTree>
    <BinaryTree type="DecisionTree" boostWeight="1.0000000000000000e+00" itree="518">
      <Node pos="s" depth="0" NCoef="0" IVar="3" Cut="2.2242473065853119e-01" cType="1" res="2.7370059862732887e-02" rms="4.6473684906959534e-01" purity="4.9925902485847473e-01" nType="0">
        <Node pos="l" depth="1" NCoef="0" IVar="3" Cut="1.4632867276668549e-01" cType="1" res="-8.7762989103794098e-02" rms="4.2986252903938293e-01" purity="2.7072039246559143e-01" nType="0">
          <Node pos="l" depth="2" NCoef="0" IVar="-1" Cut="0.0000000000000000e+00" cType="1" res="-1.7238563159480691e-03" rms="3.8032773137092590e-01" purity="1.9198790192604065e-01" nType="-99"/>
          <Node pos="r" depth="2" NCoef="0" IVar="-1" Cut="0.0000000000000000e+00" cType="1" res="-4.2647964437492192e-04" rms="4.4572347402572632e-01" purity="3.0430662631988525e-01" nType="-99"/>
        </Node>
        <Node pos="r" depth="1" NCoef="0" IVar="1" Cut="7.6286387443542480e-01" cType="1" res="6.2523573637008667e-02" rms="4.6927931904792786e-01" purity="5.6903856992721558e-01" nType="0">
          <Node pos="l" depth="2" NCoef="0" IVar="-1" Cut="0.0000000000000000e+00" cType="1" res="-6.3878331275191158e-05" rms="4.7191154956817627e-01" purity="4.8744413256645203e-01" nType="-99"/>
          <Node pos="r" depth="2" NCoef="0" IVar="-1" Cut="0.0000000000000000e+00" cType="1" res="3.6826636642217636e-04" rms="4.6293827891349792e-01" purity="6.1114501953125000e-01" nType="-99"/>
        </Node>
      </Node>
    </BinaryTree>
    <BinaryTree type="DecisionTree" boostWeight="1.0000000000000000e+00" itree="519">
      <Node pos="s" depth="0" NCoef="0" IVar="5" Cut="3.1430752563476562e+02" cType="1" res="2.8629064559936523e-02" rms="4.6450772881507874e-01" purity="5.0111931562423706e-01" nType="0">
        <Node pos="l" depth="1" NCoef="0" IVar="5" Cut="2.8622192382812500e+02" cType="1" res="-1.2191536277532578e-01" rms="4.0409725904464722e-01" purity="2.3399834334850311e-01" nType="0">
          <Node pos="l" depth="2" NCoef="0" IVar="-1" Cut="0.0000000000000000e+00" cType="1" res="-1.9112253794446588e-03" rms="3.7546360492706299e-01" purity="1.8533468246459961e-01" nType="-99"/>
          <Node pos="r" depth="2" NCoef="0" IVar="-1" Cut="0.0000000000000000e+00" cType="1" res="-4.5887287706136703e-04" rms="4.3420624732971191e-01" purity="3.0171111226081848e-01" nType="-99"/>
        </Node>
        <Node pos="r" depth="1" NCoef="0" IVar="4" Cut="9.4195890426635742e-01" cType="1" res="5.4524112492799759e-02" rms="4.6928066015243530e-01" purity="5.4706662893295288e-01" nType="0">
          <Node pos="l" depth="2" NCoef="0" IVar="-1" Cut="0.0000000000000000e+00" cType="1" res="4.0030889795161784e-04" rms="4.5622736215591431e-01" purity="6.2747287750244141e-01" nType="-99"/>
          <Node pos="r" depth="2" NCoef="0" IVar="-1" Cut="0.0000000000000000e+00" cType="1" res="-4.1532428440405056e-05" rms="4.7424665093421936e-01" purity="4.6350404620170593e-01" nType="-99"/>
        </Node>
      </Node>
    </BinaryTree>
    <BinaryTree type="DecisionTree" boostWeight="1.0000000000000000e+00" itree="520">
      <Node pos="s" depth="0" NCoef="0" IVar="3" Cut="2.4466720223426819e-01" cType="1" res="2.7112344279885292e-02" rms="4.6199887990951538e-01" purity="5.0213253498077393e-01" nType="0">
        <Node pos="l" depth="1" NCoef="0" IVar="1" Cut="8.6800879240036011e-01" cType="1" res="-7.9335354268550873e-02" rms="4.3174260854721069e-01" purity="2.8628689050674438e-01" nType="0">
          <Node pos="l" depth="2" NCoef="0" IVar="-1" Cut="0.0000000000000000e+00" cType="1" res="-1.3643949059769511e-03" rms="4.0027359127998352e-01" purity="2.2334018349647522e-01" nType="-99"/>
          <Node pos="r" depth="2" NCoef="0" IVar="-1" Cut="0.0000000000000000e+00" cType="1" res="4.0487746446160600e-05" rms="4.6156102418899536e-01" purity="3.8038381934165955e-01" nType="-99"/>
        </Node>
        <Node pos="r" depth="1" NCoef="0" IVar="4" Cut="9.1690313816070557e-01" cType="1" res="6.9072276353836060e-02" rms="4.6677085757255554e-01" purity="5.8721536397933960e-01" nType="0">
          <Node pos="l" depth="2" NCoef="0" IVar="-1" Cut="0.0000000000000000e+00" cType="1" res="4.4108182191848755e-04" rms="4.4664701819419861e-01" purity="6.7192834615707397e-01" nType="-99"/>
          <Node pos="r" depth="2" NCoef="0" IVar="-1" Cut="0.0000000000000000e+00" cType="1" res="3.3668791729724035e-05" rms="4.7649976611137390e-01" purity="5.0903081893920898e-01" nType="-99"/>
        </Node>
      </Node>
    </BinaryTree>
    <BinaryTree type="DecisionTree" boostWeight="1.0000000000000000e+00" itree="521">
      <Node pos="s" depth="0" NCoef="0" IVar="3" Cut="4.6709191799163818e-01" cType="1" res="2.6403332129120827e-02" rms="4.6322113275527954e-01" purity="5.0032752752304077e-01" nType="0">
        <Node pos="l" depth="1" NCoef="0" IVar="4" Cut="7.3710811138153076e-01" cType="1" res="-7.1151554584503174e-03" rms="4.6500796079635620e-01" purity="4.4204360246658325e-01" nType="0">
          <Node pos="l" depth="2" NCoef="0" IVar="-1" Cut="0.0000000000000000e+00" cType="1" res="3.8885764661245048e-04" rms="4.6648874878883362e-01" purity="6.1508458852767944e-01" nType="-99"/>
          <Node pos="r" depth="2" NCoef="0" IVar="-1" Cut="0.0000000000000000e+00" cType="1" res="-2.1474667300935835e-04" rms="4.5938354730606079e-01" purity="3.9455705881118774e-01" nType="-99"/>
        </Node>
        <Node pos="r" depth="1" NCoef="0" IVar="5" Cut="3.6223303222656250e+02" cType="1" res="1.5659426152706146e-01" rms="4.3222457170486450e-01" purity="7.2671109437942505e-01" nType="0">
          <Node pos="l" depth="2" NCoef="0" IVar="-1" Cut="0.0000000000000000e+00" cType="1" res="2.4231660063378513e-04" rms="4.9158561229705811e-01" purity="5.5741780996322632e-01" nType="-99"/>
          <Node pos="r" depth="2" NCoef="0" IVar="-1" Cut="0.0000000000000000e+00" cType="1" res="5.3698843112215400e-04" rms="4.0250846743583679e-01" purity="7.8917485475540161e-01" nType="-99"/>
        </Node>
      </Node>
    </BinaryTree>
    <BinaryTree type="DecisionTree" boostWeight="1.0000000000000000e+00" itree="522">
      <Node pos="s" depth="0" NCoef="0" IVar="3" Cut="2.4414621293544769e-01" cType="1" res="1.8317611888051033e-02" rms="4.6312832832336426e-01" purity="4.9050837755203247e-01" nType="0">
        <Node pos="l" depth="1" NCoef="0" IVar="4" Cut="7.9695284366607666e-01" cType="1" res="-8.1753805279731750e-02" rms="4.3174526095390320e-01" purity="2.8100964426994324e-01" nType="0">
          <Node pos="l" depth="2" NCoef="0" IVar="-1" Cut="0.0000000000000000e+00" cType="1" res="-1.7137728718807921e-05" rms="4.7770810127258301e-01" purity="4.0351885557174683e-01" nType="-99"/>
          <Node pos="r" depth="2" NCoef="0" IVar="-1" Cut="0.0000000000000000e+00" cType="1" res="-9.8231376614421606e-04" rms="4.1053029894828796e-01" purity="2.3737618327140808e-01" nType="-99"/>
        </Node>
        <Node pos="r" depth="1" NCoef="0" IVar="5" Cut="3.4334744262695312e+02" cType="1" res="5.8708261698484421e-02" rms="4.6920108795166016e-01" purity="5.7506591081619263e-01" nType="0">
          <Node pos="l" depth="2" NCoef="0" IVar="-1" Cut="0.0000000000000000e+00" cType="1" res="-3.6944000748917460e-04" rms="4.6554088592529297e-01" purity="3.5695630311965942e-01" nType="-99"/>
          <Node pos="r" depth="2" NCoef="0" IVar="-1" Cut="0.0000000000000000e+00" cType="1" res="3.1190903973765671e-04" rms="4.6505990624427795e-01" purity="6.3311260938644409e-01" nType="-99"/>
        </Node>
      </Node>
    </BinaryTree>
    <BinaryTree type="DecisionTree" boostWeight="1.0000000000000000e+00" itree="523">
      <Node pos="s" depth="0" NCoef="0" IVar="5" Cut="4.2427459716796875e+02" cType="1" res="2.0352996885776520e-02" rms="4.6323993802070618e-01" purity="4.9327594041824341e-01" nType="0">
        <Node pos="l" depth="1" NCoef="0" IVar="3" Cut="4.6580612659454346e-01" cType="1" res="-5.4851315915584564e-02" rms="4.4620910286903381e-01" purity="3.4731239080429077e-01" nType="0">
          <Node pos="l" depth="2" NCoef="0" IVar="-1" Cut="0.0000000000000000e+00" cType="1" res="-7.0154567947611213e-04" rms="4.3007305264472961e-01" purity="2.8260594606399536e-01" nType="-99"/>
          <Node pos="r" depth="2" NCoef="0" IVar="-1" Cut="0.0000000000000000e+00" cType="1" res="2.8128817211836576e-04" rms="4.8188030719757080e-01" purity="5.9845602512359619e-01" nType="-99"/>
        </Node>
        <Node pos="r" depth="1" NCoef="0" IVar="6" Cut="1.5800285339355469e+02" cType="1" res="7.7001288533210754e-02" rms="4.6774885058403015e-01" purity="6.0322427749633789e-01" nType="0">
          <Node pos="l" depth="2" NCoef="0" IVar="-1" Cut="0.0000000000000000e+00" cType="1" res="4.5089522609487176e-04" rms="4.5199200510978699e-01" purity="6.6620266437530518e-01" nType="-99"/>
          <Node pos="r" depth="2" NCoef="0" IVar="-1" Cut="0.0000000000000000e+00" cType="1" res="2.0960300389560871e-05" rms="4.7568598389625549e-01" purity="5.2915918827056885e-01" nType="-99"/>
        </Node>
      </Node>
    </BinaryTree>
    <BinaryTree type="DecisionTree" boostWeight="1.0000000000000000e+00" itree="524">
      <Node pos="s" depth="0" NCoef="0" IVar="3" Cut="4.2170709371566772e-01" cType="1" res="2.0247342064976692e-02" rms="4.6495932340621948e-01" purity="4.9134132266044617e-01" nType="0">
        <Node pos="l" depth="1" NCoef="0" IVar="1" Cut="7.4988090991973877e-01" cType="1" res="-1.5418820083141327e-02" rms="4.6560895442962646e-01" purity="4.1844627261161804e-01" nType="0">
          <Node pos="l" depth="2" NCoef="0" IVar="-1" Cut="0.0000000000000000e+00" cType="1" res="-6.2469969270750880e-04" rms="4.4761613011360168e-01" purity="3.2578927278518677e-01" nType="-99"/>
          <Node pos="r" depth="2" NCoef="0" IVar="-1" Cut="0.0000000000000000e+00" cType="1" res="1.1476182407932356e-04" rms="4.6914702653884888e-01" purity="4.6453896164894104e-01" nType="-99"/>
        </Node>
        <Node pos="r" depth="1" NCoef="0" IVar="5" Cut="3.7743151855468750e+02" cType="1" res="1.1316722631454468e-01" rms="4.5018219947814941e-01" purity="6.8125236034393311e-01" nType="0">
          <Node pos="l" depth="2" NCoef="0" IVar="-1" Cut="0.0000000000000000e+00" cType="1" res="5.6334341934416443e-05" rms="4.8944437503814697e-01" purity="5.1288700103759766e-01" nType="-99"/>
          <Node pos="r" depth="2" NCoef="0" IVar="-1" Cut="0.0000000000000000e+00" cType="1" res="4.7705558245070279e-04" rms="4.2361575365066528e-01" purity="7.5728154182434082e-01" nType="-99"/>
        </Node>
      </Node>
    </BinaryTree>
    <BinaryTree type="DecisionTree" boostWeight="1.0000000000000000e+00" itree="525">
      <Node pos="s" depth="0" NCoef="0" IVar="3" Cut="4.6709191799163818e-01" cType="1" res="2.7553953230381012e-02" rms="4.6468606591224670e-01" purity="4.9956223368644714e-01" nType="0">
        <Node pos="l" depth="1" NCoef="0" IVar="4" Cut="8.4883648157119751e-01" cType="1" res="-4.3940837495028973e-03" rms="4.6640154719352722e-01" purity="4.4359380006790161e-01" nType="0">
          <Node pos="l" depth="2" NCoef="0" IVar="-1" Cut="0.0000000000000000e+00" cType="1" res="2.9235141118988395e-04" rms="4.6591040492057800e-01" purity="5.5923742055892944e-01" nType="-99"/>
          <Node pos="r" depth="2" NCoef="0" IVar="-1" Cut="0.0000000000000000e+00" cType="1" res="-3.0411549960263073e-04" rms="4.6013969182968140e-01" purity="3.7417596578598022e-01" nType="-99"/>
        </Node>
        <Node pos="r" depth="1" NCoef="0" IVar="6" Cut="1.4421653747558594e+02" cType="1" res="1.5533971786499023e-01" rms="4.3489378690719604e-01" purity="7.2342485189437866e-01" nType="0">
          <Node pos="l" depth="2" NCoef="0" IVar="-1" Cut="0.0000000000000000e+00" cType="1" res="5.9026351664215326e-04" rms="4.1313892602920532e-01" purity="7.6200228929519653e-01" nType="-99"/>
          <Node pos="r" depth="2" NCoef="0" IVar="-1" Cut="0.0000000000000000e+00" cType="1" res="2.6012997841462493e-04" rms="4.5826432108879089e-01" purity="6.5870732069015503e-01" nType="-99"/>
        </Node>
      </Node>
    </BinaryTree>
    <BinaryTree type="DecisionTree" boostWeight="1.0000000000000000e+00" itree="526">
      <Node pos="s" depth="0" NCoef="0" IVar="4" Cut="8.7085747718811035e-01" cType="1" res="2.8241282328963280e-02" rms="4.6232503652572632e-01" purity="5.0264602899551392e-01" nType="0">
        <Node pos="l" depth="1" NCoef="0" IVar="3" Cut="4.0002232789993286e-01" cType="1" res="1.0834422707557678e-01" rms="4.5378232002258301e-01" purity="6.1064386367797852e-01" nType="0">
          <Node pos="l" depth="2" NCoef="0" IVar="-1" Cut="0.0000000000000000e+00" cType="1" res="2.5502542848698795e-04" rms="4.7170674800872803e-01" purity="5.2472406625747681e-01" nType="-99"/>
          <Node pos="r" depth="2" NCoef="0" IVar="-1" Cut="0.0000000000000000e+00" cType="1" res="5.6516897166147828e-04" rms="4.0012797713279724e-01" purity="7.8345280885696411e-01" nType="-99"/>
        </Node>
        <Node pos="r" depth="1" NCoef="0" IVar="3" Cut="5.1057815551757812e-01" cType="1" res="-2.6921182870864868e-02" rms="4.6007850766181946e-01" purity="4.2827394604682922e-01" nType="0">
          <Node pos="l" depth="2" NCoef="0" IVar="-1" Cut="0.0000000000000000e+00" cType="1" res="-3.1958505860529840e-04" rms="4.5563945174217224e-01" purity="3.8156104087829590e-01" nType="-99"/>
          <Node pos="r" depth="2" NCoef="0" IVar="-1" Cut="0.0000000000000000e+00" cType="1" res="4.6453590039163828e-04" rms="4.4766598939895630e-01" purity="7.0254695415496826e-01" nType="-99"/>
        </Node>
      </Node>
    </BinaryTree>
    <BinaryTree type="DecisionTree" boostWeight="1.0000000000000000e+00" itree="527">
      <Node pos="s" depth="0" NCoef="0" IVar="4" Cut="8.1864625215530396e-01" cType="1" res="1.7687818035483360e-02" rms="4.6388423442840576e-01" purity="4.8959997296333313e-01" nType="0">
        <Node pos="l" depth="1" NCoef="0" IVar="3" Cut="3.2936793565750122e-01" cType="1" res="1.0474006086587906e-01" rms="4.5483383536338806e-01" purity="6.1343544721603394e-01" nType="0">
          <Node pos="l" depth="2" NCoef="0" IVar="-1" Cut="0.0000000000000000e+00" cType="1" res="1.5504026669077575e-04" rms="4.7755870223045349e-01" purity="4.7124284505844116e-01" nType="-99"/>
          <Node pos="r" depth="2" NCoef="0" IVar="-1" Cut="0.0000000000000000e+00" cType="1" res="5.0838745664805174e-04" rms="4.2241328954696655e-01" purity="7.4435621500015259e-01" nType="-99"/>
        </Node>
        <Node pos="r" depth="1" NCoef="0" IVar="1" Cut="7.2359323501586914e-01" cType="1" res="-2.3640170693397522e-02" rms="4.6241790056228638e-01" purity="4.3080919981002808e-01" nType="0">
          <Node pos="l" depth="2" NCoef="0" IVar="-1" Cut="0.0000000000000000e+00" cType="1" res="-9.1073871590197086e-04" rms="4.3468716740608215e-01" purity="3.0570775270462036e-01" nType="-99"/>
          <Node pos="r" depth="2" NCoef="0" IVar="-1" Cut="0.0000000000000000e+00" cType="1" res="6.0192316595930606e-05" rms="4.6583393216133118e-01" purity="4.7332382202148438e-01" nType="-99"/>
        </Node>
      </Node>
    </BinaryTree>
    <BinaryTree type="DecisionTree" boostWeight="1.0000000000000000e+00" itree="528">
      <Node pos="s" depth="0" NCoef="0" IVar="4" Cut="9.4661563634872437e-01" cType="1" res="2.7236027643084526e-02" rms="4.6558499336242676e-01" purity="4.9842569231987000e-01" nType="0">
        <Node pos="l" depth="1" NCoef="0" IVar="3" Cut="3.1048917770385742e-01" cType="1" res="8.4145933389663696e-02" rms="4.6010556817054749e-01" purity="5.7530403137207031e-01" nType="0">
          <Node pos="l" depth="2" NCoef="0" IVar="-1" Cut="0.0000000000000000e+00" cType="1" res="7.7124634117353708e-05" rms="4.7260454297065735e-01" purity="4.2295259237289429e-01" nType="-99"/>
          <Node pos="r" depth="2" NCoef="0" IVar="-1" Cut="0.0000000000000000e+00" cType="1" res="4.3322544661350548e-04" rms="4.4203373789787292e-01" purity="6.9765776395797729e-01" nType="-99"/>
        </Node>
        <Node pos="r" depth="1" NCoef="0" IVar="1" Cut="8.2878100872039795e-01" cType="1" res="-3.1466927379369736e-02" rms="4.6391230821609497e-01" purity="4.1912513971328735e-01" nType="0">
          <Node pos="l" depth="2" NCoef="0" IVar="-1" Cut="0.0000000000000000e+00" cType="1" res="-7.6271954458206892e-04" rms="4.4177275896072388e-01" purity="3.2494434714317322e-01" nType="-99"/>
          <Node pos="r" depth="2" NCoef="0" IVar="-1" Cut="0.0000000000000000e+00" cType="1" res="1.2293316831346601e-04" rms="4.7031933069229126e-01" purity="4.8564052581787109e-01" nType="-99"/>
        </Node>
      </Node>
    </BinaryTree>
    <BinaryTree type="DecisionTree" boostWeight="1.0000000000000000e+00" itree="529">
      <Node pos="s" depth="0" NCoef="0" IVar="5" Cut="3.9576910400390625e+02" cType="1" res="3.0351826921105385e-02" rms="4.6228477358818054e-01" purity="5.0529038906097412e-01" nType="0">
        <Node pos="l" depth="1" NCoef="0" IVar="3" Cut="4.8334285616874695e-01" cType="1" res="-7.3680393397808075e-02" rms="4.3998989462852478e-01" purity="3.1183066964149475e-01" nType="0">
          <Node pos="l" depth="2" NCoef="0" IVar="-1" Cut="0.0000000000000000e+00" cType="1" res="-8.6094427388161421e-04" rms="4.2470601201057434e-01" purity="2.6205164194107056e-01" nType="-99"/>
          <Node pos="r" depth="2" NCoef="0" IVar="-1" Cut="0.0000000000000000e+00" cType="1" res="1.9073694420512766e-04" rms="4.9086913466453552e-01" purity="5.5761986970901489e-01" nType="-99"/>
        </Node>
        <Node pos="r" depth="1" NCoef="0" IVar="3" Cut="3.1139460206031799e-01" cType="1" res="8.5324257612228394e-02" rms="4.6432319283485413e-01" purity="6.0751783847808838e-01" nType="0">
          <Node pos="l" depth="2" NCoef="0" IVar="-1" Cut="0.0000000000000000e+00" cType="1" res="2.6132775019505061e-05" rms="4.8703637719154358e-01" purity="4.4415968656539917e-01" nType="-99"/>
          <Node pos="r" depth="2" NCoef="0" IVar="-1" Cut="0.0000000000000000e+00" cType="1" res="4.2991864029318094e-04" rms="4.3811523914337158e-01" purity="7.2594463825225830e-01" nType="-99"/>
        </Node>
      </Node>
    </BinaryTree>
    <BinaryTree type="DecisionTree" boostWeight="1.0000000000000000e+00" itree="530">
      <Node pos="s" depth="0" NCoef="0" IVar="3" Cut="4.4398102164268494e-01" cType="1" res="3.3738404512405396e-02" rms="4.6254384517669678e-01" purity="5.0744014978408813e-01" nType="0">
        <Node pos="l" depth="1" NCoef="0" IVar="4" Cut="6.4995741844177246e-01" cType="1" res="-1.6233453061431646e-03" rms="4.6448057889938354e-01" purity="4.4145309925079346e-01" nType="0">
          <Node pos="l" depth="2" NCoef="0" IVar="-1" Cut="0.0000000000000000e+00" cType="1" res="5.7043699780479074e-04" rms="4.3601936101913452e-01" purity="7.0586848258972168e-01" nType="-99"/>
          <Node pos="r" depth="2" NCoef="0" IVar="-1" Cut="0.0000000000000000e+00" cType="1" res="-1.6286253230646253e-04" rms="4.6198713779449463e-01" purity="4.0100139379501343e-01" nType="-99"/>
        </Node>
        <Node pos="r" depth="1" NCoef="0" IVar="1" Cut="8.1578862667083740e-01" cType="1" res="1.4368028938770294e-01" rms="4.3862259387969971e-01" purity="7.1259814500808716e-01" nType="0">
          <Node pos="l" depth="2" NCoef="0" IVar="-1" Cut="0.0000000000000000e+00" cType="1" res="2.8155252221040428e-04" rms="4.5883789658546448e-01" purity="6.5232920646667480e-01" nType="-99"/>
          <Node pos="r" depth="2" NCoef="0" IVar="-1" Cut="0.0000000000000000e+00" cType="1" res="5.6087487610056996e-04" rms="4.1638609766960144e-01" purity="7.5884801149368286e-01" nType="-99"/>
        </Node>
      </Node>
    </BinaryTree>
    <BinaryTree type="DecisionTree" boostWeight="1.0000000000000000e+00" itree="531">
      <Node pos="s" depth="0" NCoef="0" IVar="3" Cut="3.9857223629951477e-01" cType="1" res="2.2523857653141022e-02" rms="4.6480289101600647e-01" purity="4.9393090605735779e-01" nType="0">
        <Node pos="l" depth="1" NCoef="0" IVar="4" Cut="7.5031864643096924e-01" cType="1" res="-1.8882015720009804e-02" rms="4.6359625458717346e-01" purity="4.0670868754386902e-01" nType="0">
          <Node pos="l" depth="2" NCoef="0" IVar="-1" Cut="0.0000000000000000e+00" cType="1" res="3.1226233113557100e-04" rms="4.7554478049278259e-01" purity="5.6773924827575684e-01" nType="-99"/>
          <Node pos="r" depth="2" NCoef="0" IVar="-1" Cut="0.0000000000000000e+00" cType="1" res="-2.9294792329892516e-04" rms="4.5572161674499512e-01" purity="3.5972720384597778e-01" nType="-99"/>
        </Node>
        <Node pos="r" depth="1" NCoef="0" IVar="5" Cut="3.3420693969726562e+02" cType="1" res="1.0627067834138870e-01" rms="4.5587980747222900e-01" purity="6.7034506797790527e-01" nType="0">
          <Node pos="l" depth="2" NCoef="0" IVar="-1" Cut="0.0000000000000000e+00" cType="1" res="-3.7856418202864006e-05" rms="4.9344080686569214e-01" purity="4.6554332971572876e-01" nType="-99"/>
          <Node pos="r" depth="2" NCoef="0" IVar="-1" Cut="0.0000000000000000e+00" cType="1" res="4.1453013545833528e-04" rms="4.4129943847656250e-01" purity="7.2178030014038086e-01" nType="-99"/>
        </Node>
      </Node>
    </BinaryTree>
    <BinaryTree type="DecisionTree" boostWeight="1.0000000000000000e+00" itree="532">
      <Node pos="s" depth="0" NCoef="0" IVar="5" Cut="4.4013800048828125e+02" cType="1" res="1.6314476728439331e-02" rms="4.6484684944152832e-01" purity="4.8650914430618286e-01" nType="0">
        <Node pos="l" depth="1" NCoef="0" IVar="6" Cut="1.4945625305175781e+02" cType="1" res="-4.8483405262231827e-02" rms="4.5167571306228638e-01" purity="3.5583570599555969e-01" nType="0">
          <Node pos="l" depth="2" NCoef="0" IVar="-1" Cut="0.0000000000000000e+00" cType="1" res="-3.0014931326149963e-05" rms="4.6128773689270020e-01" purity="4.0117758512496948e-01" nType="-99"/>
          <Node pos="r" depth="2" NCoef="0" IVar="-1" Cut="0.0000000000000000e+00" cType="1" res="-1.4527321327477694e-03" rms="4.0499269962310791e-01" purity="2.3846185207366943e-01" nType="-99"/>
        </Node>
        <Node pos="r" depth="1" NCoef="0" IVar="4" Cut="1.2938896417617798e+00" cType="1" res="7.4098311364650726e-02" rms="4.6879023313522339e-01" purity="6.0303783416748047e-01" nType="0">
          <Node pos="l" depth="2" NCoef="0" IVar="-1" Cut="0.0000000000000000e+00" cType="1" res="3.4320779377594590e-04" rms="4.6190401911735535e-01" purity="6.3338255882263184e-01" nType="-99"/>
          <Node pos="r" depth="2" NCoef="0" IVar="-1" Cut="0.0000000000000000e+00" cType="1" res="-3.0484228045679629e-04" rms="4.7989103198051453e-01" purity="4.4486451148986816e-01" nType="-99"/>
        </Node>
      </Node>
    </BinaryTree>
    <BinaryTree type="DecisionTree" boostWeight="1.0000000000000000e+00" itree="533">
      <Node pos="s" depth="0" NCoef="0" IVar="3" Cut="4.2224580049514771e-01" cType="1" res="2.8673985973000526e-02" rms="4.6115830540657043e-01" purity="5.0374221801757812e-01" nType="0">
        <Node pos="l" depth="1" NCoef="0" IVar="4" Cut="6.9833379983901978e-01" cType="1" res="-1.1480008251965046e-02" rms="4.6195569634437561e-01" purity="4.2550292611122131e-01" nType="0">
          <Node pos="l" depth="2" NCoef="0" IVar="-1" Cut="0.0000000000000000e+00" cType="1" res="4.4135208008810878e-04" rms="4.5450735092163086e-01" purity="6.4549899101257324e-01" nType="-99"/>
          <Node pos="r" depth="2" NCoef="0" IVar="-1" Cut="0.0000000000000000e+00" cType="1" res="-2.4509138893336058e-04" rms="4.5748770236968994e-01" purity="3.7782698869705200e-01" nType="-99"/>
        </Node>
        <Node pos="r" depth="1" NCoef="0" IVar="5" Cut="4.2225869750976562e+02" cType="1" res="1.2796537578105927e-01" rms="4.4384807348251343e-01" purity="6.9720947742462158e-01" nType="0">
          <Node pos="l" depth="2" NCoef="0" IVar="-1" Cut="0.0000000000000000e+00" cType="1" res="1.9813030667137355e-04" rms="4.8400136828422546e-01" purity="5.6776922941207886e-01" nType="-99"/>
          <Node pos="r" depth="2" NCoef="0" IVar="-1" Cut="0.0000000000000000e+00" cType="1" res="5.2057497669011354e-04" rms="4.0334641933441162e-01" purity="7.9026824235916138e-01" nType="-99"/>
        </Node>
      </Node>
    </BinaryTree>
    <BinaryTree type="DecisionTree" boostWeight="1.0000000000000000e+00" itree="534">
      <Node pos="s" depth="0" NCoef="0" IVar="4" Cut="7.9975336790084839e-01" cType="1" res="2.7782298624515533e-02" rms="4.6365994215011597e-01" purity="5.0055325031280518e-01" nType="0">
        <Node pos="l" depth="1" NCoef="0" IVar="3" Cut="3.7659081816673279e-01" cType="1" res="1.3744130730628967e-01" rms="4.4695588946342468e-01" purity="6.5177249908447266e-01" nType="0">
          <Node pos="l" depth="2" NCoef="0" IVar="-1" Cut="0.0000000000000000e+00" cType="1" res="3.5944979754276574e-04" rms="4.7382500767707825e-01" purity="5.5784326791763306e-01" nType="-99"/>
          <Node pos="r" depth="2" NCoef="0" IVar="-1" Cut="0.0000000000000000e+00" cType="1" res="5.6566979037597775e-04" rms="3.9067757129669189e-01" purity="7.9845690727233887e-01" nType="-99"/>
        </Node>
        <Node pos="r" depth="1" NCoef="0" IVar="7" Cut="1.8816001892089844e+02" cType="1" res="-2.2717535495758057e-02" rms="4.6249046921730042e-01" purity="4.3091422319412231e-01" nType="0">
          <Node pos="l" depth="2" NCoef="0" IVar="-1" Cut="0.0000000000000000e+00" cType="1" res="-3.1079491600394249e-04" rms="4.5645070075988770e-01" purity="3.8111975789070129e-01" nType="-99"/>
          <Node pos="r" depth="2" NCoef="0" IVar="-1" Cut="0.0000000000000000e+00" cType="1" res="3.4624972613528371e-04" rms="4.6530520915985107e-01" purity="6.3233727216720581e-01" nType="-99"/>
        </Node>
      </Node>
    </BinaryTree>
    <BinaryTree type="DecisionTree" boostWeight="1.0000000000000000e+00" itree="535">
      <Node pos="s" depth="0" NCoef="0" IVar="4" Cut="9.7563594579696655e-01" cType="1" res="3.3646352589130402e-02" rms="4.6625712513923645e-01" purity="5.0360345840454102e-01" nType="0">
        <Node pos="l" depth="1" NCoef="0" IVar="3" Cut="1.9928611814975739e-01" cType="1" res="9.2969812452793121e-02" rms="4.6058830618858337e-01" purity="5.8058780431747437e-01" nType="0">
          <Node pos="l" depth="2" NCoef="0" IVar="-1" Cut="0.0000000000000000e+00" cType="1" res="-2.3398251505568624e-04" rms="4.5841249823570251e-01" purity="3.3080598711967468e-01" nType="-99"/>
          <Node pos="r" depth="2" NCoef="0" IVar="-1" Cut="0.0000000000000000e+00" cType="1" res="4.0950768743641675e-04" rms="4.5650237798690796e-01" purity="6.3269078731536865e-01" nType="-99"/>
        </Node>
        <Node pos="r" depth="1" NCoef="0" IVar="7" Cut="1.7447122192382812e+02" cType="1" res="-3.9683673530817032e-02" rms="4.6277737617492676e-01" purity="4.0844270586967468e-01" nType="0">
          <Node pos="l" depth="2" NCoef="0" IVar="-1" Cut="0.0000000000000000e+00" cType="1" res="-5.0893076695501804e-04" rms="4.5061764121055603e-01" purity="3.4536415338516235e-01" nType="-99"/>
          <Node pos="r" depth="2" NCoef="0" IVar="-1" Cut="0.0000000000000000e+00" cType="1" res="3.0552817042917013e-04" rms="4.7694599628448486e-01" purity="5.9923899173736572e-01" nType="-99"/>
        </Node>
      </Node>
    </BinaryTree>
    <BinaryTree type="DecisionTree" boostWeight="1.0000000000000000e+00" itree="536">
      <Node pos="s" depth="0" NCoef="0" IVar="5" Cut="3.1745214843750000e+02" cType="1" res="3.6013100296258926e-02" rms="4.6443459391593933e-01" purity="5.0851351022720337e-01" nType="0">
        <Node pos="l" depth="1" NCoef="0" IVar="3" Cut="2.6499238610267639e-01" cType="1" res="-1.2552104890346527e-01" rms="3.9889341592788696e-01" purity="2.3111042380332947e-01" nType="0">
          <Node pos="l" depth="2" NCoef="0" IVar="-1" Cut="0.0000000000000000e+00" cType="1" res="-6.4398306421935558e-03" rms="2.6466682553291321e-01" purity="7.4775166809558868e-02" nType="-99"/>
          <Node pos="r" depth="2" NCoef="0" IVar="-1" Cut="0.0000000000000000e+00" cType="1" res="-5.7776144240051508e-04" rms="4.5795169472694397e-01" purity="3.2677945494651794e-01" nType="-99"/>
        </Node>
        <Node pos="r" depth="1" NCoef="0" IVar="6" Cut="1.2855686950683594e+02" cType="1" res="6.4703531563282013e-02" rms="4.6935251355171204e-01" purity="5.5778372287750244e-01" nType="0">
          <Node pos="l" depth="2" NCoef="0" IVar="-1" Cut="0.0000000000000000e+00" cType="1" res="4.6240550000220537e-04" rms="4.5909261703491211e-01" purity="6.2143260240554810e-01" nType="-99"/>
          <Node pos="r" depth="2" NCoef="0" IVar="-1" Cut="0.0000000000000000e+00" cType="1" res="3.1198698707157746e-05" rms="4.7038277983665466e-01" purity="5.0346088409423828e-01" nType="-99"/>
        </Node>
      </Node>
    </BinaryTree>
    <BinaryTree type="DecisionTree" boostWeight="1.0000000000000000e+00" itree="537">
      <Node pos="s" depth="0" NCoef="0" IVar="4" Cut="8.1116825342178345e-01" cType="1" res="3.2630551606416702e-02" rms="4.6585145592689514e-01" purity="5.0333559513092041e-01" nType="0">
        <Node pos="l" depth="1" NCoef="0" IVar="3" Cut="2.5975379347801208e-01" cType="1" res="1.2126830220222473e-01" rms="4.5214253664016724e-01" purity="6.3169246912002563e-01" nType="0">
          <Node pos="l" depth="2" NCoef="0" IVar="-1" Cut="0.0000000000000000e+00" cType="1" res="1.7092943016905338e-04" rms="4.7740784287452698e-01" purity="4.5120316743850708e-01" nType="-99"/>
          <Node pos="r" depth="2" NCoef="0" IVar="-1" Cut="0.0000000000000000e+00" cType="1" res="4.8973085358738899e-04" rms="4.3542930483818054e-01" purity="7.1073913574218750e-01" nType="-99"/>
        </Node>
        <Node pos="r" depth="1" NCoef="0" IVar="3" Cut="5.1016861200332642e-01" cType="1" res="-8.2121267914772034e-03" rms="4.6639904379844666e-01" purity="4.4419106841087341e-01" nType="0">
          <Node pos="l" depth="2" NCoef="0" IVar="-1" Cut="0.0000000000000000e+00" cType="1" res="-1.6826558567117900e-04" rms="4.6594861149787903e-01" purity="4.0270406007766724e-01" nType="-99"/>
          <Node pos="r" depth="2" NCoef="0" IVar="-1" Cut="0.0000000000000000e+00" cType="1" res="4.3510101386345923e-04" rms="4.4392508268356323e-01" purity="6.9742989540100098e-01" nType="-99"/>
        </Node>
      </Node>
    </BinaryTree>
    <BinaryTree type="DecisionTree" boostWeight="1.0000000000000000e+00" itree="538">
      <Node pos="s" depth="0" NCoef="0" IVar="5" Cut="5.5334436035156250e+02" cType="1" res="2.4491857737302780e-02" rms="4.6331164240837097e-01" purity="4.9729743599891663e-01" nType="0">
        <Node pos="l" depth="1" NCoef="0" IVar="3" Cut="4.6709191799163818e-01" cType="1" res="-1.5596840530633926e-02" rms="4.5964297652244568e-01" purity="4.2624095082283020e-01" nType="0">
          <Node pos="l" depth="2" NCoef="0" IVar="-1" Cut="0.0000000000000000e+00" cType="1" res="-2.9965679277665913e-04" rms="4.5355486869812012e-01" purity="3.6427086591720581e-01" nType="-99"/>
          <Node pos="r" depth="2" NCoef="0" IVar="-1" Cut="0.0000000000000000e+00" cType="1" res="3.9085795287974179e-04" rms="4.5970755815505981e-01" purity="6.6758990287780762e-01" nType="-99"/>
        </Node>
        <Node pos="r" depth="1" NCoef="0" IVar="4" Cut="1.2589037418365479e+00" cType="1" res="1.1268870532512665e-01" rms="4.5912161469459534e-01" purity="6.5362477302551270e-01" nType="0">
          <Node pos="l" depth="2" NCoef="0" IVar="-1" Cut="0.0000000000000000e+00" cType="1" res="4.3838488636538386e-04" rms="4.4902232289314270e-01" purity="6.8460112810134888e-01" nType="-99"/>
          <Node pos="r" depth="2" NCoef="0" IVar="-1" Cut="0.0000000000000000e+00" cType="1" res="-1.4417996681004297e-06" rms="4.8278036713600159e-01" purity="5.2481698989868164e-01" nType="-99"/>
        </Node>
      </Node>
    </BinaryTree>
    <BinaryTree type="DecisionTree" boostWeight="1.0000000000000000e+00" itree="539">
      <Node pos="s" depth="0" NCoef="0" IVar="5" Cut="5.7435778808593750e+02" cType="1" res="2.5672832503914833e-02" rms="4.6376624703407288e-01" purity="4.9788156151771545e-01" nType="0">
        <Node pos="l" depth="1" NCoef="0" IVar="3" Cut="4.6580612659454346e-01" cType="1" res="-1.3728139922022820e-02" rms="4.6198752522468567e-01" purity="4.2965653538703918e-01" nType="0">
          <Node pos="l" depth="2" NCoef="0" IVar="-1" Cut="0.0000000000000000e+00" cType="1" res="-2.5483904755674303e-04" rms="4.5694467425346375e-01" purity="3.7292021512985229e-01" nType="-99"/>
          <Node pos="r" depth="2" NCoef="0" IVar="-1" Cut="0.0000000000000000e+00" cType="1" res="3.6325943074189126e-04" rms="4.6277314424514771e-01" purity="6.5956252813339233e-01" nType="-99"/>
        </Node>
        <Node pos="r" depth="1" NCoef="0" IVar="4" Cut="1.2218663692474365e+00" cType="1" res="1.2342873215675354e-01" rms="4.5360407233238220e-01" purity="6.6715139150619507e-01" nType="0">
          <Node pos="l" depth="2" NCoef="0" IVar="-1" Cut="0.0000000000000000e+00" cType="1" res="4.7341900062747300e-04" rms="4.3787646293640137e-01" purity="7.0715564489364624e-01" nType="-99"/>
          <Node pos="r" depth="2" NCoef="0" IVar="-1" Cut="0.0000000000000000e+00" cType="1" res="-4.1526636778144166e-05" rms="4.8908367753028870e-01" purity="5.0846087932586670e-01" nType="-99"/>
        </Node>
      </Node>
    </BinaryTree>
    <BinaryTree type="DecisionTree" boostWeight="1.0000000000000000e+00" itree="540">
      <Node pos="s" depth="0" NCoef="0" IVar="7" Cut="1.6144740295410156e+02" cType="1" res="3.0133165419101715e-02" rms="4.6543049812316895e-01" purity="5.0067323446273804e-01" nType="0">
        <Node pos="l" depth="1" NCoef="0" IVar="4" Cut="1.2056986093521118e+00" cType="1" res="-3.9715464226901531e-03" rms="4.6408903598785400e-01" purity="4.4323688745498657e-01" nType="0">
          <Node pos="l" depth="2" NCoef="0" IVar="-1" Cut="0.0000000000000000e+00" cType="1" res="1.2366745795588940e-04" rms="4.6429544687271118e-01" purity="4.8172172904014587e-01" nType="-99"/>
          <Node pos="r" depth="2" NCoef="0" IVar="-1" Cut="0.0000000000000000e+00" cType="1" res="-9.4654719578102231e-04" rms="4.4244563579559326e-01" purity="2.9184192419052124e-01" nType="-99"/>
        </Node>
        <Node pos="r" depth="1" NCoef="0" IVar="6" Cut="1.8925419616699219e+02" cType="1" res="1.1772034317255020e-01" rms="4.5735022425651550e-01" purity="6.4818012714385986e-01" nType="0">
          <Node pos="l" depth="2" NCoef="0" IVar="-1" Cut="0.0000000000000000e+00" cType="1" res="5.5213022278621793e-04" rms="4.3171855807304382e-01" purity="7.1724104881286621e-01" nType="-99"/>
          <Node pos="r" depth="2" NCoef="0" IVar="-1" Cut="0.0000000000000000e+00" cType="1" res="6.7755456257145852e-05" rms="4.7508698701858521e-01" purity="5.4664903879165649e-01" nType="-99"/>
        </Node>
      </Node>
    </BinaryTree>
    <BinaryTree type="DecisionTree" boostWeight="1.0000000000000000e+00" itree="541">
      <Node pos="s" depth="0" NCoef="0" IVar="4" Cut="7.5777709484100342e-01" cType="1" res="2.6222104206681252e-02" rms="4.6381139755249023e-01" purity="4.9800002574920654e-01" nType="0">
        <Node pos="l" depth="1" NCoef="0" IVar="3" Cut="2.3338542878627777e-01" cType="1" res="1.3156440854072571e-01" rms="4.4691893458366394e-01" purity="6.5499478578567505e-01" nType="0">
          <Node pos="l" depth="2" NCoef="0" IVar="-1" Cut="0.0000000000000000e+00" cType="1" res="9.0127839939668775e-05" rms="4.7736573219299316e-01" purity="4.4303002953529358e-01" nType="-99"/>
          <Node pos="r" depth="2" NCoef="0" IVar="-1" Cut="0.0000000000000000e+00" cType="1" res="5.0187628949061036e-04" rms="4.3229323625564575e-01" purity="7.1631717681884766e-01" nType="-99"/>
        </Node>
        <Node pos="r" depth="1" NCoef="0" IVar="3" Cut="4.8905587196350098e-01" cType="1" res="-6.9758659228682518e-03" rms="4.6407982707023621e-01" purity="4.4852411746978760e-01" nType="0">
          <Node pos="l" depth="2" NCoef="0" IVar="-1" Cut="0.0000000000000000e+00" cType="1" res="-1.8462172010913491e-04" rms="4.6134057641029358e-01" purity="4.0072706341743469e-01" nType="-99"/>
          <Node pos="r" depth="2" NCoef="0" IVar="-1" Cut="0.0000000000000000e+00" cType="1" res="4.1337771108374000e-04" rms="4.5412501692771912e-01" purity="6.8574810028076172e-01" nType="-99"/>
        </Node>
      </Node>
    </BinaryTree>
    <BinaryTree type="DecisionTree" boostWeight="1.0000000000000000e+00" itree="542">
      <Node pos="s" depth="0" NCoef="0" IVar="5" Cut="4.0450717163085938e+02" cType="1" res="2.2040981799364090e-02" rms="4.6053126454353333e-01" purity="4.9698019027709961e-01" nType="0">
        <Node pos="l" depth="1" NCoef="0" IVar="6" Cut="1.4908454895019531e+02" cType="1" res="-6.6127501428127289e-02" rms="4.4043803215026855e-01" purity="3.2415309548377991e-01" nType="0">
          <Node pos="l" depth="2" NCoef="0" IVar="-1" Cut="0.0000000000000000e+00" cType="1" res="-1.9817208521999419e-04" rms="4.5203164219856262e-01" purity="3.6251175403594971e-01" nType="-99"/>
          <Node pos="r" depth="2" NCoef="0" IVar="-1" Cut="0.0000000000000000e+00" cType="1" res="-1.7029169248417020e-03" rms="3.9027816057205200e-01" purity="2.1630008518695831e-01" nType="-99"/>
        </Node>
        <Node pos="r" depth="1" NCoef="0" IVar="3" Cut="2.4357193708419800e-01" cType="1" res="7.4316777288913727e-02" rms="4.6419915556907654e-01" purity="5.9945070743560791e-01" nType="0">
          <Node pos="l" depth="2" NCoef="0" IVar="-1" Cut="0.0000000000000000e+00" cType="1" res="-2.5092173018492758e-04" rms="4.7236767411231995e-01" purity="3.7709996104240417e-01" nType="-99"/>
          <Node pos="r" depth="2" NCoef="0" IVar="-1" Cut="0.0000000000000000e+00" cType="1" res="3.7134950980544090e-04" rms="4.5403119921684265e-01" purity="6.7669975757598877e-01" nType="-99"/>
        </Node>
      </Node>
    </BinaryTree>
    <BinaryTree type="DecisionTree" boostWeight="1.0000000000000000e+00" itree="543">
      <Node pos="s" depth="0" NCoef="0" IVar="3" Cut="4.4484946131706238e-01" cType="1" res="1.6976227983832359e-02" rms="4.6357804536819458e-01" purity="4.8842316865921021e-01" nType="0">
        <Node pos="l" depth="1" NCoef="0" IVar="5" Cut="3.0542187500000000e+02" cType="1" res="-1.6817042604088783e-02" rms="4.6325534582138062e-01" purity="4.2486000061035156e-01" nType="0">
          <Node pos="l" depth="2" NCoef="0" IVar="-1" Cut="0.0000000000000000e+00" cType="1" res="-3.0774243641644716e-03" rms="3.4557345509529114e-01" purity="1.3781949877738953e-01" nType="-99"/>
          <Node pos="r" depth="2" NCoef="0" IVar="-1" Cut="0.0000000000000000e+00" cType="1" res="2.5764707970665768e-05" rms="4.7358012199401855e-01" purity="4.6611288189888000e-01" nType="-99"/>
        </Node>
        <Node pos="r" depth="1" NCoef="0" IVar="4" Cut="9.3781703710556030e-01" cType="1" res="1.2599107623100281e-01" rms="4.4755023717880249e-01" purity="6.9347381591796875e-01" nType="0">
          <Node pos="l" depth="2" NCoef="0" IVar="-1" Cut="0.0000000000000000e+00" cType="1" res="5.3555431077256799e-04" rms="4.0704634785652161e-01" purity="7.7134656906127930e-01" nType="-99"/>
          <Node pos="r" depth="2" NCoef="0" IVar="-1" Cut="0.0000000000000000e+00" cType="1" res="2.5168768479488790e-04" rms="4.7616097331047058e-01" purity="6.1955899000167847e-01" nType="-99"/>
        </Node>
      </Node>
    </BinaryTree>
    <BinaryTree type="DecisionTree" boostWeight="1.0000000000000000e+00" itree="544">
      <Node pos="s" depth="0" NCoef="0" IVar="3" Cut="4.2260697484016418e-01" cType="1" res="2.5274327024817467e-02" rms="4.6559292078018188e-01" purity="4.9518486857414246e-01" nType="0">
        <Node pos="l" depth="1" NCoef="0" IVar="5" Cut="3.0035269165039062e+02" cType="1" res="-1.0873076505959034e-02" rms="4.6688005328178406e-01" purity="4.2089086771011353e-01" nType="0">
          <Node pos="l" depth="2" NCoef="0" IVar="-1" Cut="0.0000000000000000e+00" cType="1" res="-2.3818966001272202e-03" rms="3.5117414593696594e-01" purity="1.5171930193901062e-01" nType="-99"/>
          <Node pos="r" depth="2" NCoef="0" IVar="-1" Cut="0.0000000000000000e+00" cType="1" res="4.0899718442233279e-05" rms="4.7710376977920532e-01" purity="4.5732465386390686e-01" nType="-99"/>
        </Node>
        <Node pos="r" depth="1" NCoef="0" IVar="7" Cut="8.4325569152832031e+01" cType="1" res="1.1839217692613602e-01" rms="4.4905236363410950e-01" purity="6.8657070398330688e-01" nType="0">
          <Node pos="l" depth="2" NCoef="0" IVar="-1" Cut="0.0000000000000000e+00" cType="1" res="-5.5306078138528392e-05" rms="4.8690307140350342e-01" purity="5.1205074787139893e-01" nType="-99"/>
          <Node pos="r" depth="2" NCoef="0" IVar="-1" Cut="0.0000000000000000e+00" cType="1" res="4.6039218432269990e-04" rms="4.3312710523605347e-01" purity="7.2966247797012329e-01" nType="-99"/>
        </Node>
      </Node>
    </BinaryTree>
    <BinaryTree type="DecisionTree" boostWeight="1.0000000000000000e+00" itree="545">
      <Node pos="s" depth="0" NCoef="0" IVar="3" Cut="4.4459626078605652e-01" cType="1" res="3.3351670950651169e-02" rms="4.6453914046287537e-01" purity="5.0521796941757202e-01" nType="0">
        <Node pos="l" depth="1" NCoef="0" IVar="4" Cut="1.0639883279800415e+00" cType="1" res="-4.4419991900213063e-04" rms="4.6689814329147339e-01" purity="4.4032153487205505e-01" nType="0">
          <Node pos="l" depth="2" NCoef="0" IVar="-1" Cut="0.0000000000000000e+00" cType="1" res="1.8298218492418528e-04" rms="4.6986854076385498e-01" purity="4.9570494890213013e-01" nType="-99"/>
          <Node pos="r" depth="2" NCoef="0" IVar="-1" Cut="0.0000000000000000e+00" cType="1" res="-5.2137824241071939e-04" rms="4.5057407021522522e-01" purity="3.3600154519081116e-01" nType="-99"/>
        </Node>
        <Node pos="r" depth="1" NCoef="0" IVar="4" Cut="9.7692888975143433e-01" cType="1" res="1.3971500098705292e-01" rms="4.4042426347732544e-01" purity="7.0946186780929565e-01" nType="0">
          <Node pos="l" depth="2" NCoef="0" IVar="-1" Cut="0.0000000000000000e+00" cType="1" res="5.5210839491337538e-04" rms="4.0047907829284668e-01" purity="7.7968358993530273e-01" nType="-99"/>
          <Node pos="r" depth="2" NCoef="0" IVar="-1" Cut="0.0000000000000000e+00" cType="1" res="2.7427126769907773e-04" rms="4.7572329640388489e-01" purity="6.2664455175399780e-01" nType="-99"/>
        </Node>
      </Node>
    </BinaryTree>
    <BinaryTree type="DecisionTree" boostWeight="1.0000000000000000e+00" itree="546">
      <Node pos="s" depth="0" NCoef="0" IVar="5" Cut="5.2612554931640625e+02" cType="1" res="3.4408461302518845e-02" rms="4.6473032236099243e-01" purity="5.0654101371765137e-01" nType="0">
        <Node pos="l" depth="1" NCoef="0" IVar="6" Cut="1.5289810180664062e+02" cType="1" res="-5.6961374357342720e-03" rms="4.6352750062942505e-01" purity="4.2825093865394592e-01" nType="0">
          <Node pos="l" depth="2" NCoef="0" IVar="-1" Cut="0.0000000000000000e+00" cType="1" res="1.8471696239430457e-04" rms="4.6764549612998962e-01" purity="4.6929478645324707e-01" nType="-99"/>
          <Node pos="r" depth="2" NCoef="0" IVar="-1" Cut="0.0000000000000000e+00" cType="1" res="-6.8382947938516736e-04" rms="4.3821325898170471e-01" purity="3.3600392937660217e-01" nType="-99"/>
        </Node>
        <Node pos="r" depth="1" NCoef="0" IVar="3" Cut="2.6008775830268860e-01" cType="1" res="1.0782417654991150e-01" rms="4.5791262388229370e-01" purity="6.4985924959182739e-01" nType="0">
          <Node pos="l" depth="2" NCoef="0" IVar="-1" Cut="0.0000000000000000e+00" cType="1" res="1.9907365640392527e-05" rms="4.9016898870468140e-01" purity="4.5764124393463135e-01" nType="-99"/>
          <Node pos="r" depth="2" NCoef="0" IVar="-1" Cut="0.0000000000000000e+00" cType="1" res="4.4371417607180774e-04" rms="4.3785402178764343e-01" purity="7.2573173046112061e-01" nType="-99"/>
        </Node>
      </Node>
    </BinaryTree>
    <BinaryTree type="DecisionTree" boostWeight="1.0000000000000000e+00" itree="547">
      <Node pos="s" depth="0" NCoef="0" IVar="3" Cut="3.7812203168869019e-01" cType="1" res="2.6549160480499268e-02" rms="4.6292623877525330e-01" purity="4.9892702698707581e-01" nType="0">
        <Node pos="l" depth="1" NCoef="0" IVar="4" Cut="8.3112514019012451e-01" cType="1" res="-2.1162595599889755e-02" rms="4.6180316805839539e-01" purity="3.9446562528610229e-01" nType="0">
          <Node pos="l" depth="2" NCoef="0" IVar="-1" Cut="0.0000000000000000e+00" cType="1" res="2.4508577189408243e-04" rms="4.7650772333145142e-01" purity="5.1388716697692871e-01" nType="-99"/>
          <Node pos="r" depth="2" NCoef="0" IVar="-1" Cut="0.0000000000000000e+00" cType="1" res="-3.9711917634122074e-04" rms="4.4882878661155701e-01" purity="3.3371391892433167e-01" nType="-99"/>
        </Node>
        <Node pos="r" depth="1" NCoef="0" IVar="5" Cut="3.4528158569335938e+02" cType="1" res="1.0400375723838806e-01" rms="4.5419374108314514e-01" purity="6.6850817203521729e-01" nType="0">
          <Node pos="l" depth="2" NCoef="0" IVar="-1" Cut="0.0000000000000000e+00" cType="1" res="-1.2017606786685064e-04" rms="4.9023231863975525e-01" purity="4.4861012697219849e-01" nType="-99"/>
          <Node pos="r" depth="2" NCoef="0" IVar="-1" Cut="0.0000000000000000e+00" cType="1" res="4.2079694685526192e-04" rms="4.3703511357307434e-01" purity="7.2914952039718628e-01" nType="-99"/>
        </Node>
      </Node>
    </BinaryTree>
    <BinaryTree type="DecisionTree" boostWeight="1.0000000000000000e+00" itree="548">
      <Node pos="s" depth="0" NCoef="0" IVar="4" Cut="7.2956383228302002e-01" cType="1" res="2.7957394719123840e-02" rms="4.6612623333930969e-01" purity="4.9772423505783081e-01" nType="0">
        <Node pos="l" depth="1" NCoef="0" IVar="1" Cut="7.7589666843414307e-01" cType="1" res="1.4547768235206604e-01" rms="4.4782108068466187e-01" purity="6.6832834482192993e-01" nType="0">
          <Node pos="l" depth="2" NCoef="0" IVar="-1" Cut="0.0000000000000000e+00" cType="1" res="3.2995609217323363e-04" rms="4.6314135193824768e-01" purity="6.0665738582611084e-01" nType="-99"/>
          <Node pos="r" depth="2" NCoef="0" IVar="-1" Cut="0.0000000000000000e+00" cType="1" res="5.7677068980410695e-04" rms="4.2900824546813965e-01" purity="7.2014111280441284e-01" nType="-99"/>
        </Node>
        <Node pos="r" depth="1" NCoef="0" IVar="7" Cut="1.6064454650878906e+02" cType="1" res="-2.1085646003484726e-03" rms="4.6595758199691772e-01" purity="4.5407748222351074e-01" nType="0">
          <Node pos="l" depth="2" NCoef="0" IVar="-1" Cut="0.0000000000000000e+00" cType="1" res="-2.4698418565094471e-04" rms="4.6073237061500549e-01" purity="3.8450562953948975e-01" nType="-99"/>
          <Node pos="r" depth="2" NCoef="0" IVar="-1" Cut="0.0000000000000000e+00" cType="1" res="3.3851232728920877e-04" rms="4.6359759569168091e-01" purity="6.1995995044708252e-01" nType="-99"/>
        </Node>
      </Node>
    </BinaryTree>
    <BinaryTree type="DecisionTree" boostWeight="1.0000000000000000e+00" itree="549">
      <Node pos="s" depth="0" NCoef="0" IVar="3" Cut="3.3214354515075684e-01" cType="1" res="2.2060314193367958e-02" rms="4.6341001987457275e-01" purity="4.9410566687583923e-01" nType="0">
        <Node pos="l" depth="1" NCoef="0" IVar="3" Cut="1.9229303300380707e-01" cType="1" res="-3.8437020033597946e-02" rms="4.5412436127662659e-01" purity="3.5605606436729431e-01" nType="0">
          <Node pos="l" depth="2" NCoef="0" IVar="-1" Cut="0.0000000000000000e+00" cType="1" res="-1.1601920705288649e-03" rms="4.0547060966491699e-01" purity="2.3024229705333710e-01" nType="-99"/>
          <Node pos="r" depth="2" NCoef="0" IVar="-1" Cut="0.0000000000000000e+00" cType="1" res="9.7317615654901601e-06" rms="4.7059378027915955e-01" purity="4.1685014963150024e-01" nType="-99"/>
        </Node>
        <Node pos="r" depth="1" NCoef="0" IVar="4" Cut="1.1786355972290039e+00" cType="1" res="8.3111561834812164e-02" rms="4.6467846632003784e-01" purity="6.3341927528381348e-01" nType="0">
          <Node pos="l" depth="2" NCoef="0" IVar="-1" Cut="0.0000000000000000e+00" cType="1" res="3.8793083513155580e-04" rms="4.5255818963050842e-01" purity="6.7432367801666260e-01" nType="-99"/>
          <Node pos="r" depth="2" NCoef="0" IVar="-1" Cut="0.0000000000000000e+00" cType="1" res="-1.5901216829661280e-04" rms="4.8318603634834290e-01" purity="4.9945479631423950e-01" nType="-99"/>
        </Node>
      </Node>
    </BinaryTree>
    <BinaryTree type="DecisionTree" boostWeight="1.0000000000000000e+00" itree="550">
      <Node pos="s" depth="0" NCoef="0" IVar="3" Cut="2.4452793598175049e-01" cType="1" res="2.6883998885750771e-02" rms="4.6219748258590698e-01" purity="5.0030314922332764e-01" nType="0">
        <Node pos="l" depth="1" NCoef="0" IVar="4" Cut="1.0806192159652710e+00" cType="1" res="-8.1866614520549774e-02" rms="4.3158340454101562e-01" purity="2.7675637602806091e-01" nType="0">
          <Node pos="l" depth="2" NCoef="0" IVar="-1" Cut="0.0000000000000000e+00" cType="1" res="-3.8044282700866461e-04" rms="4.4797280430793762e-01" purity="3.1594425439834595e-01" nType="-99"/>
          <Node pos="r" depth="2" NCoef="0" IVar="-1" Cut="0.0000000000000000e+00" cType="1" res="-1.4757653698325157e-03" rms="3.9445662498474121e-01" purity="2.0535260438919067e-01" nType="-99"/>
        </Node>
        <Node pos="r" depth="1" NCoef="0" IVar="4" Cut="9.4228094816207886e-01" cType="1" res="6.8895235657691956e-02" rms="4.6675807237625122e-01" purity="5.8666110038757324e-01" nType="0">
          <Node pos="l" depth="2" NCoef="0" IVar="-1" Cut="0.0000000000000000e+00" cType="1" res="4.2097002733498812e-04" rms="4.4751271605491638e-01" purity="6.6710782051086426e-01" nType="-99"/>
          <Node pos="r" depth="2" NCoef="0" IVar="-1" Cut="0.0000000000000000e+00" cType="1" res="1.5973233530530706e-05" rms="4.7792893648147583e-01" purity="5.0073140859603882e-01" nType="-99"/>
        </Node>
      </Node>
    </BinaryTree>
    <BinaryTree type="DecisionTree" boostWeight="1.0000000000000000e+00" itree="551">
      <Node pos="s" depth="0" NCoef="0" IVar="7" Cut="2.0434591674804688e+02" cType="1" res="2.6118118315935135e-02" rms="4.6552619338035583e-01" purity="4.9528038501739502e-01" nType="0">
        <Node pos="l" depth="1" NCoef="0" IVar="3" Cut="4.4304803013801575e-01" cType="1" res="2.6352670975029469e-03" rms="4.6511003375053406e-01" purity="4.5865923166275024e-01" nType="0">
          <Node pos="l" depth="2" NCoef="0" IVar="-1" Cut="0.0000000000000000e+00" cType="1" res="-1.4079733227845281e-04" rms="4.6269851922988892e-01" purity="3.9996519684791565e-01" nType="-99"/>
          <Node pos="r" depth="2" NCoef="0" IVar="-1" Cut="0.0000000000000000e+00" cType="1" res="3.3538384013809264e-04" rms="4.6061459183692932e-01" purity="6.5865838527679443e-01" nType="-99"/>
        </Node>
        <Node pos="r" depth="1" NCoef="0" IVar="-1" Cut="0.0000000000000000e+00" cType="1" res="4.8344724928028882e-04" rms="4.4672116637229919e-01" purity="6.9415903091430664e-01" nType="-99"/>
      </Node>
    </BinaryTree>
    <BinaryTree type="DecisionTree" boostWeight="1.0000000000000000e+00" itree="552">
      <Node pos="s" depth="0" NCoef="0" IVar="4" Cut="6.2632423639297485e-01" cType="1" res="2.2628774866461754e-02" rms="4.6628507971763611e-01" purity="4.9141338467597961e-01" nType="0">
        <Node pos="l" depth="1" NCoef="0" IVar="-1" Cut="0.0000000000000000e+00" cType="1" res="5.5316748330369592e-04" rms="4.2622074484825134e-01" purity="7.2137606143951416e-01" nType="-99"/>
        <Node pos="r" depth="1" NCoef="0" IVar="1" Cut="7.1034747362136841e-01" cType="1" res="6.3218274153769016e-03" rms="4.6716916561126709e-01" purity="4.6776559948921204e-01" nType="0">
          <Node pos="l" depth="2" NCoef="0" IVar="-1" Cut="0.0000000000000000e+00" cType="1" res="-5.2076845895498991e-04" rms="4.5023646950721741e-01" purity="3.6102581024169922e-01" nType="-99"/>
          <Node pos="r" depth="2" NCoef="0" IVar="-1" Cut="0.0000000000000000e+00" cType="1" res="1.6603109543211758e-04" rms="4.6846193075180054e-01" purity="5.0342243909835815e-01" nType="-99"/>
        </Node>
      </Node>
    </BinaryTree>
    <BinaryTree type="DecisionTree" boostWeight="1.0000000000000000e+00" itree="553">
      <Node pos="s" depth="0" NCoef="0" IVar="4" Cut="9.1427022218704224e-01" cType="1" res="2.6299810037016869e-02" rms="4.6496817469596863e-01" purity="4.9643048644065857e-01" nType="0">
        <Node pos="l" depth="1" NCoef="0" IVar="1" Cut="8.4122663736343384e-01" cType="1" res="8.6455464363098145e-02" rms="4.6041336655616760e-01" purity="5.7933324575424194e-01" nType="0">
          <Node pos="l" depth="2" NCoef="0" IVar="-1" Cut="0.0000000000000000e+00" cType="1" res="1.4955308870412409e-04" rms="4.6582370996475220e-01" purity="5.2079337835311890e-01" nType="-99"/>
          <Node pos="r" depth="2" NCoef="0" IVar="-1" Cut="0.0000000000000000e+00" cType="1" res="5.4803950479254127e-04" rms="4.4016003608703613e-01" purity="6.7092639207839966e-01" nType="-99"/>
        </Node>
        <Node pos="r" depth="1" NCoef="0" IVar="7" Cut="1.9775148010253906e+02" cType="1" res="-2.4781826883554459e-02" rms="4.6270120143890381e-01" purity="4.2603296041488647e-01" nType="0">
          <Node pos="l" depth="2" NCoef="0" IVar="-1" Cut="0.0000000000000000e+00" cType="1" res="-3.2700927113182843e-04" rms="4.5619732141494751e-01" purity="3.7785780429840088e-01" nType="-99"/>
          <Node pos="r" depth="2" NCoef="0" IVar="-1" Cut="0.0000000000000000e+00" cType="1" res="3.7513859570026398e-04" rms="4.6637901663780212e-01" purity="6.3847756385803223e-01" nType="-99"/>
        </Node>
      </Node>
    </BinaryTree>
    <BinaryTree type="DecisionTree" boostWeight="1.0000000000000000e+00" itree="554">
      <Node pos="s" depth="0" NCoef="0" IVar="4" Cut="1.0534772872924805e+00" cType="1" res="2.8571531176567078e-02" rms="4.6533560752868652e-01" purity="4.9845165014266968e-01" nType="0">
        <Node pos="l" depth="1" NCoef="0" IVar="3" Cut="3.9678403735160828e-01" cType="1" res="7.1878373622894287e-02" rms="4.6314680576324463e-01" purity="5.5427408218383789e-01" nType="0">
          <Node pos="l" depth="2" NCoef="0" IVar="-1" Cut="0.0000000000000000e+00" cType="1" res="1.5733252803329378e-04" rms="4.7258582711219788e-01" purity="4.7152066230773926e-01" nType="-99"/>
          <Node pos="r" depth="2" NCoef="0" IVar="-1" Cut="0.0000000000000000e+00" cType="1" res="4.6042393660172820e-04" rms="4.3308639526367188e-01" purity="7.2421407699584961e-01" nType="-99"/>
        </Node>
        <Node pos="r" depth="1" NCoef="0" IVar="7" Cut="1.6369819641113281e+02" cType="1" res="-4.8161663115024567e-02" rms="4.5926791429519653e-01" purity="3.9954262971878052e-01" nType="0">
          <Node pos="l" depth="2" NCoef="0" IVar="-1" Cut="0.0000000000000000e+00" cType="1" res="-6.9519731914624572e-04" rms="4.4136863946914673e-01" purity="3.2009035348892212e-01" nType="-99"/>
          <Node pos="r" depth="2" NCoef="0" IVar="-1" Cut="0.0000000000000000e+00" cType="1" res="2.7909720665775239e-04" rms="4.7670713067054749e-01" purity="5.8815926313400269e-01" nType="-99"/>
        </Node>
      </Node>
    </BinaryTree>
    <BinaryTree type="DecisionTree" boostWeight="1.0000000000000000e+00" itree="555">
      <Node pos="s" depth="0" NCoef="0" IVar="3" Cut="2.4399368464946747e-01" cType="1" res="2.8236897662281990e-02" rms="4.6319073438644409e-01" purity="5.0057452917098999e-01" nType="0">
        <Node pos="l" depth="1" NCoef="0" IVar="1" Cut="8.4164893627166748e-01" cType="1" res="-6.4179770648479462e-02" rms="4.3982303142547607e-01" purity="2.9443240165710449e-01" nType="0">
          <Node pos="l" depth="2" NCoef="0" IVar="-1" Cut="0.0000000000000000e+00" cType="1" res="-9.6203648718073964e-04" rms="4.1469553112983704e-01" purity="2.4546495079994202e-01" nType="-99"/>
          <Node pos="r" depth="2" NCoef="0" IVar="-1" Cut="0.0000000000000000e+00" cType="1" res="-5.0595841457834467e-05" rms="4.6258431673049927e-01" purity="3.5436952114105225e-01" nType="-99"/>
        </Node>
        <Node pos="r" depth="1" NCoef="0" IVar="5" Cut="3.8681591796875000e+02" cType="1" res="6.5162509679794312e-02" rms="4.6711966395378113e-01" purity="5.8293986320495605e-01" nType="0">
          <Node pos="l" depth="2" NCoef="0" IVar="-1" Cut="0.0000000000000000e+00" cType="1" res="-1.2157594028394669e-04" rms="4.7379794716835022e-01" purity="4.1295179724693298e-01" nType="-99"/>
          <Node pos="r" depth="2" NCoef="0" IVar="-1" Cut="0.0000000000000000e+00" cType="1" res="3.5335795837454498e-04" rms="4.5810112357139587e-01" purity="6.6357845067977905e-01" nType="-99"/>
        </Node>
      </Node>
    </BinaryTree>
    <BinaryTree type="DecisionTree" boostWeight="1.0000000000000000e+00" itree="556">
      <Node pos="s" depth="0" NCoef="0" IVar="3" Cut="3.9951199293136597e-01" cType="1" res="3.3092375844717026e-02" rms="4.6449428796768188e-01" purity="5.0507181882858276e-01" nType="0">
        <Node pos="l" depth="1" NCoef="0" IVar="4" Cut="6.5296065807342529e-01" cType="1" res="-5.3716925904154778e-03" rms="4.6535059809684753e-01" purity="4.2048165202140808e-01" nType="0">
          <Node pos="l" depth="2" NCoef="0" IVar="-1" Cut="0.0000000000000000e+00" cType="1" res="4.6100790495984256e-04" rms="4.5311251282691956e-01" purity="6.5457433462142944e-01" nType="-99"/>
          <Node pos="r" depth="2" NCoef="0" IVar="-1" Cut="0.0000000000000000e+00" cType="1" res="-1.4127217582426965e-04" rms="4.6349337697029114e-01" purity="3.8853138685226440e-01" nType="-99"/>
        </Node>
        <Node pos="r" depth="1" NCoef="0" IVar="4" Cut="1.2090322971343994e+00" cType="1" res="1.1158845573663712e-01" rms="4.5271307229995728e-01" purity="6.7770045995712280e-01" nType="0">
          <Node pos="l" depth="2" NCoef="0" IVar="-1" Cut="0.0000000000000000e+00" cType="1" res="4.4335768325254321e-04" rms="4.3758487701416016e-01" purity="7.1375334262847900e-01" nType="-99"/>
          <Node pos="r" depth="2" NCoef="0" IVar="-1" Cut="0.0000000000000000e+00" cType="1" res="-1.9061730199609883e-05" rms="4.8737546801567078e-01" purity="5.4453647136688232e-01" nType="-99"/>
        </Node>
      </Node>
    </BinaryTree>
    <BinaryTree type="DecisionTree" boostWeight="1.0000000000000000e+00" itree="557">
      <Node pos="s" depth="0" NCoef="0" IVar="3" Cut="3.5407987236976624e-01" cType="1" res="3.7528943270444870e-02" rms="4.6489131450653076e-01" purity="5.0945675373077393e-01" nType="0">
        <Node pos="l" depth="1" NCoef="0" IVar="7" Cut="1.8324215698242188e+02" cType="1" res="-1.1815064586699009e-02" rms="4.6380960941314697e-01" purity="3.9199614524841309e-01" nType="0">
          <Node pos="l" depth="2" NCoef="0" IVar="-1" Cut="0.0000000000000000e+00" cType="1" res="-2.2946950048208237e-04" rms="4.5460504293441772e-01" purity="3.4868696331977844e-01" nType="-99"/>
          <Node pos="r" depth="2" NCoef="0" IVar="-1" Cut="0.0000000000000000e+00" cType="1" res="3.2473317696712911e-04" rms="4.8694127798080444e-01" purity="5.7058799266815186e-01" nType="-99"/>
        </Node>
        <Node pos="r" depth="1" NCoef="0" IVar="4" Cut="1.0056060552597046e+00" cType="1" res="1.0016477853059769e-01" rms="4.5867761969566345e-01" purity="6.5855783224105835e-01" nType="0">
          <Node pos="l" depth="2" NCoef="0" IVar="-1" Cut="0.0000000000000000e+00" cType="1" res="4.6453817049041390e-04" rms="4.3562945723533630e-01" purity="7.2035783529281616e-01" nType="-99"/>
          <Node pos="r" depth="2" NCoef="0" IVar="-1" Cut="0.0000000000000000e+00" cType="1" res="1.1905717110494152e-04" rms="4.8048812150955200e-01" purity="5.7214093208312988e-01" nType="-99"/>
        </Node>
      </Node>
    </BinaryTree>
    <BinaryTree type="DecisionTree" boostWeight="1.0000000000000000e+00" itree="558">
      <Node pos="s" depth="0" NCoef="0" IVar="3" Cut="2.6582881808280945e-01" cType="1" res="2.7872333303093910e-02" rms="4.6321401000022888e-01" purity="5.0005578994750977e-01" nType="0">
        <Node pos="l" depth="1" NCoef="0" IVar="7" Cut="1.9086909484863281e+02" cType="1" res="-5.9343118220567703e-02" rms="4.4168379902839661e-01" purity="3.0610004067420959e-01" nType="0">
          <Node pos="l" depth="2" NCoef="0" IVar="-1" Cut="0.0000000000000000e+00" cType="1" res="-7.4318144470453262e-04" rms="4.2490658164024353e-01" purity="2.6154750585556030e-01" nType="-99"/>
          <Node pos="r" depth="2" NCoef="0" IVar="-1" Cut="0.0000000000000000e+00" cType="1" res="2.7533838874660432e-04" rms="4.9500668048858643e-01" purity="5.1766258478164673e-01" nType="-99"/>
        </Node>
        <Node pos="r" depth="1" NCoef="0" IVar="5" Cut="4.3972116088867188e+02" cType="1" res="7.1895822882652283e-02" rms="4.6757224202156067e-01" purity="5.9795820713043213e-01" nType="0">
          <Node pos="l" depth="2" NCoef="0" IVar="-1" Cut="0.0000000000000000e+00" cType="1" res="5.9226611483609304e-05" rms="4.8135080933570862e-01" purity="4.8077023029327393e-01" nType="-99"/>
          <Node pos="r" depth="2" NCoef="0" IVar="-1" Cut="0.0000000000000000e+00" cType="1" res="3.8552648038603365e-04" rms="4.4965323805809021e-01" purity="6.9682192802429199e-01" nType="-99"/>
        </Node>
      </Node>
    </BinaryTree>
    <BinaryTree type="DecisionTree" boostWeight="1.0000000000000000e+00" itree="559">
      <Node pos="s" depth="0" NCoef="0" IVar="5" Cut="3.1410748291015625e+02" cType="1" res="2.8379693627357483e-02" rms="4.6387597918510437e-01" purity="4.9913665652275085e-01" nType="0">
        <Node pos="l" depth="1" NCoef="0" IVar="1" Cut="8.5480916500091553e-01" cType="1" res="-1.0802001506090164e-01" rms="4.0817469358444214e-01" purity="2.4297359585762024e-01" nType="0">
          <Node pos="l" depth="2" NCoef="0" IVar="-1" Cut="0.0000000000000000e+00" cType="1" res="-1.7949959728866816e-03" rms="3.7692484259605408e-01" purity="1.9432888925075531e-01" nType="-99"/>
          <Node pos="r" depth="2" NCoef="0" IVar="-1" Cut="0.0000000000000000e+00" cType="1" res="-3.7213205359876156e-04" rms="4.3924605846405029e-01" purity="3.0732184648513794e-01" nType="-99"/>
        </Node>
        <Node pos="r" depth="1" NCoef="0" IVar="3" Cut="1.7756088078022003e-01" cType="1" res="5.2322849631309509e-02" rms="4.6890127658843994e-01" purity="5.4410266876220703e-01" nType="0">
          <Node pos="l" depth="2" NCoef="0" IVar="-1" Cut="0.0000000000000000e+00" cType="1" res="-7.4676249641925097e-04" rms="4.3343776464462280e-01" purity="2.7751529216766357e-01" nType="-99"/>
          <Node pos="r" depth="2" NCoef="0" IVar="-1" Cut="0.0000000000000000e+00" cType="1" res="2.7802094700746238e-04" rms="4.6993076801300049e-01" purity="5.8370369672775269e-01" nType="-99"/>
        </Node>
      </Node>
    </BinaryTree>
    <BinaryTree type="DecisionTree" boostWeight="1.0000000000000000e+00" itree="560">
      <Node pos="s" depth="0" NCoef="0" IVar="4" Cut="9.0632331371307373e-01" cType="1" res="2.6842975988984108e-02" rms="4.6408149600028992e-01" purity="4.9857580661773682e-01" nType="0">
        <Node pos="l" depth="1" NCoef="0" IVar="3" Cut="3.6936646699905396e-01" cType="1" res="9.4134598970413208e-02" rms="4.5600858330726624e-01" purity="5.9285128116607666e-01" nType="0">
          <Node pos="l" depth="2" NCoef="0" IVar="-1" Cut="0.0000000000000000e+00" cType="1" res="1.9453593995422125e-04" rms="4.7433960437774658e-01" purity="4.8329627513885498e-01" nType="-99"/>
          <Node pos="r" depth="2" NCoef="0" IVar="-1" Cut="0.0000000000000000e+00" cType="1" res="4.9114914145320654e-04" rms="4.1722837090492249e-01" purity="7.5214540958404541e-01" nType="-99"/>
        </Node>
        <Node pos="r" depth="1" NCoef="0" IVar="1" Cut="8.1546270847320557e-01" cType="1" res="-2.9064228758215904e-02" rms="4.6330887079238892e-01" purity="4.2024984955787659e-01" nType="0">
          <Node pos="l" depth="2" NCoef="0" IVar="-1" Cut="0.0000000000000000e+00" cType="1" res="-8.1884529208764434e-04" rms="4.3946385383605957e-01" purity="3.1956341862678528e-01" nType="-99"/>
          <Node pos="r" depth="2" NCoef="0" IVar="-1" Cut="0.0000000000000000e+00" cType="1" res="1.2666189286392182e-04" rms="4.6938446164131165e-01" purity="4.8556753993034363e-01" nType="-99"/>
        </Node>
      </Node>
    </BinaryTree>
    <BinaryTree type="DecisionTree" boostWeight="1.0000000000000000e+00" itree="561">
      <Node pos="s" depth="0" NCoef="0" IVar="3" Cut="4.0002042055130005e-01" cType="1" res="2.8673989698290825e-02" rms="4.6273493766784668e-01" purity="5.0168240070343018e-01" nType="0">
        <Node pos="l" depth="1" NCoef="0" IVar="6" Cut="1.3720503234863281e+02" cType="1" res="-1.3219871558248997e-02" rms="4.6311718225479126e-01" purity="4.1261669993400574e-01" nType="0">
          <Node pos="l" depth="2" NCoef="0" IVar="-1" Cut="0.0000000000000000e+00" cType="1" res="1.9172533939126879e-04" rms="4.6585050225257874e-01" purity="4.5517170429229736e-01" nType="-99"/>
          <Node pos="r" depth="2" NCoef="0" IVar="-1" Cut="0.0000000000000000e+00" cType="1" res="-4.7143362462520599e-04" rms="4.5138052105903625e-01" purity="3.6120137572288513e-01" nType="-99"/>
        </Node>
        <Node pos="r" depth="1" NCoef="0" IVar="4" Cut="9.6718746423721313e-01" cType="1" res="1.1316238343715668e-01" rms="4.5025777816772461e-01" purity="6.8130332231521606e-01" nType="0">
          <Node pos="l" depth="2" NCoef="0" IVar="-1" Cut="0.0000000000000000e+00" cType="1" res="5.2683294052258134e-04" rms="4.1399455070495605e-01" purity="7.6042187213897705e-01" nType="-99"/>
          <Node pos="r" depth="2" NCoef="0" IVar="-1" Cut="0.0000000000000000e+00" cType="1" res="1.3178295921534300e-04" rms="4.7932949662208557e-01" purity="5.8550053834915161e-01" nType="-99"/>
        </Node>
      </Node>
    </BinaryTree>
    <BinaryTree type="DecisionTree" boostWeight="1.0000000000000000e+00" itree="562">
      <Node pos="s" depth="0" NCoef="0" IVar="5" Cut="3.4812606811523438e+02" cType="1" res="3.0896600335836411e-02" rms="4.6323803067207336e-01" purity="5.0343739986419678e-01" nType="0">
        <Node pos="l" depth="1" NCoef="0" IVar="6" Cut="1.3957994079589844e+02" cType="1" res="-7.1883872151374817e-02" rms="4.3084657192230225e-01" purity="2.9734510183334351e-01" nType="0">
          <Node pos="l" depth="2" NCoef="0" IVar="-1" Cut="0.0000000000000000e+00" cType="1" res="-2.4279484932776541e-04" rms="4.4488826394081116e-01" purity="3.4027484059333801e-01" nType="-99"/>
          <Node pos="r" depth="2" NCoef="0" IVar="-1" Cut="0.0000000000000000e+00" cType="1" res="-2.4149050004780293e-03" rms="3.6250123381614685e-01" purity="1.6343119740486145e-01" nType="-99"/>
        </Node>
        <Node pos="r" depth="1" NCoef="0" IVar="6" Cut="1.4734906005859375e+02" cType="1" res="6.2466431409120560e-02" rms="4.6823450922966003e-01" purity="5.6674033403396606e-01" nType="0">
          <Node pos="l" depth="2" NCoef="0" IVar="-1" Cut="0.0000000000000000e+00" cType="1" res="4.1461558430455625e-04" rms="4.5497643947601318e-01" purity="6.2680542469024658e-01" nType="-99"/>
          <Node pos="r" depth="2" NCoef="0" IVar="-1" Cut="0.0000000000000000e+00" cType="1" res="-1.4396234291780274e-05" rms="4.7441908717155457e-01" purity="4.9833288788795471e-01" nType="-99"/>
        </Node>
      </Node>
    </BinaryTree>
    <BinaryTree type="DecisionTree" boostWeight="1.0000000000000000e+00" itree="563">
      <Node pos="s" depth="0" NCoef="0" IVar="3" Cut="5.3336310386657715e-01" cType="1" res="3.9330255240201950e-02" rms="4.6379196643829346e-01" purity="5.1205307245254517e-01" nType="0">
        <Node pos="l" depth="1" NCoef="0" IVar="5" Cut="2.8962881469726562e+02" cType="1" res="1.8012505024671555e-02" rms="4.6692961454391479e-01" purity="4.7756949067115784e-01" nType="0">
          <Node pos="l" depth="2" NCoef="0" IVar="-1" Cut="0.0000000000000000e+00" cType="1" res="-2.0289695821702480e-03" rms="3.6904013156890869e-01" purity="1.7505705356597900e-01" nType="-99"/>
          <Node pos="r" depth="2" NCoef="0" IVar="-1" Cut="0.0000000000000000e+00" cType="1" res="1.5092952526174486e-04" rms="4.7216054797172546e-01" purity="5.0798094272613525e-01" nType="-99"/>
        </Node>
        <Node pos="r" depth="1" NCoef="0" IVar="-1" Cut="0.0000000000000000e+00" cType="1" res="5.8343639830127358e-04" rms="4.0226617455482483e-01" purity="7.7875632047653198e-01" nType="-99"/>
      </Node>
    </BinaryTree>
    <BinaryTree type="DecisionTree" boostWeight="1.0000000000000000e+00" itree="564">
      <Node pos="s" depth="0" NCoef="0" IVar="3" Cut="5.3336310386657715e-01" cType="1" res="3.9444673806428909e-02" rms="4.6521759033203125e-01" purity="5.1052677631378174e-01" nType="0">
        <Node pos="l" depth="1" NCoef="0" IVar="4" Cut="9.0825468301773071e-01" cType="1" res="2.0829085260629654e-02" rms="4.6788308024406433e-01" purity="4.7973608970642090e-01" nType="0">
          <Node pos="l" depth="2" NCoef="0" IVar="-1" Cut="0.0000000000000000e+00" cType="1" res="3.0795854399912059e-04" rms="4.6362760663032532e-01" purity="5.6697124242782593e-01" nType="-99"/>
          <Node pos="r" depth="2" NCoef="0" IVar="-1" Cut="0.0000000000000000e+00" cType="1" res="-1.5475024702027440e-04" rms="4.6562457084655762e-01" purity="4.0694844722747803e-01" nType="-99"/>
        </Node>
        <Node pos="r" depth="1" NCoef="0" IVar="-1" Cut="0.0000000000000000e+00" cType="1" res="5.6167616276070476e-04" rms="4.1138005256652832e-01" purity="7.6537430286407471e-01" nType="-99"/>
      </Node>
    </BinaryTree>
    <BinaryTree type="DecisionTree" boostWeight="1.0000000000000000e+00" itree="565">
      <Node pos="s" depth="0" NCoef="0" IVar="4" Cut="7.6801872253417969e-01" cType="1" res="2.6634370908141136e-02" rms="4.6272942423820496e-01" purity="4.9865317344665527e-01" nType="0">
        <Node pos="l" depth="1" NCoef="0" IVar="5" Cut="3.7549676513671875e+02" cType="1" res="1.2568293511867523e-01" rms="4.4888690114021301e-01" purity="6.4599233865737915e-01" nType="0">
          <Node pos="l" depth="2" NCoef="0" IVar="-1" Cut="0.0000000000000000e+00" cType="1" res="1.4622237358707935e-04" rms="4.7669437527656555e-01" purity="4.4880622625350952e-01" nType="-99"/>
          <Node pos="r" depth="2" NCoef="0" IVar="-1" Cut="0.0000000000000000e+00" cType="1" res="4.8492057248950005e-04" rms="4.3469423055648804e-01" purity="7.1089071035385132e-01" nType="-99"/>
        </Node>
        <Node pos="r" depth="1" NCoef="0" IVar="1" Cut="7.4969375133514404e-01" cType="1" res="-6.7709530703723431e-03" rms="4.6254706382751465e-01" purity="4.4896125793457031e-01" nType="0">
          <Node pos="l" depth="2" NCoef="0" IVar="-1" Cut="0.0000000000000000e+00" cType="1" res="-6.8530993303284049e-04" rms="4.4180521368980408e-01" purity="3.3354622125625610e-01" nType="-99"/>
          <Node pos="r" depth="2" NCoef="0" IVar="-1" Cut="0.0000000000000000e+00" cType="1" res="1.5326037828344852e-04" rms="4.6498778462409973e-01" purity="4.9839350581169128e-01" nType="-99"/>
        </Node>
      </Node>
    </BinaryTree>
    <BinaryTree type="DecisionTree" boostWeight="1.0000000000000000e+00" itree="566">
      <Node pos="s" depth="0" NCoef="0" IVar="4" Cut="7.6263648271560669e-01" cType="1" res="1.4869464561343193e-02" rms="4.6544423699378967e-01" purity="4.8337602615356445e-01" nType="0">
        <Node pos="l" depth="1" NCoef="0" IVar="3" Cut="2.6148641109466553e-01" cType="1" res="1.1152975261211395e-01" rms="4.5512077212333679e-01" purity="6.2960642576217651e-01" nType="0">
          <Node pos="l" depth="2" NCoef="0" IVar="-1" Cut="0.0000000000000000e+00" cType="1" res="5.1066901505691931e-05" rms="4.8012241721153259e-01" purity="4.3511006236076355e-01" nType="-99"/>
          <Node pos="r" depth="2" NCoef="0" IVar="-1" Cut="0.0000000000000000e+00" cType="1" res="4.7696672845631838e-04" rms="4.3670305609703064e-01" purity="7.1355593204498291e-01" nType="-99"/>
        </Node>
        <Node pos="r" depth="1" NCoef="0" IVar="5" Cut="3.4792523193359375e+02" cType="1" res="-1.5614949166774750e-02" rms="4.6449926495552063e-01" purity="4.3725830316543579e-01" nType="0">
          <Node pos="l" depth="2" NCoef="0" IVar="-1" Cut="0.0000000000000000e+00" cType="1" res="-9.7401614766567945e-04" rms="4.1494765877723694e-01" purity="2.4787446856498718e-01" nType="-99"/>
          <Node pos="r" depth="2" NCoef="0" IVar="-1" Cut="0.0000000000000000e+00" cType="1" res="6.6514563513919711e-05" rms="4.7642970085144043e-01" purity="5.0228339433670044e-01" nType="-99"/>
        </Node>
      </Node>
    </BinaryTree>
    <BinaryTree type="DecisionTree" boostWeight="1.0000000000000000e+00" itree="567">
      <Node pos="s" depth="0" NCoef="0" IVar="3" Cut="4.0036448836326599e-01" cType="1" res="2.2222990170121193e-02" rms="4.6317267417907715e-01" purity="4.9337074160575867e-01" nType="0">
        <Node pos="l" depth="1" NCoef="0" IVar="4" Cut="7.1655398607254028e-01" cType="1" res="-1.9081849604845047e-02" rms="4.6235123276710510e-01" purity="4.0567949414253235e-01" nType="0">
          <Node pos="l" depth="2" NCoef="0" IVar="-1" Cut="0.0000000000000000e+00" cType="1" res="3.7416358827613294e-04" rms="4.7165942192077637e-01" purity="6.0260170698165894e-01" nType="-99"/>
          <Node pos="r" depth="2" NCoef="0" IVar="-1" Cut="0.0000000000000000e+00" cType="1" res="-2.9705284396186471e-04" rms="4.5490115880966187e-01" purity="3.5904332995414734e-01" nType="-99"/>
        </Node>
        <Node pos="r" depth="1" NCoef="0" IVar="4" Cut="9.1376656293869019e-01" cType="1" res="1.0768226534128189e-01" rms="4.5306596159934998e-01" purity="6.7480301856994629e-01" nType="0">
          <Node pos="l" depth="2" NCoef="0" IVar="-1" Cut="0.0000000000000000e+00" cType="1" res="4.9870222574099898e-04" rms="4.1885399818420410e-01" purity="7.5412052869796753e-01" nType="-99"/>
          <Node pos="r" depth="2" NCoef="0" IVar="-1" Cut="0.0000000000000000e+00" cType="1" res="2.0400813082233071e-04" rms="4.7376111149787903e-01" purity="6.0833179950714111e-01" nType="-99"/>
        </Node>
      </Node>
    </BinaryTree>
    <BinaryTree type="DecisionTree" boostWeight="1.0000000000000000e+00" itree="568">
      <Node pos="s" depth="0" NCoef="0" IVar="3" Cut="4.4161850214004517e-01" cType="1" res="3.0712760984897614e-02" rms="4.6235242486000061e-01" purity="5.0424939393997192e-01" nType="0">
        <Node pos="l" depth="1" NCoef="0" IVar="5" Cut="6.9942156982421875e+02" cType="1" res="-8.7118651717901230e-03" rms="4.6439218521118164e-01" purity="4.3090987205505371e-01" nType="0">
          <Node pos="l" depth="2" NCoef="0" IVar="-1" Cut="0.0000000000000000e+00" cType="1" res="-1.9684659491758794e-04" rms="4.6026569604873657e-01" purity="3.8691428303718567e-01" nType="-99"/>
          <Node pos="r" depth="2" NCoef="0" IVar="-1" Cut="0.0000000000000000e+00" cType="1" res="3.9262566133402288e-04" rms="4.6244412660598755e-01" purity="6.5404188632965088e-01" nType="-99"/>
        </Node>
        <Node pos="r" depth="1" NCoef="0" IVar="7" Cut="1.0308178710937500e+02" cType="1" res="1.4435321092605591e-01" rms="4.3695142865180969e-01" purity="7.1564871072769165e-01" nType="0">
          <Node pos="l" depth="2" NCoef="0" IVar="-1" Cut="0.0000000000000000e+00" cType="1" res="2.6558278477750719e-04" rms="4.7560757398605347e-01" purity="6.0743522644042969e-01" nType="-99"/>
          <Node pos="r" depth="2" NCoef="0" IVar="-1" Cut="0.0000000000000000e+00" cType="1" res="5.2937440341338515e-04" rms="4.0949493646621704e-01" purity="7.7357852458953857e-01" nType="-99"/>
        </Node>
      </Node>
    </BinaryTree>
    <BinaryTree type="DecisionTree" boostWeight="1.0000000000000000e+00" itree="569">
      <Node pos="s" depth="0" NCoef="0" IVar="4" Cut="7.1290767192840576e-01" cType="1" res="2.9790645465254784e-02" rms="4.6352636814117432e-01" purity="5.0211751461029053e-01" nType="0">
        <Node pos="l" depth="1" NCoef="0" IVar="3" Cut="2.5968828797340393e-01" cType="1" res="1.4950931072235107e-01" rms="4.3587130308151245e-01" purity="6.8623483180999756e-01" nType="0">
          <Node pos="l" depth="2" NCoef="0" IVar="-1" Cut="0.0000000000000000e+00" cType="1" res="2.0826076797675341e-04" rms="4.7798898816108704e-01" purity="4.9575242400169373e-01" nType="-99"/>
          <Node pos="r" depth="2" NCoef="0" IVar="-1" Cut="0.0000000000000000e+00" cType="1" res="5.3812755504623055e-04" rms="4.1217601299285889e-01" purity="7.5911724567413330e-01" nType="-99"/>
        </Node>
        <Node pos="r" depth="1" NCoef="0" IVar="7" Cut="1.8573583984375000e+02" cType="1" res="2.7998883742839098e-03" rms="4.6530050039291382e-01" purity="4.6060794591903687e-01" nType="0">
          <Node pos="l" depth="2" NCoef="0" IVar="-1" Cut="0.0000000000000000e+00" cType="1" res="-1.4614603423979133e-04" rms="4.6136996150016785e-01" purity="4.1206595301628113e-01" nType="-99"/>
          <Node pos="r" depth="2" NCoef="0" IVar="-1" Cut="0.0000000000000000e+00" cType="1" res="4.0653161704540253e-04" rms="4.6189025044441223e-01" purity="6.4948618412017822e-01" nType="-99"/>
        </Node>
      </Node>
    </BinaryTree>
    <BinaryTree type="DecisionTree" boostWeight="1.0000000000000000e+00" itree="570">
      <Node pos="s" depth="0" NCoef="0" IVar="3" Cut="4.2137816548347473e-01" cType="1" res="1.9701214507222176e-02" rms="4.6361309289932251e-01" purity="4.9072381854057312e-01" nType="0">
        <Node pos="l" depth="1" NCoef="0" IVar="4" Cut="6.6160124540328979e-01" cType="1" res="-1.6606202349066734e-02" rms="4.6323278546333313e-01" purity="4.1638883948326111e-01" nType="0">
          <Node pos="l" depth="2" NCoef="0" IVar="-1" Cut="0.0000000000000000e+00" cType="1" res="4.6179624041542411e-04" rms="4.4786676764488220e-01" purity="6.6177666187286377e-01" nType="-99"/>
          <Node pos="r" depth="2" NCoef="0" IVar="-1" Cut="0.0000000000000000e+00" cType="1" res="-2.3087854788172990e-04" rms="4.6098604798316956e-01" purity="3.7863931059837341e-01" nType="-99"/>
        </Node>
        <Node pos="r" depth="1" NCoef="0" IVar="6" Cut="1.6814430236816406e+02" cType="1" res="1.1274962872266769e-01" rms="4.5144668221473694e-01" purity="6.8122905492782593e-01" nType="0">
          <Node pos="l" depth="2" NCoef="0" IVar="-1" Cut="0.0000000000000000e+00" cType="1" res="4.6590884448960423e-04" rms="4.3692940473556519e-01" purity="7.1135133504867554e-01" nType="-99"/>
          <Node pos="r" depth="2" NCoef="0" IVar="-1" Cut="0.0000000000000000e+00" cType="1" res="1.0452931019244716e-04" rms="4.7405388951301575e-01" purity="6.0821580886840820e-01" nType="-99"/>
        </Node>
      </Node>
    </BinaryTree>
    <BinaryTree type="DecisionTree" boostWeight="1.0000000000000000e+00" itree="571">
      <Node pos="s" depth="0" NCoef="0" IVar="3" Cut="5.3277719020843506e-01" cType="1" res="2.3871790617704391e-02" rms="4.6271273493766785e-01" purity="4.9507921934127808e-01" nType="0">
        <Node pos="l" depth="1" NCoef="0" IVar="4" Cut="7.0676225423812866e-01" cType="1" res="2.1203567739576101e-03" rms="4.6467781066894531e-01" purity="4.5993927121162415e-01" nType="0">
          <Node pos="l" depth="2" NCoef="0" IVar="-1" Cut="0.0000000000000000e+00" cType="1" res="4.1149021126329899e-04" rms="4.5325762033462524e-01" purity="6.4829468727111816e-01" nType="-99"/>
          <Node pos="r" depth="2" NCoef="0" IVar="-1" Cut="0.0000000000000000e+00" cType="1" res="-1.2329721357673407e-04" rms="4.6299314498901367e-01" purity="4.1991177201271057e-01" nType="-99"/>
        </Node>
        <Node pos="r" depth="1" NCoef="0" IVar="-1" Cut="0.0000000000000000e+00" cType="1" res="5.5311713367700577e-04" rms="4.1038441658020020e-01" purity="7.6551264524459839e-01" nType="-99"/>
      </Node>
    </BinaryTree>
    <BinaryTree type="DecisionTree" boostWeight="1.0000000000000000e+00" itree="572">
      <Node pos="s" depth="0" NCoef="0" IVar="4" Cut="9.7965234518051147e-01" cType="1" res="2.1696984767913818e-02" rms="4.6246117353439331e-01" purity="4.9439650774002075e-01" nType="0">
        <Node pos="l" depth="1" NCoef="0" IVar="5" Cut="3.3383416748046875e+02" cType="1" res="7.3595397174358368e-02" rms="4.5999562740325928e-01" purity="5.6465804576873779e-01" nType="0">
          <Node pos="l" depth="2" NCoef="0" IVar="-1" Cut="0.0000000000000000e+00" cType="1" res="-3.6537094274535775e-04" rms="4.4985815882682800e-01" purity="3.2213827967643738e-01" nType="-99"/>
          <Node pos="r" depth="2" NCoef="0" IVar="-1" Cut="0.0000000000000000e+00" cType="1" res="3.5866067628376186e-04" rms="4.5765113830566406e-01" purity="6.1933112144470215e-01" nType="-99"/>
        </Node>
        <Node pos="r" depth="1" NCoef="0" IVar="7" Cut="1.6432386779785156e+02" cType="1" res="-4.1060611605644226e-02" rms="4.5762982964515686e-01" purity="4.0943351387977600e-01" nType="0">
          <Node pos="l" depth="2" NCoef="0" IVar="-1" Cut="0.0000000000000000e+00" cType="1" res="-5.5550871184095740e-04" rms="4.4426366686820984e-01" purity="3.3834481239318848e-01" nType="-99"/>
          <Node pos="r" depth="2" NCoef="0" IVar="-1" Cut="0.0000000000000000e+00" cType="1" res="2.5318871485069394e-04" rms="4.7205922007560730e-01" purity="5.8591252565383911e-01" nType="-99"/>
        </Node>
      </Node>
    </BinaryTree>
    <BinaryTree type="DecisionTree" boostWeight="1.0000000000000000e+00" itree="573">
      <Node pos="s" depth="0" NCoef="0" IVar="4" Cut="7.4620407819747925e-01" cType="1" res="2.4209775030612946e-02" rms="4.6319523453712463e-01" purity="4.9598148465156555e-01" nType="0">
        <Node pos="l" depth="1" NCoef="0" IVar="3" Cut="2.8037801384925842e-01" cType="1" res="1.3707536458969116e-01" rms="4.4501474499702454e-01" purity="6.6463387012481689e-01" nType="0">
          <Node pos="l" depth="2" NCoef="0" IVar="-1" Cut="0.0000000000000000e+00" cType="1" res="2.2711075143888593e-04" rms="4.8549422621726990e-01" purity="4.9238124489784241e-01" nType="-99"/>
          <Node pos="r" depth="2" NCoef="0" IVar="-1" Cut="0.0000000000000000e+00" cType="1" res="5.0638144602999091e-04" rms="4.1537779569625854e-01" purity="7.5517487525939941e-01" nType="-99"/>
        </Node>
        <Node pos="r" depth="1" NCoef="0" IVar="7" Cut="2.1227685546875000e+02" cType="1" res="-9.6043283119797707e-03" rms="4.6318119764328003e-01" purity="4.4545385241508484e-01" nType="0">
          <Node pos="l" depth="2" NCoef="0" IVar="-1" Cut="0.0000000000000000e+00" cType="1" res="-1.9722645811270922e-04" rms="4.5959070324897766e-01" purity="4.0508967638015747e-01" nType="-99"/>
          <Node pos="r" depth="2" NCoef="0" IVar="-1" Cut="0.0000000000000000e+00" cType="1" res="4.5782193774357438e-04" rms="4.5473876595497131e-01" purity="6.7600369453430176e-01" nType="-99"/>
        </Node>
      </Node>
    </BinaryTree>
    <BinaryTree type="DecisionTree" boostWeight="1.0000000000000000e+00" itree="574">
      <Node pos="s" depth="0" NCoef="0" IVar="5" Cut="3.1155859375000000e+02" cType="1" res="1.0880143381655216e-02" rms="4.6368381381034851e-01" purity="4.8040953278541565e-01" nType="0">
        <Node pos="l" depth="1" NCoef="0" IVar="5" Cut="2.7942935180664062e+02" cType="1" res="-1.3311140239238739e-01" rms="3.9355245232582092e-01" purity="2.1069347858428955e-01" nType="0">
          <Node pos="l" depth="2" NCoef="0" IVar="-1" Cut="0.0000000000000000e+00" cType="1" res="-2.3279332090169191e-03" rms="3.6652892827987671e-01" purity="1.7064441740512848e-01" nType="-99"/>
          <Node pos="r" depth="2" NCoef="0" IVar="-1" Cut="0.0000000000000000e+00" cType="1" res="-8.4424688247963786e-04" rms="4.1796731948852539e-01" purity="2.5435641407966614e-01" nType="-99"/>
        </Node>
        <Node pos="r" depth="1" NCoef="0" IVar="4" Cut="8.4883648157119751e-01" cType="1" res="3.4766644239425659e-02" rms="4.7006991505622864e-01" purity="5.2515220642089844e-01" nType="0">
          <Node pos="l" depth="2" NCoef="0" IVar="-1" Cut="0.0000000000000000e+00" cType="1" res="3.8792763371020555e-04" rms="4.5578485727310181e-01" purity="6.3328659534454346e-01" nType="-99"/>
          <Node pos="r" depth="2" NCoef="0" IVar="-1" Cut="0.0000000000000000e+00" cType="1" res="-5.5929602240212262e-05" rms="4.7259607911109924e-01" purity="4.5904844999313354e-01" nType="-99"/>
        </Node>
      </Node>
    </BinaryTree>
    <BinaryTree type="DecisionTree" boostWeight="1.0000000000000000e+00" itree="575">
      <Node pos="s" depth="0" NCoef="0" IVar="4" Cut="8.2154607772827148e-01" cType="1" res="3.3857032656669617e-02" rms="4.6147039532661438e-01" purity="5.0760757923126221e-01" nType="0">
        <Node pos="l" depth="1" NCoef="0" IVar="3" Cut="2.8785774111747742e-01" cType="1" res="1.2169686704874039e-01" rms="4.4896230101585388e-01" purity="6.3472443819046021e-01" nType="0">
          <Node pos="l" depth="2" NCoef="0" IVar="-1" Cut="0.0000000000000000e+00" cType="1" res="2.1645236120093614e-04" rms="4.8105931282043457e-01" purity="4.6283170580863953e-01" nType="-99"/>
          <Node pos="r" depth="2" NCoef="0" IVar="-1" Cut="0.0000000000000000e+00" cType="1" res="4.9415382090955973e-04" rms="4.2281460762023926e-01" purity="7.3526835441589355e-01" nType="-99"/>
        </Node>
        <Node pos="r" depth="1" NCoef="0" IVar="1" Cut="8.6815446615219116e-01" cType="1" res="-1.0471737943589687e-02" rms="4.6134907007217407e-01" purity="4.4345748424530029e-01" nType="0">
          <Node pos="l" depth="2" NCoef="0" IVar="-1" Cut="0.0000000000000000e+00" cType="1" res="-4.0824137977324426e-04" rms="4.5121085643768311e-01" purity="3.7411239743232727e-01" nType="-99"/>
          <Node pos="r" depth="2" NCoef="0" IVar="-1" Cut="0.0000000000000000e+00" cType="1" res="2.5768976774998009e-04" rms="4.6305707097053528e-01" purity="5.2595746517181396e-01" nType="-99"/>
        </Node>
      </Node>
    </BinaryTree>
    <BinaryTree type="DecisionTree" boostWeight="1.0000000000000000e+00" itree="576">
      <Node pos="s" depth="0" NCoef="0" IVar="3" Cut="2.8915214538574219e-01" cType="1" res="2.6187952607870102e-02" rms="4.6472191810607910e-01" purity="4.9654519557952881e-01" nType="0">
        <Node pos="l" depth="1" NCoef="0" IVar="6" Cut="1.5180358886718750e+02" cType="1" res="-4.6438701450824738e-02" rms="4.5161575078964233e-01" purity="3.2337135076522827e-01" nType="0">
          <Node pos="l" depth="2" NCoef="0" IVar="-1" Cut="0.0000000000000000e+00" cType="1" res="-4.5377088099485263e-05" rms="4.5779654383659363e-01" purity="3.5075861215591431e-01" nType="-99"/>
          <Node pos="r" depth="2" NCoef="0" IVar="-1" Cut="0.0000000000000000e+00" cType="1" res="-8.3064840873703361e-04" rms="4.3509799242019653e-01" purity="2.8137204051017761e-01" nType="-99"/>
        </Node>
        <Node pos="r" depth="1" NCoef="0" IVar="5" Cut="3.0333282470703125e+02" cType="1" res="7.3353469371795654e-02" rms="4.6702870726585388e-01" purity="6.0900843143463135e-01" nType="0">
          <Node pos="l" depth="2" NCoef="0" IVar="-1" Cut="0.0000000000000000e+00" cType="1" res="-9.4110291684046388e-04" rms="4.4574889540672302e-01" purity="2.9093861579895020e-01" nType="-99"/>
          <Node pos="r" depth="2" NCoef="0" IVar="-1" Cut="0.0000000000000000e+00" cType="1" res="3.2657149131409824e-04" rms="4.6386861801147461e-01" purity="6.4749807119369507e-01" nType="-99"/>
        </Node>
      </Node>
    </BinaryTree>
    <BinaryTree type="DecisionTree" boostWeight="1.0000000000000000e+00" itree="577">
      <Node pos="s" depth="0" NCoef="0" IVar="3" Cut="4.4484946131706238e-01" cType="1" res="2.9895182698965073e-02" rms="4.6200659871101379e-01" purity="5.0267934799194336e-01" nType="0">
        <Node pos="l" depth="1" NCoef="0" IVar="5" Cut="5.6637524414062500e+02" cType="1" res="-5.3505608811974525e-03" rms="4.6372833847999573e-01" purity="4.3600979447364807e-01" nType="0">
          <Node pos="l" depth="2" NCoef="0" IVar="-1" Cut="0.0000000000000000e+00" cType="1" res="-2.7433113427832723e-04" rms="4.5489773154258728e-01" purity="3.5992792248725891e-01" nType="-99"/>
          <Node pos="r" depth="2" NCoef="0" IVar="-1" Cut="0.0000000000000000e+00" cType="1" res="3.0161582981236279e-04" rms="4.7088772058486938e-01" purity="6.1329549551010132e-01" nType="-99"/>
        </Node>
        <Node pos="r" depth="1" NCoef="0" IVar="6" Cut="1.3686050415039062e+02" cType="1" res="1.4076717197895050e-01" rms="4.3844720721244812e-01" purity="7.1240073442459106e-01" nType="0">
          <Node pos="l" depth="2" NCoef="0" IVar="-1" Cut="0.0000000000000000e+00" cType="1" res="5.6854146532714367e-04" rms="4.1649422049522400e-01" purity="7.5354909896850586e-01" nType="-99"/>
          <Node pos="r" depth="2" NCoef="0" IVar="-1" Cut="0.0000000000000000e+00" cType="1" res="2.4018363910727203e-04" rms="4.5897507667541504e-01" purity="6.5300410985946655e-01" nType="-99"/>
        </Node>
      </Node>
    </BinaryTree>
    <BinaryTree type="DecisionTree" boostWeight="1.0000000000000000e+00" itree="578">
      <Node pos="s" depth="0" NCoef="0" IVar="4" Cut="9.7123253345489502e-01" cType="1" res="2.9283208772540092e-02" rms="4.6314752101898193e-01" purity="5.0129574537277222e-01" nType="0">
        <Node pos="l" depth="1" NCoef="0" IVar="5" Cut="5.5160772705078125e+02" cType="1" res="8.3342067897319794e-02" rms="4.5933395624160767e-01" purity="5.7482075691223145e-01" nType="0">
          <Node pos="l" depth="2" NCoef="0" IVar="-1" Cut="0.0000000000000000e+00" cType="1" res="1.9716702809091657e-04" rms="4.6751371026039124e-01" purity="5.0328093767166138e-01" nType="-99"/>
          <Node pos="r" depth="2" NCoef="0" IVar="-1" Cut="0.0000000000000000e+00" cType="1" res="4.8530776984989643e-04" rms="4.3045547604560852e-01" purity="7.2572547197341919e-01" nType="-99"/>
        </Node>
        <Node pos="r" depth="1" NCoef="0" IVar="3" Cut="2.2229813039302826e-01" cType="1" res="-3.3701598644256592e-02" rms="4.5960032939910889e-01" purity="4.1563057899475098e-01" nType="0">
          <Node pos="l" depth="2" NCoef="0" IVar="-1" Cut="0.0000000000000000e+00" cType="1" res="-1.8466869369149208e-03" rms="3.7968015670776367e-01" purity="1.8530467152595520e-01" nType="-99"/>
          <Node pos="r" depth="2" NCoef="0" IVar="-1" Cut="0.0000000000000000e+00" cType="1" res="1.1608894965320360e-05" rms="4.7645032405853271e-01" purity="4.8859333992004395e-01" nType="-99"/>
        </Node>
      </Node>
    </BinaryTree>
    <BinaryTree type="DecisionTree" boostWeight="1.0000000000000000e+00" itree="579">
      <Node pos="s" depth="0" NCoef="0" IVar="3" Cut="5.3268265724182129e-01" cType="1" res="2.5308417156338692e-02" rms="4.6310794353485107e-01" purity="4.9708998203277588e-01" nType="0">
        <Node pos="l" depth="1" NCoef="0" IVar="4" Cut="7.1290767192840576e-01" cType="1" res="5.4992851801216602e-03" rms="4.6443799138069153e-01" purity="4.6524557471275330e-01" nType="0">
          <Node pos="l" depth="2" NCoef="0" IVar="-1" Cut="0.0000000000000000e+00" cType="1" res="4.3319340329617262e-04" rms="4.3966832756996155e-01" purity="6.6874814033508301e-01" nType="-99"/>
          <Node pos="r" depth="2" NCoef="0" IVar="-1" Cut="0.0000000000000000e+00" cType="1" res="-1.3413836131803691e-04" rms="4.6498668193817139e-01" purity="4.1608646512031555e-01" nType="-99"/>
        </Node>
        <Node pos="r" depth="1" NCoef="0" IVar="-1" Cut="0.0000000000000000e+00" cType="1" res="5.4645526688545942e-04" rms="4.1840487718582153e-01" purity="7.5697690248489380e-01" nType="-99"/>
      </Node>
    </BinaryTree>
    <BinaryTree type="DecisionTree" boostWeight="1.0000000000000000e+00" itree="580">
      <Node pos="s" depth="0" NCoef="0" IVar="6" Cut="1.5647213745117188e+02" cType="1" res="2.8237590566277504e-02" rms="4.6451857686042786e-01" purity="4.9852299690246582e-01" nType="0">
        <Node pos="l" depth="1" NCoef="0" IVar="5" Cut="3.2268304443359375e+02" cType="1" res="7.0442631840705872e-02" rms="4.6072953939437866e-01" purity="5.3343456983566284e-01" nType="0">
          <Node pos="l" depth="2" NCoef="0" IVar="-1" Cut="0.0000000000000000e+00" cType="1" res="-2.5628891307860613e-04" rms="4.4705709815025330e-01" purity="3.2209643721580505e-01" nType="-99"/>
          <Node pos="r" depth="2" NCoef="0" IVar="-1" Cut="0.0000000000000000e+00" cType="1" res="3.7784493179060519e-04" rms="4.5995414257049561e-01" purity="5.9807854890823364e-01" nType="-99"/>
        </Node>
        <Node pos="r" depth="1" NCoef="0" IVar="5" Cut="4.9698135375976562e+02" cType="1" res="-4.6580310910940170e-02" rms="4.6177583932876587e-01" purity="4.3663436174392700e-01" nType="0">
          <Node pos="l" depth="2" NCoef="0" IVar="-1" Cut="0.0000000000000000e+00" cType="1" res="-1.0115907061845064e-03" rms="4.2323666810989380e-01" purity="2.8988513350486755e-01" nType="-99"/>
          <Node pos="r" depth="2" NCoef="0" IVar="-1" Cut="0.0000000000000000e+00" cType="1" res="1.0172937618335709e-04" rms="4.7920596599578857e-01" purity="5.5726557970046997e-01" nType="-99"/>
        </Node>
      </Node>
    </BinaryTree>
    <BinaryTree type="DecisionTree" boostWeight="1.0000000000000000e+00" itree="581">
      <Node pos="s" depth="0" NCoef="0" IVar="4" Cut="9.5216566324234009e-01" cType="1" res="2.7764558792114258e-02" rms="4.6279004216194153e-01" purity="5.0001317262649536e-01" nType="0">
        <Node pos="l" depth="1" NCoef="0" IVar="5" Cut="4.5827795410156250e+02" cType="1" res="8.5079103708267212e-02" rms="4.5623812079429626e-01" purity="5.8073854446411133e-01" nType="0">
          <Node pos="l" depth="2" NCoef="0" IVar="-1" Cut="0.0000000000000000e+00" cType="1" res="9.5424446044489741e-05" rms="4.6622940897941589e-01" purity="4.5173561573028564e-01" nType="-99"/>
          <Node pos="r" depth="2" NCoef="0" IVar="-1" Cut="0.0000000000000000e+00" cType="1" res="4.5264902291819453e-04" rms="4.3752369284629822e-01" purity="7.0327723026275635e-01" nType="-99"/>
        </Node>
        <Node pos="r" depth="1" NCoef="0" IVar="1" Cut="7.4971759319305420e-01" cType="1" res="-3.4385763108730316e-02" rms="4.6182170510292053e-01" purity="4.1247677803039551e-01" nType="0">
          <Node pos="l" depth="2" NCoef="0" IVar="-1" Cut="0.0000000000000000e+00" cType="1" res="-1.1643914040178061e-03" rms="4.2274826765060425e-01" purity="2.7699443697929382e-01" nType="-99"/>
          <Node pos="r" depth="2" NCoef="0" IVar="-1" Cut="0.0000000000000000e+00" cType="1" res="3.8949125155340880e-05" rms="4.6833422780036926e-01" purity="4.6248614788055420e-01" nType="-99"/>
        </Node>
      </Node>
    </BinaryTree>
    <BinaryTree type="DecisionTree" boostWeight="1.0000000000000000e+00" itree="582">
      <Node pos="s" depth="0" NCoef="0" IVar="4" Cut="7.4325031042098999e-01" cType="1" res="2.4907166138291359e-02" rms="4.6344429254531860e-01" purity="4.9604034423828125e-01" nType="0">
        <Node pos="l" depth="1" NCoef="0" IVar="3" Cut="2.8132897615432739e-01" cType="1" res="1.2985172867774963e-01" rms="4.4971510767936707e-01" purity="6.5523582696914673e-01" nType="0">
          <Node pos="l" depth="2" NCoef="0" IVar="-1" Cut="0.0000000000000000e+00" cType="1" res="2.4922552984207869e-04" rms="4.8238942027091980e-01" purity="5.0296616554260254e-01" nType="-99"/>
          <Node pos="r" depth="2" NCoef="0" IVar="-1" Cut="0.0000000000000000e+00" cType="1" res="4.9724074779078364e-04" rms="4.2523086071014404e-01" purity="7.4094814062118530e-01" nType="-99"/>
        </Node>
        <Node pos="r" depth="1" NCoef="0" IVar="3" Cut="4.6428096294403076e-01" cType="1" res="-3.9112679660320282e-03" rms="4.6299946308135986e-01" purity="4.5232427120208740e-01" nType="0">
          <Node pos="l" depth="2" NCoef="0" IVar="-1" Cut="0.0000000000000000e+00" cType="1" res="-1.9685133884195238e-04" rms="4.6044051647186279e-01" purity="3.9273715019226074e-01" nType="-99"/>
          <Node pos="r" depth="2" NCoef="0" IVar="-1" Cut="0.0000000000000000e+00" cType="1" res="3.7212108145467937e-04" rms="4.5368617773056030e-01" purity="6.7981082201004028e-01" nType="-99"/>
        </Node>
      </Node>
    </BinaryTree>
    <BinaryTree type="DecisionTree" boostWeight="1.0000000000000000e+00" itree="583">
      <Node pos="s" depth="0" NCoef="0" IVar="5" Cut="4.3958456420898438e+02" cType="1" res="2.5945240631699562e-02" rms="4.6179190278053284e-01" purity="4.9868038296699524e-01" nType="0">
        <Node pos="l" depth="1" NCoef="0" IVar="6" Cut="1.5281103515625000e+02" cType="1" res="-3.8564767688512802e-02" rms="4.5194086432456970e-01" purity="3.6446872353553772e-01" nType="0">
          <Node pos="l" depth="2" NCoef="0" IVar="-1" Cut="0.0000000000000000e+00" cType="1" res="-1.4161782019073144e-05" rms="4.5908182859420776e-01" purity="4.0471282601356506e-01" nType="-99"/>
          <Node pos="r" depth="2" NCoef="0" IVar="-1" Cut="0.0000000000000000e+00" cType="1" res="-1.2081915047019720e-03" rms="4.1540929675102234e-01" purity="2.5257629156112671e-01" nType="-99"/>
        </Node>
        <Node pos="r" depth="1" NCoef="0" IVar="3" Cut="2.4342991411685944e-01" cType="1" res="8.2184009253978729e-02" rms="4.6293422579765320e-01" purity="6.1568391323089600e-01" nType="0">
          <Node pos="l" depth="2" NCoef="0" IVar="-1" Cut="0.0000000000000000e+00" cType="1" res="-1.6764769679866731e-04" rms="4.8222881555557251e-01" purity="3.9680549502372742e-01" nType="-99"/>
          <Node pos="r" depth="2" NCoef="0" IVar="-1" Cut="0.0000000000000000e+00" cType="1" res="3.8694962859153748e-04" rms="4.4954448938369751e-01" purity="6.9065093994140625e-01" nType="-99"/>
        </Node>
      </Node>
    </BinaryTree>
    <BinaryTree type="DecisionTree" boostWeight="1.0000000000000000e+00" itree="584">
      <Node pos="s" depth="0" NCoef="0" IVar="4" Cut="1.0947154760360718e+00" cType="1" res="3.2161887735128403e-02" rms="4.6598583459854126e-01" purity="5.0174957513809204e-01" nType="0">
        <Node pos="l" depth="1" NCoef="0" IVar="1" Cut="8.0220371484756470e-01" cType="1" res="6.6954329609870911e-02" rms="4.6203428506851196e-01" purity="5.4864358901977539e-01" nType="0">
          <Node pos="l" depth="2" NCoef="0" IVar="-1" Cut="0.0000000000000000e+00" cType="1" res="6.0973317886237055e-05" rms="4.6559956669807434e-01" purity="4.8563426733016968e-01" nType="-99"/>
          <Node pos="r" depth="2" NCoef="0" IVar="-1" Cut="0.0000000000000000e+00" cType="1" res="4.2554680840112269e-04" rms="4.5269787311553955e-01" purity="6.0903030633926392e-01" nType="-99"/>
        </Node>
        <Node pos="r" depth="1" NCoef="0" IVar="1" Cut="9.0769469738006592e-01" cType="1" res="-4.2669497430324554e-02" rms="4.6564653515815735e-01" purity="4.0089026093482971e-01" nType="0">
          <Node pos="l" depth="2" NCoef="0" IVar="-1" Cut="0.0000000000000000e+00" cType="1" res="-6.3724757637828588e-04" rms="4.5290893316268921e-01" purity="3.3804535865783691e-01" nType="-99"/>
          <Node pos="r" depth="2" NCoef="0" IVar="-1" Cut="0.0000000000000000e+00" cType="1" res="1.5727497520856559e-04" rms="4.7211876511573792e-01" purity="4.8874112963676453e-01" nType="-99"/>
        </Node>
      </Node>
    </BinaryTree>
    <BinaryTree type="DecisionTree" boostWeight="1.0000000000000000e+00" itree="585">
      <Node pos="s" depth="0" NCoef="0" IVar="3" Cut="3.5557371377944946e-01" cType="1" res="2.6050873100757599e-02" rms="4.6160781383514404e-01" purity="4.9885991215705872e-01" nType="0">
        <Node pos="l" depth="1" NCoef="0" IVar="1" Cut="8.2872748374938965e-01" cType="1" res="-2.8868980705738068e-02" rms="4.5899307727813721e-01" purity="3.7272495031356812e-01" nType="0">
          <Node pos="l" depth="2" NCoef="0" IVar="-1" Cut="0.0000000000000000e+00" cType="1" res="-5.7851098245009780e-04" rms="4.4234374165534973e-01" purity="3.1162375211715698e-01" nType="-99"/>
          <Node pos="r" depth="2" NCoef="0" IVar="-1" Cut="0.0000000000000000e+00" cType="1" res="1.3427349040284753e-04" rms="4.6904706954956055e-01" purity="4.3562221527099609e-01" nType="-99"/>
        </Node>
        <Node pos="r" depth="1" NCoef="0" IVar="4" Cut="1.0798529386520386e+00" cType="1" res="9.5865592360496521e-02" rms="4.5544862747192383e-01" purity="6.5920406579971313e-01" nType="0">
          <Node pos="l" depth="2" NCoef="0" IVar="-1" Cut="0.0000000000000000e+00" cType="1" res="4.4502061791718006e-04" rms="4.3518570065498352e-01" purity="7.1440976858139038e-01" nType="-99"/>
          <Node pos="r" depth="2" NCoef="0" IVar="-1" Cut="0.0000000000000000e+00" cType="1" res="-2.2526457996718818e-06" rms="4.8102080821990967e-01" purity="5.4388362169265747e-01" nType="-99"/>
        </Node>
      </Node>
    </BinaryTree>
    <BinaryTree type="DecisionTree" boostWeight="1.0000000000000000e+00" itree="586">
      <Node pos="s" depth="0" NCoef="0" IVar="3" Cut="4.6682605147361755e-01" cType="1" res="3.9669528603553772e-02" rms="4.6498635411262512e-01" purity="5.1033812761306763e-01" nType="0">
        <Node pos="l" depth="1" NCoef="0" IVar="4" Cut="9.0197604894638062e-01" cType="1" res="1.1250199750065804e-02" rms="4.6751704812049866e-01" purity="4.5731750130653381e-01" nType="0">
          <Node pos="l" depth="2" NCoef="0" IVar="-1" Cut="0.0000000000000000e+00" cType="1" res="2.9453172464855015e-04" rms="4.6668282151222229e-01" purity="5.5313199758529663e-01" nType="-99"/>
          <Node pos="r" depth="2" NCoef="0" IVar="-1" Cut="0.0000000000000000e+00" cType="1" res="-2.4058796407189220e-04" rms="4.6157783269882202e-01" purity="3.7893998622894287e-01" nType="-99"/>
        </Node>
        <Node pos="r" depth="1" NCoef="0" IVar="6" Cut="1.3739118957519531e+02" cType="1" res="1.5407983958721161e-01" rms="4.3631491065025330e-01" purity="7.2378802299499512e-01" nType="0">
          <Node pos="l" depth="2" NCoef="0" IVar="-1" Cut="0.0000000000000000e+00" cType="1" res="5.8377173263579607e-04" rms="4.1443163156509399e-01" purity="7.6190257072448730e-01" nType="-99"/>
          <Node pos="r" depth="2" NCoef="0" IVar="-1" Cut="0.0000000000000000e+00" cType="1" res="2.9863079544156790e-04" rms="4.5872747898101807e-01" purity="6.6767203807830811e-01" nType="-99"/>
        </Node>
      </Node>
    </BinaryTree>
    <BinaryTree type="DecisionTree" boostWeight="1.0000000000000000e+00" itree="587">
      <Node pos="s" depth="0" NCoef="0" IVar="5" Cut="6.5471856689453125e+02" cType="1" res="3.9063248783349991e-02" rms="4.6302673220634460e-01" purity="5.1178133487701416e-01" nType="0">
        <Node pos="l" depth="1" NCoef="0" IVar="3" Cut="4.6682605147361755e-01" cType="1" res="1.0232165455818176e-02" rms="4.6420755982398987e-01" purity="4.6316072344779968e-01" nType="0">
          <Node pos="l" depth="2" NCoef="0" IVar="-1" Cut="0.0000000000000000e+00" cType="1" res="-1.0705735621741042e-04" rms="4.6344661712646484e-01" purity="4.0461537241935730e-01" nType="-99"/>
          <Node pos="r" depth="2" NCoef="0" IVar="-1" Cut="0.0000000000000000e+00" cType="1" res="4.2167271021753550e-04" rms="4.4817066192626953e-01" purity="6.9252872467041016e-01" nType="-99"/>
        </Node>
        <Node pos="r" depth="1" NCoef="0" IVar="3" Cut="2.8549829125404358e-01" cType="1" res="1.5269289910793304e-01" rms="4.4033014774322510e-01" purity="7.0340591669082642e-01" nType="0">
          <Node pos="l" depth="2" NCoef="0" IVar="-1" Cut="0.0000000000000000e+00" cType="1" res="3.1698419479653239e-04" rms="4.9292230606079102e-01" purity="5.5188119411468506e-01" nType="-99"/>
          <Node pos="r" depth="2" NCoef="0" IVar="-1" Cut="0.0000000000000000e+00" cType="1" res="5.2639178466051817e-04" rms="4.0678277611732483e-01" purity="7.7991652488708496e-01" nType="-99"/>
        </Node>
      </Node>
    </BinaryTree>
    <BinaryTree type="DecisionTree" boostWeight="1.0000000000000000e+00" itree="588">
      <Node pos="s" depth="0" NCoef="0" IVar="3" Cut="4.4362488389015198e-01" cType="1" res="2.4647472426295280e-02" rms="4.6279743313789368e-01" purity="4.9607595801353455e-01" nType="0">
        <Node pos="l" depth="1" NCoef="0" IVar="5" Cut="3.7255880737304688e+02" cType="1" res="-8.4793651476502419e-03" rms="4.6495056152343750e-01" purity="4.2996728420257568e-01" nType="0">
          <Node pos="l" depth="2" NCoef="0" IVar="-1" Cut="0.0000000000000000e+00" cType="1" res="-8.6527963867411017e-04" rms="4.1496399044990540e-01" purity="2.4511732161045074e-01" nType="-99"/>
          <Node pos="r" depth="2" NCoef="0" IVar="-1" Cut="0.0000000000000000e+00" cType="1" res="1.1474866187199950e-04" rms="4.8066291213035583e-01" purity="5.1011818647384644e-01" nType="-99"/>
        </Node>
        <Node pos="r" depth="1" NCoef="0" IVar="5" Cut="3.8502441406250000e+02" cType="1" res="1.2869109213352203e-01" rms="4.4004076719284058e-01" purity="7.0370787382125854e-01" nType="0">
          <Node pos="l" depth="2" NCoef="0" IVar="-1" Cut="0.0000000000000000e+00" cType="1" res="1.5452913066837937e-04" rms="4.8501479625701904e-01" purity="5.4921096563339233e-01" nType="-99"/>
          <Node pos="r" depth="2" NCoef="0" IVar="-1" Cut="0.0000000000000000e+00" cType="1" res="4.9874588148668408e-04" rms="4.0804257988929749e-01" purity="7.8175330162048340e-01" nType="-99"/>
        </Node>
      </Node>
    </BinaryTree>
    <BinaryTree type="DecisionTree" boostWeight="1.0000000000000000e+00" itree="589">
      <Node pos="s" depth="0" NCoef="0" IVar="4" Cut="8.0717402696609497e-01" cType="1" res="2.1338809281587601e-02" rms="4.6255996823310852e-01" purity="4.9321487545967102e-01" nType="0">
        <Node pos="l" depth="1" NCoef="0" IVar="3" Cut="3.1000062823295593e-01" cType="1" res="1.1129653453826904e-01" rms="4.4981917738914490e-01" purity="6.2890589237213135e-01" nType="0">
          <Node pos="l" depth="2" NCoef="0" IVar="-1" Cut="0.0000000000000000e+00" cType="1" res="1.9453506683930755e-04" rms="4.8111572861671448e-01" purity="4.7313433885574341e-01" nType="-99"/>
          <Node pos="r" depth="2" NCoef="0" IVar="-1" Cut="0.0000000000000000e+00" cType="1" res="4.8744340892881155e-04" rms="4.1785830259323120e-01" purity="7.4428617954254150e-01" nType="-99"/>
        </Node>
        <Node pos="r" depth="1" NCoef="0" IVar="1" Cut="7.8933250904083252e-01" cType="1" res="-1.8984612077474594e-02" rms="4.6251374483108521e-01" purity="4.3239161372184753e-01" nType="0">
          <Node pos="l" depth="2" NCoef="0" IVar="-1" Cut="0.0000000000000000e+00" cType="1" res="-6.7192560527473688e-04" rms="4.4031611084938049e-01" purity="3.3510801196098328e-01" nType="-99"/>
          <Node pos="r" depth="2" NCoef="0" IVar="-1" Cut="0.0000000000000000e+00" cType="1" res="1.3654335634782910e-04" rms="4.6809113025665283e-01" purity="4.8960509896278381e-01" nType="-99"/>
        </Node>
      </Node>
    </BinaryTree>
    <BinaryTree type="DecisionTree" boostWeight="1.0000000000000000e+00" itree="590">
      <Node pos="s" depth="0" NCoef="0" IVar="3" Cut="2.8915214538574219e-01" cType="1" res="2.9011644423007965e-02" rms="4.6130114793777466e-01" purity="5.0295662879943848e-01" nType="0">
        <Node pos="l" depth="1" NCoef="0" IVar="3" Cut="1.7501117289066315e-01" cType="1" res="-5.0734773278236389e-02" rms="4.4668990373611450e-01" purity="3.2190570235252380e-01" nType="0">
          <Node pos="l" depth="2" NCoef="0" IVar="-1" Cut="0.0000000000000000e+00" cType="1" res="-1.2442980660125613e-03" rms="3.9722636342048645e-01" purity="2.2041441500186920e-01" nType="-99"/>
          <Node pos="r" depth="2" NCoef="0" IVar="-1" Cut="0.0000000000000000e+00" cType="1" res="-8.1095116911455989e-05" rms="4.6385744214057922e-01" purity="3.7029111385345459e-01" nType="-99"/>
        </Node>
        <Node pos="r" depth="1" NCoef="0" IVar="4" Cut="1.0899271965026855e+00" cType="1" res="7.9451315104961395e-02" rms="4.6327477693557739e-01" purity="6.1747145652770996e-01" nType="0">
          <Node pos="l" depth="2" NCoef="0" IVar="-1" Cut="0.0000000000000000e+00" cType="1" res="3.9950176142156124e-04" rms="4.4714984297752380e-01" purity="6.7141038179397583e-01" nType="-99"/>
          <Node pos="r" depth="2" NCoef="0" IVar="-1" Cut="0.0000000000000000e+00" cType="1" res="-7.4626535933930427e-05" rms="4.8393961787223816e-01" purity="4.9594599008560181e-01" nType="-99"/>
        </Node>
      </Node>
    </BinaryTree>
    <BinaryTree type="DecisionTree" boostWeight="1.0000000000000000e+00" itree="591">
      <Node pos="s" depth="0" NCoef="0" IVar="4" Cut="9.0497589111328125e-01" cType="1" res="2.0268389955163002e-02" rms="4.6286037564277649e-01" purity="4.9204576015472412e-01" nType="0">
        <Node pos="l" depth="1" NCoef="0" IVar="3" Cut="3.9429154992103577e-01" cType="1" res="8.7073229253292084e-02" rms="4.5683538913726807e-01" purity="5.8676701784133911e-01" nType="0">
          <Node pos="l" depth="2" NCoef="0" IVar="-1" Cut="0.0000000000000000e+00" cType="1" res="1.7276784637942910e-04" rms="4.7182703018188477e-01" purity="4.9140936136245728e-01" nType="-99"/>
          <Node pos="r" depth="2" NCoef="0" IVar="-1" Cut="0.0000000000000000e+00" cType="1" res="5.2378495456650853e-04" rms="4.1305470466613770e-01" purity="7.6328492164611816e-01" nType="-99"/>
        </Node>
        <Node pos="r" depth="1" NCoef="0" IVar="1" Cut="8.1557160615921021e-01" cType="1" res="-3.5377934575080872e-02" rms="4.6047949790954590e-01" purity="4.1314595937728882e-01" nType="0">
          <Node pos="l" depth="2" NCoef="0" IVar="-1" Cut="0.0000000000000000e+00" cType="1" res="-9.2974491417407990e-04" rms="4.3287330865859985e-01" purity="3.0463966727256775e-01" nType="-99"/>
          <Node pos="r" depth="2" NCoef="0" IVar="-1" Cut="0.0000000000000000e+00" cType="1" res="1.0896806634264067e-04" rms="4.6778765320777893e-01" purity="4.8302397131919861e-01" nType="-99"/>
        </Node>
      </Node>
    </BinaryTree>
    <BinaryTree type="DecisionTree" boostWeight="1.0000000000000000e+00" itree="592">
      <Node pos="s" depth="0" NCoef="0" IVar="3" Cut="4.2260697484016418e-01" cType="1" res="2.5591550394892693e-02" rms="4.6405625343322754e-01" purity="4.9677932262420654e-01" nType="0">
        <Node pos="l" depth="1" NCoef="0" IVar="4" Cut="1.1620310544967651e+00" cType="1" res="-1.1716951616108418e-02" rms="4.6550139784812927e-01" purity="4.1915097832679749e-01" nType="0">
          <Node pos="l" depth="2" NCoef="0" IVar="-1" Cut="0.0000000000000000e+00" cType="1" res="8.3779013948515058e-05" rms="4.6915060281753540e-01" purity="4.5757603645324707e-01" nType="-99"/>
          <Node pos="r" depth="2" NCoef="0" IVar="-1" Cut="0.0000000000000000e+00" cType="1" res="-7.3094532126560807e-04" rms="4.4252592325210571e-01" purity="3.0292931199073792e-01" nType="-99"/>
        </Node>
        <Node pos="r" depth="1" NCoef="0" IVar="7" Cut="1.0508996582031250e+02" cType="1" res="1.1871480941772461e-01" rms="4.4704473018646240e-01" purity="6.9054234027862549e-01" nType="0">
          <Node pos="l" depth="2" NCoef="0" IVar="-1" Cut="0.0000000000000000e+00" cType="1" res="1.4267602819018066e-04" rms="4.7713196277618408e-01" purity="5.7719731330871582e-01" nType="-99"/>
          <Node pos="r" depth="2" NCoef="0" IVar="-1" Cut="0.0000000000000000e+00" cType="1" res="4.9096759175881743e-04" rms="4.2195829749107361e-01" purity="7.5529921054840088e-01" nType="-99"/>
        </Node>
      </Node>
    </BinaryTree>
    <BinaryTree type="DecisionTree" boostWeight="1.0000000000000000e+00" itree="593">
      <Node pos="s" depth="0" NCoef="0" IVar="4" Cut="1.0136595964431763e+00" cType="1" res="2.3115960881114006e-02" rms="4.6384093165397644e-01" purity="4.9339187145233154e-01" nType="0">
        <Node pos="l" depth="1" NCoef="0" IVar="3" Cut="3.7812203168869019e-01" cType="1" res="6.9572374224662781e-02" rms="4.6038931608200073e-01" purity="5.5783838033676147e-01" nType="0">
          <Node pos="l" depth="2" NCoef="0" IVar="-1" Cut="0.0000000000000000e+00" cType="1" res="9.0102184913121164e-05" rms="4.7326779365539551e-01" purity="4.4754597544670105e-01" nType="-99"/>
          <Node pos="r" depth="2" NCoef="0" IVar="-1" Cut="0.0000000000000000e+00" cType="1" res="4.5544098247773945e-04" rms="4.2679238319396973e-01" purity="7.3293215036392212e-01" nType="-99"/>
        </Node>
        <Node pos="r" depth="1" NCoef="0" IVar="1" Cut="8.6829721927642822e-01" cType="1" res="-4.4076763093471527e-02" rms="4.6057143807411194e-01" purity="4.0017893910408020e-01" nType="0">
          <Node pos="l" depth="2" NCoef="0" IVar="-1" Cut="0.0000000000000000e+00" cType="1" res="-8.0663891276344657e-04" rms="4.4023343920707703e-01" purity="3.1541806459426880e-01" nType="-99"/>
          <Node pos="r" depth="2" NCoef="0" IVar="-1" Cut="0.0000000000000000e+00" cType="1" res="1.1838507634820417e-04" rms="4.6842062473297119e-01" purity="4.8027390241622925e-01" nType="-99"/>
        </Node>
      </Node>
    </BinaryTree>
    <BinaryTree type="DecisionTree" boostWeight="1.0000000000000000e+00" itree="594">
      <Node pos="s" depth="0" NCoef="0" IVar="5" Cut="3.0866448974609375e+02" cType="1" res="2.5406334549188614e-02" rms="4.6152353286743164e-01" purity="4.9788606166839600e-01" nType="0">
        <Node pos="l" depth="1" NCoef="0" IVar="5" Cut="2.7575375366210938e+02" cType="1" res="-1.1964914202690125e-01" rms="3.9992874860763550e-01" purity="2.2400705516338348e-01" nType="0">
          <Node pos="l" depth="2" NCoef="0" IVar="-1" Cut="0.0000000000000000e+00" cType="1" res="-2.1511088125407696e-03" rms="3.6537292599678040e-01" purity="1.7238159477710724e-01" nType="-99"/>
          <Node pos="r" depth="2" NCoef="0" IVar="-1" Cut="0.0000000000000000e+00" cType="1" res="-5.8568600798025727e-04" rms="4.2721050977706909e-01" purity="2.7631095051765442e-01" nType="-99"/>
        </Node>
        <Node pos="r" depth="1" NCoef="0" IVar="6" Cut="1.5180358886718750e+02" cType="1" res="4.7902051359415054e-02" rms="4.6633002161979675e-01" purity="5.4036015272140503e-01" nType="0">
          <Node pos="l" depth="2" NCoef="0" IVar="-1" Cut="0.0000000000000000e+00" cType="1" res="3.8470403524115682e-04" rms="4.5890051126480103e-01" purity="5.9563332796096802e-01" nType="-99"/>
          <Node pos="r" depth="2" NCoef="0" IVar="-1" Cut="0.0000000000000000e+00" cType="1" res="-1.4806831313762814e-04" rms="4.6513441205024719e-01" purity="4.6270141005516052e-01" nType="-99"/>
        </Node>
      </Node>
    </BinaryTree>
    <BinaryTree type="DecisionTree" boostWeight="1.0000000000000000e+00" itree="595">
      <Node pos="s" depth="0" NCoef="0" IVar="5" Cut="4.8539331054687500e+02" cType="1" res="2.2389728575944901e-02" rms="4.6096557378768921e-01" purity="4.9523019790649414e-01" nType="0">
        <Node pos="l" depth="1" NCoef="0" IVar="3" Cut="4.4446927309036255e-01" cType="1" res="-3.0541967600584030e-02" rms="4.5420330762863159e-01" purity="3.9102810621261597e-01" nType="0">
          <Node pos="l" depth="2" NCoef="0" IVar="-1" Cut="0.0000000000000000e+00" cType="1" res="-4.3847641791217029e-04" rms="4.4254115223884583e-01" purity="3.2157087326049805e-01" nType="-99"/>
          <Node pos="r" depth="2" NCoef="0" IVar="-1" Cut="0.0000000000000000e+00" cType="1" res="2.6373125729151070e-04" rms="4.7518923878669739e-01" purity="6.1407089233398438e-01" nType="-99"/>
        </Node>
        <Node pos="r" depth="1" NCoef="0" IVar="3" Cut="2.6690965890884399e-01" cType="1" res="9.1919571161270142e-02" rms="4.6054717898368835e-01" purity="6.3210755586624146e-01" nType="0">
          <Node pos="l" depth="2" NCoef="0" IVar="-1" Cut="0.0000000000000000e+00" cType="1" res="-7.1391405072063208e-05" rms="4.8914766311645508e-01" purity="4.2891269922256470e-01" nType="-99"/>
          <Node pos="r" depth="2" NCoef="0" IVar="-1" Cut="0.0000000000000000e+00" cType="1" res="4.2131787631660700e-04" rms="4.3980550765991211e-01" purity="7.1962040662765503e-01" nType="-99"/>
        </Node>
      </Node>
    </BinaryTree>
    <BinaryTree type="DecisionTree" boostWeight="1.0000000000000000e+00" itree="596">
      <Node pos="s" depth="0" NCoef="0" IVar="3" Cut="4.2224580049514771e-01" cType="1" res="3.3007826656103134e-02" rms="4.6242982149124146e-01" purity="5.0535166263580322e-01" nType="0">
        <Node pos="l" depth="1" NCoef="0" IVar="4" Cut="6.5857738256454468e-01" cType="1" res="-1.9437057198956609e-03" rms="4.6447339653968811e-01" purity="4.3152233958244324e-01" nType="0">
          <Node pos="l" depth="2" NCoef="0" IVar="-1" Cut="0.0000000000000000e+00" cType="1" res="4.6659173676744103e-04" rms="4.4991827011108398e-01" purity="6.6631191968917847e-01" nType="-99"/>
          <Node pos="r" depth="2" NCoef="0" IVar="-1" Cut="0.0000000000000000e+00" cType="1" res="-1.3087916886433959e-04" rms="4.6262505650520325e-01" purity="3.9645421504974365e-01" nType="-99"/>
        </Node>
        <Node pos="r" depth="1" NCoef="0" IVar="4" Cut="9.1506987810134888e-01" cType="1" res="1.2258905172348022e-01" rms="4.4478166103363037e-01" purity="6.9457703828811646e-01" nType="0">
          <Node pos="l" depth="2" NCoef="0" IVar="-1" Cut="0.0000000000000000e+00" cType="1" res="5.3746241610497236e-04" rms="4.0337345004081726e-01" purity="7.7779889106750488e-01" nType="-99"/>
          <Node pos="r" depth="2" NCoef="0" IVar="-1" Cut="0.0000000000000000e+00" cType="1" res="2.4313783796969801e-04" rms="4.6939662098884583e-01" purity="6.2605255842208862e-01" nType="-99"/>
        </Node>
      </Node>
    </BinaryTree>
    <BinaryTree type="DecisionTree" boostWeight="1.0000000000000000e+00" itree="597">
      <Node pos="s" depth="0" NCoef="0" IVar="3" Cut="4.4285807013511658e-01" cType="1" res="3.0569473281502724e-02" rms="4.6281886100769043e-01" purity="5.0254201889038086e-01" nType="0">
        <Node pos="l" depth="1" NCoef="0" IVar="4" Cut="9.7563594579696655e-01" cType="1" res="-3.6535861436277628e-03" rms="4.6549320220947266e-01" purity="4.3493476510047913e-01" nType="0">
          <Node pos="l" depth="2" NCoef="0" IVar="-1" Cut="0.0000000000000000e+00" cType="1" res="2.0341509662102908e-04" rms="4.7131699323654175e-01" purity="5.0784784555435181e-01" nType="-99"/>
          <Node pos="r" depth="2" NCoef="0" IVar="-1" Cut="0.0000000000000000e+00" cType="1" res="-4.2610408854670823e-04" rms="4.5043236017227173e-01" purity="3.4621250629425049e-01" nType="-99"/>
        </Node>
        <Node pos="r" depth="1" NCoef="0" IVar="5" Cut="4.0741580200195312e+02" cType="1" res="1.3597205281257629e-01" rms="4.3799331784248352e-01" purity="7.1076357364654541e-01" nType="0">
          <Node pos="l" depth="2" NCoef="0" IVar="-1" Cut="0.0000000000000000e+00" cType="1" res="2.4459723499603570e-04" rms="4.8286765813827515e-01" purity="5.8222073316574097e-01" nType="-99"/>
          <Node pos="r" depth="2" NCoef="0" IVar="-1" Cut="0.0000000000000000e+00" cType="1" res="5.1792769227176905e-04" rms="3.9925271272659302e-01" purity="7.9492223262786865e-01" nType="-99"/>
        </Node>
      </Node>
    </BinaryTree>
    <BinaryTree type="DecisionTree" boostWeight="1.0000000000000000e+00" itree="598">
      <Node pos="s" depth="0" NCoef="0" IVar="5" Cut="4.4576040649414062e+02" cType="1" res="2.7074929326772690e-02" rms="4.6161678433418274e-01" purity="4.9997749924659729e-01" nType="0">
        <Node pos="l" depth="1" NCoef="0" IVar="3" Cut="4.2224580049514771e-01" cType="1" res="-3.2653428614139557e-02" rms="4.5196619629859924e-01" purity="3.7443622946739197e-01" nType="0">
          <Node pos="l" depth="2" NCoef="0" IVar="-1" Cut="0.0000000000000000e+00" cType="1" res="-5.3706497419625521e-04" rms="4.3528887629508972e-01" purity="2.8896114230155945e-01" nType="-99"/>
          <Node pos="r" depth="2" NCoef="0" IVar="-1" Cut="0.0000000000000000e+00" cType="1" res="2.2393267136067152e-04" rms="4.7912070155143738e-01" purity="5.8848077058792114e-01" nType="-99"/>
        </Node>
        <Node pos="r" depth="1" NCoef="0" IVar="0" Cut="1.3628898620605469e+02" cType="1" res="8.2888424396514893e-02" rms="4.6355152130126953e-01" purity="6.1729025840759277e-01" nType="0">
          <Node pos="l" depth="2" NCoef="0" IVar="-1" Cut="0.0000000000000000e+00" cType="1" res="4.4510242878459394e-04" rms="4.4679039716720581e-01" purity="6.7764168977737427e-01" nType="-99"/>
          <Node pos="r" depth="2" NCoef="0" IVar="-1" Cut="0.0000000000000000e+00" cType="1" res="9.3720918812323362e-05" rms="4.7271353006362915e-01" purity="5.5599981546401978e-01" nType="-99"/>
        </Node>
      </Node>
    </BinaryTree>
    <BinaryTree type="DecisionTree" boostWeight="1.0000000000000000e+00" itree="599">
      <Node pos="s" depth="0" NCoef="0" IVar="4" Cut="7.5846195220947266e-01" cType="1" res="2.9548944905400276e-02" rms="4.6322029829025269e-01" purity="5.0210565328598022e-01" nType="0">
        <Node pos="l" depth="1" NCoef="0" IVar="3" Cut="2.3727171123027802e-01" cType="1" res="1.2896808981895447e-01" rms="4.4813007116317749e-01" purity="6.5509504079818726e-01" nType="0">
          <Node pos="l" depth="2" NCoef="0" IVar="-1" Cut="0.0000000000000000e+00" cType="1" res="1.8439961422700435e-04" rms="4.8035055398941040e-01" purity="4.6821743249893188e-01" nType="-99"/>
          <Node pos="r" depth="2" NCoef="0" IVar="-1" Cut="0.0000000000000000e+00" cType="1" res="4.8597954446449876e-04" rms="4.3332186341285706e-01" purity="7.1603423357009888e-01" nType="-99"/>
        </Node>
        <Node pos="r" depth="1" NCoef="0" IVar="1" Cut="8.0248099565505981e-01" cType="1" res="-1.9238161621615291e-03" rms="4.6347287297248840e-01" purity="4.5367434620857239e-01" nType="0">
          <Node pos="l" depth="2" NCoef="0" IVar="-1" Cut="0.0000000000000000e+00" cType="1" res="-4.4248480116948485e-04" rms="4.5247495174407959e-01" purity="3.6802914738655090e-01" nType="-99"/>
          <Node pos="r" depth="2" NCoef="0" IVar="-1" Cut="0.0000000000000000e+00" cType="1" res="2.0201267034281045e-04" rms="4.6454730629920959e-01" purity="5.1247650384902954e-01" nType="-99"/>
        </Node>
      </Node>
    </BinaryTree>
    <BinaryTree type="DecisionTree" boostWeight="1.0000000000000000e+00" itree="600">
      <Node pos="s" depth="0" NCoef="0" IVar="4" Cut="8.9988225698471069e-01" cType="1" res="2.7847098186612129e-02" rms="4.6331796050071716e-01" purity="4.9828144907951355e-01" nType="0">
        <Node pos="l" depth="1" NCoef="0" IVar="3" Cut="3.2685801386833191e-01" cType="1" res="9.4497255980968475e-02" rms="4.5541962981224060e-01" purity="5.9491044282913208e-01" nType="0">
          <Node pos="l" depth="2" NCoef="0" IVar="-1" Cut="0.0000000000000000e+00" cType="1" res="1.5247742703650147e-04" rms="4.7187894582748413e-01" purity="4.5675757527351379e-01" nType="-99"/>
          <Node pos="r" depth="2" NCoef="0" IVar="-1" Cut="0.0000000000000000e+00" cType="1" res="4.5772801968269050e-04" rms="4.3132591247558594e-01" purity="7.2500365972518921e-01" nType="-99"/>
        </Node>
        <Node pos="r" depth="1" NCoef="0" IVar="7" Cut="2.0661798095703125e+02" cType="1" res="-2.5808986276388168e-02" rms="4.6265554428100586e-01" purity="4.2049115896224976e-01" nType="0">
          <Node pos="l" depth="2" NCoef="0" IVar="-1" Cut="0.0000000000000000e+00" cType="1" res="-3.4096985473297536e-04" rms="4.5671281218528748e-01" purity="3.7241539359092712e-01" nType="-99"/>
          <Node pos="r" depth="2" NCoef="0" IVar="-1" Cut="0.0000000000000000e+00" cType="1" res="4.3245218694210052e-04" rms="4.5978456735610962e-01" purity="6.6137546300888062e-01" nType="-99"/>
        </Node>
      </Node>
    </BinaryTree>
    <BinaryTree type="DecisionTree" boostWeight="1.0000000000000000e+00" itree="601">
      <Node pos="s" depth="0" NCoef="0" IVar="3" Cut="3.9920037984848022e-01" cType="1" res="2.5393176823854446e-02" rms="4.6196120977401733e-01" purity="4.9760675430297852e-01" nType="0">
        <Node pos="l" depth="1" NCoef="0" IVar="1" Cut="8.1540203094482422e-01" cType="1" res="-1.9699677824974060e-02" rms="4.6273899078369141e-01" purity="4.0152984857559204e-01" nType="0">
          <Node pos="l" depth="2" NCoef="0" IVar="-1" Cut="0.0000000000000000e+00" cType="1" res="-5.5223389063030481e-04" rms="4.4438827037811279e-01" purity="3.3008646965026855e-01" nType="-99"/>
          <Node pos="r" depth="2" NCoef="0" IVar="-1" Cut="0.0000000000000000e+00" cType="1" res="1.6916880849748850e-04" rms="4.7129526734352112e-01" purity="4.6471863985061646e-01" nType="-99"/>
        </Node>
        <Node pos="r" depth="1" NCoef="0" IVar="7" Cut="1.1900796508789062e+02" cType="1" res="1.1326019465923309e-01" rms="4.4757556915283203e-01" purity="6.8482017517089844e-01" nType="0">
          <Node pos="l" depth="2" NCoef="0" IVar="-1" Cut="0.0000000000000000e+00" cType="1" res="1.6467220848426223e-04" rms="4.7674572467803955e-01" purity="5.8355885744094849e-01" nType="-99"/>
          <Node pos="r" depth="2" NCoef="0" IVar="-1" Cut="0.0000000000000000e+00" cType="1" res="4.9273186596110463e-04" rms="4.1314736008644104e-01" purity="7.6842981576919556e-01" nType="-99"/>
        </Node>
      </Node>
    </BinaryTree>
    <BinaryTree type="DecisionTree" boostWeight="1.0000000000000000e+00" itree="602">
      <Node pos="s" depth="0" NCoef="0" IVar="5" Cut="3.2019088745117188e+02" cType="1" res="2.8430135920643806e-02" rms="4.6254098415374756e-01" purity="5.0000780820846558e-01" nType="0">
        <Node pos="l" depth="1" NCoef="0" IVar="5" Cut="2.7512997436523438e+02" cType="1" res="-9.4054333865642548e-02" rms="4.1471785306930542e-01" purity="2.5699844956398010e-01" nType="0">
          <Node pos="l" depth="2" NCoef="0" IVar="-1" Cut="0.0000000000000000e+00" cType="1" res="-2.5473474524915218e-03" rms="3.4738469123840332e-01" purity="1.5680059790611267e-01" nType="-99"/>
          <Node pos="r" depth="2" NCoef="0" IVar="-1" Cut="0.0000000000000000e+00" cType="1" res="-2.7260603383183479e-04" rms="4.4350525736808777e-01" purity="3.2106664776802063e-01" nType="-99"/>
        </Node>
        <Node pos="r" depth="1" NCoef="0" IVar="6" Cut="1.8720497131347656e+02" cType="1" res="5.2532568573951721e-02" rms="4.6761798858642578e-01" purity="5.4782712459564209e-01" nType="0">
          <Node pos="l" depth="2" NCoef="0" IVar="-1" Cut="0.0000000000000000e+00" cType="1" res="3.5875837784260511e-04" rms="4.6067720651626587e-01" purity="5.9222370386123657e-01" nType="-99"/>
          <Node pos="r" depth="2" NCoef="0" IVar="-1" Cut="0.0000000000000000e+00" cType="1" res="-3.0379433883354068e-04" rms="4.6587222814559937e-01" purity="4.3699455261230469e-01" nType="-99"/>
        </Node>
      </Node>
    </BinaryTree>
    <BinaryTree type="DecisionTree" boostWeight="1.0000000000000000e+00" itree="603">
      <Node pos="s" depth="0" NCoef="0" IVar="4" Cut="9.5068365335464478e-01" cType="1" res="3.8183070719242096e-02" rms="4.6478557586669922e-01" purity="5.0872236490249634e-01" nType="0">
        <Node pos="l" depth="1" NCoef="0" IVar="3" Cut="3.1112849712371826e-01" cType="1" res="8.8200882077217102e-02" rms="4.5657953619956970e-01" purity="5.8458852767944336e-01" nType="0">
          <Node pos="l" depth="2" NCoef="0" IVar="-1" Cut="0.0000000000000000e+00" cType="1" res="1.0127152927452698e-04" rms="4.7119084000587463e-01" purity="4.2892345786094666e-01" nType="-99"/>
          <Node pos="r" depth="2" NCoef="0" IVar="-1" Cut="0.0000000000000000e+00" cType="1" res="4.3708586599677801e-04" rms="4.3748620152473450e-01" purity="7.0614039897918701e-01" nType="-99"/>
        </Node>
        <Node pos="r" depth="1" NCoef="0" IVar="1" Cut="8.9427149295806885e-01" cType="1" res="-1.3863764703273773e-02" rms="4.6752640604972839e-01" purity="4.2977863550186157e-01" nType="0">
          <Node pos="l" depth="2" NCoef="0" IVar="-1" Cut="0.0000000000000000e+00" cType="1" res="-3.9448062307201326e-04" rms="4.5883786678314209e-01" purity="3.6798566579818726e-01" nType="-99"/>
          <Node pos="r" depth="2" NCoef="0" IVar="-1" Cut="0.0000000000000000e+00" cType="1" res="2.5539370835758746e-04" rms="4.6969655156135559e-01" purity="5.1684278249740601e-01" nType="-99"/>
        </Node>
      </Node>
    </BinaryTree>
    <BinaryTree type="DecisionTree" boostWeight="1.0000000000000000e+00" itree="604">
      <Node pos="s" depth="0" NCoef="0" IVar="4" Cut="8.6724931001663208e-01" cType="1" res="3.4947466105222702e-02" rms="4.6233439445495605e-01" purity="5.0817143917083740e-01" nType="0">
        <Node pos="l" depth="1" NCoef="0" IVar="3" Cut="2.6344850659370422e-01" cType="1" res="1.0675475746393204e-01" rms="4.5286428928375244e-01" purity="6.1337059736251831e-01" nType="0">
          <Node pos="l" depth="2" NCoef="0" IVar="-1" Cut="0.0000000000000000e+00" cType="1" res="9.7586933407001197e-05" rms="4.7617596387863159e-01" purity="4.1419377923011780e-01" nType="-99"/>
          <Node pos="r" depth="2" NCoef="0" IVar="-1" Cut="0.0000000000000000e+00" cType="1" res="4.5611651148647070e-04" rms="4.3620622158050537e-01" purity="7.0259118080139160e-01" nType="-99"/>
        </Node>
        <Node pos="r" depth="1" NCoef="0" IVar="1" Cut="7.1048170328140259e-01" cType="1" res="-1.3501926325261593e-02" rms="4.6235758066177368e-01" purity="4.3719217181205750e-01" nType="0">
          <Node pos="l" depth="2" NCoef="0" IVar="-1" Cut="0.0000000000000000e+00" cType="1" res="-8.7450485443696380e-04" rms="4.3309259414672852e-01" purity="3.0584362149238586e-01" nType="-99"/>
          <Node pos="r" depth="2" NCoef="0" IVar="-1" Cut="0.0000000000000000e+00" cType="1" res="8.6171741713769734e-05" rms="4.6584722399711609e-01" purity="4.7606852650642395e-01" nType="-99"/>
        </Node>
      </Node>
    </BinaryTree>
    <BinaryTree type="DecisionTree" boostWeight="1.0000000000000000e+00" itree="605">
      <Node pos="s" depth="0" NCoef="0" IVar="5" Cut="3.0531979370117188e+02" cType="1" res="1.7689421772956848e-02" rms="4.6128803491592407e-01" purity="4.8977375030517578e-01" nType="0">
        <Node pos="l" depth="1" NCoef="0" IVar="1" Cut="8.4138607978820801e-01" cType="1" res="-1.3392931222915649e-01" rms="3.9015713334083557e-01" purity="2.0452818274497986e-01" nType="0">
          <Node pos="l" depth="2" NCoef="0" IVar="-1" Cut="0.0000000000000000e+00" cType="1" res="-2.5421211030334234e-03" rms="3.5756745934486389e-01" purity="1.6049787402153015e-01" nType="-99"/>
          <Node pos="r" depth="2" NCoef="0" IVar="-1" Cut="0.0000000000000000e+00" cType="1" res="-8.1140233669430017e-04" rms="4.1974070668220520e-01" purity="2.5478324294090271e-01" nType="-99"/>
        </Node>
        <Node pos="r" depth="1" NCoef="0" IVar="3" Cut="3.3344718813896179e-01" cType="1" res="3.9397615939378738e-02" rms="4.6657833456993103e-01" purity="5.3061413764953613e-01" nType="0">
          <Node pos="l" depth="2" NCoef="0" IVar="-1" Cut="0.0000000000000000e+00" cType="1" res="-1.0373345139669254e-04" rms="4.7012594342231750e-01" purity="3.9216893911361694e-01" nType="-99"/>
          <Node pos="r" depth="2" NCoef="0" IVar="-1" Cut="0.0000000000000000e+00" cType="1" res="3.2363054924644530e-04" rms="4.5540228486061096e-01" purity="6.7128276824951172e-01" nType="-99"/>
        </Node>
      </Node>
    </BinaryTree>
    <BinaryTree type="DecisionTree" boostWeight="1.0000000000000000e+00" itree="606">
      <Node pos="s" depth="0" NCoef="0" IVar="5" Cut="4.0319219970703125e+02" cType="1" res="3.0156519263982773e-02" rms="4.6193772554397583e-01" purity="5.0337970256805420e-01" nType="0">
        <Node pos="l" depth="1" NCoef="0" IVar="4" Cut="7.4653732776641846e-01" cType="1" res="-4.6518072485923767e-02" rms="4.4532948732376099e-01" purity="3.4142014384269714e-01" nType="0">
          <Node pos="l" depth="2" NCoef="0" IVar="-1" Cut="0.0000000000000000e+00" cType="1" res="3.2154336804524064e-04" rms="4.7858822345733643e-01" purity="5.1240897178649902e-01" nType="-99"/>
          <Node pos="r" depth="2" NCoef="0" IVar="-1" Cut="0.0000000000000000e+00" cType="1" res="-5.6259398115798831e-04" rms="4.3244808912277222e-01" purity="3.0203834176063538e-01" nType="-99"/>
        </Node>
        <Node pos="r" depth="1" NCoef="0" IVar="3" Cut="2.0018224418163300e-01" cType="1" res="7.6304748654365540e-02" rms="4.6560442447662354e-01" purity="6.0085844993591309e-01" nType="0">
          <Node pos="l" depth="2" NCoef="0" IVar="-1" Cut="0.0000000000000000e+00" cType="1" res="-3.1023949850350618e-04" rms="4.7154957056045532e-01" purity="3.5616639256477356e-01" nType="-99"/>
          <Node pos="r" depth="2" NCoef="0" IVar="-1" Cut="0.0000000000000000e+00" cType="1" res="3.4211506135761738e-04" rms="4.6011397242546082e-01" purity="6.4913034439086914e-01" nType="-99"/>
        </Node>
      </Node>
    </BinaryTree>
    <BinaryTree type="DecisionTree" boostWeight="1.0000000000000000e+00" itree="607">
      <Node pos="s" depth="0" NCoef="0" IVar="4" Cut="7.0533585548400879e-01" cType="1" res="3.2307554036378860e-02" rms="4.6336078643798828e-01" purity="5.0363153219223022e-01" nType="0">
        <Node pos="l" depth="1" NCoef="0" IVar="5" Cut="4.1220617675781250e+02" cType="1" res="1.6264733672142029e-01" rms="4.3239343166351318e-01" purity="7.0104086399078369e-01" nType="0">
          <Node pos="l" depth="2" NCoef="0" IVar="-1" Cut="0.0000000000000000e+00" cType="1" res="3.3552126842550933e-04" rms="4.7883340716362000e-01" purity="5.3138446807861328e-01" nType="-99"/>
          <Node pos="r" depth="2" NCoef="0" IVar="-1" Cut="0.0000000000000000e+00" cType="1" res="5.5038265418261290e-04" rms="4.0768006443977356e-01" purity="7.6954042911529541e-01" nType="-99"/>
        </Node>
        <Node pos="r" depth="1" NCoef="0" IVar="1" Cut="8.9453113079071045e-01" cType="1" res="3.1332105863839388e-03" rms="4.6503597497940063e-01" purity="4.5944482088088989e-01" nType="0">
          <Node pos="l" depth="2" NCoef="0" IVar="-1" Cut="0.0000000000000000e+00" cType="1" res="-2.4634654982946813e-04" rms="4.5615240931510925e-01" purity="4.0504589676856995e-01" nType="-99"/>
          <Node pos="r" depth="2" NCoef="0" IVar="-1" Cut="0.0000000000000000e+00" cType="1" res="3.6554597318172455e-04" rms="4.6774491667747498e-01" purity="5.5669194459915161e-01" nType="-99"/>
        </Node>
      </Node>
    </BinaryTree>
    <BinaryTree type="DecisionTree" boostWeight="1.0000000000000000e+00" itree="608">
      <Node pos="s" depth="0" NCoef="0" IVar="5" Cut="3.1542709350585938e+02" cType="1" res="2.2484486922621727e-02" rms="4.6343255043029785e-01" purity="4.9215829372406006e-01" nType="0">
        <Node pos="l" depth="1" NCoef="0" IVar="7" Cut="8.7795478820800781e+01" cType="1" res="-1.0788507759571075e-01" rms="4.0578183531761169e-01" purity="2.3775926232337952e-01" nType="0">
          <Node pos="l" depth="2" NCoef="0" IVar="-1" Cut="0.0000000000000000e+00" cType="1" res="-1.6818913863971829e-03" rms="3.8308927416801453e-01" purity="1.9688503444194794e-01" nType="-99"/>
          <Node pos="r" depth="2" NCoef="0" IVar="-1" Cut="0.0000000000000000e+00" cType="1" res="-4.7808935050852597e-04" rms="4.3000221252441406e-01" purity="2.9323050379753113e-01" nType="-99"/>
        </Node>
        <Node pos="r" depth="1" NCoef="0" IVar="3" Cut="4.6580612659454346e-01" cType="1" res="4.5866373926401138e-02" rms="4.6921437978744507e-01" purity="5.3778499364852905e-01" nType="0">
          <Node pos="l" depth="2" NCoef="0" IVar="-1" Cut="0.0000000000000000e+00" cType="1" res="8.5388601291924715e-05" rms="4.7542470693588257e-01" purity="4.8639455437660217e-01" nType="-99"/>
          <Node pos="r" depth="2" NCoef="0" IVar="-1" Cut="0.0000000000000000e+00" cType="1" res="4.7197632375173271e-04" rms="4.2415365576744080e-01" purity="7.5210255384445190e-01" nType="-99"/>
        </Node>
      </Node>
    </BinaryTree>
    <BinaryTree type="DecisionTree" boostWeight="1.0000000000000000e+00" itree="609">
      <Node pos="s" depth="0" NCoef="0" IVar="4" Cut="9.1005152463912964e-01" cType="1" res="3.0573107302188873e-02" rms="4.6214440464973450e-01" purity="5.0278794765472412e-01" nType="0">
        <Node pos="l" depth="1" NCoef="0" IVar="3" Cut="3.3335193991661072e-01" cType="1" res="9.1809138655662537e-02" rms="4.5498412847518921e-01" purity="5.9322810173034668e-01" nType="0">
          <Node pos="l" depth="2" NCoef="0" IVar="-1" Cut="0.0000000000000000e+00" cType="1" res="1.7975155788008124e-04" rms="4.7410115599632263e-01" purity="4.6159595251083374e-01" nType="-99"/>
          <Node pos="r" depth="2" NCoef="0" IVar="-1" Cut="0.0000000000000000e+00" cType="1" res="4.4619099935516715e-04" rms="4.2846247553825378e-01" purity="7.2462314367294312e-01" nType="-99"/>
        </Node>
        <Node pos="r" depth="1" NCoef="0" IVar="7" Cut="1.0267624664306641e+02" cType="1" res="-2.1075136959552765e-02" rms="4.6182885766029358e-01" purity="4.2650803923606873e-01" nType="0">
          <Node pos="l" depth="2" NCoef="0" IVar="-1" Cut="0.0000000000000000e+00" cType="1" res="-7.6009810436517000e-04" rms="4.3194216489791870e-01" purity="2.9768297076225281e-01" nType="-99"/>
          <Node pos="r" depth="2" NCoef="0" IVar="-1" Cut="0.0000000000000000e+00" cType="1" res="1.2053845421178266e-04" rms="4.7219225764274597e-01" purity="5.0367301702499390e-01" nType="-99"/>
        </Node>
      </Node>
    </BinaryTree>
    <BinaryTree type="DecisionTree" boostWeight="1.0000000000000000e+00" itree="610">
      <Node pos="s" depth="0" NCoef="0" IVar="3" Cut="4.6709191799163818e-01" cType="1" res="3.3139426261186600e-02" rms="4.6291598677635193e-01" purity="5.0447529554367065e-01" nType="0">
        <Node pos="l" depth="1" NCoef="0" IVar="4" Cut="8.5431212186813354e-01" cType="1" res="7.0056566037237644e-03" rms="4.6552079916000366e-01" purity="4.5336580276489258e-01" nType="0">
          <Node pos="l" depth="2" NCoef="0" IVar="-1" Cut="0.0000000000000000e+00" cType="1" res="3.0089734354987741e-04" rms="4.6601757407188416e-01" purity="5.6330144405364990e-01" nType="-99"/>
          <Node pos="r" depth="2" NCoef="0" IVar="-1" Cut="0.0000000000000000e+00" cType="1" res="-2.0016665803268552e-04" rms="4.6001541614532471e-01" purity="3.8682174682617188e-01" nType="-99"/>
        </Node>
        <Node pos="r" depth="1" NCoef="0" IVar="6" Cut="1.3781402587890625e+02" cType="1" res="1.4212517440319061e-01" rms="4.3529269099235535e-01" purity="7.1761745214462280e-01" nType="0">
          <Node pos="l" depth="2" NCoef="0" IVar="-1" Cut="0.0000000000000000e+00" cType="1" res="5.6231860071420670e-04" rms="4.1823926568031311e-01" purity="7.5131267309188843e-01" nType="-99"/>
          <Node pos="r" depth="2" NCoef="0" IVar="-1" Cut="0.0000000000000000e+00" cType="1" res="2.8092483989894390e-04" rms="4.5085591077804565e-01" purity="6.7186051607131958e-01" nType="-99"/>
        </Node>
      </Node>
    </BinaryTree>
    <BinaryTree type="DecisionTree" boostWeight="1.0000000000000000e+00" itree="611">
      <Node pos="s" depth="0" NCoef="0" IVar="7" Cut="1.4174293518066406e+02" cType="1" res="3.7957862019538879e-02" rms="4.6024572849273682e-01" purity="5.1245319843292236e-01" nType="0">
        <Node pos="l" depth="1" NCoef="0" IVar="4" Cut="7.9637640714645386e-01" cType="1" res="-9.9132461473345757e-03" rms="4.5575976371765137e-01" purity="4.3443328142166138e-01" nType="0">
          <Node pos="l" depth="2" NCoef="0" IVar="-1" Cut="0.0000000000000000e+00" cType="1" res="3.3032408100552857e-04" rms="4.5760619640350342e-01" purity="5.8413326740264893e-01" nType="-99"/>
          <Node pos="r" depth="2" NCoef="0" IVar="-1" Cut="0.0000000000000000e+00" cType="1" res="-3.0506186885759234e-04" rms="4.4850948452949524e-01" purity="3.7018594145774841e-01" nType="-99"/>
        </Node>
        <Node pos="r" depth="1" NCoef="0" IVar="6" Cut="1.6306341552734375e+02" cType="1" res="1.1624133586883545e-01" rms="4.5680418610572815e-01" purity="6.4003896713256836e-01" nType="0">
          <Node pos="l" depth="2" NCoef="0" IVar="-1" Cut="0.0000000000000000e+00" cType="1" res="5.4217461729422212e-04" rms="4.3428546190261841e-01" purity="7.0351600646972656e-01" nType="-99"/>
          <Node pos="r" depth="2" NCoef="0" IVar="-1" Cut="0.0000000000000000e+00" cType="1" res="1.8834412912838161e-04" rms="4.7040766477584839e-01" purity="5.7315403223037720e-01" nType="-99"/>
        </Node>
      </Node>
    </BinaryTree>
    <BinaryTree type="DecisionTree" boostWeight="1.0000000000000000e+00" itree="612">
      <Node pos="s" depth="0" NCoef="0" IVar="5" Cut="4.7085949707031250e+02" cType="1" res="3.6954175680875778e-02" rms="4.6239832043647766e-01" purity="5.1038765907287598e-01" nType="0">
        <Node pos="l" depth="1" NCoef="0" IVar="6" Cut="1.4484846496582031e+02" cType="1" res="-1.6275256872177124e-02" rms="4.5996886491775513e-01" purity="3.9815980195999146e-01" nType="0">
          <Node pos="l" depth="2" NCoef="0" IVar="-1" Cut="0.0000000000000000e+00" cType="1" res="1.3940440840087831e-04" rms="4.6524465084075928e-01" purity="4.4433456659317017e-01" nType="-99"/>
          <Node pos="r" depth="2" NCoef="0" IVar="-1" Cut="0.0000000000000000e+00" cType="1" res="-7.9402839764952660e-04" rms="4.3422687053680420e-01" purity="3.0015823245048523e-01" nType="-99"/>
        </Node>
        <Node pos="r" depth="1" NCoef="0" IVar="4" Cut="1.2848997116088867e+00" cType="1" res="9.7774446010589600e-02" rms="4.5764183998107910e-01" purity="6.3861984014511108e-01" nType="0">
          <Node pos="l" depth="2" NCoef="0" IVar="-1" Cut="0.0000000000000000e+00" cType="1" res="4.0324826841242611e-04" rms="4.4778338074684143e-01" purity="6.7183393239974976e-01" nType="-99"/>
          <Node pos="r" depth="2" NCoef="0" IVar="-1" Cut="0.0000000000000000e+00" cType="1" res="-2.5151501176878810e-04" rms="4.7950062155723572e-01" purity="4.6020817756652832e-01" nType="-99"/>
        </Node>
      </Node>
    </BinaryTree>
    <BinaryTree type="DecisionTree" boostWeight="1.0000000000000000e+00" itree="613">
      <Node pos="s" depth="0" NCoef="0" IVar="7" Cut="1.1768325805664062e+02" cType="1" res="1.7655014991760254e-02" rms="4.6303200721740723e-01" purity="4.8818364739418030e-01" nType="0">
        <Node pos="l" depth="1" NCoef="0" IVar="1" Cut="7.4976080656051636e-01" cType="1" res="-4.5786358416080475e-02" rms="4.5289382338523865e-01" purity="3.8283628225326538e-01" nType="0">
          <Node pos="l" depth="2" NCoef="0" IVar="-1" Cut="0.0000000000000000e+00" cType="1" res="-9.3574047787114978e-04" rms="4.2357409000396729e-01" purity="2.9359415173530579e-01" nType="-99"/>
          <Node pos="r" depth="2" NCoef="0" IVar="-1" Cut="0.0000000000000000e+00" cType="1" res="-4.1252089431509376e-05" rms="4.6202108263969421e-01" purity="4.2693927884101868e-01" nType="-99"/>
        </Node>
        <Node pos="r" depth="1" NCoef="0" IVar="6" Cut="1.6130949401855469e+02" cType="1" res="7.5088456273078918e-02" rms="4.6461039781570435e-01" purity="5.8355456590652466e-01" nType="0">
          <Node pos="l" depth="2" NCoef="0" IVar="-1" Cut="0.0000000000000000e+00" cType="1" res="4.2811801540665329e-04" rms="4.5028889179229736e-01" purity="6.3614410161972046e-01" nType="-99"/>
          <Node pos="r" depth="2" NCoef="0" IVar="-1" Cut="0.0000000000000000e+00" cType="1" res="6.2256745877675712e-05" rms="4.7306472063064575e-01" purity="5.2434152364730835e-01" nType="-99"/>
        </Node>
      </Node>
    </BinaryTree>
    <BinaryTree type="DecisionTree" boostWeight="1.0000000000000000e+00" itree="614">
      <Node pos="s" depth="0" NCoef="0" IVar="3" Cut="4.2260697484016418e-01" cType="1" res="3.8476008921861649e-02" rms="4.6261292695999146e-01" purity="5.1143777370452881e-01" nType="0">
        <Node pos="l" depth="1" NCoef="0" IVar="4" Cut="6.8764555454254150e-01" cType="1" res="3.7371658254414797e-03" rms="4.6553516387939453e-01" purity="4.3732959032058716e-01" nType="0">
          <Node pos="l" depth="2" NCoef="0" IVar="-1" Cut="0.0000000000000000e+00" cType="1" res="4.2630947427824140e-04" rms="4.5627632737159729e-01" purity="6.4598560333251953e-01" nType="-99"/>
          <Node pos="r" depth="2" NCoef="0" IVar="-1" Cut="0.0000000000000000e+00" cType="1" res="-1.0967240814352408e-04" rms="4.6347996592521667e-01" purity="3.9763471484184265e-01" nType="-99"/>
        </Node>
        <Node pos="r" depth="1" NCoef="0" IVar="3" Cut="5.3382140398025513e-01" cType="1" res="1.2657949328422546e-01" rms="4.4306784868240356e-01" purity="6.9938838481903076e-01" nType="0">
          <Node pos="l" depth="2" NCoef="0" IVar="-1" Cut="0.0000000000000000e+00" cType="1" res="2.8666842263191938e-04" rms="4.5595780014991760e-01" purity="6.5894544124603271e-01" nType="-99"/>
          <Node pos="r" depth="2" NCoef="0" IVar="-1" Cut="0.0000000000000000e+00" cType="1" res="5.6657864479348063e-04" rms="4.1260606050491333e-01" purity="7.6527231931686401e-01" nType="-99"/>
        </Node>
      </Node>
    </BinaryTree>
    <BinaryTree type="DecisionTree" boostWeight="1.0000000000000000e+00" itree="615">
      <Node pos="s" depth="0" NCoef="0" IVar="3" Cut="1.7586788535118103e-01" cType="1" res="1.8726484850049019e-02" rms="4.6186023950576782e-01" purity="4.8983216285705566e-01" nType="0">
        <Node pos="l" depth="1" NCoef="0" IVar="0" Cut="1.0892120361328125e+02" cType="1" res="-1.2061925977468491e-01" rms="4.0248683094978333e-01" purity="2.2346466779708862e-01" nType="0">
          <Node pos="l" depth="2" NCoef="0" IVar="-1" Cut="0.0000000000000000e+00" cType="1" res="-6.7702925298362970e-04" rms="4.0779942274093628e-01" purity="2.3632484674453735e-01" nType="-99"/>
          <Node pos="r" depth="2" NCoef="0" IVar="-1" Cut="0.0000000000000000e+00" cType="1" res="-1.6405301867052913e-03" rms="3.9481037855148315e-01" purity="2.1393948793411255e-01" nType="-99"/>
        </Node>
        <Node pos="r" depth="1" NCoef="0" IVar="5" Cut="6.4833721923828125e+02" cType="1" res="3.9762336760759354e-02" rms="4.6657082438468933e-01" purity="5.3004342317581177e-01" nType="0">
          <Node pos="l" depth="2" NCoef="0" IVar="-1" Cut="0.0000000000000000e+00" cType="1" res="6.4646141254343092e-05" rms="4.6933946013450623e-01" purity="4.8525387048721313e-01" nType="-99"/>
          <Node pos="r" depth="2" NCoef="0" IVar="-1" Cut="0.0000000000000000e+00" cType="1" res="4.2509334161877632e-04" rms="4.4270625710487366e-01" purity="6.9955682754516602e-01" nType="-99"/>
        </Node>
      </Node>
    </BinaryTree>
    <BinaryTree type="DecisionTree" boostWeight="1.0000000000000000e+00" itree="616">
      <Node pos="s" depth="0" NCoef="0" IVar="3" Cut="4.0036448836326599e-01" cType="1" res="3.3770803362131119e-02" rms="4.6202653646469116e-01" purity="5.0655949115753174e-01" nType="0">
        <Node pos="l" depth="1" NCoef="0" IVar="7" Cut="1.6723071289062500e+02" cType="1" res="-5.4241428151726723e-03" rms="4.6349388360977173e-01" purity="4.1914644837379456e-01" nType="0">
          <Node pos="l" depth="2" NCoef="0" IVar="-1" Cut="0.0000000000000000e+00" cType="1" res="-2.0906302961520851e-04" rms="4.5430842041969299e-01" purity="3.6593514680862427e-01" nType="-99"/>
          <Node pos="r" depth="2" NCoef="0" IVar="-1" Cut="0.0000000000000000e+00" cType="1" res="2.9616153915412724e-04" rms="4.7931876778602600e-01" purity="5.7919079065322876e-01" nType="-99"/>
        </Node>
        <Node pos="r" depth="1" NCoef="0" IVar="5" Cut="3.2853936767578125e+02" cType="1" res="1.1328389495611191e-01" rms="4.4863641262054443e-01" purity="6.8389052152633667e-01" nType="0">
          <Node pos="l" depth="2" NCoef="0" IVar="-1" Cut="0.0000000000000000e+00" cType="1" res="-4.7192905185511336e-05" rms="4.8909854888916016e-01" purity="4.6099984645843506e-01" nType="-99"/>
          <Node pos="r" depth="2" NCoef="0" IVar="-1" Cut="0.0000000000000000e+00" cType="1" res="4.3174583697691560e-04" rms="4.3477788567543030e-01" purity="7.3215448856353760e-01" nType="-99"/>
        </Node>
      </Node>
    </BinaryTree>
    <BinaryTree type="DecisionTree" boostWeight="1.0000000000000000e+00" itree="617">
      <Node pos="s" depth="0" NCoef="0" IVar="3" Cut="3.3335193991661072e-01" cType="1" res="3.5671085119247437e-02" rms="4.6195349097251892e-01" purity="5.0886988639831543e-01" nType="0">
        <Node pos="l" depth="1" NCoef="0" IVar="7" Cut="1.6013603210449219e+02" cType="1" res="-2.0402839407324791e-02" rms="4.6033963561058044e-01" purity="3.6907514929771423e-01" nType="0">
          <Node pos="l" depth="2" NCoef="0" IVar="-1" Cut="0.0000000000000000e+00" cType="1" res="-4.1324790799990296e-04" rms="4.4362887740135193e-01" purity="3.0459618568420410e-01" nType="-99"/>
          <Node pos="r" depth="2" NCoef="0" IVar="-1" Cut="0.0000000000000000e+00" cType="1" res="2.9121962143108249e-04" rms="4.8874464631080627e-01" purity="5.3571236133575439e-01" nType="-99"/>
        </Node>
        <Node pos="r" depth="1" NCoef="0" IVar="4" Cut="8.0546510219573975e-01" cType="1" res="9.1666556894779205e-02" rms="4.5674064755439758e-01" purity="6.4846903085708618e-01" nType="0">
          <Node pos="l" depth="2" NCoef="0" IVar="-1" Cut="0.0000000000000000e+00" cType="1" res="5.3129112347960472e-04" rms="4.0402144193649292e-01" purity="7.7478688955307007e-01" nType="-99"/>
          <Node pos="r" depth="2" NCoef="0" IVar="-1" Cut="0.0000000000000000e+00" cType="1" res="1.7466937424615026e-04" rms="4.7350853681564331e-01" purity="5.8789783716201782e-01" nType="-99"/>
        </Node>
      </Node>
    </BinaryTree>
    <BinaryTree type="DecisionTree" boostWeight="1.0000000000000000e+00" itree="618">
      <Node pos="s" depth="0" NCoef="0" IVar="4" Cut="1.0176051855087280e+00" cType="1" res="2.4224037304520607e-02" rms="4.6286836266517639e-01" purity="4.9531024694442749e-01" nType="0">
        <Node pos="l" depth="1" NCoef="0" IVar="3" Cut="3.5269692540168762e-01" cType="1" res="6.9547906517982483e-02" rms="4.5926010608673096e-01" purity="5.5897545814514160e-01" nType="0">
          <Node pos="l" depth="2" NCoef="0" IVar="-1" Cut="0.0000000000000000e+00" cType="1" res="7.4515693995635957e-05" rms="4.7245365381240845e-01" purity="4.3046200275421143e-01" nType="-99"/>
          <Node pos="r" depth="2" NCoef="0" IVar="-1" Cut="0.0000000000000000e+00" cType="1" res="4.2368817958049476e-04" rms="4.3348753452301025e-01" purity="7.1512907743453979e-01" nType="-99"/>
        </Node>
        <Node pos="r" depth="1" NCoef="0" IVar="1" Cut="8.6786812543869019e-01" cType="1" res="-4.3185647577047348e-02" rms="4.5999610424041748e-01" purity="4.0062162280082703e-01" nType="0">
          <Node pos="l" depth="2" NCoef="0" IVar="-1" Cut="0.0000000000000000e+00" cType="1" res="-7.2956894291564822e-04" rms="4.4127902388572693e-01" purity="3.2045710086822510e-01" nType="-99"/>
          <Node pos="r" depth="2" NCoef="0" IVar="-1" Cut="0.0000000000000000e+00" cType="1" res="9.5967028755694628e-05" rms="4.6816936135292053e-01" purity="4.7645974159240723e-01" nType="-99"/>
        </Node>
      </Node>
    </BinaryTree>
    <BinaryTree type="DecisionTree" boostWeight="1.0000000000000000e+00" itree="619">
      <Node pos="s" depth="0" NCoef="0" IVar="5" Cut="6.8379821777343750e+02" cType="1" res="2.3968176916241646e-02" rms="4.6109259128570557e-01" purity="4.9659743905067444e-01" nType="0">
        <Node pos="l" depth="1" NCoef="0" IVar="3" Cut="4.8891618847846985e-01" cType="1" res="-8.8027206948027015e-04" rms="4.6145704388618469e-01" purity="4.5398730039596558e-01" nType="0">
          <Node pos="l" depth="2" NCoef="0" IVar="-1" Cut="0.0000000000000000e+00" cType="1" res="-1.4461690443567932e-04" rms="4.6072182059288025e-01" purity="4.0586146712303162e-01" nType="-99"/>
          <Node pos="r" depth="2" NCoef="0" IVar="-1" Cut="0.0000000000000000e+00" cType="1" res="4.2124409810639918e-04" rms="4.4237023591995239e-01" purity="7.0106250047683716e-01" nType="-99"/>
        </Node>
        <Node pos="r" depth="1" NCoef="0" IVar="3" Cut="2.8084138035774231e-01" cType="1" res="1.3998202979564667e-01" rms="4.4124215841293335e-01" purity="6.9553804397583008e-01" nType="0">
          <Node pos="l" depth="2" NCoef="0" IVar="-1" Cut="0.0000000000000000e+00" cType="1" res="2.2783312306273729e-04" rms="4.9000591039657593e-01" purity="5.2713572978973389e-01" nType="-99"/>
          <Node pos="r" depth="2" NCoef="0" IVar="-1" Cut="0.0000000000000000e+00" cType="1" res="4.9275282071903348e-04" rms="4.1174808144569397e-01" purity="7.7160799503326416e-01" nType="-99"/>
        </Node>
      </Node>
    </BinaryTree>
    <BinaryTree type="DecisionTree" boostWeight="1.0000000000000000e+00" itree="620">
      <Node pos="s" depth="0" NCoef="0" IVar="7" Cut="9.4884880065917969e+01" cType="1" res="3.1352043151855469e-02" rms="4.6115019917488098e-01" purity="5.0396138429641724e-01" nType="0">
        <Node pos="l" depth="1" NCoef="0" IVar="3" Cut="3.9857223629951477e-01" cType="1" res="-4.7727901488542557e-02" rms="4.4402384757995605e-01" purity="3.8017684221267700e-01" nType="0">
          <Node pos="l" depth="2" NCoef="0" IVar="-1" Cut="0.0000000000000000e+00" cType="1" res="-7.8724377090111375e-04" rms="4.1820695996284485e-01" purity="2.7589708566665649e-01" nType="-99"/>
          <Node pos="r" depth="2" NCoef="0" IVar="-1" Cut="0.0000000000000000e+00" cType="1" res="1.9973523740191013e-04" rms="4.7535669803619385e-01" purity="5.8709037303924561e-01" nType="-99"/>
        </Node>
        <Node pos="r" depth="1" NCoef="0" IVar="6" Cut="1.9833438110351562e+02" cType="1" res="6.7218840122222900e-02" rms="4.6429285407066345e-01" purity="5.6010395288467407e-01" nType="0">
          <Node pos="l" depth="2" NCoef="0" IVar="-1" Cut="0.0000000000000000e+00" cType="1" res="3.7000630982220173e-04" rms="4.5660042762756348e-01" purity="5.9207892417907715e-01" nType="-99"/>
          <Node pos="r" depth="2" NCoef="0" IVar="-1" Cut="0.0000000000000000e+00" cType="1" res="-7.2704693593550473e-05" rms="4.7199019789695740e-01" purity="4.8336401581764221e-01" nType="-99"/>
        </Node>
      </Node>
    </BinaryTree>
    <BinaryTree type="DecisionTree" boostWeight="1.0000000000000000e+00" itree="621">
      <Node pos="s" depth="0" NCoef="0" IVar="5" Cut="3.2362100219726562e+02" cType="1" res="2.5430327281355858e-02" rms="4.6259465813636780e-01" purity="4.9618154764175415e-01" nType="0">
        <Node pos="l" depth="1" NCoef="0" IVar="3" Cut="4.1440021991729736e-01" cType="1" res="-9.0921849012374878e-02" rms="4.1504439711570740e-01" purity="2.6016563177108765e-01" nType="0">
          <Node pos="l" depth="2" NCoef="0" IVar="-1" Cut="0.0000000000000000e+00" cType="1" res="-1.6236325027421117e-03" rms="3.7516236305236816e-01" purity="1.7840653657913208e-01" nType="-99"/>
          <Node pos="r" depth="2" NCoef="0" IVar="-1" Cut="0.0000000000000000e+00" cType="1" res="-7.1848327934276313e-05" rms="4.8951080441474915e-01" purity="4.5613086223602295e-01" nType="-99"/>
        </Node>
        <Node pos="r" depth="1" NCoef="0" IVar="4" Cut="1.3528323173522949e+00" cType="1" res="4.9621615558862686e-02" rms="4.6826335787773132e-01" purity="5.4525262117385864e-01" nType="0">
          <Node pos="l" depth="2" NCoef="0" IVar="-1" Cut="0.0000000000000000e+00" cType="1" res="2.7211193810217083e-04" rms="4.6569719910621643e-01" purity="5.6918102502822876e-01" nType="-99"/>
          <Node pos="r" depth="2" NCoef="0" IVar="-1" Cut="0.0000000000000000e+00" cType="1" res="-6.9578661350533366e-04" rms="4.5584616065025330e-01" purity="3.6213871836662292e-01" nType="-99"/>
        </Node>
      </Node>
    </BinaryTree>
    <BinaryTree type="DecisionTree" boostWeight="1.0000000000000000e+00" itree="622">
      <Node pos="s" depth="0" NCoef="0" IVar="3" Cut="2.8831136226654053e-01" cType="1" res="3.8812741637229919e-02" rms="4.5982375741004944e-01" purity="5.1395082473754883e-01" nType="0">
        <Node pos="l" depth="1" NCoef="0" IVar="0" Cut="1.5483056640625000e+02" cType="1" res="-3.9512459188699722e-02" rms="4.5008939504623413e-01" purity="3.3062580227851868e-01" nType="0">
          <Node pos="l" depth="2" NCoef="0" IVar="-1" Cut="0.0000000000000000e+00" cType="1" res="-8.8836488430388272e-05" rms="4.5114624500274658e-01" purity="3.4226351976394653e-01" nType="-99"/>
          <Node pos="r" depth="2" NCoef="0" IVar="-1" Cut="0.0000000000000000e+00" cType="1" res="-9.4176153652369976e-04" rms="4.3578344583511353e-01" purity="2.9177403450012207e-01" nType="-99"/>
        </Node>
        <Node pos="r" depth="1" NCoef="0" IVar="4" Cut="7.3605108261108398e-01" cType="1" res="8.7599389255046844e-02" rms="4.5907908678054810e-01" purity="6.2813907861709595e-01" nType="0">
          <Node pos="l" depth="2" NCoef="0" IVar="-1" Cut="0.0000000000000000e+00" cType="1" res="5.5210140999406576e-04" rms="4.0073087811470032e-01" purity="7.7785229682922363e-01" nType="-99"/>
          <Node pos="r" depth="2" NCoef="0" IVar="-1" Cut="0.0000000000000000e+00" cType="1" res="2.0910674356855452e-04" rms="4.7067528963088989e-01" purity="5.8309161663055420e-01" nType="-99"/>
        </Node>
      </Node>
    </BinaryTree>
    <BinaryTree type="DecisionTree" boostWeight="1.0000000000000000e+00" itree="623">
      <Node pos="s" depth="0" NCoef="0" IVar="4" Cut="7.1329838037490845e-01" cType="1" res="2.8313271701335907e-02" rms="4.6216714382171631e-01" purity="5.0047874450683594e-01" nType="0">
        <Node pos="l" depth="1" NCoef="0" IVar="5" Cut="4.1035070800781250e+02" cType="1" res="1.4128597080707550e-01" rms="4.4258430600166321e-01" purity="6.7702674865722656e-01" nType="0">
          <Node pos="l" depth="2" NCoef="0" IVar="-1" Cut="0.0000000000000000e+00" cType="1" res="2.8886512154713273e-04" rms="4.8312801122665405e-01" purity="5.0963425636291504e-01" nType="-99"/>
          <Node pos="r" depth="2" NCoef="0" IVar="-1" Cut="0.0000000000000000e+00" cType="1" res="5.0207425374537706e-04" rms="4.2054957151412964e-01" purity="7.4739462137222290e-01" nType="-99"/>
        </Node>
        <Node pos="r" depth="1" NCoef="0" IVar="1" Cut="6.9719851016998291e-01" cType="1" res="3.1040164176374674e-03" rms="4.6267548203468323e-01" purity="4.6108293533325195e-01" nType="0">
          <Node pos="l" depth="2" NCoef="0" IVar="-1" Cut="0.0000000000000000e+00" cType="1" res="-6.3857471104711294e-04" rms="4.3908709287643433e-01" purity="3.3953893184661865e-01" nType="-99"/>
          <Node pos="r" depth="2" NCoef="0" IVar="-1" Cut="0.0000000000000000e+00" cType="1" res="1.4880724484100938e-04" rms="4.6492728590965271e-01" purity="4.9638780951499939e-01" nType="-99"/>
        </Node>
      </Node>
    </BinaryTree>
    <BinaryTree type="DecisionTree" boostWeight="1.0000000000000000e+00" itree="624">
      <Node pos="s" depth="0" NCoef="0" IVar="5" Cut="3.8179888916015625e+02" cType="1" res="2.4184502661228180e-02" rms="4.6062794327735901e-01" purity="4.9698400497436523e-01" nType="0">
        <Node pos="l" depth="1" NCoef="0" IVar="0" Cut="1.2103477478027344e+02" cType="1" res="-6.4337715506553650e-02" rms="4.3654707074165344e-01" purity="3.1060546636581421e-01" nType="0">
          <Node pos="l" depth="2" NCoef="0" IVar="-1" Cut="0.0000000000000000e+00" cType="1" res="-2.5054757134057581e-04" rms="4.4694894552230835e-01" purity="3.3988860249519348e-01" nType="-99"/>
          <Node pos="r" depth="2" NCoef="0" IVar="-1" Cut="0.0000000000000000e+00" cType="1" res="-2.1305275149643421e-03" rms="3.6812061071395874e-01" purity="1.8716511130332947e-01" nType="-99"/>
        </Node>
        <Node pos="r" depth="1" NCoef="0" IVar="3" Cut="4.2170709371566772e-01" cType="1" res="6.5650604665279388e-02" rms="4.6573406457901001e-01" purity="5.8428859710693359e-01" nType="0">
          <Node pos="l" depth="2" NCoef="0" IVar="-1" Cut="0.0000000000000000e+00" cType="1" res="1.1783442460000515e-04" rms="4.7879147529602051e-01" purity="5.1102751493453979e-01" nType="-99"/>
          <Node pos="r" depth="2" NCoef="0" IVar="-1" Cut="0.0000000000000000e+00" cType="1" res="4.7601794358342886e-04" rms="4.1625592112541199e-01" purity="7.6897370815277100e-01" nType="-99"/>
        </Node>
      </Node>
    </BinaryTree>
    <BinaryTree type="DecisionTree" boostWeight="1.0000000000000000e+00" itree="625">
      <Node pos="s" depth="0" NCoef="0" IVar="3" Cut="4.2236644029617310e-01" cType="1" res="2.7619732543826103e-02" rms="4.6099746227264404e-01" purity="5.0059449672698975e-01" nType="0">
        <Node pos="l" depth="1" NCoef="0" IVar="4" Cut="8.4527689218521118e-01" cType="1" res="-1.1300993151962757e-02" rms="4.6261715888977051e-01" purity="4.2051804065704346e-01" nType="0">
          <Node pos="l" depth="2" NCoef="0" IVar="-1" Cut="0.0000000000000000e+00" cType="1" res="2.2982835071161389e-04" rms="4.6518296003341675e-01" purity="5.3807157278060913e-01" nType="-99"/>
          <Node pos="r" depth="2" NCoef="0" IVar="-1" Cut="0.0000000000000000e+00" cType="1" res="-3.2186266616918147e-04" rms="4.5636859536170959e-01" purity="3.5226368904113770e-01" nType="-99"/>
        </Node>
        <Node pos="r" depth="1" NCoef="0" IVar="4" Cut="1.0108866691589355e+00" cType="1" res="1.2404167652130127e-01" rms="4.4245061278343201e-01" purity="6.9897544384002686e-01" nType="0">
          <Node pos="l" depth="2" NCoef="0" IVar="-1" Cut="0.0000000000000000e+00" cType="1" res="5.1047583110630512e-04" rms="4.1082757711410522e-01" purity="7.6432877779006958e-01" nType="-99"/>
          <Node pos="r" depth="2" NCoef="0" IVar="-1" Cut="0.0000000000000000e+00" cType="1" res="1.8368577002547681e-04" rms="4.7480881214141846e-01" purity="6.0471391677856445e-01" nType="-99"/>
        </Node>
      </Node>
    </BinaryTree>
    <BinaryTree type="DecisionTree" boostWeight="1.0000000000000000e+00" itree="626">
      <Node pos="s" depth="0" NCoef="0" IVar="5" Cut="3.9535946655273438e+02" cType="1" res="2.7727298438549042e-02" rms="4.6125462651252747e-01" purity="4.9987211823463440e-01" nType="0">
        <Node pos="l" depth="1" NCoef="0" IVar="4" Cut="8.4567552804946899e-01" cType="1" res="-4.9357030540704727e-02" rms="4.4267752766609192e-01" purity="3.3355635404586792e-01" nType="0">
          <Node pos="l" depth="2" NCoef="0" IVar="-1" Cut="0.0000000000000000e+00" cType="1" res="1.5550668467767537e-04" rms="4.6564131975173950e-01" purity="4.5418378710746765e-01" nType="-99"/>
          <Node pos="r" depth="2" NCoef="0" IVar="-1" Cut="0.0000000000000000e+00" cType="1" res="-7.5954379281029105e-04" rms="4.2446956038475037e-01" purity="2.7156761288642883e-01" nType="-99"/>
        </Node>
        <Node pos="r" depth="1" NCoef="0" IVar="4" Cut="9.9844080209732056e-01" cType="1" res="7.0972539484500885e-02" rms="4.6580350399017334e-01" purity="5.9317725896835327e-01" nType="0">
          <Node pos="l" depth="2" NCoef="0" IVar="-1" Cut="0.0000000000000000e+00" cType="1" res="4.0240524685941637e-04" rms="4.5103663206100464e-01" purity="6.6060125827789307e-01" nType="-99"/>
          <Node pos="r" depth="2" NCoef="0" IVar="-1" Cut="0.0000000000000000e+00" cType="1" res="-9.8531609182828106e-06" rms="4.7664070129394531e-01" purity="4.9692815542221069e-01" nType="-99"/>
        </Node>
      </Node>
    </BinaryTree>
    <BinaryTree type="DecisionTree" boostWeight="1.0000000000000000e+00" itree="627">
      <Node pos="s" depth="0" NCoef="0" IVar="4" Cut="6.9979852437973022e-01" cType="1" res="3.5576276481151581e-02" rms="4.6264430880546570e-01" purity="5.0754898786544800e-01" nType="0">
        <Node pos="l" depth="1" NCoef="0" IVar="3" Cut="2.8858956694602966e-01" cType="1" res="1.6003397107124329e-01" rms="4.3527331948280334e-01" purity="6.9909030199050903e-01" nType="0">
          <Node pos="l" depth="2" NCoef="0" IVar="-1" Cut="0.0000000000000000e+00" cType="1" res="4.5309864799492061e-04" rms="4.7776484489440918e-01" purity="5.8131945133209229e-01" nType="-99"/>
          <Node pos="r" depth="2" NCoef="0" IVar="-1" Cut="0.0000000000000000e+00" cType="1" res="5.3662428399547935e-04" rms="4.0403214097023010e-01" purity="7.7377569675445557e-01" nType="-99"/>
        </Node>
        <Node pos="r" depth="1" NCoef="0" IVar="1" Cut="8.2872033119201660e-01" cType="1" res="9.6496911719441414e-03" rms="4.6396180987358093e-01" purity="4.6764776110649109e-01" nType="0">
          <Node pos="l" depth="2" NCoef="0" IVar="-1" Cut="0.0000000000000000e+00" cType="1" res="-2.8040257166139781e-04" rms="4.5792287588119507e-01" purity="3.9415311813354492e-01" nType="-99"/>
          <Node pos="r" depth="2" NCoef="0" IVar="-1" Cut="0.0000000000000000e+00" cType="1" res="2.6575633091852069e-04" rms="4.6276816725730896e-01" purity="5.3431719541549683e-01" nType="-99"/>
        </Node>
      </Node>
    </BinaryTree>
    <BinaryTree type="DecisionTree" boostWeight="1.0000000000000000e+00" itree="628">
      <Node pos="s" depth="0" NCoef="0" IVar="7" Cut="1.1900112152099609e+02" cType="1" res="3.4531250596046448e-02" rms="4.6373835206031799e-01" purity="5.0535011291503906e-01" nType="0">
        <Node pos="l" depth="1" NCoef="0" IVar="6" Cut="1.5987602233886719e+02" cType="1" res="-2.0557047799229622e-02" rms="4.5763900876045227e-01" purity="4.0989747643470764e-01" nType="0">
          <Node pos="l" depth="2" NCoef="0" IVar="-1" Cut="0.0000000000000000e+00" cType="1" res="6.7750610469374806e-05" rms="4.6184131503105164e-01" purity="4.4476079940795898e-01" nType="-99"/>
          <Node pos="r" depth="2" NCoef="0" IVar="-1" Cut="0.0000000000000000e+00" cType="1" res="-9.7402126993983984e-04" rms="4.2528119683265686e-01" purity="2.9691907763481140e-01" nType="-99"/>
        </Node>
        <Node pos="r" depth="1" NCoef="0" IVar="1" Cut="8.4205740690231323e-01" cType="1" res="8.6799032986164093e-02" rms="4.6343725919723511e-01" purity="5.9591561555862427e-01" nType="0">
          <Node pos="l" depth="2" NCoef="0" IVar="-1" Cut="0.0000000000000000e+00" cType="1" res="1.3532004959415644e-04" rms="4.6959060430526733e-01" purity="5.3785687685012817e-01" nType="-99"/>
          <Node pos="r" depth="2" NCoef="0" IVar="-1" Cut="0.0000000000000000e+00" cType="1" res="4.7592885675840080e-04" rms="4.5012471079826355e-01" purity="6.5665572881698608e-01" nType="-99"/>
        </Node>
      </Node>
    </BinaryTree>
    <BinaryTree type="DecisionTree" boostWeight="1.0000000000000000e+00" itree="629">
      <Node pos="s" depth="0" NCoef="0" IVar="5" Cut="4.3787054443359375e+02" cType="1" res="1.7885293811559677e-02" rms="4.5992949604988098e-01" purity="4.9082407355308533e-01" nType="0">
        <Node pos="l" depth="1" NCoef="0" IVar="6" Cut="1.2811973571777344e+02" cType="1" res="-4.2697079479694366e-02" rms="4.4819220900535583e-01" purity="3.5873961448669434e-01" nType="0">
          <Node pos="l" depth="2" NCoef="0" IVar="-1" Cut="0.0000000000000000e+00" cType="1" res="2.1682772057829425e-05" rms="4.5905548334121704e-01" purity="4.0913805365562439e-01" nType="-99"/>
          <Node pos="r" depth="2" NCoef="0" IVar="-1" Cut="0.0000000000000000e+00" cType="1" res="-8.9085783110931516e-04" rms="4.2033582925796509e-01" purity="2.7971938252449036e-01" nType="-99"/>
        </Node>
        <Node pos="r" depth="1" NCoef="0" IVar="3" Cut="3.1013363599777222e-01" cType="1" res="7.0703640580177307e-02" rms="4.6350660920143127e-01" purity="6.0598099231719971e-01" nType="0">
          <Node pos="l" depth="2" NCoef="0" IVar="-1" Cut="0.0000000000000000e+00" cType="1" res="-4.0294573409482837e-05" rms="4.8359537124633789e-01" purity="4.4605025649070740e-01" nType="-99"/>
          <Node pos="r" depth="2" NCoef="0" IVar="-1" Cut="0.0000000000000000e+00" cType="1" res="3.8856739411130548e-04" rms="4.3925663828849792e-01" purity="7.2331845760345459e-01" nType="-99"/>
        </Node>
      </Node>
    </BinaryTree>
    <BinaryTree type="DecisionTree" boostWeight="1.0000000000000000e+00" itree="630">
      <Node pos="s" depth="0" NCoef="0" IVar="3" Cut="4.0036448836326599e-01" cType="1" res="3.5600129514932632e-02" rms="4.6419516205787659e-01" purity="5.0652259588241577e-01" nType="0">
        <Node pos="l" depth="1" NCoef="0" IVar="4" Cut="8.6431461572647095e-01" cType="1" res="-4.2779254727065563e-04" rms="4.6676757931709290e-01" purity="4.2248120903968811e-01" nType="0">
          <Node pos="l" depth="2" NCoef="0" IVar="-1" Cut="0.0000000000000000e+00" cType="1" res="2.4107619537971914e-04" rms="4.7433683276176453e-01" purity="5.1870602369308472e-01" nType="-99"/>
          <Node pos="r" depth="2" NCoef="0" IVar="-1" Cut="0.0000000000000000e+00" cType="1" res="-2.2472535783890635e-04" rms="4.5821821689605713e-01" purity="3.6149987578392029e-01" nType="-99"/>
        </Node>
        <Node pos="r" depth="1" NCoef="0" IVar="4" Cut="1.1683819293975830e+00" cType="1" res="1.1070701479911804e-01" rms="4.4959726929664612e-01" purity="6.8172252178192139e-01" nType="0">
          <Node pos="l" depth="2" NCoef="0" IVar="-1" Cut="0.0000000000000000e+00" cType="1" res="4.5476359082385898e-04" rms="4.3190363049507141e-01" purity="7.2346818447113037e-01" nType="-99"/>
          <Node pos="r" depth="2" NCoef="0" IVar="-1" Cut="0.0000000000000000e+00" cType="1" res="-3.9843475860834587e-06" rms="4.8475846648216248e-01" purity="5.4983067512512207e-01" nType="-99"/>
        </Node>
      </Node>
    </BinaryTree>
    <BinaryTree type="DecisionTree" boostWeight="1.0000000000000000e+00" itree="631">
      <Node pos="s" depth="0" NCoef="0" IVar="4" Cut="1.1924893856048584e+00" cType="1" res="2.3634096607565880e-02" rms="4.6348273754119873e-01" purity="4.9381712079048157e-01" nType="0">
        <Node pos="l" depth="1" NCoef="0" IVar="3" Cut="3.3271867036819458e-01" cType="1" res="5.2467811852693558e-02" rms="4.6169090270996094e-01" purity="5.3027188777923584e-01" nType="0">
          <Node pos="l" depth="2" NCoef="0" IVar="-1" Cut="0.0000000000000000e+00" cType="1" res="-1.2155421245552134e-05" rms="4.6615716814994812e-01" purity="3.9371845126152039e-01" nType="-99"/>
          <Node pos="r" depth="2" NCoef="0" IVar="-1" Cut="0.0000000000000000e+00" cType="1" res="3.6134605761617422e-04" rms="4.5023062825202942e-01" purity="6.7022860050201416e-01" nType="-99"/>
        </Node>
        <Node pos="r" depth="1" NCoef="0" IVar="1" Cut="9.2077702283859253e-01" cType="1" res="-7.6701484620571136e-02" rms="4.5565837621688843e-01" purity="3.6696177721023560e-01" nType="0">
          <Node pos="l" depth="2" NCoef="0" IVar="-1" Cut="0.0000000000000000e+00" cType="1" res="-9.9762447644025087e-04" rms="4.3752160668373108e-01" purity="3.0263969302177429e-01" nType="-99"/>
          <Node pos="r" depth="2" NCoef="0" IVar="-1" Cut="0.0000000000000000e+00" cType="1" res="5.2352537750266492e-05" rms="4.6847590804100037e-01" purity="4.6486842632293701e-01" nType="-99"/>
        </Node>
      </Node>
    </BinaryTree>
    <BinaryTree type="DecisionTree" boostWeight="1.0000000000000000e+00" itree="632">
      <Node pos="s" depth="0" NCoef="0" IVar="3" Cut="5.1113963127136230e-01" cType="1" res="2.5549743324518204e-02" rms="4.6201109886169434e-01" purity="4.9714767932891846e-01" nType="0">
        <Node pos="l" depth="1" NCoef="0" IVar="5" Cut="4.0557037353515625e+02" cType="1" res="4.8652780242264271e-03" rms="4.6394506096839905e-01" purity="4.6047174930572510e-01" nType="0">
          <Node pos="l" depth="2" NCoef="0" IVar="-1" Cut="0.0000000000000000e+00" cType="1" res="-4.7578700468875468e-04" rms="4.3624025583267212e-01" purity="3.0142885446548462e-01" nType="-99"/>
          <Node pos="r" depth="2" NCoef="0" IVar="-1" Cut="0.0000000000000000e+00" cType="1" res="1.8904160242527723e-04" rms="4.7536087036132812e-01" purity="5.6064397096633911e-01" nType="-99"/>
        </Node>
        <Node pos="r" depth="1" NCoef="0" IVar="-1" Cut="0.0000000000000000e+00" cType="1" res="4.9308780580759048e-04" rms="4.2442625761032104e-01" purity="7.3938077688217163e-01" nType="-99"/>
      </Node>
    </BinaryTree>
    <BinaryTree type="DecisionTree" boostWeight="1.0000000000000000e+00" itree="633">
      <Node pos="s" depth="0" NCoef="0" IVar="3" Cut="3.5557541251182556e-01" cType="1" res="2.2219911217689514e-02" rms="4.6102941036224365e-01" purity="4.9460300803184509e-01" nType="0">
        <Node pos="l" depth="1" NCoef="0" IVar="4" Cut="6.9512784481048584e-01" cType="1" res="-2.7520539239048958e-02" rms="4.5683073997497559e-01" purity="3.7331199645996094e-01" nType="0">
          <Node pos="l" depth="2" NCoef="0" IVar="-1" Cut="0.0000000000000000e+00" cType="1" res="3.4948915708810091e-04" rms="4.7074371576309204e-01" purity="5.8850079774856567e-01" nType="-99"/>
          <Node pos="r" depth="2" NCoef="0" IVar="-1" Cut="0.0000000000000000e+00" cType="1" res="-3.4738102112896740e-04" rms="4.5001372694969177e-01" purity="3.3042043447494507e-01" nType="-99"/>
        </Node>
        <Node pos="r" depth="1" NCoef="0" IVar="5" Cut="3.0787820434570312e+02" cType="1" res="8.6047962307929993e-02" rms="4.5852431654930115e-01" purity="6.5024644136428833e-01" nType="0">
          <Node pos="l" depth="2" NCoef="0" IVar="-1" Cut="0.0000000000000000e+00" cType="1" res="-3.5662422305904329e-04" rms="4.7520738840103149e-01" purity="3.8334864377975464e-01" nType="-99"/>
          <Node pos="r" depth="2" NCoef="0" IVar="-1" Cut="0.0000000000000000e+00" cType="1" res="3.5094976192340255e-04" rms="4.5207890868186951e-01" purity="6.8836754560470581e-01" nType="-99"/>
        </Node>
      </Node>
    </BinaryTree>
    <BinaryTree type="DecisionTree" boostWeight="1.0000000000000000e+00" itree="634">
      <Node pos="s" depth="0" NCoef="0" IVar="4" Cut="8.9964902400970459e-01" cType="1" res="2.6053715497255325e-02" rms="4.6206974983215332e-01" purity="4.9772170186042786e-01" nType="0">
        <Node pos="l" depth="1" NCoef="0" IVar="3" Cut="3.0994158983230591e-01" cType="1" res="8.9864268898963928e-02" rms="4.5753794908523560e-01" purity="5.9110343456268311e-01" nType="0">
          <Node pos="l" depth="2" NCoef="0" IVar="-1" Cut="0.0000000000000000e+00" cType="1" res="1.3228827447164804e-04" rms="4.7696706652641296e-01" purity="4.3585658073425293e-01" nType="-99"/>
          <Node pos="r" depth="2" NCoef="0" IVar="-1" Cut="0.0000000000000000e+00" cType="1" res="4.3486463255248964e-04" rms="4.3563377857208252e-01" purity="7.1042126417160034e-01" nType="-99"/>
        </Node>
        <Node pos="r" depth="1" NCoef="0" IVar="5" Cut="4.8087237548828125e+02" cType="1" res="-2.4491325020790100e-02" rms="4.5937946438789368e-01" purity="4.2375302314758301e-01" nType="0">
          <Node pos="l" depth="2" NCoef="0" IVar="-1" Cut="0.0000000000000000e+00" cType="1" res="-6.1383558204397559e-04" rms="4.3572995066642761e-01" purity="3.0903944373130798e-01" nType="-99"/>
          <Node pos="r" depth="2" NCoef="0" IVar="-1" Cut="0.0000000000000000e+00" cType="1" res="1.9739085109904408e-04" rms="4.7704020142555237e-01" purity="5.7007938623428345e-01" nType="-99"/>
        </Node>
      </Node>
    </BinaryTree>
    <BinaryTree type="DecisionTree" boostWeight="1.0000000000000000e+00" itree="635">
      <Node pos="s" depth="0" NCoef="0" IVar="5" Cut="5.4029779052734375e+02" cType="1" res="3.2047439366579056e-02" rms="4.6055707335472107e-01" purity="5.0557237863540649e-01" nType="0">
        <Node pos="l" depth="1" NCoef="0" IVar="3" Cut="4.0036448836326599e-01" cType="1" res="-5.9805358760058880e-03" rms="4.5765292644500732e-01" purity="4.3234732747077942e-01" nType="0">
          <Node pos="l" depth="2" NCoef="0" IVar="-1" Cut="0.0000000000000000e+00" cType="1" res="-3.3258844632655382e-04" rms="4.4706064462661743e-01" purity="3.3190861344337463e-01" nType="-99"/>
          <Node pos="r" depth="2" NCoef="0" IVar="-1" Cut="0.0000000000000000e+00" cType="1" res="2.8702922281809151e-04" rms="4.6610203385353088e-01" purity="6.3210624456405640e-01" nType="-99"/>
        </Node>
        <Node pos="r" depth="1" NCoef="0" IVar="6" Cut="2.7587448120117188e+02" cType="1" res="1.0879472643136978e-01" rms="4.5682147145271301e-01" purity="6.5335357189178467e-01" nType="0">
          <Node pos="l" depth="2" NCoef="0" IVar="-1" Cut="0.0000000000000000e+00" cType="1" res="4.3700064998120070e-04" rms="4.4550791382789612e-01" purity="6.8588596582412720e-01" nType="-99"/>
          <Node pos="r" depth="2" NCoef="0" IVar="-1" Cut="0.0000000000000000e+00" cType="1" res="-8.6394851678051054e-05" rms="4.8113629221916199e-01" purity="5.1537829637527466e-01" nType="-99"/>
        </Node>
      </Node>
    </BinaryTree>
    <BinaryTree type="DecisionTree" boostWeight="1.0000000000000000e+00" itree="636">
      <Node pos="s" depth="0" NCoef="0" IVar="4" Cut="7.1004682779312134e-01" cType="1" res="2.8739701956510544e-02" rms="4.6554964780807495e-01" purity="4.9739515781402588e-01" nType="0">
        <Node pos="l" depth="1" NCoef="0" IVar="3" Cut="2.9668691754341125e-01" cType="1" res="1.4176094532012939e-01" rms="4.4392296671867371e-01" purity="6.7725408077239990e-01" nType="0">
          <Node pos="l" depth="2" NCoef="0" IVar="-1" Cut="0.0000000000000000e+00" cType="1" res="3.1788740307092667e-04" rms="4.8869937658309937e-01" purity="5.3533375263214111e-01" nType="-99"/>
          <Node pos="r" depth="2" NCoef="0" IVar="-1" Cut="0.0000000000000000e+00" cType="1" res="5.2836054237559438e-04" rms="4.0709808468818665e-01" purity="7.7087384462356567e-01" nType="-99"/>
        </Node>
        <Node pos="r" depth="1" NCoef="0" IVar="1" Cut="8.5484021902084351e-01" cType="1" res="3.8784679491072893e-03" rms="4.6651378273963928e-01" purity="4.5783165097236633e-01" nType="0">
          <Node pos="l" depth="2" NCoef="0" IVar="-1" Cut="0.0000000000000000e+00" cType="1" res="-2.2720398555975407e-04" rms="4.5935729146003723e-01" purity="4.0317514538764954e-01" nType="-99"/>
          <Node pos="r" depth="2" NCoef="0" IVar="-1" Cut="0.0000000000000000e+00" cType="1" res="2.5315055972896516e-04" rms="4.6907216310501099e-01" purity="5.2394694089889526e-01" nType="-99"/>
        </Node>
      </Node>
    </BinaryTree>
    <BinaryTree type="DecisionTree" boostWeight="1.0000000000000000e+00" itree="637">
      <Node pos="s" depth="0" NCoef="0" IVar="3" Cut="2.0018224418163300e-01" cType="1" res="2.6374794542789459e-02" rms="4.6192818880081177e-01" purity="4.9881434440612793e-01" nType="0">
        <Node pos="l" depth="1" NCoef="0" IVar="4" Cut="1.0484042167663574e+00" cType="1" res="-9.6408240497112274e-02" rms="4.1889706254005432e-01" purity="2.4909456074237823e-01" nType="0">
          <Node pos="l" depth="2" NCoef="0" IVar="-1" Cut="0.0000000000000000e+00" cType="1" res="-4.5066099846735597e-04" rms="4.4202834367752075e-01" purity="2.9477727413177490e-01" nType="-99"/>
          <Node pos="r" depth="2" NCoef="0" IVar="-1" Cut="0.0000000000000000e+00" cType="1" res="-1.8641056958585978e-03" rms="3.7396171689033508e-01" purity="1.7779487371444702e-01" nType="-99"/>
        </Node>
        <Node pos="r" depth="1" NCoef="0" IVar="4" Cut="1.1060388088226318e+00" cType="1" res="5.3778391331434250e-02" rms="4.6660628914833069e-01" purity="5.5454862117767334e-01" nType="0">
          <Node pos="l" depth="2" NCoef="0" IVar="-1" Cut="0.0000000000000000e+00" cType="1" res="3.2338468008674681e-04" rms="4.5818740129470825e-01" purity="6.0216009616851807e-01" nType="-99"/>
          <Node pos="r" depth="2" NCoef="0" IVar="-1" Cut="0.0000000000000000e+00" cType="1" res="-1.4449244190473109e-04" rms="4.7602140903472900e-01" purity="4.4103145599365234e-01" nType="-99"/>
        </Node>
      </Node>
    </BinaryTree>
    <BinaryTree type="DecisionTree" boostWeight="1.0000000000000000e+00" itree="638">
      <Node pos="s" depth="0" NCoef="0" IVar="5" Cut="4.8549197387695312e+02" cType="1" res="2.8096526861190796e-02" rms="4.6097621321678162e-01" purity="5.0127488374710083e-01" nType="0">
        <Node pos="l" depth="1" NCoef="0" IVar="0" Cut="1.3106027221679688e+02" cType="1" res="-2.0610889419913292e-02" rms="4.5663639903068542e-01" purity="3.9863070845603943e-01" nType="0">
          <Node pos="l" depth="2" NCoef="0" IVar="-1" Cut="0.0000000000000000e+00" cType="1" res="4.6905246563255787e-05" rms="4.5996224880218506e-01" purity="4.2616748809814453e-01" nType="-99"/>
          <Node pos="r" depth="2" NCoef="0" IVar="-1" Cut="0.0000000000000000e+00" cType="1" res="-1.0318448767066002e-03" rms="4.2522877454757690e-01" purity="2.9348888993263245e-01" nType="-99"/>
        </Node>
        <Node pos="r" depth="1" NCoef="0" IVar="4" Cut="1.2103539705276489e+00" cType="1" res="9.1896779835224152e-02" rms="4.5884341001510620e-01" purity="6.3572520017623901e-01" nType="0">
          <Node pos="l" depth="2" NCoef="0" IVar="-1" Cut="0.0000000000000000e+00" cType="1" res="3.9015989750623703e-04" rms="4.4672736525535583e-01" purity="6.7472630739212036e-01" nType="-99"/>
          <Node pos="r" depth="2" NCoef="0" IVar="-1" Cut="0.0000000000000000e+00" cType="1" res="-1.0776535782497376e-04" rms="4.8461645841598511e-01" purity="4.8898980021476746e-01" nType="-99"/>
        </Node>
      </Node>
    </BinaryTree>
    <BinaryTree type="DecisionTree" boostWeight="1.0000000000000000e+00" itree="639">
      <Node pos="s" depth="0" NCoef="0" IVar="7" Cut="2.0710963439941406e+02" cType="1" res="2.7864927425980568e-02" rms="4.6000179648399353e-01" purity="5.0120186805725098e-01" nType="0">
        <Node pos="l" depth="1" NCoef="0" IVar="6" Cut="1.4042736816406250e+02" cType="1" res="4.5737181790173054e-03" rms="4.6010285615921021e-01" purity="4.6376442909240723e-01" nType="0">
          <Node pos="l" depth="2" NCoef="0" IVar="-1" Cut="0.0000000000000000e+00" cType="1" res="2.2546498803421855e-04" rms="4.5783746242523193e-01" purity="5.0797551870346069e-01" nType="-99"/>
          <Node pos="r" depth="2" NCoef="0" IVar="-1" Cut="0.0000000000000000e+00" cType="1" res="-3.5937994834966958e-04" rms="4.5453107357025146e-01" purity="3.9750367403030396e-01" nType="-99"/>
        </Node>
        <Node pos="r" depth="1" NCoef="0" IVar="-1" Cut="0.0000000000000000e+00" cType="1" res="4.8386261914856732e-04" rms="4.3782994151115417e-01" purity="7.0711600780487061e-01" nType="-99"/>
      </Node>
    </BinaryTree>
    <BinaryTree type="DecisionTree" boostWeight="1.0000000000000000e+00" itree="640">
      <Node pos="s" depth="0" NCoef="0" IVar="4" Cut="7.6313936710357666e-01" cType="1" res="1.7156060785055161e-02" rms="4.6071839332580566e-01" purity="4.8875445127487183e-01" nType="0">
        <Node pos="l" depth="1" NCoef="0" IVar="5" Cut="4.4668563842773438e+02" cType="1" res="1.1506747454404831e-01" rms="4.4566124677658081e-01" purity="6.4553904533386230e-01" nType="0">
          <Node pos="l" depth="2" NCoef="0" IVar="-1" Cut="0.0000000000000000e+00" cType="1" res="1.6635353676974773e-04" rms="4.7360378503799438e-01" purity="4.9151092767715454e-01" nType="-99"/>
          <Node pos="r" depth="2" NCoef="0" IVar="-1" Cut="0.0000000000000000e+00" cType="1" res="4.8763325321488082e-04" rms="4.1781303286552429e-01" purity="7.4832701683044434e-01" nType="-99"/>
        </Node>
        <Node pos="r" depth="1" NCoef="0" IVar="7" Cut="2.1960150146484375e+02" cType="1" res="-1.5664003789424896e-02" rms="4.6102657914161682e-01" purity="4.3619999289512634e-01" nType="0">
          <Node pos="l" depth="2" NCoef="0" IVar="-1" Cut="0.0000000000000000e+00" cType="1" res="-2.3275877174455673e-04" rms="4.5840469002723694e-01" purity="3.9525151252746582e-01" nType="-99"/>
          <Node pos="r" depth="2" NCoef="0" IVar="-1" Cut="0.0000000000000000e+00" cType="1" res="4.8553114174865186e-04" rms="4.4319707155227661e-01" purity="6.9356822967529297e-01" nType="-99"/>
        </Node>
      </Node>
    </BinaryTree>
    <BinaryTree type="DecisionTree" boostWeight="1.0000000000000000e+00" itree="641">
      <Node pos="s" depth="0" NCoef="0" IVar="4" Cut="9.0825468301773071e-01" cType="1" res="3.4438062459230423e-02" rms="4.6347710490226746e-01" purity="5.0500744581222534e-01" nType="0">
        <Node pos="l" depth="1" NCoef="0" IVar="3" Cut="2.4352553486824036e-01" cType="1" res="9.8265007138252258e-02" rms="4.5642721652984619e-01" purity="5.9842360019683838e-01" nType="0">
          <Node pos="l" depth="2" NCoef="0" IVar="-1" Cut="0.0000000000000000e+00" cType="1" res="1.0876256419578567e-04" rms="4.7276934981346130e-01" purity="4.0460696816444397e-01" nType="-99"/>
          <Node pos="r" depth="2" NCoef="0" IVar="-1" Cut="0.0000000000000000e+00" cType="1" res="4.1274435352534056e-04" rms="4.4637581706047058e-01" purity="6.7269849777221680e-01" nType="-99"/>
        </Node>
        <Node pos="r" depth="1" NCoef="0" IVar="1" Cut="8.9436638355255127e-01" cType="1" res="-2.0572816953063011e-02" rms="4.6245333552360535e-01" purity="4.2449438571929932e-01" nType="0">
          <Node pos="l" depth="2" NCoef="0" IVar="-1" Cut="0.0000000000000000e+00" cType="1" res="-3.9773454773239791e-04" rms="4.5559665560722351e-01" purity="3.6711281538009644e-01" nType="-99"/>
          <Node pos="r" depth="2" NCoef="0" IVar="-1" Cut="0.0000000000000000e+00" cType="1" res="2.0465631678234786e-04" rms="4.6420973539352417e-01" purity="5.0958573818206787e-01" nType="-99"/>
        </Node>
      </Node>
    </BinaryTree>
    <BinaryTree type="DecisionTree" boostWeight="1.0000000000000000e+00" itree="642">
      <Node pos="s" depth="0" NCoef="0" IVar="3" Cut="5.3351551294326782e-01" cType="1" res="2.8681075200438499e-02" rms="4.6166995167732239e-01" purity="5.0124967098236084e-01" nType="0">
        <Node pos="l" depth="1" NCoef="0" IVar="5" Cut="3.8681591796875000e+02" cType="1" res="1.0004024952650070e-02" rms="4.6362346410751343e-01" purity="4.6984487771987915e-01" nType="0">
          <Node pos="l" depth="2" NCoef="0" IVar="-1" Cut="0.0000000000000000e+00" cType="1" res="-5.5018597049638629e-04" rms="4.3309527635574341e-01" purity="2.9122525453567505e-01" nType="-99"/>
          <Node pos="r" depth="2" NCoef="0" IVar="-1" Cut="0.0000000000000000e+00" cType="1" res="1.9743570010177791e-04" rms="4.7307235002517700e-01" purity="5.5957847833633423e-01" nType="-99"/>
        </Node>
        <Node pos="r" depth="1" NCoef="0" IVar="-1" Cut="0.0000000000000000e+00" cType="1" res="5.3269037744030356e-04" rms="4.1500350832939148e-01" purity="7.5786381959915161e-01" nType="-99"/>
      </Node>
    </BinaryTree>
    <BinaryTree type="DecisionTree" boostWeight="1.0000000000000000e+00" itree="643">
      <Node pos="s" depth="0" NCoef="0" IVar="6" Cut="1.5255148315429688e+02" cType="1" res="2.4448065087199211e-02" rms="4.6323701739311218e-01" purity="4.9480405449867249e-01" nType="0">
        <Node pos="l" depth="1" NCoef="0" IVar="5" Cut="2.9760372924804688e+02" cType="1" res="6.7339502274990082e-02" rms="4.5992636680603027e-01" purity="5.3104269504547119e-01" nType="0">
          <Node pos="l" depth="2" NCoef="0" IVar="-1" Cut="0.0000000000000000e+00" cType="1" res="-6.0140737332403660e-04" rms="4.2996412515640259e-01" purity="2.7099409699440002e-01" nType="-99"/>
          <Node pos="r" depth="2" NCoef="0" IVar="-1" Cut="0.0000000000000000e+00" cType="1" res="3.5672975354827940e-04" rms="4.6077963709831238e-01" purity="5.8045738935470581e-01" nType="-99"/>
        </Node>
        <Node pos="r" depth="1" NCoef="0" IVar="7" Cut="1.6427159118652344e+02" cType="1" res="-4.5826204121112823e-02" rms="4.6004715561866760e-01" purity="4.3542984127998352e-01" nType="0">
          <Node pos="l" depth="2" NCoef="0" IVar="-1" Cut="0.0000000000000000e+00" cType="1" res="-5.6806940119713545e-04" rms="4.4465547800064087e-01" purity="3.5684990882873535e-01" nType="-99"/>
          <Node pos="r" depth="2" NCoef="0" IVar="-1" Cut="0.0000000000000000e+00" cType="1" res="1.1510753392940387e-04" rms="4.7435143589973450e-01" purity="5.6318235397338867e-01" nType="-99"/>
        </Node>
      </Node>
    </BinaryTree>
    <BinaryTree type="DecisionTree" boostWeight="1.0000000000000000e+00" itree="644">
      <Node pos="s" depth="0" NCoef="0" IVar="7" Cut="1.3877322387695312e+02" cType="1" res="2.9035944491624832e-02" rms="4.6176329255104065e-01" purity="5.0125646591186523e-01" nType="0">
        <Node pos="l" depth="1" NCoef="0" IVar="6" Cut="1.4379042053222656e+02" cType="1" res="-1.2292630970478058e-02" rms="4.5864316821098328e-01" purity="4.2668887972831726e-01" nType="0">
          <Node pos="l" depth="2" NCoef="0" IVar="-1" Cut="0.0000000000000000e+00" cType="1" res="1.5161943156272173e-04" rms="4.6119540929794312e-01" purity="4.7248798608779907e-01" nType="-99"/>
          <Node pos="r" depth="2" NCoef="0" IVar="-1" Cut="0.0000000000000000e+00" cType="1" res="-6.9386552786454558e-04" rms="4.3939217925071716e-01" purity="3.3307555317878723e-01" nType="-99"/>
        </Node>
        <Node pos="r" depth="1" NCoef="0" IVar="3" Cut="3.5145121812820435e-01" cType="1" res="9.4430156052112579e-02" rms="4.5911908149719238e-01" purity="6.1924487352371216e-01" nType="0">
          <Node pos="l" depth="2" NCoef="0" IVar="-1" Cut="0.0000000000000000e+00" cType="1" res="1.5420601994264871e-04" rms="4.8502865433692932e-01" purity="4.9060890078544617e-01" nType="-99"/>
          <Node pos="r" depth="2" NCoef="0" IVar="-1" Cut="0.0000000000000000e+00" cType="1" res="4.7161753172986209e-04" rms="4.1927459836006165e-01" purity="7.6016026735305786e-01" nType="-99"/>
        </Node>
      </Node>
    </BinaryTree>
    <BinaryTree type="DecisionTree" boostWeight="1.0000000000000000e+00" itree="645">
      <Node pos="s" depth="0" NCoef="0" IVar="4" Cut="8.0587935447692871e-01" cType="1" res="2.3867433890700340e-02" rms="4.6150967478752136e-01" purity="4.9547401070594788e-01" nType="0">
        <Node pos="l" depth="1" NCoef="0" IVar="3" Cut="2.6073029637336731e-01" cType="1" res="1.0276055335998535e-01" rms="4.4572213292121887e-01" purity="6.2839955091476440e-01" nType="0">
          <Node pos="l" depth="2" NCoef="0" IVar="-1" Cut="0.0000000000000000e+00" cType="1" res="-7.9629156971350312e-05" rms="4.6989583969116211e-01" purity="3.9982229471206665e-01" nType="-99"/>
          <Node pos="r" depth="2" NCoef="0" IVar="-1" Cut="0.0000000000000000e+00" cType="1" res="4.6235678019002080e-04" rms="4.2694646120071411e-01" purity="7.1852749586105347e-01" nType="-99"/>
        </Node>
        <Node pos="r" depth="1" NCoef="0" IVar="1" Cut="7.1044987440109253e-01" cType="1" res="-1.0944061912596226e-02" rms="4.6406134963035583e-01" purity="4.3682074546813965e-01" nType="0">
          <Node pos="l" depth="2" NCoef="0" IVar="-1" Cut="0.0000000000000000e+00" cType="1" res="-7.4258330278098583e-04" rms="4.3657651543617249e-01" purity="3.2035613059997559e-01" nType="-99"/>
          <Node pos="r" depth="2" NCoef="0" IVar="-1" Cut="0.0000000000000000e+00" cType="1" res="9.1740068455692381e-05" rms="4.6825566887855530e-01" purity="4.7376012802124023e-01" nType="-99"/>
        </Node>
      </Node>
    </BinaryTree>
    <BinaryTree type="DecisionTree" boostWeight="1.0000000000000000e+00" itree="646">
      <Node pos="s" depth="0" NCoef="0" IVar="3" Cut="2.6668155193328857e-01" cType="1" res="2.2795280441641808e-02" rms="4.6023041009902954e-01" purity="4.9603122472763062e-01" nType="0">
        <Node pos="l" depth="1" NCoef="0" IVar="4" Cut="1.2670722007751465e+00" cType="1" res="-5.5213488638401031e-02" rms="4.4097387790679932e-01" purity="3.0540996789932251e-01" nType="0">
          <Node pos="l" depth="2" NCoef="0" IVar="-1" Cut="0.0000000000000000e+00" cType="1" res="-2.2285421437118202e-04" rms="4.5013827085494995e-01" purity="3.3196753263473511e-01" nType="-99"/>
          <Node pos="r" depth="2" NCoef="0" IVar="-1" Cut="0.0000000000000000e+00" cType="1" res="-1.8885977333411574e-03" rms="3.7613895535469055e-01" purity="1.7704933881759644e-01" nType="-99"/>
        </Node>
        <Node pos="r" depth="1" NCoef="0" IVar="4" Cut="1.0876375436782837e+00" cType="1" res="6.2849372625350952e-02" rms="4.6475121378898621e-01" purity="5.9390693902969360e-01" nType="0">
          <Node pos="l" depth="2" NCoef="0" IVar="-1" Cut="0.0000000000000000e+00" cType="1" res="3.5417519393377006e-04" rms="4.5199745893478394e-01" purity="6.4839804172515869e-01" nType="-99"/>
          <Node pos="r" depth="2" NCoef="0" IVar="-1" Cut="0.0000000000000000e+00" cType="1" res="-1.3958255294710398e-04" rms="4.7876578569412231e-01" purity="4.7290244698524475e-01" nType="-99"/>
        </Node>
      </Node>
    </BinaryTree>
    <BinaryTree type="DecisionTree" boostWeight="1.0000000000000000e+00" itree="647">
      <Node pos="s" depth="0" NCoef="0" IVar="3" Cut="4.4459626078605652e-01" cType="1" res="2.5095762684941292e-02" rms="4.5988053083419800e-01" purity="4.9850779771804810e-01" nType="0">
        <Node pos="l" depth="1" NCoef="0" IVar="5" Cut="4.7013705444335938e+02" cType="1" res="-5.5729555897414684e-03" rms="4.6181783080101013e-01" purity="4.3492752313613892e-01" nType="0">
          <Node pos="l" depth="2" NCoef="0" IVar="-1" Cut="0.0000000000000000e+00" cType="1" res="-3.8177677197381854e-04" rms="4.4224041700363159e-01" purity="3.2148653268814087e-01" nType="-99"/>
          <Node pos="r" depth="2" NCoef="0" IVar="-1" Cut="0.0000000000000000e+00" cType="1" res="1.9680662080645561e-04" rms="4.7735351324081421e-01" purity="5.6707710027694702e-01" nType="-99"/>
        </Node>
        <Node pos="r" depth="1" NCoef="0" IVar="4" Cut="1.0097352266311646e+00" cType="1" res="1.2373252958059311e-01" rms="4.3930959701538086e-01" purity="7.0299470424652100e-01" nType="0">
          <Node pos="l" depth="2" NCoef="0" IVar="-1" Cut="0.0000000000000000e+00" cType="1" res="5.3965847473591566e-04" rms="4.0381276607513428e-01" purity="7.7517920732498169e-01" nType="-99"/>
          <Node pos="r" depth="2" NCoef="0" IVar="-1" Cut="0.0000000000000000e+00" cType="1" res="1.3016423326916993e-04" rms="4.7465807199478149e-01" purity="5.9307324886322021e-01" nType="-99"/>
        </Node>
      </Node>
    </BinaryTree>
    <BinaryTree type="DecisionTree" boostWeight="1.0000000000000000e+00" itree="648">
      <Node pos="s" depth="0" NCoef="0" IVar="4" Cut="7.8819227218627930e-01" cType="1" res="2.7182143181562424e-02" rms="4.6116706728935242e-01" purity="4.9927285313606262e-01" nType="0">
        <Node pos="l" depth="1" NCoef="0" IVar="3" Cut="3.4410405158996582e-01" cType="1" res="1.1968501657247543e-01" rms="4.5112290978431702e-01" purity="6.4052534103393555e-01" nType="0">
          <Node pos="l" depth="2" NCoef="0" IVar="-1" Cut="0.0000000000000000e+00" cType="1" res="3.0162648181430995e-04" rms="4.7948068380355835e-01" purity="5.3162229061126709e-01" nType="-99"/>
          <Node pos="r" depth="2" NCoef="0" IVar="-1" Cut="0.0000000000000000e+00" cType="1" res="5.0458061741665006e-04" rms="4.0922555327415466e-01" purity="7.6813167333602905e-01" nType="-99"/>
        </Node>
        <Node pos="r" depth="1" NCoef="0" IVar="7" Cut="1.5849871826171875e+02" cType="1" res="-9.4782793894410133e-03" rms="4.5996892452239990e-01" purity="4.4329217076301575e-01" nType="0">
          <Node pos="l" depth="2" NCoef="0" IVar="-1" Cut="0.0000000000000000e+00" cType="1" res="-3.0413980130106211e-04" rms="4.4940048456192017e-01" purity="3.7347805500030518e-01" nType="-99"/>
          <Node pos="r" depth="2" NCoef="0" IVar="-1" Cut="0.0000000000000000e+00" cType="1" res="3.1409773509949446e-04" rms="4.6958580613136292e-01" purity="6.0505044460296631e-01" nType="-99"/>
        </Node>
      </Node>
    </BinaryTree>
    <BinaryTree type="DecisionTree" boostWeight="1.0000000000000000e+00" itree="649">
      <Node pos="s" depth="0" NCoef="0" IVar="4" Cut="7.9018980264663696e-01" cType="1" res="3.1972192227840424e-02" rms="4.6128913760185242e-01" purity="5.0453996658325195e-01" nType="0">
        <Node pos="l" depth="1" NCoef="0" IVar="3" Cut="2.4357193708419800e-01" cType="1" res="1.2461106479167938e-01" rms="4.4722959399223328e-01" purity="6.4795720577239990e-01" nType="0">
          <Node pos="l" depth="2" NCoef="0" IVar="-1" Cut="0.0000000000000000e+00" cType="1" res="7.9483557783532888e-05" rms="4.7865885496139526e-01" purity="4.2606428265571594e-01" nType="-99"/>
          <Node pos="r" depth="2" NCoef="0" IVar="-1" Cut="0.0000000000000000e+00" cType="1" res="4.8971665091812611e-04" rms="4.3069288134574890e-01" purity="7.1983647346496582e-01" nType="-99"/>
        </Node>
        <Node pos="r" depth="1" NCoef="0" IVar="7" Cut="1.6570640563964844e+02" cType="1" res="-6.2692873179912567e-03" rms="4.6157932281494141e-01" purity="4.4533711671829224e-01" nType="0">
          <Node pos="l" depth="2" NCoef="0" IVar="-1" Cut="0.0000000000000000e+00" cType="1" res="-2.1921712323091924e-04" rms="4.5394092798233032e-01" purity="3.8785979151725769e-01" nType="-99"/>
          <Node pos="r" depth="2" NCoef="0" IVar="-1" Cut="0.0000000000000000e+00" cType="1" res="3.0185072682797909e-04" rms="4.7055181860923767e-01" purity="6.0400778055191040e-01" nType="-99"/>
        </Node>
      </Node>
    </BinaryTree>
    <BinaryTree type="DecisionTree" boostWeight="1.0000000000000000e+00" itree="650">
      <Node pos="s" depth="0" NCoef="0" IVar="5" Cut="3.1410748291015625e+02" cType="1" res="2.4953806772828102e-02" rms="4.6254834532737732e-01" purity="4.9654263257980347e-01" nType="0">
        <Node pos="l" depth="1" NCoef="0" IVar="1" Cut="8.6780744791030884e-01" cType="1" res="-1.0904998332262039e-01" rms="4.0764662623405457e-01" purity="2.2969223558902740e-01" nType="0">
          <Node pos="l" depth="2" NCoef="0" IVar="-1" Cut="0.0000000000000000e+00" cType="1" res="-1.9646931905299425e-03" rms="3.7651076912879944e-01" purity="1.7979638278484344e-01" nType="-99"/>
          <Node pos="r" depth="2" NCoef="0" IVar="-1" Cut="0.0000000000000000e+00" cType="1" res="-3.5415639285929501e-04" rms="4.4183626770973206e-01" purity="3.0319309234619141e-01" nType="-99"/>
        </Node>
        <Node pos="r" depth="1" NCoef="0" IVar="6" Cut="1.5640589904785156e+02" cType="1" res="4.7870911657810211e-02" rms="4.6746680140495300e-01" purity="5.4217898845672607e-01" nType="0">
          <Node pos="l" depth="2" NCoef="0" IVar="-1" Cut="0.0000000000000000e+00" cType="1" res="3.6364505649544299e-04" rms="4.6107786893844604e-01" purity="5.9101533889770508e-01" nType="-99"/>
          <Node pos="r" depth="2" NCoef="0" IVar="-1" Cut="0.0000000000000000e+00" cType="1" res="-1.0491716966498643e-04" rms="4.6760556101799011e-01" purity="4.7239503264427185e-01" nType="-99"/>
        </Node>
      </Node>
    </BinaryTree>
    <BinaryTree type="DecisionTree" boostWeight="1.0000000000000000e+00" itree="651">
      <Node pos="s" depth="0" NCoef="0" IVar="3" Cut="3.9920037984848022e-01" cType="1" res="2.8503613546490669e-02" rms="4.6182495355606079e-01" purity="5.0087475776672363e-01" nType="0">
        <Node pos="l" depth="1" NCoef="0" IVar="5" Cut="6.5475128173828125e+02" cType="1" res="-1.4686486683785915e-02" rms="4.6264645457267761e-01" purity="4.0676578879356384e-01" nType="0">
          <Node pos="l" depth="2" NCoef="0" IVar="-1" Cut="0.0000000000000000e+00" cType="1" res="-2.6479674852453172e-04" rms="4.5601478219032288e-01" purity="3.5544908046722412e-01" nType="-99"/>
          <Node pos="r" depth="2" NCoef="0" IVar="-1" Cut="0.0000000000000000e+00" cType="1" res="3.1511147972196341e-04" rms="4.7308909893035889e-01" purity="6.1461603641510010e-01" nType="-99"/>
        </Node>
        <Node pos="r" depth="1" NCoef="0" IVar="1" Cut="6.8419998884201050e-01" cType="1" res="1.1301504820585251e-01" rms="4.4833472371101379e-01" purity="6.8502074480056763e-01" nType="0">
          <Node pos="l" depth="2" NCoef="0" IVar="-1" Cut="0.0000000000000000e+00" cType="1" res="3.4649965527933091e-05" rms="4.7523158788681030e-01" purity="5.7306307554244995e-01" nType="-99"/>
          <Node pos="r" depth="2" NCoef="0" IVar="-1" Cut="0.0000000000000000e+00" cType="1" res="4.3554371222853661e-04" rms="4.3840894103050232e-01" purity="7.1083849668502808e-01" nType="-99"/>
        </Node>
      </Node>
    </BinaryTree>
    <BinaryTree type="DecisionTree" boostWeight="1.0000000000000000e+00" itree="652">
      <Node pos="s" depth="0" NCoef="0" IVar="3" Cut="2.0001116394996643e-01" cType="1" res="1.9786695018410683e-02" rms="4.6321025490760803e-01" purity="4.8930624127388000e-01" nType="0">
        <Node pos="l" depth="1" NCoef="0" IVar="2" Cut="7.3644439697265625e+01" cType="1" res="-8.5417523980140686e-02" rms="4.2365390062332153e-01" purity="2.6015982031822205e-01" nType="0">
          <Node pos="l" depth="2" NCoef="0" IVar="-1" Cut="0.0000000000000000e+00" cType="1" res="-1.1468188604339957e-03" rms="3.9918622374534607e-01" purity="2.1946224570274353e-01" nType="-99"/>
          <Node pos="r" depth="2" NCoef="0" IVar="-1" Cut="0.0000000000000000e+00" cType="1" res="-1.3857612793799490e-04" rms="4.7020226716995239e-01" purity="3.5584494471549988e-01" nType="-99"/>
        </Node>
        <Node pos="r" depth="1" NCoef="0" IVar="4" Cut="1.2904465198516846e+00" cType="1" res="4.4017180800437927e-02" rms="4.6851608157157898e-01" purity="5.4208290576934814e-01" nType="0">
          <Node pos="l" depth="2" NCoef="0" IVar="-1" Cut="0.0000000000000000e+00" cType="1" res="2.6781929773278534e-04" rms="4.6507951617240906e-01" purity="5.7129102945327759e-01" nType="-99"/>
          <Node pos="r" depth="2" NCoef="0" IVar="-1" Cut="0.0000000000000000e+00" cType="1" res="-6.2132923630997539e-04" rms="4.6071153879165649e-01" purity="3.7010195851325989e-01" nType="-99"/>
        </Node>
      </Node>
    </BinaryTree>
    <BinaryTree type="DecisionTree" boostWeight="1.0000000000000000e+00" itree="653">
      <Node pos="s" depth="0" NCoef="0" IVar="3" Cut="3.1013363599777222e-01" cType="1" res="3.4015864133834839e-02" rms="4.6093845367431641e-01" purity="5.0782132148742676e-01" nType="0">
        <Node pos="l" depth="1" NCoef="0" IVar="7" Cut="1.6604850769042969e+02" cType="1" res="-2.4746105074882507e-02" rms="4.5559132099151611e-01" purity="3.5491055250167847e-01" nType="0">
          <Node pos="l" depth="2" NCoef="0" IVar="-1" Cut="0.0000000000000000e+00" cType="1" res="-4.3888052459806204e-04" rms="4.3854960799217224e-01" purity="2.9460617899894714e-01" nType="-99"/>
          <Node pos="r" depth="2" NCoef="0" IVar="-1" Cut="0.0000000000000000e+00" cType="1" res="2.8321243007667363e-04" rms="4.8917797207832336e-01" purity="5.3126257658004761e-01" nType="-99"/>
        </Node>
        <Node pos="r" depth="1" NCoef="0" IVar="5" Cut="4.4495263671875000e+02" cType="1" res="8.1100024282932281e-02" rms="4.5979067683219910e-01" purity="6.3034403324127197e-01" nType="0">
          <Node pos="l" depth="2" NCoef="0" IVar="-1" Cut="0.0000000000000000e+00" cType="1" res="8.6404666944872588e-05" rms="4.8138886690139771e-01" purity="5.1136016845703125e-01" nType="-99"/>
          <Node pos="r" depth="2" NCoef="0" IVar="-1" Cut="0.0000000000000000e+00" cType="1" res="4.0552049176767468e-04" rms="4.3331980705261230e-01" purity="7.3328268527984619e-01" nType="-99"/>
        </Node>
      </Node>
    </BinaryTree>
    <BinaryTree type="DecisionTree" boostWeight="1.0000000000000000e+00" itree="654">
      <Node pos="s" depth="0" NCoef="0" IVar="7" Cut="1.6302574157714844e+02" cType="1" res="2.4677265435457230e-02" rms="4.6167284250259399e-01" purity="4.9543985724449158e-01" nType="0">
        <Node pos="l" depth="1" NCoef="0" IVar="4" Cut="7.5699716806411743e-01" cType="1" res="-1.1181877925992012e-02" rms="4.5897337794303894e-01" purity="4.3445366621017456e-01" nType="0">
          <Node pos="l" depth="2" NCoef="0" IVar="-1" Cut="0.0000000000000000e+00" cType="1" res="3.8133704219944775e-04" rms="4.5467221736907959e-01" purity="6.1885529756546021e-01" nType="-99"/>
          <Node pos="r" depth="2" NCoef="0" IVar="-1" Cut="0.0000000000000000e+00" cType="1" res="-2.9235242982394993e-04" rms="4.5393207669258118e-01" purity="3.7447652220726013e-01" nType="-99"/>
        </Node>
        <Node pos="r" depth="1" NCoef="0" IVar="1" Cut="8.5519099235534668e-01" cType="1" res="1.1730513721704483e-01" rms="4.5569726824760437e-01" purity="6.5297353267669678e-01" nType="0">
          <Node pos="l" depth="2" NCoef="0" IVar="-1" Cut="0.0000000000000000e+00" cType="1" res="2.1306928829289973e-04" rms="4.6765720844268799e-01" purity="5.8996099233627319e-01" nType="-99"/>
          <Node pos="r" depth="2" NCoef="0" IVar="-1" Cut="0.0000000000000000e+00" cType="1" res="5.5828253971412778e-04" rms="4.3237790465354919e-01" purity="7.2354346513748169e-01" nType="-99"/>
        </Node>
      </Node>
    </BinaryTree>
    <BinaryTree type="DecisionTree" boostWeight="1.0000000000000000e+00" itree="655">
      <Node pos="s" depth="0" NCoef="0" IVar="4" Cut="9.1427022218704224e-01" cType="1" res="2.9583688825368881e-02" rms="4.5906689763069153e-01" purity="5.0360262393951416e-01" nType="0">
        <Node pos="l" depth="1" NCoef="0" IVar="3" Cut="3.2936793565750122e-01" cType="1" res="8.8843375444412231e-02" rms="4.5277011394500732e-01" purity="5.9267663955688477e-01" nType="0">
          <Node pos="l" depth="2" NCoef="0" IVar="-1" Cut="0.0000000000000000e+00" cType="1" res="1.1720617476385087e-04" rms="4.7126337885856628e-01" purity="4.4592699408531189e-01" nType="-99"/>
          <Node pos="r" depth="2" NCoef="0" IVar="-1" Cut="0.0000000000000000e+00" cType="1" res="4.4923648238182068e-04" rms="4.2621430754661560e-01" purity="7.2910594940185547e-01" nType="-99"/>
        </Node>
        <Node pos="r" depth="1" NCoef="0" IVar="1" Cut="7.6303279399871826e-01" cType="1" res="-2.2166876122355461e-02" rms="4.5827028155326843e-01" purity="4.2581558227539062e-01" nType="0">
          <Node pos="l" depth="2" NCoef="0" IVar="-1" Cut="0.0000000000000000e+00" cType="1" res="-9.6312887035310268e-04" rms="4.2385631799697876e-01" purity="2.9717659950256348e-01" nType="-99"/>
          <Node pos="r" depth="2" NCoef="0" IVar="-1" Cut="0.0000000000000000e+00" cType="1" res="1.0451678099343553e-04" rms="4.6449738740921021e-01" purity="4.7933980822563171e-01" nType="-99"/>
        </Node>
      </Node>
    </BinaryTree>
    <BinaryTree type="DecisionTree" boostWeight="1.0000000000000000e+00" itree="656">
      <Node pos="s" depth="0" NCoef="0" IVar="4" Cut="7.2620618343353271e-01" cType="1" res="2.5700341910123825e-02" rms="4.6134969592094421e-01" purity="4.9800425767898560e-01" nType="0">
        <Node pos="l" depth="1" NCoef="0" IVar="3" Cut="2.6072928309440613e-01" cType="1" res="1.3164165616035461e-01" rms="4.4136705994606018e-01" purity="6.7100530862808228e-01" nType="0">
          <Node pos="l" depth="2" NCoef="0" IVar="-1" Cut="0.0000000000000000e+00" cType="1" res="2.0101606787648052e-04" rms="4.7769773006439209e-01" purity="4.9264973402023315e-01" nType="-99"/>
          <Node pos="r" depth="2" NCoef="0" IVar="-1" Cut="0.0000000000000000e+00" cType="1" res="4.9795885570347309e-04" rms="4.2030915617942810e-01" purity="7.4503880739212036e-01" nType="-99"/>
        </Node>
        <Node pos="r" depth="1" NCoef="0" IVar="3" Cut="4.6398586034774780e-01" cType="1" res="-9.2937139561399817e-04" rms="4.6243643760681152e-01" purity="4.5451822876930237e-01" nType="0">
          <Node pos="l" depth="2" NCoef="0" IVar="-1" Cut="0.0000000000000000e+00" cType="1" res="-1.6184314154088497e-04" rms="4.6126061677932739e-01" purity="3.9556103944778442e-01" nType="-99"/>
          <Node pos="r" depth="2" NCoef="0" IVar="-1" Cut="0.0000000000000000e+00" cType="1" res="3.5843276418745518e-04" rms="4.5085701346397400e-01" purity="6.7905211448669434e-01" nType="-99"/>
        </Node>
      </Node>
    </BinaryTree>
    <BinaryTree type="DecisionTree" boostWeight="1.0000000000000000e+00" itree="657">
      <Node pos="s" depth="0" NCoef="0" IVar="3" Cut="4.6709191799163818e-01" cType="1" res="3.8181371986865997e-02" rms="4.6293684840202332e-01" purity="5.0925689935684204e-01" nType="0">
        <Node pos="l" depth="1" NCoef="0" IVar="1" Cut="7.4973928928375244e-01" cType="1" res="1.1946289800107479e-02" rms="4.6664261817932129e-01" purity="4.5625215768814087e-01" nType="0">
          <Node pos="l" depth="2" NCoef="0" IVar="-1" Cut="0.0000000000000000e+00" cType="1" res="-3.4964503720402718e-04" rms="4.5324733853340149e-01" purity="3.7081128358840942e-01" nType="-99"/>
          <Node pos="r" depth="2" NCoef="0" IVar="-1" Cut="0.0000000000000000e+00" cType="1" res="2.1376649965532124e-04" rms="4.6898022294044495e-01" purity="4.9880233407020569e-01" nType="-99"/>
        </Node>
        <Node pos="r" depth="1" NCoef="0" IVar="6" Cut="1.4524166870117188e+02" cType="1" res="1.4464065432548523e-01" rms="4.3151506781578064e-01" purity="7.2434478998184204e-01" nType="0">
          <Node pos="l" depth="2" NCoef="0" IVar="-1" Cut="0.0000000000000000e+00" cType="1" res="5.5261381203308702e-04" rms="4.1246134042739868e-01" purity="7.5919991731643677e-01" nType="-99"/>
          <Node pos="r" depth="2" NCoef="0" IVar="-1" Cut="0.0000000000000000e+00" cType="1" res="2.5568765704520047e-04" rms="4.5291256904602051e-01" purity="6.6597962379455566e-01" nType="-99"/>
        </Node>
      </Node>
    </BinaryTree>
    <BinaryTree type="DecisionTree" boostWeight="1.0000000000000000e+00" itree="658">
      <Node pos="s" depth="0" NCoef="0" IVar="5" Cut="5.6627947998046875e+02" cType="1" res="2.3937290534377098e-02" rms="4.6189224720001221e-01" purity="4.9418714642524719e-01" nType="0">
        <Node pos="l" depth="1" NCoef="0" IVar="4" Cut="8.6304914951324463e-01" cType="1" res="-1.0285378433763981e-02" rms="4.5893800258636475e-01" purity="4.2861291766166687e-01" nType="0">
          <Node pos="l" depth="2" NCoef="0" IVar="-1" Cut="0.0000000000000000e+00" cType="1" res="2.8523500077426434e-04" rms="4.6573647856712341e-01" purity="5.4518532752990723e-01" nType="-99"/>
          <Node pos="r" depth="2" NCoef="0" IVar="-1" Cut="0.0000000000000000e+00" cType="1" res="-3.7374079693108797e-04" rms="4.4760516285896301e-01" purity="3.5679969191551208e-01" nType="-99"/>
        </Node>
        <Node pos="r" depth="1" NCoef="0" IVar="1" Cut="7.4992883205413818e-01" cType="1" res="1.0725270956754684e-01" rms="4.5844781398773193e-01" purity="6.5382814407348633e-01" nType="0">
          <Node pos="l" depth="2" NCoef="0" IVar="-1" Cut="0.0000000000000000e+00" cType="1" res="-3.8742920878576115e-05" rms="4.7537869215011597e-01" purity="5.2901178598403931e-01" nType="-99"/>
          <Node pos="r" depth="2" NCoef="0" IVar="-1" Cut="0.0000000000000000e+00" cType="1" res="4.5488923205994070e-04" rms="4.4443100690841675e-01" purity="6.9966650009155273e-01" nType="-99"/>
        </Node>
      </Node>
    </BinaryTree>
    <BinaryTree type="DecisionTree" boostWeight="1.0000000000000000e+00" itree="659">
      <Node pos="s" depth="0" NCoef="0" IVar="4" Cut="7.5036311149597168e-01" cType="1" res="2.0767979323863983e-02" rms="4.6093204617500305e-01" purity="4.9292758107185364e-01" nType="0">
        <Node pos="l" depth="1" NCoef="0" IVar="5" Cut="4.1453405761718750e+02" cType="1" res="1.2307501584291458e-01" rms="4.4523426890373230e-01" purity="6.5711182355880737e-01" nType="0">
          <Node pos="l" depth="2" NCoef="0" IVar="-1" Cut="0.0000000000000000e+00" cType="1" res="1.9236643856856972e-04" rms="4.7728964686393738e-01" purity="4.8539865016937256e-01" nType="-99"/>
          <Node pos="r" depth="2" NCoef="0" IVar="-1" Cut="0.0000000000000000e+00" cType="1" res="4.7913062735460699e-04" rms="4.2382487654685974e-01" purity="7.3808670043945312e-01" nType="-99"/>
        </Node>
        <Node pos="r" depth="1" NCoef="0" IVar="1" Cut="9.0737277269363403e-01" cType="1" res="-9.8657216876745224e-03" rms="4.6113470196723938e-01" purity="4.4376602768898010e-01" nType="0">
          <Node pos="l" depth="2" NCoef="0" IVar="-1" Cut="0.0000000000000000e+00" cType="1" res="-2.6522460393607616e-04" rms="4.5497384667396545e-01" purity="3.9894035458564758e-01" nType="-99"/>
          <Node pos="r" depth="2" NCoef="0" IVar="-1" Cut="0.0000000000000000e+00" cType="1" res="2.8825836488977075e-04" rms="4.6397885680198669e-01" purity="5.3855741024017334e-01" nType="-99"/>
        </Node>
      </Node>
    </BinaryTree>
    <BinaryTree type="DecisionTree" boostWeight="1.0000000000000000e+00" itree="660">
      <Node pos="s" depth="0" NCoef="0" IVar="1" Cut="8.5496163368225098e-01" cType="1" res="3.1080860644578934e-02" rms="4.6477818489074707e-01" purity="4.9980747699737549e-01" nType="0">
        <Node pos="l" depth="1" NCoef="0" IVar="4" Cut="9.2637896537780762e-01" cType="1" res="-1.5459964983165264e-02" rms="4.6155425906181335e-01" purity="4.4695296883583069e-01" nType="0">
          <Node pos="l" depth="2" NCoef="0" IVar="-1" Cut="0.0000000000000000e+00" cType="1" res="1.9428206724114716e-04" rms="4.6511709690093994e-01" purity="5.3797012567520142e-01" nType="-99"/>
          <Node pos="r" depth="2" NCoef="0" IVar="-1" Cut="0.0000000000000000e+00" cType="1" res="-6.4594566356390715e-04" rms="4.4389903545379639e-01" purity="3.3147391676902771e-01" nType="-99"/>
        </Node>
        <Node pos="r" depth="1" NCoef="0" IVar="7" Cut="1.4174293518066406e+02" cType="1" res="9.0347021818161011e-02" rms="4.6211570501327515e-01" purity="5.6711369752883911e-01" nType="0">
          <Node pos="l" depth="2" NCoef="0" IVar="-1" Cut="0.0000000000000000e+00" cType="1" res="2.1011153876315802e-04" rms="4.6617728471755981e-01" purity="4.9160742759704590e-01" nType="-99"/>
          <Node pos="r" depth="2" NCoef="0" IVar="-1" Cut="0.0000000000000000e+00" cType="1" res="5.1726214587688446e-04" rms="4.4686990976333618e-01" purity="6.8532145023345947e-01" nType="-99"/>
        </Node>
      </Node>
    </BinaryTree>
    <BinaryTree type="DecisionTree" boostWeight="1.0000000000000000e+00" itree="661">
      <Node pos="s" depth="0" NCoef="0" IVar="3" Cut="4.2224377393722534e-01" cType="1" res="2.3884464055299759e-02" rms="4.6154475212097168e-01" purity="4.9531149864196777e-01" nType="0">
        <Node pos="l" depth="1" NCoef="0" IVar="4" Cut="7.0419359207153320e-01" cType="1" res="-1.0214211419224739e-02" rms="4.6354469656944275e-01" purity="4.1939499974250793e-01" nType="0">
          <Node pos="l" depth="2" NCoef="0" IVar="-1" Cut="0.0000000000000000e+00" cType="1" res="3.7093527498655021e-04" rms="4.6468442678451538e-01" purity="6.1733108758926392e-01" nType="-99"/>
          <Node pos="r" depth="2" NCoef="0" IVar="-1" Cut="0.0000000000000000e+00" cType="1" res="-1.9734246598090976e-04" rms="4.5975786447525024e-01" purity="3.7779429554939270e-01" nType="-99"/>
        </Node>
        <Node pos="r" depth="1" NCoef="0" IVar="4" Cut="1.1846554279327393e+00" cType="1" res="1.1061363667249680e-01" rms="4.4479042291641235e-01" purity="6.8840336799621582e-01" nType="0">
          <Node pos="l" depth="2" NCoef="0" IVar="-1" Cut="0.0000000000000000e+00" cType="1" res="4.4020893983542919e-04" rms="4.2749610543251038e-01" purity="7.2840231657028198e-01" nType="-99"/>
          <Node pos="r" depth="2" NCoef="0" IVar="-1" Cut="0.0000000000000000e+00" cType="1" res="-7.9965693657868542e-06" rms="4.8219770193099976e-01" purity="5.5289244651794434e-01" nType="-99"/>
        </Node>
      </Node>
    </BinaryTree>
    <BinaryTree type="DecisionTree" boostWeight="1.0000000000000000e+00" itree="662">
      <Node pos="s" depth="0" NCoef="0" IVar="3" Cut="3.7790682911872864e-01" cType="1" res="3.1793821603059769e-02" rms="4.5820274949073792e-01" purity="5.0728106498718262e-01" nType="0">
        <Node pos="l" depth="1" NCoef="0" IVar="5" Cut="5.5804071044921875e+02" cType="1" res="-1.8368929624557495e-02" rms="4.5850405097007751e-01" purity="3.9502424001693726e-01" nType="0">
          <Node pos="l" depth="2" NCoef="0" IVar="-1" Cut="0.0000000000000000e+00" cType="1" res="-3.6069791531190276e-04" rms="4.4336235523223877e-01" purity="3.2221499085426331e-01" nType="-99"/>
          <Node pos="r" depth="2" NCoef="0" IVar="-1" Cut="0.0000000000000000e+00" cType="1" res="2.2857407748233527e-04" rms="4.8298224806785583e-01" purity="5.6389486789703369e-01" nType="-99"/>
        </Node>
        <Node pos="r" depth="1" NCoef="0" IVar="4" Cut="1.0553401708602905e+00" cType="1" res="1.0990992933511734e-01" rms="4.4665309786796570e-01" purity="6.8209332227706909e-01" nType="0">
          <Node pos="l" depth="2" NCoef="0" IVar="-1" Cut="0.0000000000000000e+00" cType="1" res="4.6084588393568993e-04" rms="4.2165550589561462e-01" purity="7.3770469427108765e-01" nType="-99"/>
          <Node pos="r" depth="2" NCoef="0" IVar="-1" Cut="0.0000000000000000e+00" cType="1" res="1.2820126721635461e-04" rms="4.8041218519210815e-01" purity="5.7864290475845337e-01" nType="-99"/>
        </Node>
      </Node>
    </BinaryTree>
    <BinaryTree type="DecisionTree" boostWeight="1.0000000000000000e+00" itree="663">
      <Node pos="s" depth="0" NCoef="0" IVar="7" Cut="1.8985292053222656e+02" cType="1" res="3.3279128372669220e-02" rms="4.6012341976165771e-01" purity="5.0716328620910645e-01" nType="0">
        <Node pos="l" depth="1" NCoef="0" IVar="6" Cut="1.3666958618164062e+02" cType="1" res="5.7665728963911533e-03" rms="4.5966023206710815e-01" purity="4.6229878067970276e-01" nType="0">
          <Node pos="l" depth="2" NCoef="0" IVar="-1" Cut="0.0000000000000000e+00" cType="1" res="2.3348747345153242e-04" rms="4.5729842782020569e-01" purity="5.0910246372222900e-01" nType="-99"/>
          <Node pos="r" depth="2" NCoef="0" IVar="-1" Cut="0.0000000000000000e+00" cType="1" res="-3.5644980380311608e-04" rms="4.5419383049011230e-01" purity="3.9439252018928528e-01" nType="-99"/>
        </Node>
        <Node pos="r" depth="1" NCoef="0" IVar="6" Cut="2.0943315124511719e+02" cType="1" res="1.4771974086761475e-01" rms="4.4411772489547729e-01" purity="6.9378054141998291e-01" nType="0">
          <Node pos="l" depth="2" NCoef="0" IVar="-1" Cut="0.0000000000000000e+00" cType="1" res="5.6083366507664323e-04" rms="4.1806536912918091e-01" purity="7.4434906244277954e-01" nType="-99"/>
          <Node pos="r" depth="2" NCoef="0" IVar="-1" Cut="0.0000000000000000e+00" cType="1" res="2.9464554972946644e-04" rms="4.7225189208984375e-01" purity="6.2020158767700195e-01" nType="-99"/>
        </Node>
      </Node>
    </BinaryTree>
    <BinaryTree type="DecisionTree" boostWeight="1.0000000000000000e+00" itree="664">
      <Node pos="s" depth="0" NCoef="0" IVar="7" Cut="1.9480941772460938e+02" cType="1" res="2.8672374784946442e-02" rms="4.6161597967147827e-01" purity="5.0075805187225342e-01" nType="0">
        <Node pos="l" depth="1" NCoef="0" IVar="6" Cut="1.4034286499023438e+02" cType="1" res="3.0567890498787165e-03" rms="4.6078318357467651e-01" purity="4.5919945836067200e-01" nType="0">
          <Node pos="l" depth="2" NCoef="0" IVar="-1" Cut="0.0000000000000000e+00" cType="1" res="2.1132269466761500e-04" rms="4.6004608273506165e-01" purity="5.0223964452743530e-01" nType="-99"/>
          <Node pos="r" depth="2" NCoef="0" IVar="-1" Cut="0.0000000000000000e+00" cType="1" res="-3.6326656118035316e-04" rms="4.5344948768615723e-01" purity="3.9426138997077942e-01" nType="-99"/>
        </Node>
        <Node pos="r" depth="1" NCoef="0" IVar="0" Cut="1.7115119934082031e+02" cType="1" res="1.4626847207546234e-01" rms="4.4696155190467834e-01" purity="6.9154512882232666e-01" nType="0">
          <Node pos="l" depth="2" NCoef="0" IVar="-1" Cut="0.0000000000000000e+00" cType="1" res="5.6125858100131154e-04" rms="4.2779165506362915e-01" purity="7.3236936330795288e-01" nType="-99"/>
          <Node pos="r" depth="2" NCoef="0" IVar="-1" Cut="0.0000000000000000e+00" cType="1" res="2.9545402503572404e-04" rms="4.6694797277450562e-01" purity="6.3247078657150269e-01" nType="-99"/>
        </Node>
      </Node>
    </BinaryTree>
    <BinaryTree type="DecisionTree" boostWeight="1.0000000000000000e+00" itree="665">
      <Node pos="s" depth="0" NCoef="0" IVar="4" Cut="7.9451513290405273e-01" cType="1" res="2.7437798678874969e-02" rms="4.6161442995071411e-01" purity="4.9968793988227844e-01" nType="0">
        <Node pos="l" depth="1" NCoef="0" IVar="3" Cut="3.1013363599777222e-01" cType="1" res="1.0882832109928131e-01" rms="4.5015126466751099e-01" purity="6.3207072019577026e-01" nType="0">
          <Node pos="l" depth="2" NCoef="0" IVar="-1" Cut="0.0000000000000000e+00" cType="1" res="1.6839260933920741e-04" rms="4.7645258903503418e-01" purity="4.8118263483047485e-01" nType="-99"/>
          <Node pos="r" depth="2" NCoef="0" IVar="-1" Cut="0.0000000000000000e+00" cType="1" res="4.8357810010202229e-04" rms="4.2111599445343018e-01" purity="7.4700796604156494e-01" nType="-99"/>
        </Node>
        <Node pos="r" depth="1" NCoef="0" IVar="7" Cut="1.6331784057617188e+02" cType="1" res="-5.4123331792652607e-03" rms="4.6211850643157959e-01" purity="4.4625678658485413e-01" nType="0">
          <Node pos="l" depth="2" NCoef="0" IVar="-1" Cut="0.0000000000000000e+00" cType="1" res="-2.4071197549346834e-04" rms="4.5625761151313782e-01" purity="3.8095173239707947e-01" nType="-99"/>
          <Node pos="r" depth="2" NCoef="0" IVar="-1" Cut="0.0000000000000000e+00" cType="1" res="3.0278699705377221e-04" rms="4.6430957317352295e-01" purity="6.1200398206710815e-01" nType="-99"/>
        </Node>
      </Node>
    </BinaryTree>
    <BinaryTree type="DecisionTree" boostWeight="1.0000000000000000e+00" itree="666">
      <Node pos="s" depth="0" NCoef="0" IVar="5" Cut="4.3650894165039062e+02" cType="1" res="3.3303923904895782e-02" rms="4.6068504452705383e-01" purity="5.0718426704406738e-01" nType="0">
        <Node pos="l" depth="1" NCoef="0" IVar="6" Cut="1.4717591857910156e+02" cType="1" res="-2.5090189650654793e-02" rms="4.5365542173385620e-01" purity="3.7560820579528809e-01" nType="0">
          <Node pos="l" depth="2" NCoef="0" IVar="-1" Cut="0.0000000000000000e+00" cType="1" res="9.2541333287954330e-05" rms="4.6370279788970947e-01" purity="4.2196488380432129e-01" nType="-99"/>
          <Node pos="r" depth="2" NCoef="0" IVar="-1" Cut="0.0000000000000000e+00" cType="1" res="-1.1171216610819101e-03" rms="4.0817314386367798e-01" purity="2.5857123732566833e-01" nType="-99"/>
        </Node>
        <Node pos="r" depth="1" NCoef="0" IVar="6" Cut="1.3182675170898438e+02" cType="1" res="8.3130218088626862e-02" rms="4.6078506112098694e-01" purity="6.1945492029190063e-01" nType="0">
          <Node pos="l" depth="2" NCoef="0" IVar="-1" Cut="0.0000000000000000e+00" cType="1" res="4.8600474838167429e-04" rms="4.3598458170890808e-01" purity="7.0016592741012573e-01" nType="-99"/>
          <Node pos="r" depth="2" NCoef="0" IVar="-1" Cut="0.0000000000000000e+00" cType="1" res="1.0826099605765194e-04" rms="4.7096025943756104e-01" purity="5.5883181095123291e-01" nType="-99"/>
        </Node>
      </Node>
    </BinaryTree>
    <BinaryTree type="DecisionTree" boostWeight="1.0000000000000000e+00" itree="667">
      <Node pos="s" depth="0" NCoef="0" IVar="4" Cut="7.0419359207153320e-01" cType="1" res="2.2625952959060669e-02" rms="4.6046134829521179e-01" purity="4.9541631340980530e-01" nType="0">
        <Node pos="l" depth="1" NCoef="0" IVar="1" Cut="7.4924510717391968e-01" cType="1" res="1.4470405876636505e-01" rms="4.3738752603530884e-01" purity="6.8842369318008423e-01" nType="0">
          <Node pos="l" depth="2" NCoef="0" IVar="-1" Cut="0.0000000000000000e+00" cType="1" res="2.7798986411653459e-04" rms="4.5612674951553345e-01" purity="6.1413341760635376e-01" nType="-99"/>
          <Node pos="r" depth="2" NCoef="0" IVar="-1" Cut="0.0000000000000000e+00" cType="1" res="5.5294088087975979e-04" rms="4.1999745368957520e-01" purity="7.3376429080963135e-01" nType="-99"/>
        </Node>
        <Node pos="r" depth="1" NCoef="0" IVar="3" Cut="4.2178195714950562e-01" cType="1" res="-3.5018743947148323e-03" rms="4.6107080578804016e-01" purity="4.5410782098770142e-01" nType="0">
          <Node pos="l" depth="2" NCoef="0" IVar="-1" Cut="0.0000000000000000e+00" cType="1" res="-2.4551269598305225e-04" rms="4.5760658383369446e-01" purity="3.7071433663368225e-01" nType="-99"/>
          <Node pos="r" depth="2" NCoef="0" IVar="-1" Cut="0.0000000000000000e+00" cType="1" res="3.1176788615994155e-04" rms="4.5592552423477173e-01" purity="6.6217440366744995e-01" nType="-99"/>
        </Node>
      </Node>
    </BinaryTree>
    <BinaryTree type="DecisionTree" boostWeight="1.0000000000000000e+00" itree="668">
      <Node pos="s" depth="0" NCoef="0" IVar="3" Cut="4.2260697484016418e-01" cType="1" res="2.5788642466068268e-02" rms="4.5931231975555420e-01" purity="4.9952828884124756e-01" nType="0">
        <Node pos="l" depth="1" NCoef="0" IVar="4" Cut="7.4620407819747925e-01" cType="1" res="-7.6660937629640102e-03" rms="4.6059003472328186e-01" purity="4.2521718144416809e-01" nType="0">
          <Node pos="l" depth="2" NCoef="0" IVar="-1" Cut="0.0000000000000000e+00" cType="1" res="3.5443526576273143e-04" rms="4.6469876170158386e-01" purity="6.0551339387893677e-01" nType="-99"/>
          <Node pos="r" depth="2" NCoef="0" IVar="-1" Cut="0.0000000000000000e+00" cType="1" res="-2.4214609584305435e-04" rms="4.5424374938011169e-01" purity="3.6976352334022522e-01" nType="-99"/>
        </Node>
        <Node pos="r" depth="1" NCoef="0" IVar="4" Cut="1.0673549175262451e+00" cType="1" res="1.1149336397647858e-01" rms="4.4468438625335693e-01" purity="6.8989938497543335e-01" nType="0">
          <Node pos="l" depth="2" NCoef="0" IVar="-1" Cut="0.0000000000000000e+00" cType="1" res="4.6316636144183576e-04" rms="4.2024722695350647e-01" purity="7.4325513839721680e-01" nType="-99"/>
          <Node pos="r" depth="2" NCoef="0" IVar="-1" Cut="0.0000000000000000e+00" cType="1" res="1.1831747542601079e-04" rms="4.7894480824470520e-01" purity="5.8549034595489502e-01" nType="-99"/>
        </Node>
      </Node>
    </BinaryTree>
    <BinaryTree type="DecisionTree" boostWeight="1.0000000000000000e+00" itree="669">
      <Node pos="s" depth="0" NCoef="0" IVar="3" Cut="3.5567700862884521e-01" cType="1" res="2.3009583353996277e-02" rms="4.5884010195732117e-01" purity="4.9759516119956970e-01" nType="0">
        <Node pos="l" depth="1" NCoef="0" IVar="5" Cut="6.5266491699218750e+02" cType="1" res="-2.7593243867158890e-02" rms="4.5513126254081726e-01" purity="3.7379631400108337e-01" nType="0">
          <Node pos="l" depth="2" NCoef="0" IVar="-1" Cut="0.0000000000000000e+00" cType="1" res="-3.6645779618993402e-04" rms="4.4485864043235779e-01" purity="3.2343831658363342e-01" nType="-99"/>
          <Node pos="r" depth="2" NCoef="0" IVar="-1" Cut="0.0000000000000000e+00" cType="1" res="2.9362621717154980e-04" rms="4.8089835047721863e-01" purity="5.8562129735946655e-01" nType="-99"/>
        </Node>
        <Node pos="r" depth="1" NCoef="0" IVar="5" Cut="4.2792883300781250e+02" cType="1" res="8.7112136185169220e-02" rms="4.5549473166465759e-01" purity="6.5442067384719849e-01" nType="0">
          <Node pos="l" depth="2" NCoef="0" IVar="-1" Cut="0.0000000000000000e+00" cType="1" res="7.4877920269500464e-05" rms="4.8301461338996887e-01" purity="5.2676832675933838e-01" nType="-99"/>
          <Node pos="r" depth="2" NCoef="0" IVar="-1" Cut="0.0000000000000000e+00" cType="1" res="4.1762762703001499e-04" rms="4.2636311054229736e-01" purity="7.5045025348663330e-01" nType="-99"/>
        </Node>
      </Node>
    </BinaryTree>
    <BinaryTree type="DecisionTree" boostWeight="1.0000000000000000e+00" itree="670">
      <Node pos="s" depth="0" NCoef="0" IVar="5" Cut="2.8821661376953125e+02" cType="1" res="3.4929871559143066e-02" rms="4.6194064617156982e-01" purity="5.0701063871383667e-01" nType="0">
        <Node pos="l" depth="1" NCoef="0" IVar="-1" Cut="0.0000000000000000e+00" cType="1" res="-1.6367854550480843e-03" rms="3.8656470179557800e-01" purity="1.9559027254581451e-01" nType="-99"/>
        <Node pos="r" depth="1" NCoef="0" IVar="4" Cut="1.3377045392990112e+00" cType="1" res="5.1233388483524323e-02" rms="4.6527859568595886e-01" purity="5.3687256574630737e-01" nType="0">
          <Node pos="l" depth="2" NCoef="0" IVar="-1" Cut="0.0000000000000000e+00" cType="1" res="2.8425169875845313e-04" rms="4.6228280663490295e-01" purity="5.6212848424911499e-01" nType="-99"/>
          <Node pos="r" depth="2" NCoef="0" IVar="-1" Cut="0.0000000000000000e+00" cType="1" res="-6.9575430825352669e-04" rms="4.5665502548217773e-01" purity="3.4884542226791382e-01" nType="-99"/>
        </Node>
      </Node>
    </BinaryTree>
    <BinaryTree type="DecisionTree" boostWeight="1.0000000000000000e+00" itree="671">
      <Node pos="s" depth="0" NCoef="0" IVar="3" Cut="1.9872832298278809e-01" cType="1" res="2.4882638826966286e-02" rms="4.6169486641883850e-01" purity="4.9677526950836182e-01" nType="0">
        <Node pos="l" depth="1" NCoef="0" IVar="3" Cut="1.5165895223617554e-01" cType="1" res="-8.1492498517036438e-02" rms="4.2706906795501709e-01" purity="2.6133400201797485e-01" nType="0">
          <Node pos="l" depth="2" NCoef="0" IVar="-1" Cut="0.0000000000000000e+00" cType="1" res="-1.3772145612165332e-03" rms="3.9949494600296021e-01" purity="2.0875453948974609e-01" nType="-99"/>
          <Node pos="r" depth="2" NCoef="0" IVar="-1" Cut="0.0000000000000000e+00" cType="1" res="-3.3117135171778500e-04" rms="4.4393229484558105e-01" purity="3.0238780379295349e-01" nType="-99"/>
        </Node>
        <Node pos="r" depth="1" NCoef="0" IVar="5" Cut="3.1495974731445312e+02" cType="1" res="4.8574693500995636e-02" rms="4.6576246619224548e-01" purity="5.4921317100524902e-01" nType="0">
          <Node pos="l" depth="2" NCoef="0" IVar="-1" Cut="0.0000000000000000e+00" cType="1" res="-6.5233476925641298e-04" rms="4.3832725286483765e-01" purity="2.8679385781288147e-01" nType="-99"/>
          <Node pos="r" depth="2" NCoef="0" IVar="-1" Cut="0.0000000000000000e+00" cType="1" res="2.6475859340280294e-04" rms="4.6657678484916687e-01" purity="5.9306550025939941e-01" nType="-99"/>
        </Node>
      </Node>
    </BinaryTree>
    <BinaryTree type="DecisionTree" boostWeight="1.0000000000000000e+00" itree="672">
      <Node pos="s" depth="0" NCoef="0" IVar="3" Cut="3.9735385775566101e-01" cType="1" res="2.4131791666150093e-02" rms="4.6108794212341309e-01" purity="4.9558109045028687e-01" nType="0">
        <Node pos="l" depth="1" NCoef="0" IVar="5" Cut="5.6609606933593750e+02" cType="1" res="-1.3036101125180721e-02" rms="4.6160057187080383e-01" purity="4.0717697143554688e-01" nType="0">
          <Node pos="l" depth="2" NCoef="0" IVar="-1" Cut="0.0000000000000000e+00" cType="1" res="-2.7807257720269263e-04" rms="4.5146256685256958e-01" purity="3.3843716979026794e-01" nType="-99"/>
          <Node pos="r" depth="2" NCoef="0" IVar="-1" Cut="0.0000000000000000e+00" cType="1" res="2.2533384617418051e-04" rms="4.7769004106521606e-01" purity="5.7661241292953491e-01" nType="-99"/>
        </Node>
        <Node pos="r" depth="1" NCoef="0" IVar="5" Cut="4.0512152099609375e+02" cType="1" res="9.8567262291908264e-02" rms="4.5094075798988342e-01" purity="6.7262643575668335e-01" nType="0">
          <Node pos="l" depth="2" NCoef="0" IVar="-1" Cut="0.0000000000000000e+00" cType="1" res="8.1858212070073932e-05" rms="4.8813316226005554e-01" purity="5.2478212118148804e-01" nType="-99"/>
          <Node pos="r" depth="2" NCoef="0" IVar="-1" Cut="0.0000000000000000e+00" cType="1" res="4.3364436714909971e-04" rms="4.2005831003189087e-01" purity="7.6122820377349854e-01" nType="-99"/>
        </Node>
      </Node>
    </BinaryTree>
    <BinaryTree type="DecisionTree" boostWeight="1.0000000000000000e+00" itree="673">
      <Node pos="s" depth="0" NCoef="0" IVar="7" Cut="1.6926278686523438e+02" cType="1" res="2.4597767740488052e-02" rms="4.6198368072509766e-01" purity="4.9538964033126831e-01" nType="0">
        <Node pos="l" depth="1" NCoef="0" IVar="6" Cut="1.4795143127441406e+02" cType="1" res="-4.8268507234752178e-03" rms="4.5999592542648315e-01" purity="4.4287115335464478e-01" nType="0">
          <Node pos="l" depth="2" NCoef="0" IVar="-1" Cut="0.0000000000000000e+00" cType="1" res="1.5453826927114278e-04" rms="4.5965084433555603e-01" purity="4.8079693317413330e-01" nType="-99"/>
          <Node pos="r" depth="2" NCoef="0" IVar="-1" Cut="0.0000000000000000e+00" cType="1" res="-4.5822164975106716e-04" rms="4.5170709490776062e-01" purity="3.7042295932769775e-01" nType="-99"/>
        </Node>
        <Node pos="r" depth="1" NCoef="0" IVar="1" Cut="8.6816644668579102e-01" cType="1" res="1.1150024831295013e-01" rms="4.5687234401702881e-01" purity="6.5049731731414795e-01" nType="0">
          <Node pos="l" depth="2" NCoef="0" IVar="-1" Cut="0.0000000000000000e+00" cType="1" res="1.6805490304250270e-04" rms="4.6938154101371765e-01" purity="5.7933413982391357e-01" nType="-99"/>
          <Node pos="r" depth="2" NCoef="0" IVar="-1" Cut="0.0000000000000000e+00" cType="1" res="5.8774231001734734e-04" rms="4.2740964889526367e-01" purity="7.3615074157714844e-01" nType="-99"/>
        </Node>
      </Node>
    </BinaryTree>
    <BinaryTree type="DecisionTree" boostWeight="1.0000000000000000e+00" itree="674">
      <Node pos="s" depth="0" NCoef="0" IVar="3" Cut="4.6669271588325500e-01" cType="1" res="1.9204104319214821e-02" rms="4.5897337794303894e-01" purity="4.9224293231964111e-01" nType="0">
        <Node pos="l" depth="1" NCoef="0" IVar="4" Cut="6.9301432371139526e-01" cType="1" res="-8.8426750153303146e-03" rms="4.5964109897613525e-01" purity="4.3812781572341919e-01" nType="0">
          <Node pos="l" depth="2" NCoef="0" IVar="-1" Cut="0.0000000000000000e+00" cType="1" res="4.1488747228868306e-04" rms="4.4272664189338684e-01" purity="6.6239279508590698e-01" nType="-99"/>
          <Node pos="r" depth="2" NCoef="0" IVar="-1" Cut="0.0000000000000000e+00" cType="1" res="-2.0236086857039481e-04" rms="4.5828106999397278e-01" purity="3.9190801978111267e-01" nType="-99"/>
        </Node>
        <Node pos="r" depth="1" NCoef="0" IVar="3" Cut="5.3629195690155029e-01" cType="1" res="1.3310991227626801e-01" rms="4.3817380070686340e-01" purity="7.1201962232589722e-01" nType="0">
          <Node pos="l" depth="2" NCoef="0" IVar="-1" Cut="0.0000000000000000e+00" cType="1" res="2.8172670863568783e-04" rms="4.5838627219200134e-01" purity="6.5941941738128662e-01" nType="-99"/>
          <Node pos="r" depth="2" NCoef="0" IVar="-1" Cut="0.0000000000000000e+00" cType="1" res="5.3766102064400911e-04" rms="4.1454324126243591e-01" purity="7.5807136297225952e-01" nType="-99"/>
        </Node>
      </Node>
    </BinaryTree>
    <BinaryTree type="DecisionTree" boostWeight="1.0000000000000000e+00" itree="675">
      <Node pos="s" depth="0" NCoef="0" IVar="3" Cut="5.3351551294326782e-01" cType="1" res="3.7957806140184402e-02" rms="4.6236929297447205e-01" purity="5.0954383611679077e-01" nType="0">
        <Node pos="l" depth="1" NCoef="0" IVar="5" Cut="3.6979104614257812e+02" cType="1" res="2.0359259098768234e-02" rms="4.6521595120429993e-01" purity="4.7878217697143555e-01" nType="0">
          <Node pos="l" depth="2" NCoef="0" IVar="-1" Cut="0.0000000000000000e+00" cType="1" res="-4.3685216223821044e-04" rms="4.3779543042182922e-01" purity="2.9654794931411743e-01" nType="-99"/>
          <Node pos="r" depth="2" NCoef="0" IVar="-1" Cut="0.0000000000000000e+00" cType="1" res="2.0664223120547831e-04" rms="4.7261017560958862e-01" purity="5.5562019348144531e-01" nType="-99"/>
        </Node>
        <Node pos="r" depth="1" NCoef="0" IVar="-1" Cut="0.0000000000000000e+00" cType="1" res="5.4067914607003331e-04" rms="4.0972805023193359e-01" purity="7.6519042253494263e-01" nType="-99"/>
      </Node>
    </BinaryTree>
    <BinaryTree type="DecisionTree" boostWeight="1.0000000000000000e+00" itree="676">
      <Node pos="s" depth="0" NCoef="0" IVar="3" Cut="4.4398102164268494e-01" cType="1" res="2.7856273576617241e-02" rms="4.6146297454833984e-01" purity="4.9959170818328857e-01" nType="0">
        <Node pos="l" depth="1" NCoef="0" IVar="4" Cut="1.2120510339736938e+00" cType="1" res="-2.2972258739173412e-03" rms="4.6413701772689819e-01" purity="4.3537375330924988e-01" nType="0">
          <Node pos="l" depth="2" NCoef="0" IVar="-1" Cut="0.0000000000000000e+00" cType="1" res="1.0938319610431790e-04" rms="4.6622288227081299e-01" purity="4.6947383880615234e-01" nType="-99"/>
          <Node pos="r" depth="2" NCoef="0" IVar="-1" Cut="0.0000000000000000e+00" cType="1" res="-7.2827993426471949e-04" rms="4.4211211800575256e-01" purity="3.0405452847480774e-01" nType="-99"/>
        </Node>
        <Node pos="r" depth="1" NCoef="0" IVar="4" Cut="9.3039923906326294e-01" cType="1" res="1.2444483488798141e-01" rms="4.3906477093696594e-01" purity="7.0529657602310181e-01" nType="0">
          <Node pos="l" depth="2" NCoef="0" IVar="-1" Cut="0.0000000000000000e+00" cType="1" res="5.1786465337499976e-04" rms="3.9951473474502563e-01" purity="7.8176438808441162e-01" nType="-99"/>
          <Node pos="r" depth="2" NCoef="0" IVar="-1" Cut="0.0000000000000000e+00" cType="1" res="2.6038821670226753e-04" rms="4.6608337759971619e-01" purity="6.3660645484924316e-01" nType="-99"/>
        </Node>
      </Node>
    </BinaryTree>
    <BinaryTree type="DecisionTree" boostWeight="1.0000000000000000e+00" itree="677">
      <Node pos="s" depth="0" NCoef="0" IVar="5" Cut="3.1155859375000000e+02" cType="1" res="2.6613444089889526e-02" rms="4.6052324771881104e-01" purity="4.9856701493263245e-01" nType="0">
        <Node pos="l" depth="1" NCoef="0" IVar="5" Cut="2.6737701416015625e+02" cType="1" res="-9.5244482159614563e-02" rms="4.0799617767333984e-01" purity="2.4526172876358032e-01" nType="0">
          <Node pos="l" depth="2" NCoef="0" IVar="-1" Cut="0.0000000000000000e+00" cType="1" res="-1.7007207497954369e-03" rms="3.7484294176101685e-01" purity="1.8759685754776001e-01" nType="-99"/>
          <Node pos="r" depth="2" NCoef="0" IVar="-1" Cut="0.0000000000000000e+00" cType="1" res="-5.1280210027471185e-04" rms="4.2419493198394775e-01" purity="2.8066450357437134e-01" nType="-99"/>
        </Node>
        <Node pos="r" depth="1" NCoef="0" IVar="6" Cut="1.5687785339355469e+02" cType="1" res="4.7044683247804642e-02" rms="4.6564307808876038e-01" purity="5.4103732109069824e-01" nType="0">
          <Node pos="l" depth="2" NCoef="0" IVar="-1" Cut="0.0000000000000000e+00" cType="1" res="3.4599626087583601e-04" rms="4.6030077338218689e-01" purity="5.8572399616241455e-01" nType="-99"/>
          <Node pos="r" depth="2" NCoef="0" IVar="-1" Cut="0.0000000000000000e+00" cType="1" res="-7.5025556725449860e-05" rms="4.6588072180747986e-01" purity="4.7709444165229797e-01" nType="-99"/>
        </Node>
      </Node>
    </BinaryTree>
    <BinaryTree type="DecisionTree" boostWeight="1.0000000000000000e+00" itree="678">
      <Node pos="s" depth="0" NCoef="0" IVar="1" Cut="7.8937244415283203e-01" cType="1" res="2.2378835827112198e-02" rms="4.6092486381530762e-01" purity="4.9403658509254456e-01" nType="0">
        <Node pos="l" depth="1" NCoef="0" IVar="4" Cut="8.0477213859558105e-01" cType="1" res="-4.0850188583135605e-02" rms="4.5415231585502625e-01" purity="4.1991779208183289e-01" nType="0">
          <Node pos="l" depth="2" NCoef="0" IVar="-1" Cut="0.0000000000000000e+00" cType="1" res="1.5184837684500962e-04" rms="4.6603918075561523e-01" purity="5.4482185840606689e-01" nType="-99"/>
          <Node pos="r" depth="2" NCoef="0" IVar="-1" Cut="0.0000000000000000e+00" cType="1" res="-5.2967504598200321e-04" rms="4.4138392806053162e-01" purity="3.5049355030059814e-01" nType="-99"/>
        </Node>
        <Node pos="r" depth="1" NCoef="0" IVar="7" Cut="1.3837881469726562e+02" cType="1" res="6.5926730632781982e-02" rms="4.6051079034805298e-01" purity="5.4508453607559204e-01" nType="0">
          <Node pos="l" depth="2" NCoef="0" IVar="-1" Cut="0.0000000000000000e+00" cType="1" res="1.1299597827019170e-04" rms="4.6337941288948059e-01" purity="4.6989351511001587e-01" nType="-99"/>
          <Node pos="r" depth="2" NCoef="0" IVar="-1" Cut="0.0000000000000000e+00" cType="1" res="4.3553812429308891e-04" rms="4.4822373986244202e-01" purity="6.6202467679977417e-01" nType="-99"/>
        </Node>
      </Node>
    </BinaryTree>
    <BinaryTree type="DecisionTree" boostWeight="1.0000000000000000e+00" itree="679">
      <Node pos="s" depth="0" NCoef="0" IVar="5" Cut="3.1410748291015625e+02" cType="1" res="1.9401904195547104e-02" rms="4.6051144599914551e-01" purity="4.9116629362106323e-01" nType="0">
        <Node pos="l" depth="1" NCoef="0" IVar="4" Cut="9.0471148490905762e-01" cType="1" res="-1.0789389908313751e-01" rms="4.0044817328453064e-01" purity="2.3196263611316681e-01" nType="0">
          <Node pos="l" depth="2" NCoef="0" IVar="-1" Cut="0.0000000000000000e+00" cType="1" res="-2.8730192570947111e-04" rms="4.4594115018844604e-01" purity="3.2682392001152039e-01" nType="-99"/>
          <Node pos="r" depth="2" NCoef="0" IVar="-1" Cut="0.0000000000000000e+00" cType="1" res="-2.1695126779377460e-03" rms="3.5752987861633301e-01" purity="1.6519919037818909e-01" nType="-99"/>
        </Node>
        <Node pos="r" depth="1" NCoef="0" IVar="1" Cut="7.4985164403915405e-01" cType="1" res="4.1565090417861938e-02" rms="4.6664950251579285e-01" purity="5.3629565238952637e-01" nType="0">
          <Node pos="l" depth="2" NCoef="0" IVar="-1" Cut="0.0000000000000000e+00" cType="1" res="-1.9280283595435321e-04" rms="4.6099042892456055e-01" purity="4.4376260042190552e-01" nType="-99"/>
          <Node pos="r" depth="2" NCoef="0" IVar="-1" Cut="0.0000000000000000e+00" cType="1" res="3.0780970701016486e-04" rms="4.6434801816940308e-01" purity="5.8072030544281006e-01" nType="-99"/>
        </Node>
      </Node>
    </BinaryTree>
    <BinaryTree type="DecisionTree" boostWeight="1.0000000000000000e+00" itree="680">
      <Node pos="s" depth="0" NCoef="0" IVar="5" Cut="4.4645761108398438e+02" cType="1" res="3.4361407160758972e-02" rms="4.5987242460250854e-01" purity="5.0866568088531494e-01" nType="0">
        <Node pos="l" depth="1" NCoef="0" IVar="5" Cut="3.2666473388671875e+02" cType="1" res="-2.1830203011631966e-02" rms="4.5639461278915405e-01" purity="3.8001605868339539e-01" nType="0">
          <Node pos="l" depth="2" NCoef="0" IVar="-1" Cut="0.0000000000000000e+00" cType="1" res="-8.2618882879614830e-04" rms="4.1356772184371948e-01" purity="2.5541347265243530e-01" nType="-99"/>
          <Node pos="r" depth="2" NCoef="0" IVar="-1" Cut="0.0000000000000000e+00" cType="1" res="8.9143017248716205e-05" rms="4.7468146681785583e-01" purity="4.5118856430053711e-01" nType="-99"/>
        </Node>
        <Node pos="r" depth="1" NCoef="0" IVar="3" Cut="3.3214354515075684e-01" cType="1" res="8.6146749556064606e-02" rms="4.5697671175003052e-01" purity="6.2722724676132202e-01" nType="0">
          <Node pos="l" depth="2" NCoef="0" IVar="-1" Cut="0.0000000000000000e+00" cType="1" res="9.3175316578708589e-05" rms="4.8380592465400696e-01" purity="4.8982620239257812e-01" nType="-99"/>
          <Node pos="r" depth="2" NCoef="0" IVar="-1" Cut="0.0000000000000000e+00" cType="1" res="4.2592093814164400e-04" rms="4.2154946923255920e-01" purity="7.5544917583465576e-01" nType="-99"/>
        </Node>
      </Node>
    </BinaryTree>
    <BinaryTree type="DecisionTree" boostWeight="1.0000000000000000e+00" itree="681">
      <Node pos="s" depth="0" NCoef="0" IVar="4" Cut="7.1329838037490845e-01" cType="1" res="2.4026749655604362e-02" rms="4.6040639281272888e-01" purity="4.9641811847686768e-01" nType="0">
        <Node pos="l" depth="1" NCoef="0" IVar="5" Cut="4.5298699951171875e+02" cType="1" res="1.3841609656810760e-01" rms="4.4217672944068909e-01" purity="6.7725861072540283e-01" nType="0">
          <Node pos="l" depth="2" NCoef="0" IVar="-1" Cut="0.0000000000000000e+00" cType="1" res="3.2430712599307299e-04" rms="4.6763724088668823e-01" purity="5.5735838413238525e-01" nType="-99"/>
          <Node pos="r" depth="2" NCoef="0" IVar="-1" Cut="0.0000000000000000e+00" cType="1" res="5.1479786634445190e-04" rms="4.1947975754737854e-01" purity="7.5811916589736938e-01" nType="-99"/>
        </Node>
        <Node pos="r" depth="1" NCoef="0" IVar="7" Cut="2.0571533203125000e+02" cType="1" res="-2.1934949327260256e-03" rms="4.6049839258193970e-01" purity="4.5496597886085510e-01" nType="0">
          <Node pos="l" depth="2" NCoef="0" IVar="-1" Cut="0.0000000000000000e+00" cType="1" res="-1.3738527195528150e-04" rms="4.5678463578224182e-01" purity="4.1718670725822449e-01" nType="-99"/>
          <Node pos="r" depth="2" NCoef="0" IVar="-1" Cut="0.0000000000000000e+00" cType="1" res="4.2848655721172690e-04" rms="4.5895341038703918e-01" purity="6.6539263725280762e-01" nType="-99"/>
        </Node>
      </Node>
    </BinaryTree>
    <BinaryTree type="DecisionTree" boostWeight="1.0000000000000000e+00" itree="682">
      <Node pos="s" depth="0" NCoef="0" IVar="5" Cut="3.8141415405273438e+02" cType="1" res="1.4117595739662647e-02" rms="4.5827573537826538e-01" purity="4.8718503117561340e-01" nType="0">
        <Node pos="l" depth="1" NCoef="0" IVar="3" Cut="4.4446712732315063e-01" cType="1" res="-6.8437665700912476e-02" rms="4.3145704269409180e-01" purity="3.0477517843246460e-01" nType="0">
          <Node pos="l" depth="2" NCoef="0" IVar="-1" Cut="0.0000000000000000e+00" cType="1" res="-1.0109477443620563e-03" rms="4.0900903940200806e-01" purity="2.2951881587505341e-01" nType="-99"/>
          <Node pos="r" depth="2" NCoef="0" IVar="-1" Cut="0.0000000000000000e+00" cType="1" res="1.2178074393887073e-04" rms="4.8252362012863159e-01" purity="5.4103863239288330e-01" nType="-99"/>
        </Node>
        <Node pos="r" depth="1" NCoef="0" IVar="6" Cut="1.5658009338378906e+02" cType="1" res="5.3775683045387268e-02" rms="4.6543800830841064e-01" purity="5.7481151819229126e-01" nType="0">
          <Node pos="l" depth="2" NCoef="0" IVar="-1" Cut="0.0000000000000000e+00" cType="1" res="3.8797012530267239e-04" rms="4.5476928353309631e-01" purity="6.3637262582778931e-01" nType="-99"/>
          <Node pos="r" depth="2" NCoef="0" IVar="-1" Cut="0.0000000000000000e+00" cType="1" res="-8.4406303358264267e-05" rms="4.6835160255432129e-01" purity="4.9784219264984131e-01" nType="-99"/>
        </Node>
      </Node>
    </BinaryTree>
    <BinaryTree type="DecisionTree" boostWeight="1.0000000000000000e+00" itree="683">
      <Node pos="s" depth="0" NCoef="0" IVar="3" Cut="1.7793977260589600e-01" cType="1" res="2.7304627001285553e-02" rms="4.5950356125831604e-01" purity="5.0116485357284546e-01" nType="0">
        <Node pos="l" depth="1" NCoef="0" IVar="0" Cut="1.2089505004882812e+02" cType="1" res="-1.1823633313179016e-01" rms="4.0417718887329102e-01" purity="2.1985669434070587e-01" nType="0">
          <Node pos="l" depth="2" NCoef="0" IVar="-1" Cut="0.0000000000000000e+00" cType="1" res="-8.6591922445222735e-04" rms="4.0683507919311523e-01" purity="2.2495038807392120e-01" nType="-99"/>
          <Node pos="r" depth="2" NCoef="0" IVar="-1" Cut="0.0000000000000000e+00" cType="1" res="-1.5780373942106962e-03" rms="3.9751008152961731e-01" purity="2.1417668461799622e-01" nType="-99"/>
        </Node>
        <Node pos="r" depth="1" NCoef="0" IVar="1" Cut="6.7124831676483154e-01" cType="1" res="4.9284398555755615e-02" rms="4.6333345770835876e-01" purity="5.4364836215972900e-01" nType="0">
          <Node pos="l" depth="2" NCoef="0" IVar="-1" Cut="0.0000000000000000e+00" cType="1" res="-3.9922443102113903e-04" rms="4.6117302775382996e-01" purity="3.9781087636947632e-01" nType="-99"/>
          <Node pos="r" depth="2" NCoef="0" IVar="-1" Cut="0.0000000000000000e+00" cType="1" res="2.8549833223223686e-04" rms="4.5970737934112549e-01" purity="5.7477331161499023e-01" nType="-99"/>
        </Node>
      </Node>
    </BinaryTree>
    <BinaryTree type="DecisionTree" boostWeight="1.0000000000000000e+00" itree="684">
      <Node pos="s" depth="0" NCoef="0" IVar="3" Cut="2.4445809423923492e-01" cType="1" res="1.5092989429831505e-02" rms="4.6087059378623962e-01" purity="4.8530641198158264e-01" nType="0">
        <Node pos="l" depth="1" NCoef="0" IVar="0" Cut="1.6666896057128906e+02" cType="1" res="-8.1412896513938904e-02" rms="4.2693471908569336e-01" purity="2.6856806874275208e-01" nType="0">
          <Node pos="l" depth="2" NCoef="0" IVar="-1" Cut="0.0000000000000000e+00" cType="1" res="-4.6669409493915737e-04" rms="4.3016436696052551e-01" purity="2.8110775351524353e-01" nType="-99"/>
          <Node pos="r" depth="2" NCoef="0" IVar="-1" Cut="0.0000000000000000e+00" cType="1" res="-1.9758068956434727e-03" rms="3.9389044046401978e-01" purity="2.1210610866546631e-01" nType="-99"/>
        </Node>
        <Node pos="r" depth="1" NCoef="0" IVar="4" Cut="9.6432602405548096e-01" cType="1" res="5.3536828607320786e-02" rms="4.6820464730262756e-01" purity="5.7164573669433594e-01" nType="0">
          <Node pos="l" depth="2" NCoef="0" IVar="-1" Cut="0.0000000000000000e+00" cType="1" res="3.6254990845918655e-04" rms="4.5588088035583496e-01" purity="6.4265614748001099e-01" nType="-99"/>
          <Node pos="r" depth="2" NCoef="0" IVar="-1" Cut="0.0000000000000000e+00" cType="1" res="-1.8817327145370655e-05" rms="4.7542038559913635e-01" purity="4.9028190970420837e-01" nType="-99"/>
        </Node>
      </Node>
    </BinaryTree>
    <BinaryTree type="DecisionTree" boostWeight="1.0000000000000000e+00" itree="685">
      <Node pos="s" depth="0" NCoef="0" IVar="5" Cut="4.5486477661132812e+02" cType="1" res="3.4768115729093552e-02" rms="4.5987784862518311e-01" purity="5.0861310958862305e-01" nType="0">
        <Node pos="l" depth="1" NCoef="0" IVar="6" Cut="1.4223989868164062e+02" cType="1" res="-1.7815595492720604e-02" rms="4.5357784628868103e-01" purity="3.9100983738899231e-01" nType="0">
          <Node pos="l" depth="2" NCoef="0" IVar="-1" Cut="0.0000000000000000e+00" cType="1" res="1.3257164391689003e-04" rms="4.6218901872634888e-01" purity="4.3734008073806763e-01" nType="-99"/>
          <Node pos="r" depth="2" NCoef="0" IVar="-1" Cut="0.0000000000000000e+00" cType="1" res="-8.2372140605002642e-04" rms="4.2141032218933105e-01" purity="2.9572004079818726e-01" nType="-99"/>
        </Node>
        <Node pos="r" depth="1" NCoef="0" IVar="6" Cut="2.4772930908203125e+02" cType="1" res="8.7707102298736572e-02" rms="4.6010330319404602e-01" purity="6.2701088190078735e-01" nType="0">
          <Node pos="l" depth="2" NCoef="0" IVar="-1" Cut="0.0000000000000000e+00" cType="1" res="3.8901122752577066e-04" rms="4.4895601272583008e-01" purity="6.6303914785385132e-01" nType="-99"/>
          <Node pos="r" depth="2" NCoef="0" IVar="-1" Cut="0.0000000000000000e+00" cType="1" res="-1.6166515706572682e-04" rms="4.8179662227630615e-01" purity="4.8707714676856995e-01" nType="-99"/>
        </Node>
      </Node>
    </BinaryTree>
    <BinaryTree type="DecisionTree" boostWeight="1.0000000000000000e+00" itree="686">
      <Node pos="s" depth="0" NCoef="0" IVar="5" Cut="3.8923953247070312e+02" cType="1" res="2.9022337868809700e-02" rms="4.6119993925094604e-01" purity="5.0105297565460205e-01" nType="0">
        <Node pos="l" depth="1" NCoef="0" IVar="5" Cut="2.6881649780273438e+02" cType="1" res="-5.0845239311456680e-02" rms="4.4051182270050049e-01" purity="3.2555189728736877e-01" nType="0">
          <Node pos="l" depth="2" NCoef="0" IVar="-1" Cut="0.0000000000000000e+00" cType="1" res="-2.5242920964956284e-03" rms="3.6196807026863098e-01" purity="1.6167137026786804e-01" nType="-99"/>
          <Node pos="r" depth="2" NCoef="0" IVar="-1" Cut="0.0000000000000000e+00" cType="1" res="-1.8300733063369989e-04" rms="4.5085668563842773e-01" purity="3.5730230808258057e-01" nType="-99"/>
        </Node>
        <Node pos="r" depth="1" NCoef="0" IVar="4" Cut="1.1913900375366211e+00" cType="1" res="6.9876648485660553e-02" rms="4.6617135405540466e-01" purity="5.9082633256912231e-01" nType="0">
          <Node pos="l" depth="2" NCoef="0" IVar="-1" Cut="0.0000000000000000e+00" cType="1" res="3.5094947088509798e-04" rms="4.5814484357833862e-01" purity="6.2988620996475220e-01" nType="-99"/>
          <Node pos="r" depth="2" NCoef="0" IVar="-1" Cut="0.0000000000000000e+00" cType="1" res="-1.8312344036530703e-04" rms="4.7767934203147888e-01" purity="4.5510798692703247e-01" nType="-99"/>
        </Node>
      </Node>
    </BinaryTree>
    <BinaryTree type="DecisionTree" boostWeight="1.0000000000000000e+00" itree="687">
      <Node pos="s" depth="0" NCoef="0" IVar="3" Cut="3.5443842411041260e-01" cType="1" res="3.4623425453901291e-02" rms="4.5965632796287537e-01" purity="5.0829958915710449e-01" nType="0">
        <Node pos="l" depth="1" NCoef="0" IVar="7" Cut="1.6460197448730469e+02" cType="1" res="-1.4243180863559246e-02" rms="4.5902714133262634e-01" purity="3.8501805067062378e-01" nType="0">
          <Node pos="l" depth="2" NCoef="0" IVar="-1" Cut="0.0000000000000000e+00" cType="1" res="-3.3520872239023447e-04" rms="4.4464761018753052e-01" purity="3.2400065660476685e-01" nType="-99"/>
          <Node pos="r" depth="2" NCoef="0" IVar="-1" Cut="0.0000000000000000e+00" cType="1" res="3.0143934418447316e-04" rms="4.8498275876045227e-01" purity="5.5646497011184692e-01" nType="-99"/>
        </Node>
        <Node pos="r" depth="1" NCoef="0" IVar="4" Cut="9.7069275379180908e-01" cType="1" res="9.6037112176418304e-02" rms="4.5303159952163696e-01" purity="6.6323518753051758e-01" nType="0">
          <Node pos="l" depth="2" NCoef="0" IVar="-1" Cut="0.0000000000000000e+00" cType="1" res="4.5580498408526182e-04" rms="4.2556396126747131e-01" purity="7.3492467403411865e-01" nType="-99"/>
          <Node pos="r" depth="2" NCoef="0" IVar="-1" Cut="0.0000000000000000e+00" cType="1" res="1.3030890841037035e-04" rms="4.7649362683296204e-01" purity="5.7732129096984863e-01" nType="-99"/>
        </Node>
      </Node>
    </BinaryTree>
    <BinaryTree type="DecisionTree" boostWeight="1.0000000000000000e+00" itree="688">
      <Node pos="s" depth="0" NCoef="0" IVar="4" Cut="6.9952291250228882e-01" cType="1" res="3.0778251588344574e-02" rms="4.6108832955360413e-01" purity="5.0380963087081909e-01" nType="0">
        <Node pos="l" depth="1" NCoef="0" IVar="3" Cut="2.7534148097038269e-01" cType="1" res="1.5087066590785980e-01" rms="4.3359592556953430e-01" purity="6.9899946451187134e-01" nType="0">
          <Node pos="l" depth="2" NCoef="0" IVar="-1" Cut="0.0000000000000000e+00" cType="1" res="3.4343291190452874e-04" rms="4.8754191398620605e-01" purity="5.3860336542129517e-01" nType="-99"/>
          <Node pos="r" depth="2" NCoef="0" IVar="-1" Cut="0.0000000000000000e+00" cType="1" res="5.1924749277532101e-04" rms="4.0174469351768494e-01" purity="7.7555692195892334e-01" nType="-99"/>
        </Node>
        <Node pos="r" depth="1" NCoef="0" IVar="7" Cut="1.9498588562011719e+02" cType="1" res="5.5706650018692017e-03" rms="4.6271237730979919e-01" purity="4.6283891797065735e-01" nType="0">
          <Node pos="l" depth="2" NCoef="0" IVar="-1" Cut="0.0000000000000000e+00" cType="1" res="-9.4218361482489854e-05" rms="4.6136802434921265e-01" purity="4.2067086696624756e-01" nType="-99"/>
          <Node pos="r" depth="2" NCoef="0" IVar="-1" Cut="0.0000000000000000e+00" cType="1" res="3.8627657340839505e-04" rms="4.5334696769714355e-01" purity="6.5942382812500000e-01" nType="-99"/>
        </Node>
      </Node>
    </BinaryTree>
    <BinaryTree type="DecisionTree" boostWeight="1.0000000000000000e+00" itree="689">
      <Node pos="s" depth="0" NCoef="0" IVar="5" Cut="4.4854565429687500e+02" cType="1" res="3.2655119895935059e-02" rms="4.6025937795639038e-01" purity="5.0564002990722656e-01" nType="0">
        <Node pos="l" depth="1" NCoef="0" IVar="0" Cut="1.4711305236816406e+02" cType="1" res="-2.7582630515098572e-02" rms="4.5108351111412048e-01" purity="3.7584838271141052e-01" nType="0">
          <Node pos="l" depth="2" NCoef="0" IVar="-1" Cut="0.0000000000000000e+00" cType="1" res="-3.8747239159420133e-05" rms="4.5481473207473755e-01" purity="3.9737081527709961e-01" nType="-99"/>
          <Node pos="r" depth="2" NCoef="0" IVar="-1" Cut="0.0000000000000000e+00" cType="1" res="-2.4219867773354053e-03" rms="3.7409916520118713e-01" purity="1.9355212152004242e-01" nType="-99"/>
        </Node>
        <Node pos="r" depth="1" NCoef="0" IVar="3" Cut="2.8915214538574219e-01" cType="1" res="8.8688604533672333e-02" rms="4.6163007616996765e-01" purity="6.2637293338775635e-01" nType="0">
          <Node pos="l" depth="2" NCoef="0" IVar="-1" Cut="0.0000000000000000e+00" cType="1" res="8.1483078247401863e-05" rms="4.8980271816253662e-01" purity="4.6231889724731445e-01" nType="-99"/>
          <Node pos="r" depth="2" NCoef="0" IVar="-1" Cut="0.0000000000000000e+00" cType="1" res="3.8948241854086518e-04" rms="4.3889263272285461e-01" purity="7.2275805473327637e-01" nType="-99"/>
        </Node>
      </Node>
    </BinaryTree>
    <BinaryTree type="DecisionTree" boostWeight="1.0000000000000000e+00" itree="690">
      <Node pos="s" depth="0" NCoef="0" IVar="5" Cut="3.7786062622070312e+02" cType="1" res="2.0674550905823708e-02" rms="4.5898225903511047e-01" purity="4.9355691671371460e-01" nType="0">
        <Node pos="l" depth="1" NCoef="0" IVar="4" Cut="7.7734893560409546e-01" cType="1" res="-6.0535565018653870e-02" rms="4.3169507384300232e-01" purity="3.1268692016601562e-01" nType="0">
          <Node pos="l" depth="2" NCoef="0" IVar="-1" Cut="0.0000000000000000e+00" cType="1" res="2.6728824013844132e-04" rms="4.7361722588539124e-01" purity="4.8529261350631714e-01" nType="-99"/>
          <Node pos="r" depth="2" NCoef="0" IVar="-1" Cut="0.0000000000000000e+00" cType="1" res="-8.3538232138380408e-04" rms="4.1126102209091187e-01" purity="2.6071843504905701e-01" nType="-99"/>
        </Node>
        <Node pos="r" depth="1" NCoef="0" IVar="4" Cut="9.9287968873977661e-01" cType="1" res="5.7737503200769424e-02" rms="4.6623292565345764e-01" purity="5.7610303163528442e-01" nType="0">
          <Node pos="l" depth="2" NCoef="0" IVar="-1" Cut="0.0000000000000000e+00" cType="1" res="3.5470165312290192e-04" rms="4.5441848039627075e-01" purity="6.4056628942489624e-01" nType="-99"/>
          <Node pos="r" depth="2" NCoef="0" IVar="-1" Cut="0.0000000000000000e+00" cType="1" res="-1.3017367564316373e-05" rms="4.7486087679862976e-01" purity="4.8984962701797485e-01" nType="-99"/>
        </Node>
      </Node>
    </BinaryTree>
    <BinaryTree type="DecisionTree" boostWeight="1.0000000000000000e+00" itree="691">
      <Node pos="s" depth="0" NCoef="0" IVar="3" Cut="2.6668027043342590e-01" cType="1" res="3.2646521925926208e-02" rms="4.5965746045112610e-01" purity="5.0680536031723022e-01" nType="0">
        <Node pos="l" depth="1" NCoef="0" IVar="7" Cut="1.6702061462402344e+02" cType="1" res="-3.8962364196777344e-02" rms="4.4562849402427673e-01" purity="3.2122552394866943e-01" nType="0">
          <Node pos="l" depth="2" NCoef="0" IVar="-1" Cut="0.0000000000000000e+00" cType="1" res="-6.5604806877672672e-04" rms="4.2412659525871277e-01" purity="2.5876137614250183e-01" nType="-99"/>
          <Node pos="r" depth="2" NCoef="0" IVar="-1" Cut="0.0000000000000000e+00" cType="1" res="2.5201757671311498e-04" rms="4.9081748723983765e-01" purity="5.0860399007797241e-01" nType="-99"/>
        </Node>
        <Node pos="r" depth="1" NCoef="0" IVar="4" Cut="1.0090960264205933e+00" cType="1" res="6.9210536777973175e-02" rms="4.6240088343620300e-01" purity="6.0156375169754028e-01" nType="0">
          <Node pos="l" depth="2" NCoef="0" IVar="-1" Cut="0.0000000000000000e+00" cType="1" res="3.8365900400094688e-04" rms="4.4570142030715942e-01" purity="6.6632711887359619e-01" nType="-99"/>
          <Node pos="r" depth="2" NCoef="0" IVar="-1" Cut="0.0000000000000000e+00" cType="1" res="-2.3166733171819942e-06" rms="4.7827774286270142e-01" purity="5.0331348180770874e-01" nType="-99"/>
        </Node>
      </Node>
    </BinaryTree>
    <BinaryTree type="DecisionTree" boostWeight="1.0000000000000000e+00" itree="692">
      <Node pos="s" depth="0" NCoef="0" IVar="1" Cut="8.4193104505538940e-01" cType="1" res="2.5705389678478241e-02" rms="4.6319898962974548e-01" purity="4.9507141113281250e-01" nType="0">
        <Node pos="l" depth="1" NCoef="0" IVar="4" Cut="8.4472095966339111e-01" cType="1" res="-2.3503229022026062e-02" rms="4.5876121520996094e-01" purity="4.3794211745262146e-01" nType="0">
          <Node pos="l" depth="2" NCoef="0" IVar="-1" Cut="0.0000000000000000e+00" cType="1" res="2.0726797811221331e-04" rms="4.6329051256179810e-01" purity="5.5388915538787842e-01" nType="-99"/>
          <Node pos="r" depth="2" NCoef="0" IVar="-1" Cut="0.0000000000000000e+00" cType="1" res="-4.9892236711457372e-04" rms="4.4710659980773926e-01" purity="3.4981119632720947e-01" nType="-99"/>
        </Node>
        <Node pos="r" depth="1" NCoef="0" IVar="4" Cut="1.1238434314727783e+00" cType="1" res="8.0718509852886200e-02" rms="4.6194568276405334e-01" purity="5.5893951654434204e-01" nType="0">
          <Node pos="l" depth="2" NCoef="0" IVar="-1" Cut="0.0000000000000000e+00" cType="1" res="4.4095219345763326e-04" rms="4.5207437872886658e-01" purity="6.1654186248779297e-01" nType="-99"/>
          <Node pos="r" depth="2" NCoef="0" IVar="-1" Cut="0.0000000000000000e+00" cType="1" res="4.2054820369230583e-05" rms="4.6975269913673401e-01" purity="4.6018844842910767e-01" nType="-99"/>
        </Node>
      </Node>
    </BinaryTree>
    <BinaryTree type="DecisionTree" boostWeight="1.0000000000000000e+00" itree="693">
      <Node pos="s" depth="0" NCoef="0" IVar="7" Cut="1.6678097534179688e+02" cType="1" res="2.4906577542424202e-02" rms="4.6143308281898499e-01" purity="4.9588975310325623e-01" nType="0">
        <Node pos="l" depth="1" NCoef="0" IVar="6" Cut="1.2720331573486328e+02" cType="1" res="-7.5863599777221680e-03" rms="4.5952817797660828e-01" purity="4.3854182958602905e-01" nType="0">
          <Node pos="l" depth="2" NCoef="0" IVar="-1" Cut="0.0000000000000000e+00" cType="1" res="1.9291402713861316e-04" rms="4.5910304784774780e-01" purity="4.8973867297172546e-01" nType="-99"/>
          <Node pos="r" depth="2" NCoef="0" IVar="-1" Cut="0.0000000000000000e+00" cType="1" res="-4.1713810060173273e-04" rms="4.5240727066993713e-01" purity="3.7516644597053528e-01" nType="-99"/>
        </Node>
        <Node pos="r" depth="1" NCoef="0" IVar="6" Cut="1.6777796936035156e+02" cType="1" res="1.1549638956785202e-01" rms="4.5460045337677002e-01" purity="6.5577495098114014e-01" nType="0">
          <Node pos="l" depth="2" NCoef="0" IVar="-1" Cut="0.0000000000000000e+00" cType="1" res="5.4403563262894750e-04" rms="4.2723801732063293e-01" purity="7.2616815567016602e-01" nType="-99"/>
          <Node pos="r" depth="2" NCoef="0" IVar="-1" Cut="0.0000000000000000e+00" cType="1" res="1.9456693553365767e-04" rms="4.7088170051574707e-01" purity="5.8740788698196411e-01" nType="-99"/>
        </Node>
      </Node>
    </BinaryTree>
    <BinaryTree type="DecisionTree" boostWeight="1.0000000000000000e+00" itree="694">
      <Node pos="s" depth="0" NCoef="0" IVar="4" Cut="1.2605689764022827e+00" cType="1" res="2.8430679813027382e-02" rms="4.6188232302665710e-01" purity="4.9931922554969788e-01" nType="0">
        <Node pos="l" depth="1" NCoef="0" IVar="3" Cut="2.8890502452850342e-01" cType="1" res="5.1407966762781143e-02" rms="4.6091923117637634e-01" purity="5.2722942829132080e-01" nType="0">
          <Node pos="l" depth="2" NCoef="0" IVar="-1" Cut="0.0000000000000000e+00" cType="1" res="-3.9911159547045827e-05" rms="4.6003684401512146e-01" purity="3.6619931459426880e-01" nType="-99"/>
          <Node pos="r" depth="2" NCoef="0" IVar="-1" Cut="0.0000000000000000e+00" cType="1" res="3.1579326605424285e-04" rms="4.5742446184158325e-01" purity="6.3433331251144409e-01" nType="-99"/>
        </Node>
        <Node pos="r" depth="1" NCoef="0" IVar="1" Cut="9.3371552228927612e-01" cType="1" res="-8.2093462347984314e-02" rms="4.5039430260658264e-01" purity="3.6506697535514832e-01" nType="0">
          <Node pos="l" depth="2" NCoef="0" IVar="-1" Cut="0.0000000000000000e+00" cType="1" res="-9.9161209072917700e-04" rms="4.3319937586784363e-01" purity="3.0369958281517029e-01" nType="-99"/>
          <Node pos="r" depth="2" NCoef="0" IVar="-1" Cut="0.0000000000000000e+00" cType="1" res="7.0116286224219948e-05" rms="4.6369946002960205e-01" purity="4.7371435165405273e-01" nType="-99"/>
        </Node>
      </Node>
    </BinaryTree>
    <BinaryTree type="DecisionTree" boostWeight="1.0000000000000000e+00" itree="695">
      <Node pos="s" depth="0" NCoef="0" IVar="3" Cut="2.6634132862091064e-01" cType="1" res="2.0921176299452782e-02" rms="4.5975986123085022e-01" purity="4.9436634778976440e-01" nType="0">
        <Node pos="l" depth="1" NCoef="0" IVar="7" Cut="1.3891412353515625e+02" cType="1" res="-5.3935304284095764e-02" rms="4.4120261073112488e-01" purity="3.0290624499320984e-01" nType="0">
          <Node pos="l" depth="2" NCoef="0" IVar="-1" Cut="0.0000000000000000e+00" cType="1" res="-8.7096309289336205e-04" rms="4.0952259302139282e-01" purity="2.3272857069969177e-01" nType="-99"/>
          <Node pos="r" depth="2" NCoef="0" IVar="-1" Cut="0.0000000000000000e+00" cType="1" res="3.0344821425387636e-05" rms="4.8524439334869385e-01" purity="4.2394229769706726e-01" nType="-99"/>
        </Node>
        <Node pos="r" depth="1" NCoef="0" IVar="5" Cut="4.1414688110351562e+02" cType="1" res="5.8984640985727310e-02" rms="4.6430873870849609e-01" purity="5.9172111749649048e-01" nType="0">
          <Node pos="l" depth="2" NCoef="0" IVar="-1" Cut="0.0000000000000000e+00" cType="1" res="-1.0027089592767879e-04" rms="4.7495710849761963e-01" purity="4.3513435125350952e-01" nType="-99"/>
          <Node pos="r" depth="2" NCoef="0" IVar="-1" Cut="0.0000000000000000e+00" cType="1" res="3.4280857653357089e-04" rms="4.5088288187980652e-01" purity="6.8792104721069336e-01" nType="-99"/>
        </Node>
      </Node>
    </BinaryTree>
    <BinaryTree type="DecisionTree" boostWeight="1.0000000000000000e+00" itree="696">
      <Node pos="s" depth="0" NCoef="0" IVar="3" Cut="4.2236644029617310e-01" cType="1" res="3.1703565269708633e-02" rms="4.6007075905799866e-01" purity="5.0470685958862305e-01" nType="0">
        <Node pos="l" depth="1" NCoef="0" IVar="7" Cut="1.2759514617919922e+02" cType="1" res="1.2089806841686368e-04" rms="4.6264234185218811e-01" purity="4.3185570836067200e-01" nType="0">
          <Node pos="l" depth="2" NCoef="0" IVar="-1" Cut="0.0000000000000000e+00" cType="1" res="-2.8307960019446909e-04" rms="4.4581776857376099e-01" purity="3.4872695803642273e-01" nType="-99"/>
          <Node pos="r" depth="2" NCoef="0" IVar="-1" Cut="0.0000000000000000e+00" cType="1" res="2.2927964164409786e-04" rms="4.7703516483306885e-01" purity="5.3637868165969849e-01" nType="-99"/>
        </Node>
        <Node pos="r" depth="1" NCoef="0" IVar="4" Cut="9.8908787965774536e-01" cType="1" res="1.1311186850070953e-01" rms="4.4311445951461792e-01" purity="6.9248986244201660e-01" nType="0">
          <Node pos="l" depth="2" NCoef="0" IVar="-1" Cut="0.0000000000000000e+00" cType="1" res="5.0058407941833138e-04" rms="4.1125378012657166e-01" purity="7.6444900035858154e-01" nType="-99"/>
          <Node pos="r" depth="2" NCoef="0" IVar="-1" Cut="0.0000000000000000e+00" cType="1" res="1.3686636521015316e-04" rms="4.7193515300750732e-01" purity="5.9596157073974609e-01" nType="-99"/>
        </Node>
      </Node>
    </BinaryTree>
    <BinaryTree type="DecisionTree" boostWeight="1.0000000000000000e+00" itree="697">
      <Node pos="s" depth="0" NCoef="0" IVar="3" Cut="3.5587954521179199e-01" cType="1" res="2.6467140763998032e-02" rms="4.5986557006835938e-01" purity="4.9955460429191589e-01" nType="0">
        <Node pos="l" depth="1" NCoef="0" IVar="1" Cut="8.2853990793228149e-01" cType="1" res="-2.1986428648233414e-02" rms="4.5797035098075867e-01" purity="3.7636509537696838e-01" nType="0">
          <Node pos="l" depth="2" NCoef="0" IVar="-1" Cut="0.0000000000000000e+00" cType="1" res="-4.6817914699204266e-04" rms="4.4200712442398071e-01" purity="3.2093787193298340e-01" nType="-99"/>
          <Node pos="r" depth="2" NCoef="0" IVar="-1" Cut="0.0000000000000000e+00" cType="1" res="1.4072297199163586e-04" rms="4.6900653839111328e-01" purity="4.3460980057716370e-01" nType="-99"/>
        </Node>
        <Node pos="r" depth="1" NCoef="0" IVar="5" Cut="5.6974432373046875e+02" cType="1" res="8.7837345898151398e-02" rms="4.5490619540214539e-01" purity="6.5558356046676636e-01" nType="0">
          <Node pos="l" depth="2" NCoef="0" IVar="-1" Cut="0.0000000000000000e+00" cType="1" res="1.8635712331160903e-04" rms="4.7205811738967896e-01" purity="5.9548133611679077e-01" nType="-99"/>
          <Node pos="r" depth="2" NCoef="0" IVar="-1" Cut="0.0000000000000000e+00" cType="1" res="4.9803702859207988e-04" rms="3.9984136819839478e-01" purity="7.9358261823654175e-01" nType="-99"/>
        </Node>
      </Node>
    </BinaryTree>
    <BinaryTree type="DecisionTree" boostWeight="1.0000000000000000e+00" itree="698">
      <Node pos="s" depth="0" NCoef="0" IVar="3" Cut="1.9874429702758789e-01" cType="1" res="3.2202120870351791e-02" rms="4.6058779954910278e-01" purity="5.0553929805755615e-01" nType="0">
        <Node pos="l" depth="1" NCoef="0" IVar="7" Cut="1.0189133453369141e+02" cType="1" res="-8.2894101738929749e-02" rms="4.2495474219322205e-01" purity="2.5740563869476318e-01" nType="0">
          <Node pos="l" depth="2" NCoef="0" IVar="-1" Cut="0.0000000000000000e+00" cType="1" res="-1.9717495888471603e-03" rms="3.5379093885421753e-01" purity="1.5986490249633789e-01" nType="-99"/>
          <Node pos="r" depth="2" NCoef="0" IVar="-1" Cut="0.0000000000000000e+00" cType="1" res="-3.6901546991430223e-04" rms="4.6032249927520752e-01" purity="3.1722611188888550e-01" nType="-99"/>
        </Node>
        <Node pos="r" depth="1" NCoef="0" IVar="5" Cut="4.7411517333984375e+02" cType="1" res="5.7283636182546616e-02" rms="4.6422144770622253e-01" purity="5.5961203575134277e-01" nType="0">
          <Node pos="l" depth="2" NCoef="0" IVar="-1" Cut="0.0000000000000000e+00" cType="1" res="4.7223198635037988e-05" rms="4.7155931591987610e-01" purity="4.5484688878059387e-01" nType="-99"/>
          <Node pos="r" depth="2" NCoef="0" IVar="-1" Cut="0.0000000000000000e+00" cType="1" res="3.5474722972139716e-04" rms="4.4977015256881714e-01" purity="6.7760485410690308e-01" nType="-99"/>
        </Node>
      </Node>
    </BinaryTree>
    <BinaryTree type="DecisionTree" boostWeight="1.0000000000000000e+00" itree="699">
      <Node pos="s" depth="0" NCoef="0" IVar="3" Cut="5.1128566265106201e-01" cType="1" res="2.1079709753394127e-02" rms="4.6080440282821655e-01" purity="4.9278005957603455e-01" nType="0">
        <Node pos="l" depth="1" NCoef="0" IVar="5" Cut="5.5804071044921875e+02" cType="1" res="8.2223652862012386e-04" rms="4.6234703063964844e-01" purity="4.5619282126426697e-01" nType="0">
          <Node pos="l" depth="2" NCoef="0" IVar="-1" Cut="0.0000000000000000e+00" cType="1" res="-2.0836020121350884e-04" rms="4.5489370822906494e-01" purity="3.8248750567436218e-01" nType="-99"/>
          <Node pos="r" depth="2" NCoef="0" IVar="-1" Cut="0.0000000000000000e+00" cType="1" res="2.8469297103583813e-04" rms="4.6843650937080383e-01" purity="6.2106508016586304e-01" nType="-99"/>
        </Node>
        <Node pos="r" depth="1" NCoef="0" IVar="-1" Cut="0.0000000000000000e+00" cType="1" res="4.8053689533844590e-04" rms="4.2674624919891357e-01" purity="7.3549222946166992e-01" nType="-99"/>
      </Node>
    </BinaryTree>
    <BinaryTree type="DecisionTree" boostWeight="1.0000000000000000e+00" itree="700">
      <Node pos="s" depth="0" NCoef="0" IVar="5" Cut="5.8243969726562500e+02" cType="1" res="2.8689919039607048e-02" rms="4.5987984538078308e-01" purity="5.0197601318359375e-01" nType="0">
        <Node pos="l" depth="1" NCoef="0" IVar="6" Cut="1.5424304199218750e+02" cType="1" res="-6.7259031347930431e-03" rms="4.5923089981079102e-01" purity="4.3474313616752625e-01" nType="0">
          <Node pos="l" depth="2" NCoef="0" IVar="-1" Cut="0.0000000000000000e+00" cType="1" res="1.6027157835196704e-04" rms="4.6117749810218811e-01" purity="4.7450271248817444e-01" nType="-99"/>
          <Node pos="r" depth="2" NCoef="0" IVar="-1" Cut="0.0000000000000000e+00" cType="1" res="-5.8477319544181228e-04" rms="4.4281417131423950e-01" purity="3.4932932257652283e-01" nType="-99"/>
        </Node>
        <Node pos="r" depth="1" NCoef="0" IVar="4" Cut="1.2365921735763550e+00" cType="1" res="1.1915765702724457e-01" rms="4.4902637600898743e-01" purity="6.7371869087219238e-01" nType="0">
          <Node pos="l" depth="2" NCoef="0" IVar="-1" Cut="0.0000000000000000e+00" cType="1" res="4.4656250975094736e-04" rms="4.3515950441360474e-01" purity="7.0902317762374878e-01" nType="-99"/>
          <Node pos="r" depth="2" NCoef="0" IVar="-1" Cut="0.0000000000000000e+00" cType="1" res="5.5843887821538374e-05" rms="4.8526722192764282e-01" purity="5.3647112846374512e-01" nType="-99"/>
        </Node>
      </Node>
    </BinaryTree>
    <BinaryTree type="DecisionTree" boostWeight="1.0000000000000000e+00" itree="701">
      <Node pos="s" depth="0" NCoef="0" IVar="3" Cut="4.4484946131706238e-01" cType="1" res="2.5851367041468620e-02" rms="4.5825561881065369e-01" purity="5.0084161758422852e-01" nType="0">
        <Node pos="l" depth="1" NCoef="0" IVar="4" Cut="7.6263648271560669e-01" cType="1" res="-5.4932972416281700e-03" rms="4.6123003959655762e-01" purity="4.3431797623634338e-01" nType="0">
          <Node pos="l" depth="2" NCoef="0" IVar="-1" Cut="0.0000000000000000e+00" cType="1" res="3.0970599618740380e-04" rms="4.5900848507881165e-01" purity="6.0003739595413208e-01" nType="-99"/>
          <Node pos="r" depth="2" NCoef="0" IVar="-1" Cut="0.0000000000000000e+00" cType="1" res="-2.1615356672555208e-04" rms="4.5773279666900635e-01" purity="3.7776365876197815e-01" nType="-99"/>
        </Node>
        <Node pos="r" depth="1" NCoef="0" IVar="5" Cut="4.3760140991210938e+02" cType="1" res="1.2414865940809250e-01" rms="4.3437084555625916e-01" purity="7.0946067571640015e-01" nType="0">
          <Node pos="l" depth="2" NCoef="0" IVar="-1" Cut="0.0000000000000000e+00" cType="1" res="1.9011671247426420e-04" rms="4.8033800721168518e-01" purity="5.7935154438018799e-01" nType="-99"/>
          <Node pos="r" depth="2" NCoef="0" IVar="-1" Cut="0.0000000000000000e+00" cType="1" res="5.1322771469131112e-04" rms="3.8388529419898987e-01" purity="8.1251138448715210e-01" nType="-99"/>
        </Node>
      </Node>
    </BinaryTree>
    <BinaryTree type="DecisionTree" boostWeight="1.0000000000000000e+00" itree="702">
      <Node pos="s" depth="0" NCoef="0" IVar="5" Cut="7.2901580810546875e+02" cType="1" res="4.0117125958204269e-02" rms="4.6224951744079590e-01" purity="5.1219165325164795e-01" nType="0">
        <Node pos="l" depth="1" NCoef="0" IVar="6" Cut="1.5746585083007812e+02" cType="1" res="1.7044691368937492e-02" rms="4.6538472175598145e-01" purity="4.7227194905281067e-01" nType="0">
          <Node pos="l" depth="2" NCoef="0" IVar="-1" Cut="0.0000000000000000e+00" cType="1" res="2.3977101955097169e-04" rms="4.6468704938888550e-01" purity="5.0504654645919800e-01" nType="-99"/>
          <Node pos="r" depth="2" NCoef="0" IVar="-1" Cut="0.0000000000000000e+00" cType="1" res="-2.9890946461819112e-04" rms="4.5810949802398682e-01" purity="4.0924862027168274e-01" nType="-99"/>
        </Node>
        <Node pos="r" depth="1" NCoef="0" IVar="-1" Cut="0.0000000000000000e+00" cType="1" res="4.8622110625728965e-04" rms="4.2224791646003723e-01" purity="7.3326885700225830e-01" nType="-99"/>
      </Node>
    </BinaryTree>
    <BinaryTree type="DecisionTree" boostWeight="1.0000000000000000e+00" itree="703">
      <Node pos="s" depth="0" NCoef="0" IVar="3" Cut="2.2094565629959106e-01" cType="1" res="3.1916033476591110e-02" rms="4.5715269446372986e-01" purity="5.0786679983139038e-01" nType="0">
        <Node pos="l" depth="1" NCoef="0" IVar="1" Cut="7.8913390636444092e-01" cType="1" res="-7.4757821857929230e-02" rms="4.2581132054328918e-01" purity="2.7151668071746826e-01" nType="0">
          <Node pos="l" depth="2" NCoef="0" IVar="-1" Cut="0.0000000000000000e+00" cType="1" res="-1.5314947813749313e-03" rms="3.9612442255020142e-01" purity="1.9994345307350159e-01" nType="-99"/>
          <Node pos="r" depth="2" NCoef="0" IVar="-1" Cut="0.0000000000000000e+00" cType="1" res="-2.2465016809292138e-04" rms="4.4210445880889893e-01" purity="3.2534310221672058e-01" nType="-99"/>
        </Node>
        <Node pos="r" depth="1" NCoef="0" IVar="4" Cut="1.2753357887268066e+00" cType="1" res="6.3475117087364197e-02" rms="4.6131676435470581e-01" purity="5.7779014110565186e-01" nType="0">
          <Node pos="l" depth="2" NCoef="0" IVar="-1" Cut="0.0000000000000000e+00" cType="1" res="3.2003025989979506e-04" rms="4.5619398355484009e-01" purity="6.0650640726089478e-01" nType="-99"/>
          <Node pos="r" depth="2" NCoef="0" IVar="-1" Cut="0.0000000000000000e+00" cType="1" res="-3.6327648558653891e-04" rms="4.6682101488113403e-01" purity="4.1946023702621460e-01" nType="-99"/>
        </Node>
      </Node>
    </BinaryTree>
    <BinaryTree type="DecisionTree" boostWeight="1.0000000000000000e+00" itree="704">
      <Node pos="s" depth="0" NCoef="0" IVar="5" Cut="3.0531979370117188e+02" cType="1" res="2.8256282210350037e-02" rms="4.5847225189208984e-01" purity="5.0235235691070557e-01" nType="0">
        <Node pos="l" depth="1" NCoef="0" IVar="5" Cut="2.8116519165039062e+02" cType="1" res="-1.2089717388153076e-01" rms="3.9008602499961853e-01" purity="2.1311955153942108e-01" nType="0">
          <Node pos="l" depth="2" NCoef="0" IVar="-1" Cut="0.0000000000000000e+00" cType="1" res="-2.4177071172744036e-03" rms="3.4844747185707092e-01" purity="1.5927164256572723e-01" nType="-99"/>
          <Node pos="r" depth="2" NCoef="0" IVar="-1" Cut="0.0000000000000000e+00" cType="1" res="-4.0670414455235004e-04" rms="4.3398770689964294e-01" purity="2.9065784811973572e-01" nType="-99"/>
        </Node>
        <Node pos="r" depth="1" NCoef="0" IVar="6" Cut="1.5603422546386719e+02" cType="1" res="4.9404274672269821e-02" rms="4.6349015831947327e-01" purity="5.4336172342300415e-01" nType="0">
          <Node pos="l" depth="2" NCoef="0" IVar="-1" Cut="0.0000000000000000e+00" cType="1" res="3.5978137748315930e-04" rms="4.5778086781501770e-01" purity="5.8994716405868530e-01" nType="-99"/>
          <Node pos="r" depth="2" NCoef="0" IVar="-1" Cut="0.0000000000000000e+00" cType="1" res="-8.4599196270573884e-05" rms="4.6345147490501404e-01" purity="4.7532665729522705e-01" nType="-99"/>
        </Node>
      </Node>
    </BinaryTree>
    <BinaryTree type="DecisionTree" boostWeight="1.0000000000000000e+00" itree="705">
      <Node pos="s" depth="0" NCoef="0" IVar="5" Cut="3.4890423583984375e+02" cType="1" res="4.2691674083471298e-02" rms="4.5953896641731262e-01" purity="5.1681530475616455e-01" nType="0">
        <Node pos="l" depth="1" NCoef="0" IVar="3" Cut="4.3940258026123047e-01" cType="1" res="-5.2594859153032303e-02" rms="4.2974597215652466e-01" purity="3.1061938405036926e-01" nType="0">
          <Node pos="l" depth="2" NCoef="0" IVar="-1" Cut="0.0000000000000000e+00" cType="1" res="-1.1164917377755046e-03" rms="3.9649739861488342e-01" purity="2.1496994793415070e-01" nType="-99"/>
          <Node pos="r" depth="2" NCoef="0" IVar="-1" Cut="0.0000000000000000e+00" cType="1" res="2.9623921727761626e-04" rms="4.8554420471191406e-01" purity="5.6870663166046143e-01" nType="-99"/>
        </Node>
        <Node pos="r" depth="1" NCoef="0" IVar="1" Cut="8.6830300092697144e-01" cType="1" res="7.2097904980182648e-02" rms="4.6441978216171265e-01" purity="5.8044916391372681e-01" nType="0">
          <Node pos="l" depth="2" NCoef="0" IVar="-1" Cut="0.0000000000000000e+00" cType="1" res="1.1697674199240282e-04" rms="4.6964621543884277e-01" purity="5.2966415882110596e-01" nType="-99"/>
          <Node pos="r" depth="2" NCoef="0" IVar="-1" Cut="0.0000000000000000e+00" cType="1" res="4.5329504064284265e-04" rms="4.4967755675315857e-01" purity="6.5276914834976196e-01" nType="-99"/>
        </Node>
      </Node>
    </BinaryTree>
    <BinaryTree type="DecisionTree" boostWeight="1.0000000000000000e+00" itree="706">
      <Node pos="s" depth="0" NCoef="0" IVar="3" Cut="3.7584650516510010e-01" cType="1" res="2.9190953820943832e-02" rms="4.5916420221328735e-01" purity="5.0278121232986450e-01" nType="0">
        <Node pos="l" depth="1" NCoef="0" IVar="7" Cut="1.6560137939453125e+02" cType="1" res="-1.2784805148839951e-02" rms="4.5821353793144226e-01" purity="3.9953556656837463e-01" nType="0">
          <Node pos="l" depth="2" NCoef="0" IVar="-1" Cut="0.0000000000000000e+00" cType="1" res="-2.9859563801437616e-04" rms="4.4607651233673096e-01" purity="3.3731386065483093e-01" nType="-99"/>
          <Node pos="r" depth="2" NCoef="0" IVar="-1" Cut="0.0000000000000000e+00" cType="1" res="3.0065930332057178e-04" rms="4.7818100452423096e-01" purity="5.7403582334518433e-01" nType="-99"/>
        </Node>
        <Node pos="r" depth="1" NCoef="0" IVar="1" Cut="7.2370719909667969e-01" cType="1" res="9.6569843590259552e-02" rms="4.5261853933334351e-01" purity="6.6850972175598145e-01" nType="0">
          <Node pos="l" depth="2" NCoef="0" IVar="-1" Cut="0.0000000000000000e+00" cType="1" res="-1.9895584046025760e-05" rms="4.7565266489982605e-01" purity="5.5792999267578125e-01" nType="-99"/>
          <Node pos="r" depth="2" NCoef="0" IVar="-1" Cut="0.0000000000000000e+00" cType="1" res="4.1245948523283005e-04" rms="4.3951821327209473e-01" purity="7.0527523756027222e-01" nType="-99"/>
        </Node>
      </Node>
    </BinaryTree>
    <BinaryTree type="DecisionTree" boostWeight="1.0000000000000000e+00" itree="707">
      <Node pos="s" depth="0" NCoef="0" IVar="7" Cut="1.5540324401855469e+02" cType="1" res="2.8601445257663727e-02" rms="4.5947021245956421e-01" purity="5.0206166505813599e-01" nType="0">
        <Node pos="l" depth="1" NCoef="0" IVar="0" Cut="1.4404922485351562e+02" cType="1" res="-5.9157926589250565e-03" rms="4.5733261108398438e-01" purity="4.3905022740364075e-01" nType="0">
          <Node pos="l" depth="2" NCoef="0" IVar="-1" Cut="0.0000000000000000e+00" cType="1" res="9.6775140264071524e-05" rms="4.5707690715789795e-01" purity="4.5973727107048035e-01" nType="-99"/>
          <Node pos="r" depth="2" NCoef="0" IVar="-1" Cut="0.0000000000000000e+00" cType="1" res="-7.3600985342636704e-04" rms="4.4149780273437500e-01" purity="3.4988763928413391e-01" nType="-99"/>
        </Node>
        <Node pos="r" depth="1" NCoef="0" IVar="1" Cut="8.5501420497894287e-01" cType="1" res="1.0613343119621277e-01" rms="4.5478287339210510e-01" purity="6.4359688758850098e-01" nType="0">
          <Node pos="l" depth="2" NCoef="0" IVar="-1" Cut="0.0000000000000000e+00" cType="1" res="1.7579385894350708e-04" rms="4.6623581647872925e-01" purity="5.7699626684188843e-01" nType="-99"/>
          <Node pos="r" depth="2" NCoef="0" IVar="-1" Cut="0.0000000000000000e+00" cType="1" res="5.4399261716753244e-04" rms="4.3184116482734680e-01" purity="7.1766442060470581e-01" nType="-99"/>
        </Node>
      </Node>
    </BinaryTree>
    <BinaryTree type="DecisionTree" boostWeight="1.0000000000000000e+00" itree="708">
      <Node pos="s" depth="0" NCoef="0" IVar="3" Cut="5.3351551294326782e-01" cType="1" res="2.1451123058795929e-02" rms="4.6085667610168457e-01" purity="4.9257233738899231e-01" nType="0">
        <Node pos="l" depth="1" NCoef="0" IVar="5" Cut="5.6375958251953125e+02" cType="1" res="3.0535352416336536e-03" rms="4.6197187900543213e-01" purity="4.6169999241828918e-01" nType="0">
          <Node pos="l" depth="2" NCoef="0" IVar="-1" Cut="0.0000000000000000e+00" cType="1" res="-1.9447739759925753e-04" rms="4.5635214447975159e-01" purity="3.8768559694290161e-01" nType="-99"/>
          <Node pos="r" depth="2" NCoef="0" IVar="-1" Cut="0.0000000000000000e+00" cType="1" res="2.9497931245714426e-04" rms="4.6359127759933472e-01" purity="6.3159275054931641e-01" nType="-99"/>
        </Node>
        <Node pos="r" depth="1" NCoef="0" IVar="-1" Cut="0.0000000000000000e+00" cType="1" res="5.3103163372725248e-04" rms="4.2067873477935791e-01" purity="7.5210916996002197e-01" nType="-99"/>
      </Node>
    </BinaryTree>
    <BinaryTree type="DecisionTree" boostWeight="1.0000000000000000e+00" itree="709">
      <Node pos="s" depth="0" NCoef="0" IVar="3" Cut="2.2152401506900787e-01" cType="1" res="1.7132399603724480e-02" rms="4.5831352472305298e-01" purity="4.9086853861808777e-01" nType="0">
        <Node pos="l" depth="1" NCoef="0" IVar="3" Cut="1.7488652467727661e-01" cType="1" res="-8.2200631499290466e-02" rms="4.2240267992019653e-01" purity="2.6418688893318176e-01" nType="0">
          <Node pos="l" depth="2" NCoef="0" IVar="-1" Cut="0.0000000000000000e+00" cType="1" res="-1.0816269787028432e-03" rms="3.9962089061737061e-01" purity="2.2596845030784607e-01" nType="-99"/>
          <Node pos="r" depth="2" NCoef="0" IVar="-1" Cut="0.0000000000000000e+00" cType="1" res="-3.1343317823484540e-04" rms="4.4550943374633789e-01" purity="3.1059843301773071e-01" nType="-99"/>
        </Node>
        <Node pos="r" depth="1" NCoef="0" IVar="4" Cut="1.2775443792343140e+00" cType="1" res="4.7245714813470840e-02" rms="4.6447950601577759e-01" purity="5.5958825349807739e-01" nType="0">
          <Node pos="l" depth="2" NCoef="0" IVar="-1" Cut="0.0000000000000000e+00" cType="1" res="2.6450946461409330e-04" rms="4.6029284596443176e-01" purity="5.8732372522354126e-01" nType="-99"/>
          <Node pos="r" depth="2" NCoef="0" IVar="-1" Cut="0.0000000000000000e+00" cType="1" res="-4.3036218266934156e-04" rms="4.6703806519508362e-01" purity="4.0680986642837524e-01" nType="-99"/>
        </Node>
      </Node>
    </BinaryTree>
    <BinaryTree type="DecisionTree" boostWeight="1.0000000000000000e+00" itree="710">
      <Node pos="s" depth="0" NCoef="0" IVar="3" Cut="4.4484946131706238e-01" cType="1" res="2.2215535864233971e-02" rms="4.5948204398155212e-01" purity="4.9497106671333313e-01" nType="0">
        <Node pos="l" depth="1" NCoef="0" IVar="4" Cut="6.3694971799850464e-01" cType="1" res="-8.9223571121692657e-03" rms="4.6080946922302246e-01" purity="4.2927029728889465e-01" nType="0">
          <Node pos="l" depth="2" NCoef="0" IVar="-1" Cut="0.0000000000000000e+00" cType="1" res="5.0479039782658219e-04" rms="4.4701603055000305e-01" purity="6.8373560905456543e-01" nType="-99"/>
          <Node pos="r" depth="2" NCoef="0" IVar="-1" Cut="0.0000000000000000e+00" cType="1" res="-1.5944227925501764e-04" rms="4.5854294300079346e-01" purity="3.9784511923789978e-01" nType="-99"/>
        </Node>
        <Node pos="r" depth="1" NCoef="0" IVar="7" Cut="1.0504109954833984e+02" cType="1" res="1.2006499618291855e-01" rms="4.4120681285858154e-01" purity="7.0143276453018188e-01" nType="0">
          <Node pos="l" depth="2" NCoef="0" IVar="-1" Cut="0.0000000000000000e+00" cType="1" res="1.3357114221435040e-04" rms="4.8266971111297607e-01" purity="5.7326167821884155e-01" nType="-99"/>
          <Node pos="r" depth="2" NCoef="0" IVar="-1" Cut="0.0000000000000000e+00" cType="1" res="4.8184854676946998e-04" rms="4.0917801856994629e-01" purity="7.7182012796401978e-01" nType="-99"/>
        </Node>
      </Node>
    </BinaryTree>
  </Weights>
</MethodSetup>
