<?xml version="1.0"?>
<MethodSetup Method="BDT::k4001">
  <GeneralInfo>
    <Info name="TMVA Release" value="4.2.1 [262657]"/>
    <Info name="ROOT Release" value="6.06/01 [394753]"/>
    <Info name="Creator" value="chrisjcc"/>
    <Info name="Date" value="Tue Mar 14 01:21:15 2017"/>
    <Info name="Host" value="Linux vocms0301.cern.ch 2.6.32-642.11.1.el6.x86_64 #1 SMP Wed Nov 16 09:40:09 CET 2016 x86_64 x86_64 x86_64 GNU/Linux"/>
    <Info name="Dir" value="/nfs/dust/cms/user/chrisjcc/Moriond17v6/workSpace"/>
    <Info name="Training events" value="5774"/>
    <Info name="TrainingTime" value="2.01922297e+00"/>
    <Info name="AnalysisType" value="Classification"/>
  </GeneralInfo>
  <Options>
    <Option name="V" modified="Yes">False</Option>
    <Option name="VerbosityLevel" modified="No">Default</Option>
    <Option name="VarTransform" modified="No">None</Option>
    <Option name="H" modified="Yes">False</Option>
    <Option name="CreateMVAPdfs" modified="No">False</Option>
    <Option name="IgnoreNegWeightsInTraining" modified="No">False</Option>
    <Option name="NTrees" modified="Yes">378</Option>
    <Option name="MaxDepth" modified="Yes">2</Option>
    <Option name="MinNodeSize" modified="No">5%</Option>
    <Option name="nCuts" modified="Yes">37</Option>
    <Option name="BoostType" modified="Yes">Grad</Option>
    <Option name="AdaBoostR2Loss" modified="No">quadratic</Option>
    <Option name="UseBaggedBoost" modified="Yes">True</Option>
    <Option name="Shrinkage" modified="Yes">1.949146e-02</Option>
    <Option name="AdaBoostBeta" modified="No">5.000000e-01</Option>
    <Option name="UseRandomisedTrees" modified="No">False</Option>
    <Option name="UseNvars" modified="No">4</Option>
    <Option name="UsePoissonNvars" modified="No">True</Option>
    <Option name="BaggedSampleFraction" modified="No">5.797044e-01</Option>
    <Option name="UseYesNoLeaf" modified="No">True</Option>
    <Option name="NegWeightTreatment" modified="Yes">ignorenegweightsintraining</Option>
    <Option name="Css" modified="No">1.000000e+00</Option>
    <Option name="Cts_sb" modified="No">1.000000e+00</Option>
    <Option name="Ctb_ss" modified="No">1.000000e+00</Option>
    <Option name="Cbb" modified="No">1.000000e+00</Option>
    <Option name="NodePurityLimit" modified="No">5.000000e-01</Option>
    <Option name="SeparationType" modified="No">giniindex</Option>
    <Option name="DoBoostMonitor" modified="No">False</Option>
    <Option name="UseFisherCuts" modified="No">False</Option>
    <Option name="MinLinCorrForFisher" modified="No">8.000000e-01</Option>
    <Option name="UseExclusiveVars" modified="No">False</Option>
    <Option name="DoPreselection" modified="No">False</Option>
    <Option name="SigToBkgFraction" modified="No">1.000000e+00</Option>
    <Option name="PruneMethod" modified="No">nopruning</Option>
    <Option name="PruneStrength" modified="No">0.000000e+00</Option>
    <Option name="PruningValFraction" modified="No">5.000000e-01</Option>
    <Option name="nEventsMin" modified="No">0</Option>
    <Option name="UseBaggedGrad" modified="No">False</Option>
    <Option name="GradBaggingFraction" modified="Yes">5.797044e-01</Option>
    <Option name="UseNTrainEvents" modified="No">0</Option>
    <Option name="NNodesMax" modified="No">0</Option>
  </Options>
  <Variables NVar="12">
    <Variable VarIndex="0" Expression="mass_tag_tag_min_deltaR" Label="mass_tag_tag_min_deltaR" Title="mass_tag_tag_min_deltaR" Unit="" Internal="mass_tag_tag_min_deltaR" Type="F" Min="1.26855183e+01" Max="9.40176208e+02"/>
    <Variable VarIndex="1" Expression="median_mass_jet_jet" Label="median_mass_jet_jet" Title="median_mass_jet_jet" Unit="" Internal="median_mass_jet_jet" Type="F" Min="3.49751472e+01" Max="5.64594116e+02"/>
    <Variable VarIndex="2" Expression="maxDeltaEta_tag_tag" Label="maxDeltaEta_tag_tag" Title="maxDeltaEta_tag_tag" Unit="" Internal="maxDeltaEta_tag_tag" Type="F" Min="5.69237769e-02" Max="4.74328327e+00"/>
    <Variable VarIndex="3" Expression="mass_higgsLikeDijet" Label="mass_higgsLikeDijet" Title="mass_higgsLikeDijet" Unit="" Internal="mass_higgsLikeDijet" Type="F" Min="3.11674728e+01" Max="2.34386429e+02"/>
    <Variable VarIndex="4" Expression="HT_tags" Label="HT_tags" Title="HT_tags" Unit="" Internal="HT_tags" Type="F" Min="1.07078583e+02" Max="2.01430273e+03"/>
    <Variable VarIndex="5" Expression="btagDiscriminatorAverage_tagged" Label="btagDiscriminatorAverage_tagged" Title="btagDiscriminatorAverage_tagged" Unit="" Internal="btagDiscriminatorAverage_tagged" Type="F" Min="8.62551868e-01" Max="9.98557091e-01"/>
    <Variable VarIndex="6" Expression="mass_jet_tag_min_deltaR" Label="mass_jet_tag_min_deltaR" Title="mass_jet_tag_min_deltaR" Unit="" Internal="mass_jet_tag_min_deltaR" Type="F" Min="1.25514374e+01" Max="4.69177887e+02"/>
    <Variable VarIndex="7" Expression="mass_jet_jet_min_deltaR" Label="mass_jet_jet_min_deltaR" Title="mass_jet_jet_min_deltaR" Unit="" Internal="mass_jet_jet_min_deltaR" Type="F" Min="1.25514374e+01" Max="4.69177887e+02"/>
    <Variable VarIndex="8" Expression="mass_tag_tag_max_mass" Label="mass_tag_tag_max_mass" Title="mass_tag_tag_max_mass" Unit="" Internal="mass_tag_tag_max_mass" Type="F" Min="4.44993172e+01" Max="1.77596301e+03"/>
    <Variable VarIndex="9" Expression="maxDeltaEta_jet_jet" Label="maxDeltaEta_jet_jet" Title="maxDeltaEta_jet_jet" Unit="" Internal="maxDeltaEta_jet_jet" Type="F" Min="5.69237769e-02" Max="4.75743437e+00"/>
    <Variable VarIndex="10" Expression="centrality_jets_leps" Label="centrality_jets_leps" Title="centrality_jets_leps" Unit="" Internal="centrality_jets_leps" Type="F" Min="2.50694185e-01" Max="9.59406376e-01"/>
    <Variable VarIndex="11" Expression="centrality_tags" Label="centrality_tags" Title="centrality_tags" Unit="" Internal="centrality_tags" Type="F" Min="2.20873356e-01" Max="9.84625399e-01"/>
  </Variables>
  <Spectators NSpec="0"/>
  <Classes NClass="2">
    <Class Name="Signal" Index="0"/>
    <Class Name="Background" Index="1"/>
  </Classes>
  <Transformations NTransformations="0"/>
  <MVAPdfs/>
  <Weights NTrees="378" AnalysisType="1">
    <BinaryTree type="DecisionTree" boostWeight="1.0000000000000000e+00" itree="0">
      <Node pos="s" depth="0" NCoef="0" IVar="2" Cut="2.7691235542297363e+00" cType="1" res="-2.3208970669656992e-03" rms="4.9999460577964783e-01" purity="4.9767911434173584e-01" nType="0">
        <Node pos="l" depth="1" NCoef="0" IVar="0" Cut="3.7431503295898438e+01" cType="1" res="4.7002572566270828e-02" rms="4.9778586626052856e-01" purity="5.4700255393981934e-01" nType="0">
          <Node pos="l" depth="2" NCoef="0" IVar="-1" Cut="0.0000000000000000e+00" cType="1" res="-6.6632907837629318e-03" rms="4.6734496951103210e-01" purity="3.2226797938346863e-01" nType="-99"/>
          <Node pos="r" depth="2" NCoef="0" IVar="-1" Cut="0.0000000000000000e+00" cType="1" res="3.1480921898037195e-03" rms="4.9063196778297424e-01" purity="5.9633421897888184e-01" nType="-99"/>
        </Node>
        <Node pos="r" depth="1" NCoef="0" IVar="11" Cut="4.5875647664070129e-01" cType="1" res="-2.3698027431964874e-01" rms="4.4027304649353027e-01" purity="2.6301974058151245e-01" nType="0">
          <Node pos="l" depth="2" NCoef="0" IVar="-1" Cut="0.0000000000000000e+00" cType="1" res="-1.2652813456952572e-02" rms="3.7571239471435547e-01" purity="1.7009060084819794e-01" nType="-99"/>
          <Node pos="r" depth="2" NCoef="0" IVar="-1" Cut="0.0000000000000000e+00" cType="1" res="-5.7351766154170036e-03" rms="4.7248089313507080e-01" purity="3.3640962839126587e-01" nType="-99"/>
        </Node>
      </Node>
    </BinaryTree>
    <BinaryTree type="DecisionTree" boostWeight="1.0000000000000000e+00" itree="1">
      <Node pos="s" depth="0" NCoef="0" IVar="2" Cut="2.2089512348175049e+00" cType="1" res="-6.8129496648907661e-03" rms="4.9919584393501282e-01" purity="4.9288621544837952e-01" nType="0">
        <Node pos="l" depth="1" NCoef="0" IVar="0" Cut="6.5472656250000000e+01" cType="1" res="8.1448830664157867e-02" rms="4.9278274178504944e-01" purity="5.8203560113906860e-01" nType="0">
          <Node pos="l" depth="2" NCoef="0" IVar="-1" Cut="0.0000000000000000e+00" cType="1" res="-9.2208385467529297e-04" rms="4.9885070323944092e-01" purity="4.7261831164360046e-01" nType="-99"/>
          <Node pos="r" depth="2" NCoef="0" IVar="-1" Cut="0.0000000000000000e+00" cType="1" res="6.9044991396367550e-03" rms="4.5035159587860107e-01" purity="7.1721756458282471e-01" nType="-99"/>
        </Node>
        <Node pos="r" depth="1" NCoef="0" IVar="11" Cut="4.6249556541442871e-01" cType="1" res="-1.5461280941963196e-01" rms="4.7429910302162170e-01" purity="3.4360015392303467e-01" nType="0">
          <Node pos="l" depth="2" NCoef="0" IVar="-1" Cut="0.0000000000000000e+00" cType="1" res="-1.2368204072117805e-02" rms="3.7818831205368042e-01" purity="1.7315827310085297e-01" nType="-99"/>
          <Node pos="r" depth="2" NCoef="0" IVar="-1" Cut="0.0000000000000000e+00" cType="1" res="-3.1726707238703966e-03" rms="4.9128785729408264e-01" purity="4.0843248367309570e-01" nType="-99"/>
        </Node>
      </Node>
    </BinaryTree>
    <BinaryTree type="DecisionTree" boostWeight="1.0000000000000000e+00" itree="2">
      <Node pos="s" depth="0" NCoef="0" IVar="2" Cut="2.2767782211303711e+00" cType="1" res="-2.7519131544977427e-03" rms="4.9837934970855713e-01" purity="4.9672999978065491e-01" nType="0">
        <Node pos="l" depth="1" NCoef="0" IVar="0" Cut="6.9081871032714844e+01" cType="1" res="7.4491240084171295e-02" rms="4.9332377314567566e-01" purity="5.7636952400207520e-01" nType="0">
          <Node pos="l" depth="2" NCoef="0" IVar="-1" Cut="0.0000000000000000e+00" cType="1" res="-5.7463016128167510e-04" rms="4.9925696849822998e-01" purity="4.8314496874809265e-01" nType="-99"/>
          <Node pos="r" depth="2" NCoef="0" IVar="-1" Cut="0.0000000000000000e+00" cType="1" res="6.4507392235100269e-03" rms="4.5638900995254517e-01" purity="7.0421880483627319e-01" nType="-99"/>
        </Node>
        <Node pos="r" depth="1" NCoef="0" IVar="11" Cut="4.8417705297470093e-01" cType="1" res="-1.5047886967658997e-01" rms="4.7406363487243652e-01" purity="3.4441998600959778e-01" nType="0">
          <Node pos="l" depth="2" NCoef="0" IVar="-1" Cut="0.0000000000000000e+00" cType="1" res="-9.9196620285511017e-03" rms="4.0851038694381714e-01" purity="2.1230956912040710e-01" nType="-99"/>
          <Node pos="r" depth="2" NCoef="0" IVar="-1" Cut="0.0000000000000000e+00" cType="1" res="-2.6956826914101839e-03" rms="4.9325236678123474e-01" purity="4.1977062821388245e-01" nType="-99"/>
        </Node>
      </Node>
    </BinaryTree>
    <BinaryTree type="DecisionTree" boostWeight="1.0000000000000000e+00" itree="3">
      <Node pos="s" depth="0" NCoef="0" IVar="2" Cut="2.4001035690307617e+00" cType="1" res="-3.8255658000707626e-03" rms="4.9746954441070557e-01" purity="4.9554806947708130e-01" nType="0">
        <Node pos="l" depth="1" NCoef="0" IVar="0" Cut="3.8086856842041016e+01" cType="1" res="7.2066634893417358e-02" rms="4.9307957291603088e-01" purity="5.7473468780517578e-01" nType="0">
          <Node pos="l" depth="2" NCoef="0" IVar="-1" Cut="0.0000000000000000e+00" cType="1" res="-5.9233712963759899e-03" rms="4.7325515747070312e-01" purity="3.3900186419487000e-01" nType="-99"/>
          <Node pos="r" depth="2" NCoef="0" IVar="-1" Cut="0.0000000000000000e+00" cType="1" res="4.3053007684648037e-03" rms="4.8046562075614929e-01" purity="6.3629847764968872e-01" nType="-99"/>
        </Node>
        <Node pos="r" depth="1" NCoef="0" IVar="11" Cut="4.8357549309730530e-01" cType="1" res="-1.7621381580829620e-01" rms="4.6319845318794250e-01" purity="3.1567648053169250e-01" nType="0">
          <Node pos="l" depth="2" NCoef="0" IVar="-1" Cut="0.0000000000000000e+00" cType="1" res="-1.1444826610386372e-02" rms="3.8539752364158630e-01" purity="1.8213026225566864e-01" nType="-99"/>
          <Node pos="r" depth="2" NCoef="0" IVar="-1" Cut="0.0000000000000000e+00" cType="1" res="-3.5262862220406532e-03" rms="4.8893311619758606e-01" purity="3.9675143361091614e-01" nType="-99"/>
        </Node>
      </Node>
    </BinaryTree>
    <BinaryTree type="DecisionTree" boostWeight="1.0000000000000000e+00" itree="4">
      <Node pos="s" depth="0" NCoef="0" IVar="2" Cut="2.1577687263488770e+00" cType="1" res="-8.9600053615868092e-04" rms="4.9697452783584595e-01" purity="4.9854257702827454e-01" nType="0">
        <Node pos="l" depth="1" NCoef="0" IVar="0" Cut="4.4841419219970703e+01" cType="1" res="8.3327382802963257e-02" rms="4.9071010947227478e-01" purity="5.8769536018371582e-01" nType="0">
          <Node pos="l" depth="2" NCoef="0" IVar="-1" Cut="0.0000000000000000e+00" cType="1" res="-2.6766329538077116e-03" rms="4.9317455291748047e-01" purity="4.2258939146995544e-01" nType="-99"/>
          <Node pos="r" depth="2" NCoef="0" IVar="-1" Cut="0.0000000000000000e+00" cType="1" res="4.6921358443796635e-03" rms="4.7559866309165955e-01" purity="6.5310096740722656e-01" nType="-99"/>
        </Node>
        <Node pos="r" depth="1" NCoef="0" IVar="0" Cut="3.7956535339355469e+01" cType="1" res="-1.3570062816143036e-01" rms="4.7682365775108337e-01" purity="3.5584816336631775e-01" nType="0">
          <Node pos="l" depth="2" NCoef="0" IVar="-1" Cut="0.0000000000000000e+00" cType="1" res="-1.3173625804483891e-02" rms="3.4777083992958069e-01" purity="1.4171554148197174e-01" nType="-99"/>
          <Node pos="r" depth="2" NCoef="0" IVar="-1" Cut="0.0000000000000000e+00" cType="1" res="-3.3126247581094503e-03" rms="4.8779305815696716e-01" purity="3.9766716957092285e-01" nType="-99"/>
        </Node>
      </Node>
    </BinaryTree>
    <BinaryTree type="DecisionTree" boostWeight="1.0000000000000000e+00" itree="5">
      <Node pos="s" depth="0" NCoef="0" IVar="2" Cut="2.0890424251556396e+00" cType="1" res="-2.6367243845015764e-04" rms="4.9679413437843323e-01" purity="4.9892887473106384e-01" nType="0">
        <Node pos="l" depth="1" NCoef="0" IVar="0" Cut="6.4805320739746094e+01" cType="1" res="7.1489609777927399e-02" rms="4.9248564243316650e-01" purity="5.7673454284667969e-01" nType="0">
          <Node pos="l" depth="2" NCoef="0" IVar="-1" Cut="0.0000000000000000e+00" cType="1" res="-4.5088568003848195e-04" rms="4.9926292896270752e-01" purity="4.8639014363288879e-01" nType="-99"/>
          <Node pos="r" depth="2" NCoef="0" IVar="-1" Cut="0.0000000000000000e+00" cType="1" res="5.6702261790633202e-03" rms="4.6375930309295654e-01" purity="6.8676126003265381e-01" nType="-99"/>
        </Node>
        <Node pos="r" depth="1" NCoef="0" IVar="0" Cut="5.1838714599609375e+01" cType="1" res="-1.0539187490940094e-01" rms="4.8420453071594238e-01" purity="3.8493308424949646e-01" nType="0">
          <Node pos="l" depth="2" NCoef="0" IVar="-1" Cut="0.0000000000000000e+00" cType="1" res="-9.7480742260813713e-03" rms="4.1861304640769958e-01" purity="2.2821503877639771e-01" nType="-99"/>
          <Node pos="r" depth="2" NCoef="0" IVar="-1" Cut="0.0000000000000000e+00" cType="1" res="-1.4282732736319304e-03" rms="4.9555793404579163e-01" purity="4.5070385932922363e-01" nType="-99"/>
        </Node>
      </Node>
    </BinaryTree>
    <BinaryTree type="DecisionTree" boostWeight="1.0000000000000000e+00" itree="6">
      <Node pos="s" depth="0" NCoef="0" IVar="2" Cut="2.1534531116485596e+00" cType="1" res="-2.2381711751222610e-03" rms="4.9554750323295593e-01" purity="4.9638149142265320e-01" nType="0">
        <Node pos="l" depth="1" NCoef="0" IVar="0" Cut="3.3162384033203125e+01" cType="1" res="8.3149783313274384e-02" rms="4.8954945802688599e-01" purity="5.8958244323730469e-01" nType="0">
          <Node pos="l" depth="2" NCoef="0" IVar="-1" Cut="0.0000000000000000e+00" cType="1" res="-6.0048722662031651e-03" rms="4.7082108259201050e-01" purity="3.3175793290138245e-01" nType="-99"/>
          <Node pos="r" depth="2" NCoef="0" IVar="-1" Cut="0.0000000000000000e+00" cType="1" res="4.1685476899147034e-03" rms="4.8042556643486023e-01" purity="6.3426166772842407e-01" nType="-99"/>
        </Node>
        <Node pos="r" depth="1" NCoef="0" IVar="0" Cut="6.6389823913574219e+01" cType="1" res="-1.2836925685405731e-01" rms="4.7709137201309204e-01" purity="3.5870939493179321e-01" nType="0">
          <Node pos="l" depth="2" NCoef="0" IVar="-1" Cut="0.0000000000000000e+00" cType="1" res="-7.9800207167863846e-03" rms="4.4110149145126343e-01" purity="2.6842534542083740e-01" nType="-99"/>
          <Node pos="r" depth="2" NCoef="0" IVar="-1" Cut="0.0000000000000000e+00" cType="1" res="-1.8038154812529683e-03" rms="4.9431177973747253e-01" purity="4.3810087442398071e-01" nType="-99"/>
        </Node>
      </Node>
    </BinaryTree>
    <BinaryTree type="DecisionTree" boostWeight="1.0000000000000000e+00" itree="7">
      <Node pos="s" depth="0" NCoef="0" IVar="2" Cut="1.9758167266845703e+00" cType="1" res="2.1082274906802922e-04" rms="4.9540123343467712e-01" purity="4.9913784861564636e-01" nType="0">
        <Node pos="l" depth="1" NCoef="0" IVar="0" Cut="3.9123458862304688e+01" cType="1" res="9.5698490738868713e-02" rms="4.8684063553810120e-01" purity="6.0332489013671875e-01" nType="0">
          <Node pos="l" depth="2" NCoef="0" IVar="-1" Cut="0.0000000000000000e+00" cType="1" res="-3.7209873553365469e-03" rms="4.8717874288558960e-01" purity="3.8811883330345154e-01" nType="-99"/>
          <Node pos="r" depth="2" NCoef="0" IVar="-1" Cut="0.0000000000000000e+00" cType="1" res="4.8586702905595303e-03" rms="4.7221520543098450e-01" purity="6.6304421424865723e-01" nType="-99"/>
        </Node>
        <Node pos="r" depth="1" NCoef="0" IVar="0" Cut="8.8508087158203125e+01" cType="1" res="-1.0807915031909943e-01" rms="4.8258808255195618e-01" purity="3.8098219037055969e-01" nType="0">
          <Node pos="l" depth="2" NCoef="0" IVar="-1" Cut="0.0000000000000000e+00" cType="1" res="-6.1305658891797066e-03" rms="4.6312534809112549e-01" purity="3.1605890393257141e-01" nType="-99"/>
          <Node pos="r" depth="2" NCoef="0" IVar="-1" Cut="0.0000000000000000e+00" cType="1" res="7.3141782195307314e-05" rms="4.9682849645614624e-01" purity="4.9705743789672852e-01" nType="-99"/>
        </Node>
      </Node>
    </BinaryTree>
    <BinaryTree type="DecisionTree" boostWeight="1.0000000000000000e+00" itree="8">
      <Node pos="s" depth="0" NCoef="0" IVar="2" Cut="2.1101946830749512e+00" cType="1" res="-2.8796785045415163e-03" rms="4.9435454607009888e-01" purity="4.9574100971221924e-01" nType="0">
        <Node pos="l" depth="1" NCoef="0" IVar="0" Cut="6.5301460266113281e+01" cType="1" res="7.8329332172870636e-02" rms="4.8926767706871033e-01" purity="5.8721309900283813e-01" nType="0">
          <Node pos="l" depth="2" NCoef="0" IVar="-1" Cut="0.0000000000000000e+00" cType="1" res="-3.3521826844662428e-04" rms="4.9804753065109253e-01" purity="4.9113073945045471e-01" nType="-99"/>
          <Node pos="r" depth="2" NCoef="0" IVar="-1" Cut="0.0000000000000000e+00" cType="1" res="6.2244483269751072e-03" rms="4.5285090804100037e-01" purity="7.1175915002822876e-01" nType="-99"/>
        </Node>
        <Node pos="r" depth="1" NCoef="0" IVar="11" Cut="5.7624268531799316e-01" cType="1" res="-1.2292646616697311e-01" rms="4.7709825634956360e-01" purity="3.6052298545837402e-01" nType="0">
          <Node pos="l" depth="2" NCoef="0" IVar="-1" Cut="0.0000000000000000e+00" cType="1" res="-7.4460939504206181e-03" rms="4.4256305694580078e-01" purity="2.7123516798019409e-01" nType="-99"/>
          <Node pos="r" depth="2" NCoef="0" IVar="-1" Cut="0.0000000000000000e+00" cType="1" res="-1.1041814286727458e-04" rms="4.9820685386657715e-01" purity="4.8705253005027771e-01" nType="-99"/>
        </Node>
      </Node>
    </BinaryTree>
    <BinaryTree type="DecisionTree" boostWeight="1.0000000000000000e+00" itree="9">
      <Node pos="s" depth="0" NCoef="0" IVar="2" Cut="2.8924052715301514e+00" cType="1" res="-5.7506537996232510e-04" rms="4.9429160356521606e-01" purity="4.9782755970954895e-01" nType="0">
        <Node pos="l" depth="1" NCoef="0" IVar="0" Cut="8.3795310974121094e+01" cType="1" res="3.8550980389118195e-02" rms="4.9439874291419983e-01" purity="5.4135805368423462e-01" nType="0">
          <Node pos="l" depth="2" NCoef="0" IVar="-1" Cut="0.0000000000000000e+00" cType="1" res="-7.1440672036260366e-04" rms="4.9632230401039124e-01" purity="4.7751078009605408e-01" nType="-99"/>
          <Node pos="r" depth="2" NCoef="0" IVar="-1" Cut="0.0000000000000000e+00" cType="1" res="5.4173124954104424e-03" rms="4.6441164612770081e-01" purity="6.8140822649002075e-01" nType="-99"/>
        </Node>
        <Node pos="r" depth="1" NCoef="0" IVar="6" Cut="6.0716358184814453e+01" cType="1" res="-2.4147382378578186e-01" rms="4.1977903246879578e-01" purity="2.2981080412864685e-01" nType="0">
          <Node pos="l" depth="2" NCoef="0" IVar="-1" Cut="0.0000000000000000e+00" cType="1" res="-1.0130664333701134e-02" rms="3.8184213638305664e-01" purity="1.7925281822681427e-01" nType="-99"/>
          <Node pos="r" depth="2" NCoef="0" IVar="-1" Cut="0.0000000000000000e+00" cType="1" res="-6.1397859826683998e-03" rms="4.6556857228279114e-01" purity="3.1489562988281250e-01" nType="-99"/>
        </Node>
      </Node>
    </BinaryTree>
    <BinaryTree type="DecisionTree" boostWeight="1.0000000000000000e+00" itree="10">
      <Node pos="s" depth="0" NCoef="0" IVar="2" Cut="2.3864898681640625e+00" cType="1" res="1.9979635253548622e-03" rms="4.9271473288536072e-01" purity="5.0067663192749023e-01" nType="0">
        <Node pos="l" depth="1" NCoef="0" IVar="0" Cut="4.3400817871093750e+01" cType="1" res="7.0835918188095093e-02" rms="4.8945918679237366e-01" purity="5.7971930503845215e-01" nType="0">
          <Node pos="l" depth="2" NCoef="0" IVar="-1" Cut="0.0000000000000000e+00" cType="1" res="-4.0796068497002125e-03" rms="4.8330482840538025e-01" purity="3.7665706872940063e-01" nType="-99"/>
          <Node pos="r" depth="2" NCoef="0" IVar="-1" Cut="0.0000000000000000e+00" cType="1" res="4.4806241057813168e-03" rms="4.7464919090270996e-01" purity="6.5186178684234619e-01" nType="-99"/>
        </Node>
        <Node pos="r" depth="1" NCoef="0" IVar="11" Cut="6.3840872049331665e-01" cType="1" res="-1.5208795666694641e-01" rms="4.6430119872093201e-01" purity="3.2374861836433411e-01" nType="0">
          <Node pos="l" depth="2" NCoef="0" IVar="-1" Cut="0.0000000000000000e+00" cType="1" res="-7.4196550995111465e-03" rms="4.4220140576362610e-01" purity="2.7188080549240112e-01" nType="-99"/>
          <Node pos="r" depth="2" NCoef="0" IVar="-1" Cut="0.0000000000000000e+00" cType="1" res="1.9770171493291855e-03" rms="4.9670359492301941e-01" purity="5.4733574390411377e-01" nType="-99"/>
        </Node>
      </Node>
    </BinaryTree>
    <BinaryTree type="DecisionTree" boostWeight="1.0000000000000000e+00" itree="11">
      <Node pos="s" depth="0" NCoef="0" IVar="2" Cut="2.2759962081909180e+00" cType="1" res="-1.0638113133609295e-02" rms="4.9233457446098328e-01" purity="4.8764464259147644e-01" nType="0">
        <Node pos="l" depth="1" NCoef="0" IVar="0" Cut="4.4841419219970703e+01" cType="1" res="6.2895074486732483e-02" rms="4.9054127931594849e-01" purity="5.7337319850921631e-01" nType="0">
          <Node pos="l" depth="2" NCoef="0" IVar="-1" Cut="0.0000000000000000e+00" cType="1" res="-3.6466361489146948e-03" rms="4.8652723431587219e-01" purity="3.8977065682411194e-01" nType="-99"/>
          <Node pos="r" depth="2" NCoef="0" IVar="-1" Cut="0.0000000000000000e+00" cType="1" res="4.2829555459320545e-03" rms="4.7625732421875000e-01" purity="6.4888626337051392e-01" nType="-99"/>
        </Node>
        <Node pos="r" depth="1" NCoef="0" IVar="5" Cut="9.3762511014938354e-01" cType="1" res="-1.5678204596042633e-01" rms="4.6237644553184509e-01" purity="3.1726288795471191e-01" nType="0">
          <Node pos="l" depth="2" NCoef="0" IVar="-1" Cut="0.0000000000000000e+00" cType="1" res="-9.4613013789057732e-03" rms="3.9630758762359619e-01" purity="2.0091006159782410e-01" nType="-99"/>
          <Node pos="r" depth="2" NCoef="0" IVar="-1" Cut="0.0000000000000000e+00" cType="1" res="-3.9473297074437141e-03" rms="4.7869256138801575e-01" purity="3.6446222662925720e-01" nType="-99"/>
        </Node>
      </Node>
    </BinaryTree>
    <BinaryTree type="DecisionTree" boostWeight="1.0000000000000000e+00" itree="12">
      <Node pos="s" depth="0" NCoef="0" IVar="2" Cut="2.3992781639099121e+00" cType="1" res="5.0505562685430050e-03" rms="4.9162712693214417e-01" purity="5.0298833847045898e-01" nType="0">
        <Node pos="l" depth="1" NCoef="0" IVar="0" Cut="3.5949741363525391e+01" cType="1" res="7.3713146150112152e-02" rms="4.8836144804954529e-01" purity="5.8331823348999023e-01" nType="0">
          <Node pos="l" depth="2" NCoef="0" IVar="-1" Cut="0.0000000000000000e+00" cType="1" res="-4.8538283444941044e-03" rms="4.7599312663078308e-01" purity="3.4906494617462158e-01" nType="-99"/>
          <Node pos="r" depth="2" NCoef="0" IVar="-1" Cut="0.0000000000000000e+00" cType="1" res="3.8825888186693192e-03" rms="4.7968098521232605e-01" purity="6.3308966159820557e-01" nType="-99"/>
        </Node>
        <Node pos="r" depth="1" NCoef="0" IVar="11" Cut="4.5777374505996704e-01" cType="1" res="-1.6092273592948914e-01" rms="4.5879173278808594e-01" purity="3.0881240963935852e-01" nType="0">
          <Node pos="l" depth="2" NCoef="0" IVar="-1" Cut="0.0000000000000000e+00" cType="1" res="-1.1365670710802078e-02" rms="3.6715838313102722e-01" purity="1.6257011890411377e-01" nType="-99"/>
          <Node pos="r" depth="2" NCoef="0" IVar="-1" Cut="0.0000000000000000e+00" cType="1" res="-3.4354110248386860e-03" rms="4.8390099406242371e-01" purity="3.7814968824386597e-01" nType="-99"/>
        </Node>
      </Node>
    </BinaryTree>
    <BinaryTree type="DecisionTree" boostWeight="1.0000000000000000e+00" itree="13">
      <Node pos="s" depth="0" NCoef="0" IVar="2" Cut="2.3124642372131348e+00" cType="1" res="1.5733372420072556e-02" rms="4.9157813191413879e-01" purity="5.1435977220535278e-01" nType="0">
        <Node pos="l" depth="1" NCoef="0" IVar="0" Cut="6.3877685546875000e+01" cType="1" res="7.3874257504940033e-02" rms="4.8821637034416199e-01" purity="5.8654773235321045e-01" nType="0">
          <Node pos="l" depth="2" NCoef="0" IVar="-1" Cut="0.0000000000000000e+00" cType="1" res="-4.5383343240246177e-04" rms="4.9712145328521729e-01" purity="4.8629564046859741e-01" nType="-99"/>
          <Node pos="r" depth="2" NCoef="0" IVar="-1" Cut="0.0000000000000000e+00" cType="1" res="5.2972268313169479e-03" rms="4.6092012524604797e-01" purity="6.9304823875427246e-01" nType="-99"/>
        </Node>
        <Node pos="r" depth="1" NCoef="0" IVar="11" Cut="4.8417705297470093e-01" cType="1" res="-1.0885443538427353e-01" rms="4.7533306479454041e-01" purity="3.5967117547988892e-01" nType="0">
          <Node pos="l" depth="2" NCoef="0" IVar="-1" Cut="0.0000000000000000e+00" cType="1" res="-8.7298704311251640e-03" rms="4.1196721792221069e-01" purity="2.1866318583488464e-01" nType="-99"/>
          <Node pos="r" depth="2" NCoef="0" IVar="-1" Cut="0.0000000000000000e+00" cType="1" res="-1.3427799567580223e-03" rms="4.9424600601196289e-01" purity="4.4036924839019775e-01" nType="-99"/>
        </Node>
      </Node>
    </BinaryTree>
    <BinaryTree type="DecisionTree" boostWeight="1.0000000000000000e+00" itree="14">
      <Node pos="s" depth="0" NCoef="0" IVar="0" Cut="6.1500816345214844e+01" cType="1" res="3.7099202163517475e-03" rms="4.9109587073326111e-01" purity="5.0210845470428467e-01" nType="0">
        <Node pos="l" depth="1" NCoef="0" IVar="5" Cut="9.4419890642166138e-01" cType="1" res="-8.5337564349174500e-02" rms="4.8408311605453491e-01" purity="4.0108689665794373e-01" nType="0">
          <Node pos="l" depth="2" NCoef="0" IVar="-1" Cut="0.0000000000000000e+00" cType="1" res="-7.3159020394086838e-03" rms="4.4197216629981995e-01" purity="2.7444294095039368e-01" nType="-99"/>
          <Node pos="r" depth="2" NCoef="0" IVar="-1" Cut="0.0000000000000000e+00" cType="1" res="-8.5154571570456028e-04" rms="4.9226757884025574e-01" purity="4.6439591050148010e-01" nType="-99"/>
        </Node>
        <Node pos="r" depth="1" NCoef="0" IVar="2" Cut="2.1900117397308350e+00" cType="1" res="8.8604174554347992e-02" rms="4.8262637853622437e-01" purity="5.9841835498809814e-01" nType="0">
          <Node pos="l" depth="2" NCoef="0" IVar="-1" Cut="0.0000000000000000e+00" cType="1" res="5.6386049836874008e-03" rms="4.5577466487884521e-01" purity="7.0498764514923096e-01" nType="-99"/>
          <Node pos="r" depth="2" NCoef="0" IVar="-1" Cut="0.0000000000000000e+00" cType="1" res="-1.4963642461225390e-03" rms="4.9293699860572815e-01" purity="4.3381386995315552e-01" nType="-99"/>
        </Node>
      </Node>
    </BinaryTree>
    <BinaryTree type="DecisionTree" boostWeight="1.0000000000000000e+00" itree="15">
      <Node pos="s" depth="0" NCoef="0" IVar="2" Cut="2.7700793743133545e+00" cType="1" res="1.7904343083500862e-02" rms="4.9003428220748901e-01" purity="5.1591306924819946e-01" nType="0">
        <Node pos="l" depth="1" NCoef="0" IVar="0" Cut="4.9239097595214844e+01" cType="1" res="6.1760406941175461e-02" rms="4.8882773518562317e-01" purity="5.6953078508377075e-01" nType="0">
          <Node pos="l" depth="2" NCoef="0" IVar="-1" Cut="0.0000000000000000e+00" cType="1" res="-1.9639113452285528e-03" rms="4.9212947487831116e-01" purity="4.3073657155036926e-01" nType="-99"/>
          <Node pos="r" depth="2" NCoef="0" IVar="-1" Cut="0.0000000000000000e+00" cType="1" res="3.9919391274452209e-03" rms="4.7592005133628845e-01" purity="6.4123111963272095e-01" nType="-99"/>
        </Node>
        <Node pos="r" depth="1" NCoef="0" IVar="0" Cut="6.4190299987792969e+01" cType="1" res="-1.6984303295612335e-01" rms="4.4911780953407288e-01" purity="2.8637605905532837e-01" nType="0">
          <Node pos="l" depth="2" NCoef="0" IVar="-1" Cut="0.0000000000000000e+00" cType="1" res="-9.6657350659370422e-03" rms="3.9399093389511108e-01" purity="1.9513708353042603e-01" nType="-99"/>
          <Node pos="r" depth="2" NCoef="0" IVar="-1" Cut="0.0000000000000000e+00" cType="1" res="-3.8570021279156208e-03" rms="4.7705385088920593e-01" purity="3.5491901636123657e-01" nType="-99"/>
        </Node>
      </Node>
    </BinaryTree>
    <BinaryTree type="DecisionTree" boostWeight="1.0000000000000000e+00" itree="16">
      <Node pos="s" depth="0" NCoef="0" IVar="2" Cut="2.2822244167327881e+00" cType="1" res="-9.2610024148598313e-04" rms="4.8948058485984802e-01" purity="4.9760431051254272e-01" nType="0">
        <Node pos="l" depth="1" NCoef="0" IVar="0" Cut="3.8086856842041016e+01" cType="1" res="6.0842208564281464e-02" rms="4.8799404501914978e-01" purity="5.7566100358963013e-01" nType="0">
          <Node pos="l" depth="2" NCoef="0" IVar="-1" Cut="0.0000000000000000e+00" cType="1" res="-5.9158047661185265e-03" rms="4.6488323807716370e-01" purity="3.1761988997459412e-01" nType="-99"/>
          <Node pos="r" depth="2" NCoef="0" IVar="-1" Cut="0.0000000000000000e+00" cType="1" res="3.8210819475352764e-03" rms="4.7780883312225342e-01" purity="6.4058697223663330e-01" nType="-99"/>
        </Node>
        <Node pos="r" depth="1" NCoef="0" IVar="11" Cut="4.8544472455978394e-01" cType="1" res="-1.2711091339588165e-01" rms="4.6780639886856079e-01" purity="3.3814439177513123e-01" nType="0">
          <Node pos="l" depth="2" NCoef="0" IVar="-1" Cut="0.0000000000000000e+00" cType="1" res="-9.6016116440296173e-03" rms="3.8986390829086304e-01" purity="1.8905133008956909e-01" nType="-99"/>
          <Node pos="r" depth="2" NCoef="0" IVar="-1" Cut="0.0000000000000000e+00" cType="1" res="-2.1116766147315502e-03" rms="4.9055549502372742e-01" purity="4.1563302278518677e-01" nType="-99"/>
        </Node>
      </Node>
    </BinaryTree>
    <BinaryTree type="DecisionTree" boostWeight="1.0000000000000000e+00" itree="17">
      <Node pos="s" depth="0" NCoef="0" IVar="2" Cut="2.2089512348175049e+00" cType="1" res="1.1422884650528431e-02" rms="4.8921373486518860e-01" purity="5.1034206151962280e-01" nType="0">
        <Node pos="l" depth="1" NCoef="0" IVar="0" Cut="3.7431503295898438e+01" cType="1" res="7.5380928814411163e-02" rms="4.8581421375274658e-01" purity="5.9234708547592163e-01" nType="0">
          <Node pos="l" depth="2" NCoef="0" IVar="-1" Cut="0.0000000000000000e+00" cType="1" res="-3.0361276585608721e-03" rms="4.8720920085906982e-01" purity="3.9033037424087524e-01" nType="-99"/>
          <Node pos="r" depth="2" NCoef="0" IVar="-1" Cut="0.0000000000000000e+00" cType="1" res="3.7674719933420420e-03" rms="4.7742831707000732e-01" purity="6.4147710800170898e-01" nType="-99"/>
        </Node>
        <Node pos="r" depth="1" NCoef="0" IVar="11" Cut="5.0136703252792358e-01" cType="1" res="-1.0628692805767059e-01" rms="4.7333532571792603e-01" purity="3.5941818356513977e-01" nType="0">
          <Node pos="l" depth="2" NCoef="0" IVar="-1" Cut="0.0000000000000000e+00" cType="1" res="-8.5651241242885590e-03" rms="4.0428370237350464e-01" purity="2.0796811580657959e-01" nType="-99"/>
          <Node pos="r" depth="2" NCoef="0" IVar="-1" Cut="0.0000000000000000e+00" cType="1" res="-1.0026094969362020e-03" rms="4.9446958303451538e-01" purity="4.5036071538925171e-01" nType="-99"/>
        </Node>
      </Node>
    </BinaryTree>
    <BinaryTree type="DecisionTree" boostWeight="1.0000000000000000e+00" itree="18">
      <Node pos="s" depth="0" NCoef="0" IVar="2" Cut="2.0301277637481689e+00" cType="1" res="-7.9894224181771278e-03" rms="4.8830547928810120e-01" purity="4.8998564481735229e-01" nType="0">
        <Node pos="l" depth="1" NCoef="0" IVar="0" Cut="4.4841419219970703e+01" cType="1" res="7.3275581002235413e-02" rms="4.8463040590286255e-01" purity="5.9139424562454224e-01" nType="0">
          <Node pos="l" depth="2" NCoef="0" IVar="-1" Cut="0.0000000000000000e+00" cType="1" res="-2.7286517433822155e-03" rms="4.8881557583808899e-01" purity="4.0616062283515930e-01" nType="-99"/>
          <Node pos="r" depth="2" NCoef="0" IVar="-1" Cut="0.0000000000000000e+00" cType="1" res="4.6327365562319756e-03" rms="4.6617648005485535e-01" purity="6.7788362503051758e-01" nType="-99"/>
        </Node>
        <Node pos="r" depth="1" NCoef="0" IVar="10" Cut="5.6392335891723633e-01" cType="1" res="-1.1177988350391388e-01" rms="4.7307714819908142e-01" purity="3.6046808958053589e-01" nType="0">
          <Node pos="l" depth="2" NCoef="0" IVar="-1" Cut="0.0000000000000000e+00" cType="1" res="-6.4650736749172211e-03" rms="4.4584760069847107e-01" purity="2.8517964482307434e-01" nType="-99"/>
          <Node pos="r" depth="2" NCoef="0" IVar="-1" Cut="0.0000000000000000e+00" cType="1" res="-1.2997586745768785e-03" rms="4.9318078160285950e-01" purity="4.4964084029197693e-01" nType="-99"/>
        </Node>
      </Node>
    </BinaryTree>
    <BinaryTree type="DecisionTree" boostWeight="1.0000000000000000e+00" itree="19">
      <Node pos="s" depth="0" NCoef="0" IVar="2" Cut="2.4509842395782471e+00" cType="1" res="1.4845349825918674e-02" rms="4.8789736628532410e-01" purity="5.1403075456619263e-01" nType="0">
        <Node pos="l" depth="1" NCoef="0" IVar="5" Cut="9.3098634481430054e-01" cType="1" res="6.7446105182170868e-02" rms="4.8634159564971924e-01" purity="5.8321005105972290e-01" nType="0">
          <Node pos="l" depth="2" NCoef="0" IVar="-1" Cut="0.0000000000000000e+00" cType="1" res="-3.5161126870661974e-03" rms="4.8294186592102051e-01" purity="4.0103957056999207e-01" nType="-99"/>
          <Node pos="r" depth="2" NCoef="0" IVar="-1" Cut="0.0000000000000000e+00" cType="1" res="3.3856092486530542e-03" rms="4.7957295179367065e-01" purity="6.1811423301696777e-01" nType="-99"/>
        </Node>
        <Node pos="r" depth="1" NCoef="0" IVar="11" Cut="4.5802339911460876e-01" cType="1" res="-1.2556222081184387e-01" rms="4.6367004513740540e-01" purity="3.2937008142471313e-01" nType="0">
          <Node pos="l" depth="2" NCoef="0" IVar="-1" Cut="0.0000000000000000e+00" cType="1" res="-1.0264905169606209e-02" rms="3.7105247378349304e-01" purity="1.6656512022018433e-01" nType="-99"/>
          <Node pos="r" depth="2" NCoef="0" IVar="-1" Cut="0.0000000000000000e+00" cType="1" res="-2.2375294938683510e-03" rms="4.8726928234100342e-01" purity="4.0210667252540588e-01" nType="-99"/>
        </Node>
      </Node>
    </BinaryTree>
    <BinaryTree type="DecisionTree" boostWeight="1.0000000000000000e+00" itree="20">
      <Node pos="s" depth="0" NCoef="0" IVar="0" Cut="4.8398551940917969e+01" cType="1" res="-8.6141582578420639e-03" rms="4.8715242743492126e-01" purity="4.8952278494834900e-01" nType="0">
        <Node pos="l" depth="1" NCoef="0" IVar="2" Cut="1.3936429023742676e+00" cType="1" res="-1.4241898059844971e-01" rms="4.6190324425697327e-01" purity="3.3157065510749817e-01" nType="0">
          <Node pos="l" depth="2" NCoef="0" IVar="-1" Cut="0.0000000000000000e+00" cType="1" res="1.6037998875617632e-06" rms="4.9613785743713379e-01" purity="4.9028342962265015e-01" nType="-99"/>
          <Node pos="r" depth="2" NCoef="0" IVar="-1" Cut="0.0000000000000000e+00" cType="1" res="-8.2656331360340118e-03" rms="4.2460215091705322e-01" purity="2.4910362064838409e-01" nType="-99"/>
        </Node>
        <Node pos="r" depth="1" NCoef="0" IVar="10" Cut="7.8251212835311890e-01" cType="1" res="5.4046019911766052e-02" rms="4.8603361845016479e-01" purity="5.6349098682403564e-01" nType="0">
          <Node pos="l" depth="2" NCoef="0" IVar="-1" Cut="0.0000000000000000e+00" cType="1" res="6.1831378843635321e-04" rms="4.9048984050750732e-01" purity="5.2401357889175415e-01" nType="-99"/>
          <Node pos="r" depth="2" NCoef="0" IVar="-1" Cut="0.0000000000000000e+00" cType="1" res="8.8832601904869080e-03" rms="3.8229489326477051e-01" purity="8.2064342498779297e-01" nType="-99"/>
        </Node>
      </Node>
    </BinaryTree>
    <BinaryTree type="DecisionTree" boostWeight="1.0000000000000000e+00" itree="21">
      <Node pos="s" depth="0" NCoef="0" IVar="2" Cut="2.2156784534454346e+00" cType="1" res="-1.7816545441746712e-03" rms="4.8802769184112549e-01" purity="4.9526840448379517e-01" nType="0">
        <Node pos="l" depth="1" NCoef="0" IVar="0" Cut="3.5949741363525391e+01" cType="1" res="5.7246327400207520e-02" rms="4.8687401413917542e-01" purity="5.7760566473007202e-01" nType="0">
          <Node pos="l" depth="2" NCoef="0" IVar="-1" Cut="0.0000000000000000e+00" cType="1" res="-5.0810771062970161e-03" rms="4.7007787227630615e-01" purity="3.3250272274017334e-01" nType="-99"/>
          <Node pos="r" depth="2" NCoef="0" IVar="-1" Cut="0.0000000000000000e+00" cType="1" res="3.1323262955993414e-03" rms="4.8093098402023315e-01" purity="6.2560755014419556e-01" nType="-99"/>
        </Node>
        <Node pos="r" depth="1" NCoef="0" IVar="2" Cut="3.4782881736755371e+00" cType="1" res="-1.0252587497234344e-01" rms="4.7328051924705505e-01" purity="3.5474175214767456e-01" nType="0">
          <Node pos="l" depth="2" NCoef="0" IVar="-1" Cut="0.0000000000000000e+00" cType="1" res="-2.6253764517605305e-03" rms="4.8318025469779968e-01" purity="3.8718318939208984e-01" nType="-99"/>
          <Node pos="r" depth="2" NCoef="0" IVar="-1" Cut="0.0000000000000000e+00" cType="1" res="-1.0190078057348728e-02" rms="3.7907308340072632e-01" purity="1.7473189532756805e-01" nType="-99"/>
        </Node>
      </Node>
    </BinaryTree>
    <BinaryTree type="DecisionTree" boostWeight="1.0000000000000000e+00" itree="22">
      <Node pos="s" depth="0" NCoef="0" IVar="2" Cut="2.1527144908905029e+00" cType="1" res="6.6853542812168598e-03" rms="4.8826503753662109e-01" purity="5.0608217716217041e-01" nType="0">
        <Node pos="l" depth="1" NCoef="0" IVar="0" Cut="2.9619745254516602e+01" cType="1" res="6.9666936993598938e-02" rms="4.8580196499824524e-01" purity="5.9186518192291260e-01" nType="0">
          <Node pos="l" depth="2" NCoef="0" IVar="-1" Cut="0.0000000000000000e+00" cType="1" res="-9.2064226046204567e-03" rms="4.1845738887786865e-01" purity="2.2624275088310242e-01" nType="-99"/>
          <Node pos="r" depth="2" NCoef="0" IVar="-1" Cut="0.0000000000000000e+00" cType="1" res="3.2817479223012924e-03" rms="4.8131603002548218e-01" purity="6.2729984521865845e-01" nType="-99"/>
        </Node>
        <Node pos="r" depth="1" NCoef="0" IVar="0" Cut="4.6550167083740234e+01" cType="1" res="-9.8583817481994629e-02" rms="4.7402659058570862e-01" purity="3.6270201206207275e-01" nType="0">
          <Node pos="l" depth="2" NCoef="0" IVar="-1" Cut="0.0000000000000000e+00" cType="1" res="-1.0690974071621895e-02" rms="3.6609485745429993e-01" purity="1.6174821555614471e-01" nType="-99"/>
          <Node pos="r" depth="2" NCoef="0" IVar="-1" Cut="0.0000000000000000e+00" cType="1" res="-1.3758244458585978e-03" rms="4.9018007516860962e-01" purity="4.2776787281036377e-01" nType="-99"/>
        </Node>
      </Node>
    </BinaryTree>
    <BinaryTree type="DecisionTree" boostWeight="1.0000000000000000e+00" itree="23">
      <Node pos="s" depth="0" NCoef="0" IVar="2" Cut="2.5294024944305420e+00" cType="1" res="3.6232492420822382e-03" rms="4.8667645454406738e-01" purity="5.0273382663726807e-01" nType="0">
        <Node pos="l" depth="1" NCoef="0" IVar="0" Cut="2.7878938674926758e+01" cType="1" res="5.0333980470895767e-02" rms="4.8769950866699219e-01" purity="5.6634849309921265e-01" nType="0">
          <Node pos="l" depth="2" NCoef="0" IVar="-1" Cut="0.0000000000000000e+00" cType="1" res="-1.0083303786814213e-02" rms="3.9889693260192871e-01" purity="2.0006139576435089e-01" nType="-99"/>
          <Node pos="r" depth="2" NCoef="0" IVar="-1" Cut="0.0000000000000000e+00" cType="1" res="2.4142030160874128e-03" rms="4.8584166169166565e-01" purity="5.9289181232452393e-01" nType="-99"/>
        </Node>
        <Node pos="r" depth="1" NCoef="0" IVar="5" Cut="9.3304854631423950e-01" cType="1" res="-1.5061868727207184e-01" rms="4.5007434487342834e-01" purity="2.9267385601997375e-01" nType="0">
          <Node pos="l" depth="2" NCoef="0" IVar="-1" Cut="0.0000000000000000e+00" cType="1" res="-1.0647281073033810e-02" rms="3.5379281640052795e-01" purity="1.4732037484645844e-01" nType="-99"/>
          <Node pos="r" depth="2" NCoef="0" IVar="-1" Cut="0.0000000000000000e+00" cType="1" res="-4.0120664052665234e-03" rms="4.6741521358489990e-01" purity="3.3717852830886841e-01" nType="-99"/>
        </Node>
      </Node>
    </BinaryTree>
    <BinaryTree type="DecisionTree" boostWeight="1.0000000000000000e+00" itree="24">
      <Node pos="s" depth="0" NCoef="0" IVar="0" Cut="3.7093166351318359e+01" cType="1" res="7.3830499313771725e-03" rms="4.8559650778770447e-01" purity="5.0635099411010742e-01" nType="0">
        <Node pos="l" depth="1" NCoef="0" IVar="0" Cut="2.9378902435302734e+01" cType="1" res="-1.6149871051311493e-01" rms="4.4973626732826233e-01" purity="2.9259842634201050e-01" nType="0">
          <Node pos="l" depth="2" NCoef="0" IVar="-1" Cut="0.0000000000000000e+00" cType="1" res="-1.1599566787481308e-02" rms="3.6361610889434814e-01" purity="1.5866106748580933e-01" nType="-99"/>
          <Node pos="r" depth="2" NCoef="0" IVar="-1" Cut="0.0000000000000000e+00" cType="1" res="-1.5420207055285573e-03" rms="4.8698896169662476e-01" purity="4.1296163201332092e-01" nType="-99"/>
        </Node>
        <Node pos="r" depth="1" NCoef="0" IVar="2" Cut="1.9681303501129150e+00" cType="1" res="4.2301781475543976e-02" rms="4.8540979623794556e-01" purity="5.5054742097854614e-01" nType="0">
          <Node pos="l" depth="2" NCoef="0" IVar="-1" Cut="0.0000000000000000e+00" cType="1" res="4.2286776006221771e-03" rms="4.6869507431983948e-01" purity="6.6597223281860352e-01" nType="-99"/>
          <Node pos="r" depth="2" NCoef="0" IVar="-1" Cut="0.0000000000000000e+00" cType="1" res="-2.0357533358037472e-03" rms="4.8531100153923035e-01" purity="4.1701859235763550e-01" nType="-99"/>
        </Node>
      </Node>
    </BinaryTree>
    <BinaryTree type="DecisionTree" boostWeight="1.0000000000000000e+00" itree="25">
      <Node pos="s" depth="0" NCoef="0" IVar="2" Cut="2.2427370548248291e+00" cType="1" res="-3.6279072519391775e-03" rms="4.8555043339729309e-01" purity="4.9294349551200867e-01" nType="0">
        <Node pos="l" depth="1" NCoef="0" IVar="0" Cut="6.5235969543457031e+01" cType="1" res="5.7911239564418793e-02" rms="4.8593062162399292e-01" purity="5.7996910810470581e-01" nType="0">
          <Node pos="l" depth="2" NCoef="0" IVar="-1" Cut="0.0000000000000000e+00" cType="1" res="-2.0224944455549121e-04" rms="4.9416416883468628e-01" purity="4.9458390474319458e-01" nType="-99"/>
          <Node pos="r" depth="2" NCoef="0" IVar="-1" Cut="0.0000000000000000e+00" cType="1" res="4.5006237924098969e-03" rms="4.6343365311622620e-01" purity="6.8614256381988525e-01" nType="-99"/>
        </Node>
        <Node pos="r" depth="1" NCoef="0" IVar="5" Cut="9.4174730777740479e-01" cType="1" res="-1.1814586818218231e-01" rms="4.6358409523963928e-01" purity="3.3099800348281860e-01" nType="0">
          <Node pos="l" depth="2" NCoef="0" IVar="-1" Cut="0.0000000000000000e+00" cType="1" res="-8.0623012036085129e-03" rms="4.0420234203338623e-01" purity="2.1517212688922882e-01" nType="-99"/>
          <Node pos="r" depth="2" NCoef="0" IVar="-1" Cut="0.0000000000000000e+00" cType="1" res="-2.2107816766947508e-03" rms="4.8131665587425232e-01" purity="3.9028117060661316e-01" nType="-99"/>
        </Node>
      </Node>
    </BinaryTree>
    <BinaryTree type="DecisionTree" boostWeight="1.0000000000000000e+00" itree="26">
      <Node pos="s" depth="0" NCoef="0" IVar="2" Cut="2.2156784534454346e+00" cType="1" res="6.7188530229032040e-03" rms="4.8453894257545471e-01" purity="5.0136995315551758e-01" nType="0">
        <Node pos="l" depth="1" NCoef="0" IVar="0" Cut="3.5949741363525391e+01" cType="1" res="6.8403057754039764e-02" rms="4.8194977641105652e-01" purity="5.9063744544982910e-01" nType="0">
          <Node pos="l" depth="2" NCoef="0" IVar="-1" Cut="0.0000000000000000e+00" cType="1" res="-4.5115719549357891e-03" rms="4.7022292017936707e-01" purity="3.3759871125221252e-01" nType="-99"/>
          <Node pos="r" depth="2" NCoef="0" IVar="-1" Cut="0.0000000000000000e+00" cType="1" res="3.7639481015503407e-03" rms="4.7326931357383728e-01" purity="6.5113353729248047e-01" nType="-99"/>
        </Node>
        <Node pos="r" depth="1" NCoef="0" IVar="6" Cut="9.9886795043945312e+01" cType="1" res="-9.4073399901390076e-02" rms="4.7168901562690735e-01" purity="3.5550642013549805e-01" nType="0">
          <Node pos="l" depth="2" NCoef="0" IVar="-1" Cut="0.0000000000000000e+00" cType="1" res="-4.5245224609971046e-03" rms="4.6102997660636902e-01" purity="3.2120540738105774e-01" nType="-99"/>
          <Node pos="r" depth="2" NCoef="0" IVar="-1" Cut="0.0000000000000000e+00" cType="1" res="2.6789284311234951e-03" rms="4.9124908447265625e-01" purity="5.4418975114822388e-01" nType="-99"/>
        </Node>
      </Node>
    </BinaryTree>
    <BinaryTree type="DecisionTree" boostWeight="1.0000000000000000e+00" itree="27">
      <Node pos="s" depth="0" NCoef="0" IVar="2" Cut="2.4845178127288818e+00" cType="1" res="9.8892003297805786e-03" rms="4.8368719220161438e-01" purity="5.0804913043975830e-01" nType="0">
        <Node pos="l" depth="1" NCoef="0" IVar="0" Cut="5.0518218994140625e+01" cType="1" res="6.3841797411441803e-02" rms="4.8346695303916931e-01" purity="5.8349561691284180e-01" nType="0">
          <Node pos="l" depth="2" NCoef="0" IVar="-1" Cut="0.0000000000000000e+00" cType="1" res="-1.8041969742625952e-03" rms="4.8872458934783936e-01" purity="4.3256574869155884e-01" nType="-99"/>
          <Node pos="r" depth="2" NCoef="0" IVar="-1" Cut="0.0000000000000000e+00" cType="1" res="4.0193628519773483e-03" rms="4.6981889009475708e-01" purity="6.6263681650161743e-01" nType="-99"/>
        </Node>
        <Node pos="r" depth="1" NCoef="0" IVar="10" Cut="5.9714394807815552e-01" cType="1" res="-1.4062671363353729e-01" rms="4.5141085982322693e-01" purity="2.9757016897201538e-01" nType="0">
          <Node pos="l" depth="2" NCoef="0" IVar="-1" Cut="0.0000000000000000e+00" cType="1" res="-6.7116576246917248e-03" rms="4.2943102121353149e-01" purity="2.5109705328941345e-01" nType="-99"/>
          <Node pos="r" depth="2" NCoef="0" IVar="-1" Cut="0.0000000000000000e+00" cType="1" res="-1.1414713226258755e-03" rms="4.9277353286743164e-01" purity="4.2999759316444397e-01" nType="-99"/>
        </Node>
      </Node>
    </BinaryTree>
    <BinaryTree type="DecisionTree" boostWeight="1.0000000000000000e+00" itree="28">
      <Node pos="s" depth="0" NCoef="0" IVar="2" Cut="2.2759962081909180e+00" cType="1" res="-4.5101013965904713e-03" rms="4.8215782642364502e-01" purity="4.9444141983985901e-01" nType="0">
        <Node pos="l" depth="1" NCoef="0" IVar="0" Cut="3.3162384033203125e+01" cType="1" res="5.8634407818317413e-02" rms="4.8255908489227295e-01" purity="5.8417803049087524e-01" nType="0">
          <Node pos="l" depth="2" NCoef="0" IVar="-1" Cut="0.0000000000000000e+00" cType="1" res="-6.8863797932863235e-03" rms="4.4253003597259521e-01" purity="2.7348646521568298e-01" nType="-99"/>
          <Node pos="r" depth="2" NCoef="0" IVar="-1" Cut="0.0000000000000000e+00" cType="1" res="3.1023647170513868e-03" rms="4.7801408171653748e-01" purity="6.3072413206100464e-01" nType="-99"/>
        </Node>
        <Node pos="r" depth="1" NCoef="0" IVar="11" Cut="5.1783448457717896e-01" cType="1" res="-1.3566772639751434e-01" rms="4.5407915115356445e-01" purity="3.0804920196533203e-01" nType="0">
          <Node pos="l" depth="2" NCoef="0" IVar="-1" Cut="0.0000000000000000e+00" cType="1" res="-8.9444834738969803e-03" rms="3.8683134317398071e-01" purity="1.8765969574451447e-01" nType="-99"/>
          <Node pos="r" depth="2" NCoef="0" IVar="-1" Cut="0.0000000000000000e+00" cType="1" res="-2.0591120701283216e-03" rms="4.8767516016960144e-01" purity="4.0362611413002014e-01" nType="-99"/>
        </Node>
      </Node>
    </BinaryTree>
    <BinaryTree type="DecisionTree" boostWeight="1.0000000000000000e+00" itree="29">
      <Node pos="s" depth="0" NCoef="0" IVar="0" Cut="3.8029911041259766e+01" cType="1" res="9.0295192785561085e-04" rms="4.8323944211006165e-01" purity="4.9935910105705261e-01" nType="0">
        <Node pos="l" depth="1" NCoef="0" IVar="9" Cut="2.0173475742340088e+00" cType="1" res="-1.8499109148979187e-01" rms="4.3306061625480652e-01" purity="2.6032945513725281e-01" nType="0">
          <Node pos="l" depth="2" NCoef="0" IVar="-1" Cut="0.0000000000000000e+00" cType="1" res="-1.7517465166747570e-03" rms="4.9178534746170044e-01" purity="4.1483712196350098e-01" nType="-99"/>
          <Node pos="r" depth="2" NCoef="0" IVar="-1" Cut="0.0000000000000000e+00" cType="1" res="-1.0277451016008854e-02" rms="3.8176754117012024e-01" purity="1.8261736631393433e-01" nType="-99"/>
        </Node>
        <Node pos="r" depth="1" NCoef="0" IVar="2" Cut="2.6042265892028809e+00" cType="1" res="4.0413193404674530e-02" rms="4.8413532972335815e-01" purity="5.5016285181045532e-01" nType="0">
          <Node pos="l" depth="2" NCoef="0" IVar="-1" Cut="0.0000000000000000e+00" cType="1" res="2.7106816414743662e-03" rms="4.8172277212142944e-01" purity="6.1352992057800293e-01" nType="-99"/>
          <Node pos="r" depth="2" NCoef="0" IVar="-1" Cut="0.0000000000000000e+00" cType="1" res="-3.6357964854687452e-03" rms="4.6511995792388916e-01" purity="3.3257293701171875e-01" nType="-99"/>
        </Node>
      </Node>
    </BinaryTree>
    <BinaryTree type="DecisionTree" boostWeight="1.0000000000000000e+00" itree="30">
      <Node pos="s" depth="0" NCoef="0" IVar="2" Cut="2.2427370548248291e+00" cType="1" res="9.0455105528235435e-03" rms="4.8091062903404236e-01" purity="5.0764530897140503e-01" nType="0">
        <Node pos="l" depth="1" NCoef="0" IVar="0" Cut="4.4841419219970703e+01" cType="1" res="6.7402727901935577e-02" rms="4.7982347011566162e-01" purity="5.9426420927047729e-01" nType="0">
          <Node pos="l" depth="2" NCoef="0" IVar="-1" Cut="0.0000000000000000e+00" cType="1" res="-2.7927313931286335e-03" rms="4.8300632834434509e-01" purity="3.9632907509803772e-01" nType="-99"/>
          <Node pos="r" depth="2" NCoef="0" IVar="-1" Cut="0.0000000000000000e+00" cType="1" res="4.1440944187343121e-03" rms="4.6530500054359436e-01" purity="6.7709505558013916e-01" nType="-99"/>
        </Node>
        <Node pos="r" depth="1" NCoef="0" IVar="11" Cut="5.1025396585464478e-01" cType="1" res="-1.1110387742519379e-01" rms="4.6041068434715271e-01" purity="3.2930904626846313e-01" nType="0">
          <Node pos="l" depth="2" NCoef="0" IVar="-1" Cut="0.0000000000000000e+00" cType="1" res="-8.2289529964327812e-03" rms="3.9672008156776428e-01" purity="1.9763617217540741e-01" nType="-99"/>
          <Node pos="r" depth="2" NCoef="0" IVar="-1" Cut="0.0000000000000000e+00" cType="1" res="-1.0733630042523146e-03" rms="4.8958727717399597e-01" purity="4.3191242218017578e-01" nType="-99"/>
        </Node>
      </Node>
    </BinaryTree>
    <BinaryTree type="DecisionTree" boostWeight="1.0000000000000000e+00" itree="31">
      <Node pos="s" depth="0" NCoef="0" IVar="0" Cut="3.7093166351318359e+01" cType="1" res="-7.5734202982857823e-04" rms="4.8221313953399658e-01" purity="4.9583414196968079e-01" nType="0">
        <Node pos="l" depth="1" NCoef="0" IVar="2" Cut="1.5466486215591431e+00" cType="1" res="-1.5839709341526031e-01" rms="4.3772241473197937e-01" purity="2.7877202630043030e-01" nType="0">
          <Node pos="l" depth="2" NCoef="0" IVar="-1" Cut="0.0000000000000000e+00" cType="1" res="-8.9749001199379563e-04" rms="4.9321031570434570e-01" purity="4.3293961882591248e-01" nType="-99"/>
          <Node pos="r" depth="2" NCoef="0" IVar="-1" Cut="0.0000000000000000e+00" cType="1" res="-9.7136143594980240e-03" rms="3.7017861008644104e-01" purity="1.7524041235446930e-01" nType="-99"/>
        </Node>
        <Node pos="r" depth="1" NCoef="0" IVar="2" Cut="2.7691235542297363e+00" cType="1" res="3.5991992801427841e-02" rms="4.8469293117523193e-01" purity="5.4643607139587402e-01" nType="0">
          <Node pos="l" depth="2" NCoef="0" IVar="-1" Cut="0.0000000000000000e+00" cType="1" res="2.3227133788168430e-03" rms="4.8437994718551636e-01" purity="5.9844785928726196e-01" nType="-99"/>
          <Node pos="r" depth="2" NCoef="0" IVar="-1" Cut="0.0000000000000000e+00" cType="1" res="-4.3193441815674305e-03" rms="4.5618662238121033e-01" purity="3.0730533599853516e-01" nType="-99"/>
        </Node>
      </Node>
    </BinaryTree>
    <BinaryTree type="DecisionTree" boostWeight="1.0000000000000000e+00" itree="32">
      <Node pos="s" depth="0" NCoef="0" IVar="10" Cut="5.9989643096923828e-01" cType="1" res="8.4693223470821977e-04" rms="4.8269563913345337e-01" purity="4.9840441346168518e-01" nType="0">
        <Node pos="l" depth="1" NCoef="0" IVar="2" Cut="2.0826020240783691e+00" cType="1" res="-7.3497511446475983e-02" rms="4.7300773859024048e-01" purity="3.9952766895294189e-01" nType="0">
          <Node pos="l" depth="2" NCoef="0" IVar="-1" Cut="0.0000000000000000e+00" cType="1" res="-9.8945565696340054e-06" rms="4.8900410532951355e-01" purity="5.2587312459945679e-01" nType="-99"/>
          <Node pos="r" depth="2" NCoef="0" IVar="-1" Cut="0.0000000000000000e+00" cType="1" res="-4.6717501245439053e-03" rms="4.5351707935333252e-01" purity="3.0704650282859802e-01" nType="-99"/>
        </Node>
        <Node pos="r" depth="1" NCoef="0" IVar="0" Cut="6.5837799072265625e+01" cType="1" res="6.6930726170539856e-02" rms="4.8160675168037415e-01" purity="5.8629465103149414e-01" nType="0">
          <Node pos="l" depth="2" NCoef="0" IVar="-1" Cut="0.0000000000000000e+00" cType="1" res="-4.7026973334141076e-04" rms="4.9345153570175171e-01" purity="4.8273849487304688e-01" nType="-99"/>
          <Node pos="r" depth="2" NCoef="0" IVar="-1" Cut="0.0000000000000000e+00" cType="1" res="4.8128529451787472e-03" rms="4.5638945698738098e-01" purity="6.8748766183853149e-01" nType="-99"/>
        </Node>
      </Node>
    </BinaryTree>
    <BinaryTree type="DecisionTree" boostWeight="1.0000000000000000e+00" itree="33">
      <Node pos="s" depth="0" NCoef="0" IVar="2" Cut="1.7112982273101807e+00" cType="1" res="-4.6379044651985168e-03" rms="4.8264214396476746e-01" purity="4.9142330884933472e-01" nType="0">
        <Node pos="l" depth="1" NCoef="0" IVar="0" Cut="6.5675170898437500e+01" cType="1" res="8.4558494389057159e-02" rms="4.7564393281936646e-01" purity="6.1581093072891235e-01" nType="0">
          <Node pos="l" depth="2" NCoef="0" IVar="-1" Cut="0.0000000000000000e+00" cType="1" res="1.6918113396968693e-04" rms="4.9369987845420837e-01" purity="5.0879764556884766e-01" nType="-99"/>
          <Node pos="r" depth="2" NCoef="0" IVar="-1" Cut="0.0000000000000000e+00" cType="1" res="6.2180482782423496e-03" rms="4.2890569567680359e-01" purity="7.5637006759643555e-01" nType="-99"/>
        </Node>
        <Node pos="r" depth="1" NCoef="0" IVar="5" Cut="9.5492970943450928e-01" cType="1" res="-6.6169224679470062e-02" rms="4.7780251502990723e-01" purity="4.0561562776565552e-01" nType="0">
          <Node pos="l" depth="2" NCoef="0" IVar="-1" Cut="0.0000000000000000e+00" cType="1" res="-4.5677851885557175e-03" rms="4.6286335587501526e-01" purity="3.3398020267486572e-01" nType="-99"/>
          <Node pos="r" depth="2" NCoef="0" IVar="-1" Cut="0.0000000000000000e+00" cType="1" res="2.5681569240987301e-04" rms="4.8363524675369263e-01" purity="4.8585161566734314e-01" nType="-99"/>
        </Node>
      </Node>
    </BinaryTree>
    <BinaryTree type="DecisionTree" boostWeight="1.0000000000000000e+00" itree="34">
      <Node pos="s" depth="0" NCoef="0" IVar="2" Cut="2.1288807392120361e+00" cType="1" res="-9.8152644932270050e-04" rms="4.7941854596138000e-01" purity="4.9832561612129211e-01" nType="0">
        <Node pos="l" depth="1" NCoef="0" IVar="0" Cut="6.4805320739746094e+01" cType="1" res="6.9797329604625702e-02" rms="4.7918519377708435e-01" purity="6.0395592451095581e-01" nType="0">
          <Node pos="l" depth="2" NCoef="0" IVar="-1" Cut="0.0000000000000000e+00" cType="1" res="-1.3509522250387818e-04" rms="4.9341920018196106e-01" purity="5.0089752674102783e-01" nType="-99"/>
          <Node pos="r" depth="2" NCoef="0" IVar="-1" Cut="0.0000000000000000e+00" cType="1" res="4.9059703014791012e-03" rms="4.4859653711318970e-01" purity="7.1930831670761108e-01" nType="-99"/>
        </Node>
        <Node pos="r" depth="1" NCoef="0" IVar="0" Cut="3.7956535339355469e+01" cType="1" res="-1.1330284178256989e-01" rms="4.5785483717918396e-01" purity="3.3069738745689392e-01" nType="0">
          <Node pos="l" depth="2" NCoef="0" IVar="-1" Cut="0.0000000000000000e+00" cType="1" res="-1.2350823730230331e-02" rms="2.9670372605323792e-01" purity="9.9903874099254608e-02" nType="-99"/>
          <Node pos="r" depth="2" NCoef="0" IVar="-1" Cut="0.0000000000000000e+00" cType="1" res="-2.6282842736691236e-03" rms="4.7600647807121277e-01" purity="3.8035202026367188e-01" nType="-99"/>
        </Node>
      </Node>
    </BinaryTree>
    <BinaryTree type="DecisionTree" boostWeight="1.0000000000000000e+00" itree="35">
      <Node pos="s" depth="0" NCoef="0" IVar="10" Cut="5.6121742725372314e-01" cType="1" res="1.5000004321336746e-02" rms="4.8256486654281616e-01" purity="5.1214247941970825e-01" nType="0">
        <Node pos="l" depth="1" NCoef="0" IVar="7" Cut="8.4650352478027344e+01" cType="1" res="-7.3395013809204102e-02" rms="4.7306969761848450e-01" purity="3.9037299156188965e-01" nType="0">
          <Node pos="l" depth="2" NCoef="0" IVar="-1" Cut="0.0000000000000000e+00" cType="1" res="-3.7499119061976671e-03" rms="4.6377861499786377e-01" purity="3.5483470559120178e-01" nType="-99"/>
          <Node pos="r" depth="2" NCoef="0" IVar="-1" Cut="0.0000000000000000e+00" cType="1" res="3.6181365139782429e-03" rms="4.8453220725059509e-01" purity="5.9252679347991943e-01" nType="-99"/>
        </Node>
        <Node pos="r" depth="1" NCoef="0" IVar="0" Cut="3.5824054718017578e+01" cType="1" res="6.7661285400390625e-02" rms="4.8046478629112244e-01" purity="5.8468657732009888e-01" nType="0">
          <Node pos="l" depth="2" NCoef="0" IVar="-1" Cut="0.0000000000000000e+00" cType="1" res="-3.6844261921942234e-03" rms="4.6894079446792603e-01" purity="3.4458050131797791e-01" nType="-99"/>
          <Node pos="r" depth="2" NCoef="0" IVar="-1" Cut="0.0000000000000000e+00" cType="1" res="3.1323689036071301e-03" rms="4.7700035572052002e-01" purity="6.2321531772613525e-01" nType="-99"/>
        </Node>
      </Node>
    </BinaryTree>
    <BinaryTree type="DecisionTree" boostWeight="1.0000000000000000e+00" itree="36">
      <Node pos="s" depth="0" NCoef="0" IVar="11" Cut="6.8314433097839355e-01" cType="1" res="6.3298246823251247e-03" rms="4.8217529058456421e-01" purity="5.0553303956985474e-01" nType="0">
        <Node pos="l" depth="1" NCoef="0" IVar="5" Cut="9.3479400873184204e-01" cType="1" res="-5.8573793619871140e-02" rms="4.7562399506568909e-01" purity="4.1475650668144226e-01" nType="0">
          <Node pos="l" depth="2" NCoef="0" IVar="-1" Cut="0.0000000000000000e+00" cType="1" res="-6.3281953334808350e-03" rms="4.3747138977050781e-01" purity="2.7993184328079224e-01" nType="-99"/>
          <Node pos="r" depth="2" NCoef="0" IVar="-1" Cut="0.0000000000000000e+00" cType="1" res="-8.5294718155637383e-04" rms="4.8000705242156982e-01" purity="4.5258861780166626e-01" nType="-99"/>
        </Node>
        <Node pos="r" depth="1" NCoef="0" IVar="0" Cut="6.5425216674804688e+01" cType="1" res="7.8345559537410736e-02" rms="4.7916078567504883e-01" purity="6.0625678300857544e-01" nType="0">
          <Node pos="l" depth="2" NCoef="0" IVar="-1" Cut="0.0000000000000000e+00" cType="1" res="2.3030863303574733e-05" rms="4.9357193708419800e-01" purity="4.9964097142219543e-01" nType="-99"/>
          <Node pos="r" depth="2" NCoef="0" IVar="-1" Cut="0.0000000000000000e+00" cType="1" res="5.2214972674846649e-03" rms="4.4964826107025146e-01" purity="7.1722608804702759e-01" nType="-99"/>
        </Node>
      </Node>
    </BinaryTree>
    <BinaryTree type="DecisionTree" boostWeight="1.0000000000000000e+00" itree="37">
      <Node pos="s" depth="0" NCoef="0" IVar="2" Cut="2.4120821952819824e+00" cType="1" res="-3.2100258395075798e-03" rms="4.8185068368911743e-01" purity="4.9312180280685425e-01" nType="0">
        <Node pos="l" depth="1" NCoef="0" IVar="5" Cut="9.4472217559814453e-01" cType="1" res="4.3466959148645401e-02" rms="4.8549932241439819e-01" purity="5.7069051265716553e-01" nType="0">
          <Node pos="l" depth="2" NCoef="0" IVar="-1" Cut="0.0000000000000000e+00" cType="1" res="-2.3097365628927946e-03" rms="4.8757827281951904e-01" purity="4.5058530569076538e-01" nType="-99"/>
          <Node pos="r" depth="2" NCoef="0" IVar="-1" Cut="0.0000000000000000e+00" cType="1" res="3.1176661141216755e-03" rms="4.7665446996688843e-01" purity="6.2227809429168701e-01" nType="-99"/>
        </Node>
        <Node pos="r" depth="1" NCoef="0" IVar="10" Cut="4.4603002071380615e-01" cType="1" res="-1.1165427416563034e-01" rms="4.5514607429504395e-01" purity="3.1290709972381592e-01" nType="0">
          <Node pos="l" depth="2" NCoef="0" IVar="-1" Cut="0.0000000000000000e+00" cType="1" res="-9.9102463573217392e-03" rms="3.4363013505935669e-01" purity="1.4268724620342255e-01" nType="-99"/>
          <Node pos="r" depth="2" NCoef="0" IVar="-1" Cut="0.0000000000000000e+00" cType="1" res="-2.5394456461071968e-03" rms="4.7514227032661438e-01" purity="3.6258110404014587e-01" nType="-99"/>
        </Node>
      </Node>
    </BinaryTree>
    <BinaryTree type="DecisionTree" boostWeight="1.0000000000000000e+00" itree="38">
      <Node pos="s" depth="0" NCoef="0" IVar="2" Cut="2.4237544536590576e+00" cType="1" res="-3.2533225603401661e-03" rms="4.7974070906639099e-01" purity="4.9489098787307739e-01" nType="0">
        <Node pos="l" depth="1" NCoef="0" IVar="0" Cut="8.3795310974121094e+01" cType="1" res="4.0660902857780457e-02" rms="4.8323607444763184e-01" purity="5.6694692373275757e-01" nType="0">
          <Node pos="l" depth="2" NCoef="0" IVar="-1" Cut="0.0000000000000000e+00" cType="1" res="-3.1036845757625997e-04" rms="4.8918867111206055e-01" purity="5.0081038475036621e-01" nType="-99"/>
          <Node pos="r" depth="2" NCoef="0" IVar="-1" Cut="0.0000000000000000e+00" cType="1" res="4.9433545209467411e-03" rms="4.5027345418930054e-01" purity="7.1445500850677490e-01" nType="-99"/>
        </Node>
        <Node pos="r" depth="1" NCoef="0" IVar="0" Cut="8.7486717224121094e+01" cType="1" res="-1.2232317775487900e-01" rms="4.4901916384696960e-01" purity="2.9951712489128113e-01" nType="0">
          <Node pos="l" depth="2" NCoef="0" IVar="-1" Cut="0.0000000000000000e+00" cType="1" res="-6.7824735306203365e-03" rms="4.1774335503578186e-01" purity="2.3616120219230652e-01" nType="-99"/>
          <Node pos="r" depth="2" NCoef="0" IVar="-1" Cut="0.0000000000000000e+00" cType="1" res="-1.1453951010480523e-03" rms="4.8671290278434753e-01" purity="4.1141536831855774e-01" nType="-99"/>
        </Node>
      </Node>
    </BinaryTree>
    <BinaryTree type="DecisionTree" boostWeight="1.0000000000000000e+00" itree="39">
      <Node pos="s" depth="0" NCoef="0" IVar="2" Cut="2.4808843135833740e+00" cType="1" res="6.4032305963337421e-03" rms="4.7955280542373657e-01" purity="5.0340187549591064e-01" nType="0">
        <Node pos="l" depth="1" NCoef="0" IVar="0" Cut="3.1101505279541016e+01" cType="1" res="5.2592903375625610e-02" rms="4.8277294635772705e-01" purity="5.7843780517578125e-01" nType="0">
          <Node pos="l" depth="2" NCoef="0" IVar="-1" Cut="0.0000000000000000e+00" cType="1" res="-5.3021013736724854e-03" rms="4.5325693488121033e-01" purity="2.9468625783920288e-01" nType="-99"/>
          <Node pos="r" depth="2" NCoef="0" IVar="-1" Cut="0.0000000000000000e+00" cType="1" res="2.5272378697991371e-03" rms="4.8106205463409424e-01" purity="6.1130619049072266e-01" nType="-99"/>
        </Node>
        <Node pos="r" depth="1" NCoef="0" IVar="11" Cut="5.1855707168579102e-01" cType="1" res="-1.2195899337530136e-01" rms="4.4604176282882690e-01" purity="2.9487517476081848e-01" nType="0">
          <Node pos="l" depth="2" NCoef="0" IVar="-1" Cut="0.0000000000000000e+00" cType="1" res="-7.6027968898415565e-03" rms="3.9058545231819153e-01" purity="1.9201804697513580e-01" nType="-99"/>
          <Node pos="r" depth="2" NCoef="0" IVar="-1" Cut="0.0000000000000000e+00" cType="1" res="-1.4050289755687118e-03" rms="4.8635074496269226e-01" purity="4.0729874372482300e-01" nType="-99"/>
        </Node>
      </Node>
    </BinaryTree>
    <BinaryTree type="DecisionTree" boostWeight="1.0000000000000000e+00" itree="40">
      <Node pos="s" depth="0" NCoef="0" IVar="11" Cut="5.7900869846343994e-01" cType="1" res="6.4341588877141476e-03" rms="4.8023575544357300e-01" purity="5.0325179100036621e-01" nType="0">
        <Node pos="l" depth="1" NCoef="0" IVar="9" Cut="3.7155523300170898e+00" cType="1" res="-9.0216927230358124e-02" rms="4.5952072739601135e-01" purity="3.5992002487182617e-01" nType="0">
          <Node pos="l" depth="2" NCoef="0" IVar="-1" Cut="0.0000000000000000e+00" cType="1" res="-1.5244114911183715e-03" rms="4.7477969527244568e-01" purity="4.1782000660896301e-01" nType="-99"/>
          <Node pos="r" depth="2" NCoef="0" IVar="-1" Cut="0.0000000000000000e+00" cType="1" res="-1.0612537153065205e-02" rms="3.4715214371681213e-01" purity="1.4731973409652710e-01" nType="-99"/>
        </Node>
        <Node pos="r" depth="1" NCoef="0" IVar="5" Cut="9.5990961790084839e-01" cType="1" res="5.7543128728866577e-02" rms="4.8308247327804565e-01" purity="5.7904535531997681e-01" nType="0">
          <Node pos="l" depth="2" NCoef="0" IVar="-1" Cut="0.0000000000000000e+00" cType="1" res="1.2609268014784902e-04" rms="4.9033421277999878e-01" purity="5.1758188009262085e-01" nType="-99"/>
          <Node pos="r" depth="2" NCoef="0" IVar="-1" Cut="0.0000000000000000e+00" cType="1" res="4.1705388575792313e-03" rms="4.6634948253631592e-01" purity="6.5199178457260132e-01" nType="-99"/>
        </Node>
      </Node>
    </BinaryTree>
    <BinaryTree type="DecisionTree" boostWeight="1.0000000000000000e+00" itree="41">
      <Node pos="s" depth="0" NCoef="0" IVar="0" Cut="3.7093166351318359e+01" cType="1" res="5.4663564078509808e-03" rms="4.7823971509933472e-01" purity="5.0539046525955200e-01" nType="0">
        <Node pos="l" depth="1" NCoef="0" IVar="0" Cut="2.9378902435302734e+01" cType="1" res="-1.6042117774486542e-01" rms="4.3421331048011780e-01" purity="2.6930698752403259e-01" nType="0">
          <Node pos="l" depth="2" NCoef="0" IVar="-1" Cut="0.0000000000000000e+00" cType="1" res="-1.0712780989706516e-02" rms="3.6213132739067078e-01" purity="1.6237170994281769e-01" nType="-99"/>
          <Node pos="r" depth="2" NCoef="0" IVar="-1" Cut="0.0000000000000000e+00" cType="1" res="-2.9296830762177706e-03" rms="4.7317427396774292e-01" purity="3.6182591319084167e-01" nType="-99"/>
        </Node>
        <Node pos="r" depth="1" NCoef="0" IVar="2" Cut="1.7811344861984253e+00" cType="1" res="3.7829905748367310e-02" rms="4.7972324490547180e-01" purity="5.5144870281219482e-01" nType="0">
          <Node pos="l" depth="2" NCoef="0" IVar="-1" Cut="0.0000000000000000e+00" cType="1" res="3.9692735299468040e-03" rms="4.6164080500602722e-01" purity="6.8105703592300415e-01" nType="-99"/>
          <Node pos="r" depth="2" NCoef="0" IVar="-1" Cut="0.0000000000000000e+00" cType="1" res="-1.0424004867672920e-03" rms="4.8327267169952393e-01" purity="4.4709131121635437e-01" nType="-99"/>
        </Node>
      </Node>
    </BinaryTree>
    <BinaryTree type="DecisionTree" boostWeight="1.0000000000000000e+00" itree="42">
      <Node pos="s" depth="0" NCoef="0" IVar="10" Cut="5.6235283613204956e-01" cType="1" res="1.3749854639172554e-02" rms="4.8068434000015259e-01" purity="5.1127147674560547e-01" nType="0">
        <Node pos="l" depth="1" NCoef="0" IVar="2" Cut="3.0981857776641846e+00" cType="1" res="-7.7045492827892303e-02" rms="4.6662995219230652e-01" purity="3.8340440392494202e-01" nType="0">
          <Node pos="l" depth="2" NCoef="0" IVar="-1" Cut="0.0000000000000000e+00" cType="1" res="-1.5297461068257689e-03" rms="4.8134315013885498e-01" purity="4.3908980488777161e-01" nType="-99"/>
          <Node pos="r" depth="2" NCoef="0" IVar="-1" Cut="0.0000000000000000e+00" cType="1" res="-7.3974477127194405e-03" rms="3.9192461967468262e-01" purity="1.9377729296684265e-01" nType="-99"/>
        </Node>
        <Node pos="r" depth="1" NCoef="0" IVar="5" Cut="9.6007466316223145e-01" cType="1" res="6.7872636020183563e-02" rms="4.8078107833862305e-01" purity="5.8749246597290039e-01" nType="0">
          <Node pos="l" depth="2" NCoef="0" IVar="-1" Cut="0.0000000000000000e+00" cType="1" res="3.2802220084704459e-04" rms="4.9006122350692749e-01" purity="5.1973533630371094e-01" nType="-99"/>
          <Node pos="r" depth="2" NCoef="0" IVar="-1" Cut="0.0000000000000000e+00" cType="1" res="4.6893446706235409e-03" rms="4.6017077565193176e-01" purity="6.6770792007446289e-01" nType="-99"/>
        </Node>
      </Node>
    </BinaryTree>
    <BinaryTree type="DecisionTree" boostWeight="1.0000000000000000e+00" itree="43">
      <Node pos="s" depth="0" NCoef="0" IVar="0" Cut="4.9239097595214844e+01" cType="1" res="5.3446721285581589e-03" rms="4.7989034652709961e-01" purity="5.0453668832778931e-01" nType="0">
        <Node pos="l" depth="1" NCoef="0" IVar="0" Cut="2.9034254074096680e+01" cType="1" res="-9.0194888412952423e-02" rms="4.6673613786697388e-01" purity="3.6510396003723145e-01" nType="0">
          <Node pos="l" depth="2" NCoef="0" IVar="-1" Cut="0.0000000000000000e+00" cType="1" res="-1.0593427345156670e-02" rms="3.5255965590476990e-01" purity="1.4989411830902100e-01" nType="-99"/>
          <Node pos="r" depth="2" NCoef="0" IVar="-1" Cut="0.0000000000000000e+00" cType="1" res="-1.5169628895819187e-03" rms="4.8382303118705750e-01" purity="4.2725116014480591e-01" nType="-99"/>
        </Node>
        <Node pos="r" depth="1" NCoef="0" IVar="8" Cut="4.2507867431640625e+02" cType="1" res="4.9580324441194534e-02" rms="4.7945502400398254e-01" purity="5.6909525394439697e-01" nType="0">
          <Node pos="l" depth="2" NCoef="0" IVar="-1" Cut="0.0000000000000000e+00" cType="1" res="2.8749250341206789e-03" rms="4.7299146652221680e-01" purity="6.1699867248535156e-01" nType="-99"/>
          <Node pos="r" depth="2" NCoef="0" IVar="-1" Cut="0.0000000000000000e+00" cType="1" res="-4.7888024710118771e-03" rms="4.6967917680740356e-01" purity="3.4530195593833923e-01" nType="-99"/>
        </Node>
      </Node>
    </BinaryTree>
    <BinaryTree type="DecisionTree" boostWeight="1.0000000000000000e+00" itree="44">
      <Node pos="s" depth="0" NCoef="0" IVar="10" Cut="5.3044897317886353e-01" cType="1" res="-1.4921296387910843e-03" rms="4.7888687252998352e-01" purity="4.9665138125419617e-01" nType="0">
        <Node pos="l" depth="1" NCoef="0" IVar="2" Cut="1.8619753122329712e+00" cType="1" res="-1.2270504236221313e-01" rms="4.5259365439414978e-01" purity="3.2950994372367859e-01" nType="0">
          <Node pos="l" depth="2" NCoef="0" IVar="-1" Cut="0.0000000000000000e+00" cType="1" res="-1.0548651916906238e-03" rms="4.9207615852355957e-01" purity="4.9193128943443298e-01" nType="-99"/>
          <Node pos="r" depth="2" NCoef="0" IVar="-1" Cut="0.0000000000000000e+00" cType="1" res="-6.1381920240819454e-03" rms="4.2922419309616089e-01" purity="2.6139721274375916e-01" nType="-99"/>
        </Node>
        <Node pos="r" depth="1" NCoef="0" IVar="0" Cut="8.0385612487792969e+01" cType="1" res="4.8957485705614090e-02" rms="4.8048505187034607e-01" purity="5.6621670722961426e-01" nType="0">
          <Node pos="l" depth="2" NCoef="0" IVar="-1" Cut="0.0000000000000000e+00" cType="1" res="-1.3681565178558230e-04" rms="4.8617964982986450e-01" purity="4.9619576334953308e-01" nType="-99"/>
          <Node pos="r" depth="2" NCoef="0" IVar="-1" Cut="0.0000000000000000e+00" cType="1" res="4.5407512225210667e-03" rms="4.5660498738288879e-01" purity="6.8603366613388062e-01" nType="-99"/>
        </Node>
      </Node>
    </BinaryTree>
    <BinaryTree type="DecisionTree" boostWeight="1.0000000000000000e+00" itree="45">
      <Node pos="s" depth="0" NCoef="0" IVar="0" Cut="8.6539375305175781e+01" cType="1" res="7.3350192978978157e-03" rms="4.7741603851318359e-01" purity="5.0563877820968628e-01" nType="0">
        <Node pos="l" depth="1" NCoef="0" IVar="2" Cut="2.2124874591827393e+00" cType="1" res="-4.3258123099803925e-02" rms="4.7507283091545105e-01" purity="4.4308507442474365e-01" nType="0">
          <Node pos="l" depth="2" NCoef="0" IVar="-1" Cut="0.0000000000000000e+00" cType="1" res="4.3275710777379572e-04" rms="4.8779532313346863e-01" purity="5.3427577018737793e-01" nType="-99"/>
          <Node pos="r" depth="2" NCoef="0" IVar="-1" Cut="0.0000000000000000e+00" cType="1" res="-5.8893621899187565e-03" rms="4.2580640316009521e-01" purity="2.5685656070709229e-01" nType="-99"/>
        </Node>
        <Node pos="r" depth="1" NCoef="0" IVar="0" Cut="1.4801945495605469e+02" cType="1" res="1.2025962024927139e-01" rms="4.6307939291000366e-01" purity="6.4525949954986572e-01" nType="0">
          <Node pos="l" depth="2" NCoef="0" IVar="-1" Cut="0.0000000000000000e+00" cType="1" res="5.2513447590172291e-03" rms="4.4850203394889832e-01" purity="6.9038432836532593e-01" nType="-99"/>
          <Node pos="r" depth="2" NCoef="0" IVar="-1" Cut="0.0000000000000000e+00" cType="1" res="-2.6990198530256748e-03" rms="4.7906851768493652e-01" purity="4.3433895707130432e-01" nType="-99"/>
        </Node>
      </Node>
    </BinaryTree>
    <BinaryTree type="DecisionTree" boostWeight="1.0000000000000000e+00" itree="46">
      <Node pos="s" depth="0" NCoef="0" IVar="0" Cut="3.9125598907470703e+01" cType="1" res="-2.2897727321833372e-03" rms="4.7606563568115234e-01" purity="4.9493190646171570e-01" nType="0">
        <Node pos="l" depth="1" NCoef="0" IVar="0" Cut="2.9491323471069336e+01" cType="1" res="-1.5317425131797791e-01" rms="4.3485575914382935e-01" purity="2.7215236425399780e-01" nType="0">
          <Node pos="l" depth="2" NCoef="0" IVar="-1" Cut="0.0000000000000000e+00" cType="1" res="-1.1028247885406017e-02" rms="3.4178245067596436e-01" purity="1.4064383506774902e-01" nType="-99"/>
          <Node pos="r" depth="2" NCoef="0" IVar="-1" Cut="0.0000000000000000e+00" cType="1" res="-2.8054937720298767e-03" rms="4.7450402379035950e-01" purity="3.6415231227874756e-01" nType="-99"/>
        </Node>
        <Node pos="r" depth="1" NCoef="0" IVar="2" Cut="2.8934044837951660e+00" cType="1" res="3.4923460334539413e-02" rms="4.7843196988105774e-01" purity="5.4987680912017822e-01" nType="0">
          <Node pos="l" depth="2" NCoef="0" IVar="-1" Cut="0.0000000000000000e+00" cType="1" res="2.2668989840894938e-03" rms="4.7977209091186523e-01" purity="6.0279381275177002e-01" nType="-99"/>
          <Node pos="r" depth="2" NCoef="0" IVar="-1" Cut="0.0000000000000000e+00" cType="1" res="-5.3261704742908478e-03" rms="4.2921742796897888e-01" purity="2.5868320465087891e-01" nType="-99"/>
        </Node>
      </Node>
    </BinaryTree>
    <BinaryTree type="DecisionTree" boostWeight="1.0000000000000000e+00" itree="47">
      <Node pos="s" depth="0" NCoef="0" IVar="10" Cut="5.1566982269287109e-01" cType="1" res="1.2412613257765770e-02" rms="4.7839033603668213e-01" purity="5.1136183738708496e-01" nType="0">
        <Node pos="l" depth="1" NCoef="0" IVar="6" Cut="6.5098960876464844e+01" cType="1" res="-1.0404010117053986e-01" rms="4.5786726474761963e-01" purity="3.4544008970260620e-01" nType="0">
          <Node pos="l" depth="2" NCoef="0" IVar="-1" Cut="0.0000000000000000e+00" cType="1" res="-5.9278993867337704e-03" rms="4.3442428112030029e-01" purity="2.8160250186920166e-01" nType="-99"/>
          <Node pos="r" depth="2" NCoef="0" IVar="-1" Cut="0.0000000000000000e+00" cType="1" res="2.0855273760389537e-05" rms="4.8451760411262512e-01" purity="4.7231391072273254e-01" nType="-99"/>
        </Node>
        <Node pos="r" depth="1" NCoef="0" IVar="0" Cut="8.0385612487792969e+01" cType="1" res="5.1888700574636459e-02" rms="4.7876450419425964e-01" purity="5.6760734319686890e-01" nType="0">
          <Node pos="l" depth="2" NCoef="0" IVar="-1" Cut="0.0000000000000000e+00" cType="1" res="9.7251962870359421e-05" rms="4.8679804801940918e-01" purity="4.9881115555763245e-01" nType="-99"/>
          <Node pos="r" depth="2" NCoef="0" IVar="-1" Cut="0.0000000000000000e+00" cType="1" res="4.5957625843584538e-03" rms="4.5107612013816833e-01" purity="6.9012928009033203e-01" nType="-99"/>
        </Node>
      </Node>
    </BinaryTree>
    <BinaryTree type="DecisionTree" boostWeight="1.0000000000000000e+00" itree="48">
      <Node pos="s" depth="0" NCoef="0" IVar="9" Cut="1.3671994209289551e+00" cType="1" res="3.7893783301115036e-03" rms="4.7687354683876038e-01" purity="5.0074857473373413e-01" nType="0">
        <Node pos="l" depth="1" NCoef="0" IVar="2" Cut="1.0152518749237061e+00" cType="1" res="2.0428159832954407e-01" rms="4.3061527609825134e-01" purity="7.4133020639419556e-01" nType="0">
          <Node pos="l" depth="2" NCoef="0" IVar="-1" Cut="0.0000000000000000e+00" cType="1" res="5.1384083926677704e-03" rms="4.5924603939056396e-01" purity="6.8062031269073486e-01" nType="-99"/>
          <Node pos="r" depth="2" NCoef="0" IVar="-1" Cut="0.0000000000000000e+00" cType="1" res="8.0616204068064690e-03" rms="3.9495354890823364e-01" purity="8.0036574602127075e-01" nType="-99"/>
        </Node>
        <Node pos="r" depth="1" NCoef="0" IVar="5" Cut="9.7350347042083740e-01" cType="1" res="-2.1967653185129166e-02" rms="4.7641775012016296e-01" purity="4.6984136104583740e-01" nType="0">
          <Node pos="l" depth="2" NCoef="0" IVar="-1" Cut="0.0000000000000000e+00" cType="1" res="-1.9481943454593420e-03" rms="4.7332075238227844e-01" purity="4.3185654282569885e-01" nType="-99"/>
          <Node pos="r" depth="2" NCoef="0" IVar="-1" Cut="0.0000000000000000e+00" cType="1" res="3.5737913567572832e-03" rms="4.6757426857948303e-01" purity="6.1117511987686157e-01" nType="-99"/>
        </Node>
      </Node>
    </BinaryTree>
    <BinaryTree type="DecisionTree" boostWeight="1.0000000000000000e+00" itree="49">
      <Node pos="s" depth="0" NCoef="0" IVar="2" Cut="1.7174668312072754e+00" cType="1" res="1.2657861225306988e-02" rms="4.7591552138328552e-01" purity="5.0650185346603394e-01" nType="0">
        <Node pos="l" depth="1" NCoef="0" IVar="0" Cut="6.5675170898437500e+01" cType="1" res="1.0510931164026260e-01" rms="4.6501022577285767e-01" purity="6.4579176902770996e-01" nType="0">
          <Node pos="l" depth="2" NCoef="0" IVar="-1" Cut="0.0000000000000000e+00" cType="1" res="1.3586659915745258e-03" rms="4.9014091491699219e-01" purity="5.4756712913513184e-01" nType="-99"/>
          <Node pos="r" depth="2" NCoef="0" IVar="-1" Cut="0.0000000000000000e+00" cType="1" res="6.5193353220820427e-03" rms="4.0825065970420837e-01" purity="7.8741836547851562e-01" nType="-99"/>
        </Node>
        <Node pos="r" depth="1" NCoef="0" IVar="8" Cut="3.3405718994140625e+02" cType="1" res="-5.2117414772510529e-02" rms="4.7275841236114502e-01" purity="4.0890967845916748e-01" nType="0">
          <Node pos="l" depth="2" NCoef="0" IVar="-1" Cut="0.0000000000000000e+00" cType="1" res="-6.7497232521418482e-05" rms="4.7987526655197144e-01" purity="4.6763688325881958e-01" nType="-99"/>
          <Node pos="r" depth="2" NCoef="0" IVar="-1" Cut="0.0000000000000000e+00" cType="1" res="-5.6081195361912251e-03" rms="4.4351145625114441e-01" purity="2.9723441600799561e-01" nType="-99"/>
        </Node>
      </Node>
    </BinaryTree>
    <BinaryTree type="DecisionTree" boostWeight="1.0000000000000000e+00" itree="50">
      <Node pos="s" depth="0" NCoef="0" IVar="2" Cut="1.4858058691024780e+00" cType="1" res="-5.2561168558895588e-03" rms="4.7870287299156189e-01" purity="4.9174016714096069e-01" nType="0">
        <Node pos="l" depth="1" NCoef="0" IVar="0" Cut="8.0422424316406250e+01" cType="1" res="9.0033687651157379e-02" rms="4.6837466955184937e-01" purity="6.3176858425140381e-01" nType="0">
          <Node pos="l" depth="2" NCoef="0" IVar="-1" Cut="0.0000000000000000e+00" cType="1" res="1.3196438085287809e-03" rms="4.8755776882171631e-01" purity="5.5812674760818481e-01" nType="-99"/>
          <Node pos="r" depth="2" NCoef="0" IVar="-1" Cut="0.0000000000000000e+00" cType="1" res="6.9843307137489319e-03" rms="3.8760095834732056e-01" purity="8.1569099426269531e-01" nType="-99"/>
        </Node>
        <Node pos="r" depth="1" NCoef="0" IVar="8" Cut="3.8001943969726562e+02" cType="1" res="-4.8005543649196625e-02" rms="4.7712013125419617e-01" purity="4.2891985177993774e-01" nType="0">
          <Node pos="l" depth="2" NCoef="0" IVar="-1" Cut="0.0000000000000000e+00" cType="1" res="-5.3094152826815844e-04" rms="4.8113173246383667e-01" purity="4.6889260411262512e-01" nType="-99"/>
          <Node pos="r" depth="2" NCoef="0" IVar="-1" Cut="0.0000000000000000e+00" cType="1" res="-6.6909058950841427e-03" rms="4.3875178694725037e-01" purity="2.7394160628318787e-01" nType="-99"/>
        </Node>
      </Node>
    </BinaryTree>
    <BinaryTree type="DecisionTree" boostWeight="1.0000000000000000e+00" itree="51">
      <Node pos="s" depth="0" NCoef="0" IVar="0" Cut="6.2982578277587891e+01" cType="1" res="1.1329817352816463e-03" rms="4.7921440005302429e-01" purity="4.9848634004592896e-01" nType="0">
        <Node pos="l" depth="1" NCoef="0" IVar="9" Cut="1.3723813295364380e+00" cType="1" res="-6.8679913878440857e-02" rms="4.7534173727035522e-01" purity="3.9886280894279480e-01" nType="0">
          <Node pos="l" depth="2" NCoef="0" IVar="-1" Cut="0.0000000000000000e+00" cType="1" res="4.5707933604717255e-03" rms="4.7121974825859070e-01" purity="6.4941346645355225e-01" nType="-99"/>
          <Node pos="r" depth="2" NCoef="0" IVar="-1" Cut="0.0000000000000000e+00" cType="1" res="-3.6230883561074734e-03" rms="4.6851396560668945e-01" purity="3.6321240663528442e-01" nType="-99"/>
        </Node>
        <Node pos="r" depth="1" NCoef="0" IVar="8" Cut="3.2793655395507812e+02" cType="1" res="6.9527789950370789e-02" rms="4.7309124469757080e-01" purity="5.9608626365661621e-01" nType="0">
          <Node pos="l" depth="2" NCoef="0" IVar="-1" Cut="0.0000000000000000e+00" cType="1" res="3.9421231485903263e-03" rms="4.5913872122764587e-01" purity="6.6230559349060059e-01" nType="-99"/>
          <Node pos="r" depth="2" NCoef="0" IVar="-1" Cut="0.0000000000000000e+00" cType="1" res="-6.6623912425711751e-04" rms="4.8526114225387573e-01" purity="4.7518089413642883e-01" nType="-99"/>
        </Node>
      </Node>
    </BinaryTree>
    <BinaryTree type="DecisionTree" boostWeight="1.0000000000000000e+00" itree="52">
      <Node pos="s" depth="0" NCoef="0" IVar="2" Cut="3.1389689445495605e+00" cType="1" res="-1.6735090175643563e-03" rms="4.7665330767631531e-01" purity="4.9436661601066589e-01" nType="0">
        <Node pos="l" depth="1" NCoef="0" IVar="0" Cut="4.9239097595214844e+01" cType="1" res="2.0392848178744316e-02" rms="4.8189347982406616e-01" purity="5.3043794631958008e-01" nType="0">
          <Node pos="l" depth="2" NCoef="0" IVar="-1" Cut="0.0000000000000000e+00" cType="1" res="-2.9457160271704197e-03" rms="4.7528764605522156e-01" purity="3.7560850381851196e-01" nType="-99"/>
          <Node pos="r" depth="2" NCoef="0" IVar="-1" Cut="0.0000000000000000e+00" cType="1" res="2.5506636593490839e-03" rms="4.7644019126892090e-01" purity="6.1539328098297119e-01" nType="-99"/>
        </Node>
        <Node pos="r" depth="1" NCoef="0" IVar="6" Cut="5.2871559143066406e+01" cType="1" res="-1.9715525209903717e-01" rms="3.7439849972724915e-01" purity="1.7481717467308044e-01" nType="0">
          <Node pos="l" depth="2" NCoef="0" IVar="-1" Cut="0.0000000000000000e+00" cType="1" res="-7.9200584441423416e-03" rms="3.5674849152565002e-01" purity="1.6105741262435913e-01" nType="-99"/>
          <Node pos="r" depth="2" NCoef="0" IVar="-1" Cut="0.0000000000000000e+00" cType="1" res="-7.8629096969962120e-03" rms="3.9108172059059143e-01" purity="1.8843679130077362e-01" nType="-99"/>
        </Node>
      </Node>
    </BinaryTree>
    <BinaryTree type="DecisionTree" boostWeight="1.0000000000000000e+00" itree="53">
      <Node pos="s" depth="0" NCoef="0" IVar="0" Cut="3.7965995788574219e+01" cType="1" res="2.8498480096459389e-03" rms="4.7509038448333740e-01" purity="5.0133275985717773e-01" nType="0">
        <Node pos="l" depth="1" NCoef="0" IVar="5" Cut="9.6818256378173828e-01" cType="1" res="-1.3832379877567291e-01" rms="4.3795463442802429e-01" purity="2.7908232808113098e-01" nType="0">
          <Node pos="l" depth="2" NCoef="0" IVar="-1" Cut="0.0000000000000000e+00" cType="1" res="-7.1566565893590450e-03" rms="4.0764176845550537e-01" purity="2.2321580350399017e-01" nType="-99"/>
          <Node pos="r" depth="2" NCoef="0" IVar="-1" Cut="0.0000000000000000e+00" cType="1" res="-3.4983176738023758e-04" rms="4.8538178205490112e-01" purity="4.2497542500495911e-01" nType="-99"/>
        </Node>
        <Node pos="r" depth="1" NCoef="0" IVar="8" Cut="2.5018974304199219e+02" cType="1" res="3.4321941435337067e-02" rms="4.7732192277908325e-01" purity="5.5087941884994507e-01" nType="0">
          <Node pos="l" depth="2" NCoef="0" IVar="-1" Cut="0.0000000000000000e+00" cType="1" res="3.4700878895819187e-03" rms="4.6569791436195374e-01" purity="6.4067780971527100e-01" nType="-99"/>
          <Node pos="r" depth="2" NCoef="0" IVar="-1" Cut="0.0000000000000000e+00" cType="1" res="-1.3640646357089281e-03" rms="4.7812736034393311e-01" purity="4.5899486541748047e-01" nType="-99"/>
        </Node>
      </Node>
    </BinaryTree>
    <BinaryTree type="DecisionTree" boostWeight="1.0000000000000000e+00" itree="54">
      <Node pos="s" depth="0" NCoef="0" IVar="2" Cut="1.7265356779098511e+00" cType="1" res="-8.3134127780795097e-03" rms="4.7725051641464233e-01" purity="4.8750865459442139e-01" nType="0">
        <Node pos="l" depth="1" NCoef="0" IVar="0" Cut="3.3162384033203125e+01" cType="1" res="6.5652944147586823e-02" rms="4.7510129213333130e-01" purity="6.1253440380096436e-01" nType="0">
          <Node pos="l" depth="2" NCoef="0" IVar="-1" Cut="0.0000000000000000e+00" cType="1" res="-3.0365707352757454e-03" rms="4.7450336813926697e-01" purity="3.4989655017852783e-01" nType="-99"/>
          <Node pos="r" depth="2" NCoef="0" IVar="-1" Cut="0.0000000000000000e+00" cType="1" res="2.9095923528075218e-03" rms="4.7133639454841614e-01" purity="6.5147113800048828e-01" nType="-99"/>
        </Node>
        <Node pos="r" depth="1" NCoef="0" IVar="0" Cut="6.4190299987792969e+01" cType="1" res="-5.8699838817119598e-02" rms="4.7211933135986328e-01" purity="4.0234014391899109e-01" nType="0">
          <Node pos="l" depth="2" NCoef="0" IVar="-1" Cut="0.0000000000000000e+00" cType="1" res="-4.7577153891324997e-03" rms="4.4764611124992371e-01" purity="3.0462589859962463e-01" nType="-99"/>
          <Node pos="r" depth="2" NCoef="0" IVar="-1" Cut="0.0000000000000000e+00" cType="1" res="1.0327239579055458e-04" rms="4.8590940237045288e-01" purity="4.9387878179550171e-01" nType="-99"/>
        </Node>
      </Node>
    </BinaryTree>
    <BinaryTree type="DecisionTree" boostWeight="1.0000000000000000e+00" itree="55">
      <Node pos="s" depth="0" NCoef="0" IVar="2" Cut="2.4001035690307617e+00" cType="1" res="9.9142396356910467e-04" rms="4.7535949945449829e-01" purity="4.9684169888496399e-01" nType="0">
        <Node pos="l" depth="1" NCoef="0" IVar="0" Cut="5.9976390838623047e+01" cType="1" res="3.6937039345502853e-02" rms="4.7990199923515320e-01" purity="5.7000482082366943e-01" nType="0">
          <Node pos="l" depth="2" NCoef="0" IVar="-1" Cut="0.0000000000000000e+00" cType="1" res="-1.1680922470986843e-03" rms="4.8781260848045349e-01" purity="4.5811122655868530e-01" nType="-99"/>
          <Node pos="r" depth="2" NCoef="0" IVar="-1" Cut="0.0000000000000000e+00" cType="1" res="3.5083359107375145e-03" rms="4.6155819296836853e-01" purity="6.8099701404571533e-01" nType="-99"/>
        </Node>
        <Node pos="r" depth="1" NCoef="0" IVar="3" Cut="1.2721025848388672e+02" cType="1" res="-8.8323131203651428e-02" rms="4.5166057348251343e-01" purity="3.1505227088928223e-01" nType="0">
          <Node pos="l" depth="2" NCoef="0" IVar="-1" Cut="0.0000000000000000e+00" cType="1" res="-1.4434788608923554e-03" rms="4.6681356430053711e-01" purity="3.6636158823966980e-01" nType="-99"/>
          <Node pos="r" depth="2" NCoef="0" IVar="-1" Cut="0.0000000000000000e+00" cType="1" res="-7.1614058688282967e-03" rms="4.0382856130599976e-01" purity="2.1483266353607178e-01" nType="-99"/>
        </Node>
      </Node>
    </BinaryTree>
    <BinaryTree type="DecisionTree" boostWeight="1.0000000000000000e+00" itree="56">
      <Node pos="s" depth="0" NCoef="0" IVar="2" Cut="1.7511370182037354e+00" cType="1" res="1.5871098265051842e-02" rms="4.7422537207603455e-01" purity="5.1552468538284302e-01" nType="0">
        <Node pos="l" depth="1" NCoef="0" IVar="0" Cut="3.9286506652832031e+01" cType="1" res="8.7914466857910156e-02" rms="4.6766674518585205e-01" purity="6.3628375530242920e-01" nType="0">
          <Node pos="l" depth="2" NCoef="0" IVar="-1" Cut="0.0000000000000000e+00" cType="1" res="-1.7634060932323337e-03" rms="4.8300147056579590e-01" purity="3.9552357792854309e-01" nType="-99"/>
          <Node pos="r" depth="2" NCoef="0" IVar="-1" Cut="0.0000000000000000e+00" cType="1" res="3.9721601642668247e-03" rms="4.5782464742660522e-01" purity="6.9351947307586670e-01" nType="-99"/>
        </Node>
        <Node pos="r" depth="1" NCoef="0" IVar="0" Cut="5.0055797576904297e+01" cType="1" res="-4.2092628777027130e-02" rms="4.7151270508766174e-01" purity="4.1836595535278320e-01" nType="0">
          <Node pos="l" depth="2" NCoef="0" IVar="-1" Cut="0.0000000000000000e+00" cType="1" res="-6.1953254044055939e-03" rms="4.2360424995422363e-01" purity="2.5407361984252930e-01" nType="-99"/>
          <Node pos="r" depth="2" NCoef="0" IVar="-1" Cut="0.0000000000000000e+00" cType="1" res="2.0084483548998833e-04" rms="4.8256695270538330e-01" purity="4.8824587464332581e-01" nType="-99"/>
        </Node>
      </Node>
    </BinaryTree>
    <BinaryTree type="DecisionTree" boostWeight="1.0000000000000000e+00" itree="57">
      <Node pos="s" depth="0" NCoef="0" IVar="5" Cut="9.3760222196578979e-01" cType="1" res="1.3064923696219921e-02" rms="4.7490885853767395e-01" purity="5.1012939214706421e-01" nType="0">
        <Node pos="l" depth="1" NCoef="0" IVar="11" Cut="6.8517178297042847e-01" cType="1" res="-1.1572074890136719e-01" rms="4.6004685759544373e-01" purity="3.5681697726249695e-01" nType="0">
          <Node pos="l" depth="2" NCoef="0" IVar="-1" Cut="0.0000000000000000e+00" cType="1" res="-6.0007721185684204e-03" rms="4.3555992841720581e-01" purity="2.7443450689315796e-01" nType="-99"/>
          <Node pos="r" depth="2" NCoef="0" IVar="-1" Cut="0.0000000000000000e+00" cType="1" res="-1.2516141869127750e-03" rms="4.8643919825553894e-01" purity="4.8713743686676025e-01" nType="-99"/>
        </Node>
        <Node pos="r" depth="1" NCoef="0" IVar="2" Cut="1.5368267297744751e+00" cType="1" res="5.3135581314563751e-02" rms="4.7233003377914429e-01" purity="5.5783134698867798e-01" nType="0">
          <Node pos="l" depth="2" NCoef="0" IVar="-1" Cut="0.0000000000000000e+00" cType="1" res="4.7393282875418663e-03" rms="4.4753709435462952e-01" purity="6.9163984060287476e-01" nType="-99"/>
          <Node pos="r" depth="2" NCoef="0" IVar="-1" Cut="0.0000000000000000e+00" cType="1" res="1.3100972864776850e-04" rms="4.7899261116981506e-01" purity="4.8116445541381836e-01" nType="-99"/>
        </Node>
      </Node>
    </BinaryTree>
    <BinaryTree type="DecisionTree" boostWeight="1.0000000000000000e+00" itree="58">
      <Node pos="s" depth="0" NCoef="0" IVar="10" Cut="5.3044897317886353e-01" cType="1" res="-5.4467952577397227e-04" rms="4.7411406040191650e-01" purity="4.9696651101112366e-01" nType="0">
        <Node pos="l" depth="1" NCoef="0" IVar="5" Cut="9.3644881248474121e-01" cType="1" res="-1.0502813011407852e-01" rms="4.4882521033287048e-01" purity="3.3569553494453430e-01" nType="0">
          <Node pos="l" depth="2" NCoef="0" IVar="-1" Cut="0.0000000000000000e+00" cType="1" res="-9.0550230816006660e-03" rms="3.4556883573532104e-01" purity="1.5377368032932281e-01" nType="-99"/>
          <Node pos="r" depth="2" NCoef="0" IVar="-1" Cut="0.0000000000000000e+00" cType="1" res="-1.8484266474843025e-03" rms="4.6885004639625549e-01" purity="4.0144079923629761e-01" nType="-99"/>
        </Node>
        <Node pos="r" depth="1" NCoef="0" IVar="0" Cut="3.8193191528320312e+01" cType="1" res="4.1347779333591461e-02" rms="4.7750422358512878e-01" purity="5.6162780523300171e-01" nType="0">
          <Node pos="l" depth="2" NCoef="0" IVar="-1" Cut="0.0000000000000000e+00" cType="1" res="-4.4438238255679607e-03" rms="4.5556536316871643e-01" purity="3.0877220630645752e-01" nType="-99"/>
          <Node pos="r" depth="2" NCoef="0" IVar="-1" Cut="0.0000000000000000e+00" cType="1" res="2.5794224347919226e-03" rms="4.7521260380744934e-01" purity="6.1717116832733154e-01" nType="-99"/>
        </Node>
      </Node>
    </BinaryTree>
    <BinaryTree type="DecisionTree" boostWeight="1.0000000000000000e+00" itree="59">
      <Node pos="s" depth="0" NCoef="0" IVar="5" Cut="9.3771266937255859e-01" cType="1" res="2.2680433467030525e-02" rms="4.7498551011085510e-01" purity="5.2099686861038208e-01" nType="0">
        <Node pos="l" depth="1" NCoef="0" IVar="0" Cut="7.3231269836425781e+01" cType="1" res="-9.4509184360504150e-02" rms="4.5625701546669006e-01" purity="3.7563386559486389e-01" nType="0">
          <Node pos="l" depth="2" NCoef="0" IVar="-1" Cut="0.0000000000000000e+00" cType="1" res="-5.7008452713489532e-03" rms="4.2963036894798279e-01" purity="2.8245523571968079e-01" nType="-99"/>
          <Node pos="r" depth="2" NCoef="0" IVar="-1" Cut="0.0000000000000000e+00" cType="1" res="2.3575661180075258e-04" rms="4.7528263926506042e-01" purity="5.1368415355682373e-01" nType="-99"/>
        </Node>
        <Node pos="r" depth="1" NCoef="0" IVar="0" Cut="6.2216987609863281e+01" cType="1" res="5.7496771216392517e-02" rms="4.7486892342567444e-01" purity="5.6418335437774658e-01" nType="0">
          <Node pos="l" depth="2" NCoef="0" IVar="-1" Cut="0.0000000000000000e+00" cType="1" res="-1.0211315384367481e-05" rms="4.8571079969406128e-01" purity="4.6979796886444092e-01" nType="-99"/>
          <Node pos="r" depth="2" NCoef="0" IVar="-1" Cut="0.0000000000000000e+00" cType="1" res="3.6121197044849396e-03" rms="4.5935732126235962e-01" purity="6.4629656076431274e-01" nType="-99"/>
        </Node>
      </Node>
    </BinaryTree>
    <BinaryTree type="DecisionTree" boostWeight="1.0000000000000000e+00" itree="60">
      <Node pos="s" depth="0" NCoef="0" IVar="2" Cut="2.8129262924194336e+00" cType="1" res="-6.5305759198963642e-03" rms="4.7359800338745117e-01" purity="4.9152234196662903e-01" nType="0">
        <Node pos="l" depth="1" NCoef="0" IVar="0" Cut="6.5690399169921875e+01" cType="1" res="2.0369116216897964e-02" rms="4.7972017526626587e-01" purity="5.4146736860275269e-01" nType="0">
          <Node pos="l" depth="2" NCoef="0" IVar="-1" Cut="0.0000000000000000e+00" cType="1" res="-1.3884045183658600e-03" rms="4.8171192407608032e-01" purity="4.4619965553283691e-01" nType="-99"/>
          <Node pos="r" depth="2" NCoef="0" IVar="-1" Cut="0.0000000000000000e+00" cType="1" res="2.9630141798406839e-03" rms="4.6825829148292542e-01" purity="6.5088981389999390e-01" nType="-99"/>
        </Node>
        <Node pos="r" depth="1" NCoef="0" IVar="10" Cut="4.4563695788383484e-01" cType="1" res="-1.4521829783916473e-01" rms="4.1381070017814636e-01" purity="2.3401895165443420e-01" nType="0">
          <Node pos="l" depth="2" NCoef="0" IVar="-1" Cut="0.0000000000000000e+00" cType="1" res="-9.0138362720608711e-03" rms="3.3733671903610229e-01" purity="1.3809132575988770e-01" nType="-99"/>
          <Node pos="r" depth="2" NCoef="0" IVar="-1" Cut="0.0000000000000000e+00" cType="1" res="-4.3198410421609879e-03" rms="4.4350832700729370e-01" purity="2.8226968646049500e-01" nType="-99"/>
        </Node>
      </Node>
    </BinaryTree>
    <BinaryTree type="DecisionTree" boostWeight="1.0000000000000000e+00" itree="61">
      <Node pos="s" depth="0" NCoef="0" IVar="9" Cut="1.8526889085769653e+00" cType="1" res="1.0071172146126628e-03" rms="4.7258871793746948e-01" purity="4.9660009145736694e-01" nType="0">
        <Node pos="l" depth="1" NCoef="0" IVar="6" Cut="4.5317161560058594e+01" cType="1" res="1.2295694649219513e-01" rms="4.5168229937553406e-01" purity="6.7203730344772339e-01" nType="0">
          <Node pos="l" depth="2" NCoef="0" IVar="-1" Cut="0.0000000000000000e+00" cType="1" res="9.8801124840974808e-04" rms="4.8368656635284424e-01" purity="5.3349590301513672e-01" nType="-99"/>
          <Node pos="r" depth="2" NCoef="0" IVar="-1" Cut="0.0000000000000000e+00" cType="1" res="6.4974757842719555e-03" rms="4.0868598222732544e-01" purity="7.8328317403793335e-01" nType="-99"/>
        </Node>
        <Node pos="r" depth="1" NCoef="0" IVar="0" Cut="6.2340850830078125e+01" cType="1" res="-3.9423614740371704e-02" rms="4.7242066264152527e-01" purity="4.3843635916709900e-01" nType="0">
          <Node pos="l" depth="2" NCoef="0" IVar="-1" Cut="0.0000000000000000e+00" cType="1" res="-3.8505764678120613e-03" rms="4.5459592342376709e-01" purity="3.3145371079444885e-01" nType="-99"/>
          <Node pos="r" depth="2" NCoef="0" IVar="-1" Cut="0.0000000000000000e+00" cType="1" res="5.5400363635271788e-04" rms="4.8042166233062744e-01" purity="5.3106534481048584e-01" nType="-99"/>
        </Node>
      </Node>
    </BinaryTree>
    <BinaryTree type="DecisionTree" boostWeight="1.0000000000000000e+00" itree="62">
      <Node pos="s" depth="0" NCoef="0" IVar="5" Cut="9.3164187669754028e-01" cType="1" res="6.9635529071092606e-03" rms="4.7714051604270935e-01" purity="5.0363481044769287e-01" nType="0">
        <Node pos="l" depth="1" NCoef="0" IVar="4" Cut="3.6182168579101562e+02" cType="1" res="-1.1466193199157715e-01" rms="4.6409884095191956e-01" purity="3.5177642107009888e-01" nType="0">
          <Node pos="l" depth="2" NCoef="0" IVar="-1" Cut="0.0000000000000000e+00" cType="1" res="-6.0101845301687717e-03" rms="4.3113899230957031e-01" purity="2.7745038270950317e-01" nType="-99"/>
          <Node pos="r" depth="2" NCoef="0" IVar="-1" Cut="0.0000000000000000e+00" cType="1" res="-2.8516433667391539e-04" rms="5.0248110294342041e-01" purity="4.8904228210449219e-01" nType="-99"/>
        </Node>
        <Node pos="r" depth="1" NCoef="0" IVar="8" Cut="4.5458282470703125e+02" cType="1" res="3.1058413907885551e-02" rms="4.7600820660591125e-01" purity="5.3371900320053101e-01" nType="0">
          <Node pos="l" depth="2" NCoef="0" IVar="-1" Cut="0.0000000000000000e+00" cType="1" res="1.6516414470970631e-03" rms="4.7466066479682922e-01" purity="5.5467760562896729e-01" nType="-99"/>
          <Node pos="r" depth="2" NCoef="0" IVar="-1" Cut="0.0000000000000000e+00" cType="1" res="-5.7263146154582500e-03" rms="4.5394682884216309e-01" purity="3.1110155582427979e-01" nType="-99"/>
        </Node>
      </Node>
    </BinaryTree>
    <BinaryTree type="DecisionTree" boostWeight="1.0000000000000000e+00" itree="63">
      <Node pos="s" depth="0" NCoef="0" IVar="8" Cut="4.5056146240234375e+02" cType="1" res="6.0734045691788197e-03" rms="4.7328260540962219e-01" purity="5.0309419631958008e-01" nType="0">
        <Node pos="l" depth="1" NCoef="0" IVar="0" Cut="2.8646474838256836e+01" cType="1" res="2.9106335714459419e-02" rms="4.7426629066467285e-01" purity="5.3228062391281128e-01" nType="0">
          <Node pos="l" depth="2" NCoef="0" IVar="-1" Cut="0.0000000000000000e+00" cType="1" res="-8.0013731494545937e-03" rms="3.8275042176246643e-01" purity="1.8754792213439941e-01" nType="-99"/>
          <Node pos="r" depth="2" NCoef="0" IVar="-1" Cut="0.0000000000000000e+00" cType="1" res="1.6294535016641021e-03" rms="4.7610032558441162e-01" purity="5.5976629257202148e-01" nType="-99"/>
        </Node>
        <Node pos="r" depth="1" NCoef="0" IVar="7" Cut="7.1031082153320312e+01" cType="1" res="-1.6988947987556458e-01" rms="4.2645004391670227e-01" purity="2.8012159466743469e-01" nType="0">
          <Node pos="l" depth="2" NCoef="0" IVar="-1" Cut="0.0000000000000000e+00" cType="1" res="-9.4407210126519203e-03" rms="3.5130727291107178e-01" purity="1.5821067988872528e-01" nType="-99"/>
          <Node pos="r" depth="2" NCoef="0" IVar="-1" Cut="0.0000000000000000e+00" cType="1" res="-2.9665497131645679e-03" rms="4.7868812084197998e-01" purity="4.1204679012298584e-01" nType="-99"/>
        </Node>
      </Node>
    </BinaryTree>
    <BinaryTree type="DecisionTree" boostWeight="1.0000000000000000e+00" itree="64">
      <Node pos="s" depth="0" NCoef="0" IVar="10" Cut="6.3958507776260376e-01" cType="1" res="3.5121759865432978e-03" rms="4.7128278017044067e-01" purity="5.0186347961425781e-01" nType="0">
        <Node pos="l" depth="1" NCoef="0" IVar="2" Cut="2.7821347713470459e+00" cType="1" res="-5.2966967225074768e-02" rms="4.6610376238822937e-01" purity="4.1596123576164246e-01" nType="0">
          <Node pos="l" depth="2" NCoef="0" IVar="-1" Cut="0.0000000000000000e+00" cType="1" res="-2.5722899590618908e-04" rms="4.8429176211357117e-01" purity="5.0014537572860718e-01" nType="-99"/>
          <Node pos="r" depth="2" NCoef="0" IVar="-1" Cut="0.0000000000000000e+00" cType="1" res="-7.0222616195678711e-03" rms="3.9193323254585266e-01" purity="1.9924238324165344e-01" nType="-99"/>
        </Node>
        <Node pos="r" depth="1" NCoef="0" IVar="0" Cut="3.6663974761962891e+01" cType="1" res="7.3715500533580780e-02" rms="4.6823960542678833e-01" purity="6.0863965749740601e-01" nType="0">
          <Node pos="l" depth="2" NCoef="0" IVar="-1" Cut="0.0000000000000000e+00" cType="1" res="-5.5647036060690880e-03" rms="4.4387227296829224e-01" purity="2.8480339050292969e-01" nType="-99"/>
          <Node pos="r" depth="2" NCoef="0" IVar="-1" Cut="0.0000000000000000e+00" cType="1" res="3.8482099771499634e-03" rms="4.6137231588363647e-01" purity="6.7213064432144165e-01" nType="-99"/>
        </Node>
      </Node>
    </BinaryTree>
    <BinaryTree type="DecisionTree" boostWeight="1.0000000000000000e+00" itree="65">
      <Node pos="s" depth="0" NCoef="0" IVar="10" Cut="7.1614348888397217e-01" cType="1" res="-1.7059296369552612e-03" rms="4.7410020232200623e-01" purity="4.9196177721023560e-01" nType="0">
        <Node pos="l" depth="1" NCoef="0" IVar="5" Cut="9.4487082958221436e-01" cType="1" res="-3.7760473787784576e-02" rms="4.7412997484207153e-01" purity="4.3655651807785034e-01" nType="0">
          <Node pos="l" depth="2" NCoef="0" IVar="-1" Cut="0.0000000000000000e+00" cType="1" res="-3.5382106434553862e-03" rms="4.5857879519462585e-01" purity="3.5144039988517761e-01" nType="-99"/>
          <Node pos="r" depth="2" NCoef="0" IVar="-1" Cut="0.0000000000000000e+00" cType="1" res="-2.9571327104349621e-05" rms="4.7922763228416443e-01" purity="4.8668134212493896e-01" nType="-99"/>
        </Node>
        <Node pos="r" depth="1" NCoef="0" IVar="5" Cut="9.5749974250793457e-01" cType="1" res="1.0174103081226349e-01" rms="4.5854008197784424e-01" purity="6.5092957019805908e-01" nType="0">
          <Node pos="l" depth="2" NCoef="0" IVar="-1" Cut="0.0000000000000000e+00" cType="1" res="1.2261089868843555e-03" rms="4.7875633835792542e-01" purity="5.7260769605636597e-01" nType="-99"/>
          <Node pos="r" depth="2" NCoef="0" IVar="-1" Cut="0.0000000000000000e+00" cType="1" res="5.4390118457376957e-03" rms="4.3177255988121033e-01" purity="7.2025763988494873e-01" nType="-99"/>
        </Node>
      </Node>
    </BinaryTree>
    <BinaryTree type="DecisionTree" boostWeight="1.0000000000000000e+00" itree="66">
      <Node pos="s" depth="0" NCoef="0" IVar="5" Cut="9.5835769176483154e-01" cType="1" res="8.0516571179032326e-03" rms="4.7543615102767944e-01" purity="5.0534999370574951e-01" nType="0">
        <Node pos="l" depth="1" NCoef="0" IVar="4" Cut="2.1740048217773438e+02" cType="1" res="-5.2253767848014832e-02" rms="4.7255665063858032e-01" purity="4.2806416749954224e-01" nType="0">
          <Node pos="l" depth="2" NCoef="0" IVar="-1" Cut="0.0000000000000000e+00" cType="1" res="-6.2221186235547066e-03" rms="4.2285084724426270e-01" purity="2.5194579362869263e-01" nType="-99"/>
          <Node pos="r" depth="2" NCoef="0" IVar="-1" Cut="0.0000000000000000e+00" cType="1" res="-6.5306579926982522e-04" rms="4.7988951206207275e-01" purity="4.7617924213409424e-01" nType="-99"/>
        </Node>
        <Node pos="r" depth="1" NCoef="0" IVar="8" Cut="3.4247854614257812e+02" cType="1" res="7.9098783433437347e-02" rms="4.6895980834960938e-01" purity="5.9640216827392578e-01" nType="0">
          <Node pos="l" depth="2" NCoef="0" IVar="-1" Cut="0.0000000000000000e+00" cType="1" res="3.9070360362529755e-03" rms="4.6265068650245667e-01" purity="6.3425821065902710e-01" nType="-99"/>
          <Node pos="r" depth="2" NCoef="0" IVar="-1" Cut="0.0000000000000000e+00" cType="1" res="-1.5211240388453007e-03" rms="4.7359442710876465e-01" purity="4.5295256376266479e-01" nType="-99"/>
        </Node>
      </Node>
    </BinaryTree>
    <BinaryTree type="DecisionTree" boostWeight="1.0000000000000000e+00" itree="67">
      <Node pos="s" depth="0" NCoef="0" IVar="0" Cut="4.8467964172363281e+01" cType="1" res="1.7252884805202484e-02" rms="4.7298195958137512e-01" purity="5.1124131679534912e-01" nType="0">
        <Node pos="l" depth="1" NCoef="0" IVar="9" Cut="1.4673005342483521e+00" cType="1" res="-6.3384272158145905e-02" rms="4.6522182226181030e-01" purity="3.7151306867599487e-01" nType="0">
          <Node pos="l" depth="2" NCoef="0" IVar="-1" Cut="0.0000000000000000e+00" cType="1" res="3.2015845645219088e-03" rms="4.8443901538848877e-01" purity="5.8062303066253662e-01" nType="-99"/>
          <Node pos="r" depth="2" NCoef="0" IVar="-1" Cut="0.0000000000000000e+00" cType="1" res="-3.7403912283480167e-03" rms="4.5370772480964661e-01" purity="3.2605612277984619e-01" nType="-99"/>
        </Node>
        <Node pos="r" depth="1" NCoef="0" IVar="2" Cut="1.6370351314544678e+00" cType="1" res="5.5953703820705414e-02" rms="4.7179198265075684e-01" purity="5.7830220460891724e-01" nType="0">
          <Node pos="l" depth="2" NCoef="0" IVar="-1" Cut="0.0000000000000000e+00" cType="1" res="4.5523210428655148e-03" rms="4.3741455674171448e-01" purity="7.3274207115173340e-01" nType="-99"/>
          <Node pos="r" depth="2" NCoef="0" IVar="-1" Cut="0.0000000000000000e+00" cType="1" res="3.5768584348261356e-04" rms="4.8393329977989197e-01" purity="4.9210712313652039e-01" nType="-99"/>
        </Node>
      </Node>
    </BinaryTree>
    <BinaryTree type="DecisionTree" boostWeight="1.0000000000000000e+00" itree="68">
      <Node pos="s" depth="0" NCoef="0" IVar="2" Cut="1.6962325572967529e+00" cType="1" res="-8.2799997180700302e-03" rms="4.7228658199310303e-01" purity="4.8833087086677551e-01" nType="0">
        <Node pos="l" depth="1" NCoef="0" IVar="0" Cut="3.8262046813964844e+01" cType="1" res="7.4348255991935730e-02" rms="4.6748822927474976e-01" purity="6.3031101226806641e-01" nType="0">
          <Node pos="l" depth="2" NCoef="0" IVar="-1" Cut="0.0000000000000000e+00" cType="1" res="-2.0376020111143589e-03" rms="4.8147261142730713e-01" purity="3.8436815142631531e-01" nType="-99"/>
          <Node pos="r" depth="2" NCoef="0" IVar="-1" Cut="0.0000000000000000e+00" cType="1" res="3.4707970917224884e-03" rms="4.5888018608093262e-01" purity="6.8809008598327637e-01" nType="-99"/>
        </Node>
        <Node pos="r" depth="1" NCoef="0" IVar="11" Cut="7.5361037254333496e-01" cType="1" res="-6.3149832189083099e-02" rms="4.6744474768638611e-01" purity="3.9404800534248352e-01" nType="0">
          <Node pos="l" depth="2" NCoef="0" IVar="-1" Cut="0.0000000000000000e+00" cType="1" res="-3.0495398677885532e-03" rms="4.6297758817672729e-01" purity="3.6078500747680664e-01" nType="-99"/>
          <Node pos="r" depth="2" NCoef="0" IVar="-1" Cut="0.0000000000000000e+00" cType="1" res="2.7780656237155199e-03" rms="4.7246918082237244e-01" purity="6.1867952346801758e-01" nType="-99"/>
        </Node>
      </Node>
    </BinaryTree>
    <BinaryTree type="DecisionTree" boostWeight="1.0000000000000000e+00" itree="69">
      <Node pos="s" depth="0" NCoef="0" IVar="4" Cut="1.9979339599609375e+02" cType="1" res="1.5137585811316967e-02" rms="4.7397729754447937e-01" purity="5.1126194000244141e-01" nType="0">
        <Node pos="l" depth="1" NCoef="0" IVar="4" Cut="1.7530355834960938e+02" cType="1" res="-1.2192501872777939e-01" rms="4.4072550535202026e-01" purity="2.9783755540847778e-01" nType="0">
          <Node pos="l" depth="2" NCoef="0" IVar="-1" Cut="0.0000000000000000e+00" cType="1" res="-8.2392757758498192e-03" rms="3.9505645632743835e-01" purity="2.0234470069408417e-01" nType="-99"/>
          <Node pos="r" depth="2" NCoef="0" IVar="-1" Cut="0.0000000000000000e+00" cType="1" res="-2.2462788037955761e-03" rms="4.6469864249229431e-01" purity="3.7339350581169128e-01" nType="-99"/>
        </Node>
        <Node pos="r" depth="1" NCoef="0" IVar="8" Cut="2.2248355102539062e+02" cType="1" res="3.5680346190929413e-02" rms="4.7536873817443848e-01" purity="5.4324978590011597e-01" nType="0">
          <Node pos="l" depth="2" NCoef="0" IVar="-1" Cut="0.0000000000000000e+00" cType="1" res="3.4606403205543756e-03" rms="4.6797424554824829e-01" purity="6.2996542453765869e-01" nType="-99"/>
          <Node pos="r" depth="2" NCoef="0" IVar="-1" Cut="0.0000000000000000e+00" cType="1" res="-4.7616192023269832e-04" rms="4.7478529810905457e-01" purity="4.7971269488334656e-01" nType="-99"/>
        </Node>
      </Node>
    </BinaryTree>
    <BinaryTree type="DecisionTree" boostWeight="1.0000000000000000e+00" itree="70">
      <Node pos="s" depth="0" NCoef="0" IVar="5" Cut="9.3634074926376343e-01" cType="1" res="-3.3374084159731865e-03" rms="4.7446799278259277e-01" purity="4.9187231063842773e-01" nType="0">
        <Node pos="l" depth="1" NCoef="0" IVar="10" Cut="5.9702348709106445e-01" cType="1" res="-1.1571345478296280e-01" rms="4.5698645710945129e-01" purity="3.4914365410804749e-01" nType="0">
          <Node pos="l" depth="2" NCoef="0" IVar="-1" Cut="0.0000000000000000e+00" cType="1" res="-6.4927572384476662e-03" rms="4.2075335979461670e-01" purity="2.5093659758567810e-01" nType="-99"/>
          <Node pos="r" depth="2" NCoef="0" IVar="-1" Cut="0.0000000000000000e+00" cType="1" res="-1.7260748427361250e-03" rms="4.8431724309921265e-01" purity="4.5242100954055786e-01" nType="-99"/>
        </Node>
        <Node pos="r" depth="1" NCoef="0" IVar="10" Cut="5.6774961948394775e-01" cType="1" res="3.0667576938867569e-02" rms="4.7441491484642029e-01" purity="5.3506207466125488e-01" nType="0">
          <Node pos="l" depth="2" NCoef="0" IVar="-1" Cut="0.0000000000000000e+00" cType="1" res="-2.0766202360391617e-03" rms="4.6785295009613037e-01" purity="3.9511126279830933e-01" nType="-99"/>
          <Node pos="r" depth="2" NCoef="0" IVar="-1" Cut="0.0000000000000000e+00" cType="1" res="2.8082099743187428e-03" rms="4.7099620103836060e-01" purity="6.1712658405303955e-01" nType="-99"/>
        </Node>
      </Node>
    </BinaryTree>
    <BinaryTree type="DecisionTree" boostWeight="1.0000000000000000e+00" itree="71">
      <Node pos="s" depth="0" NCoef="0" IVar="11" Cut="5.7592910528182983e-01" cType="1" res="2.3750518448650837e-03" rms="4.6844461560249329e-01" purity="4.9898245930671692e-01" nType="0">
        <Node pos="l" depth="1" NCoef="0" IVar="2" Cut="1.8619753122329712e+00" cType="1" res="-1.0227107256650925e-01" rms="4.4119217991828918e-01" purity="3.3365362882614136e-01" nType="0">
          <Node pos="l" depth="2" NCoef="0" IVar="-1" Cut="0.0000000000000000e+00" cType="1" res="-5.1612085371743888e-05" rms="4.8511305451393127e-01" purity="5.3654134273529053e-01" nType="-99"/>
          <Node pos="r" depth="2" NCoef="0" IVar="-1" Cut="0.0000000000000000e+00" cType="1" res="-5.4449015296995640e-03" rms="4.1618773341178894e-01" purity="2.5430336594581604e-01" nType="-99"/>
        </Node>
        <Node pos="r" depth="1" NCoef="0" IVar="5" Cut="9.4768100976943970e-01" cType="1" res="5.7803679257631302e-02" rms="4.7296744585037231e-01" purity="5.8655327558517456e-01" nType="0">
          <Node pos="l" depth="2" NCoef="0" IVar="-1" Cut="0.0000000000000000e+00" cType="1" res="-1.2403777800500393e-03" rms="4.7989585995674133e-01" purity="4.6824949979782104e-01" nType="-99"/>
          <Node pos="r" depth="2" NCoef="0" IVar="-1" Cut="0.0000000000000000e+00" cType="1" res="3.6947834305465221e-03" rms="4.6179842948913574e-01" purity="6.4773088693618774e-01" nType="-99"/>
        </Node>
      </Node>
    </BinaryTree>
    <BinaryTree type="DecisionTree" boostWeight="1.0000000000000000e+00" itree="72">
      <Node pos="s" depth="0" NCoef="0" IVar="11" Cut="4.6167290210723877e-01" cType="1" res="1.0728060267865658e-02" rms="4.7105497121810913e-01" purity="5.0978845357894897e-01" nType="0">
        <Node pos="l" depth="1" NCoef="0" IVar="9" Cut="3.0219049453735352e+00" cType="1" res="-1.4403219521045685e-01" rms="4.0050214529037476e-01" purity="2.5314444303512573e-01" nType="0">
          <Node pos="l" depth="2" NCoef="0" IVar="-1" Cut="0.0000000000000000e+00" cType="1" res="-2.2519347257912159e-03" rms="4.5625588297843933e-01" purity="3.9254584908485413e-01" nType="-99"/>
          <Node pos="r" depth="2" NCoef="0" IVar="-1" Cut="0.0000000000000000e+00" cType="1" res="-9.0094991028308868e-03" rms="3.3843889832496643e-01" purity="1.4619877934455872e-01" nType="-99"/>
        </Node>
        <Node pos="r" depth="1" NCoef="0" IVar="8" Cut="4.5793240356445312e+02" cType="1" res="3.4700125455856323e-02" rms="4.7658473253250122e-01" purity="5.4954206943511963e-01" nType="0">
          <Node pos="l" depth="2" NCoef="0" IVar="-1" Cut="0.0000000000000000e+00" cType="1" res="1.6870150575414300e-03" rms="4.7444462776184082e-01" purity="5.6545442342758179e-01" nType="-99"/>
          <Node pos="r" depth="2" NCoef="0" IVar="-1" Cut="0.0000000000000000e+00" cType="1" res="-5.4059047251939774e-03" rms="4.6544000506401062e-01" purity="3.5569995641708374e-01" nType="-99"/>
        </Node>
      </Node>
    </BinaryTree>
    <BinaryTree type="DecisionTree" boostWeight="1.0000000000000000e+00" itree="73">
      <Node pos="s" depth="0" NCoef="0" IVar="10" Cut="5.4950237274169922e-01" cType="1" res="4.8830662854015827e-03" rms="4.7070556879043579e-01" purity="5.0124061107635498e-01" nType="0">
        <Node pos="l" depth="1" NCoef="0" IVar="8" Cut="2.0205093383789062e+02" cType="1" res="-7.8989028930664062e-02" rms="4.5129445195198059e-01" purity="3.5533374547958374e-01" nType="0">
          <Node pos="l" depth="2" NCoef="0" IVar="-1" Cut="0.0000000000000000e+00" cType="1" res="9.4065762823447585e-04" rms="4.6776401996612549e-01" purity="4.9586763978004456e-01" nType="-99"/>
          <Node pos="r" depth="2" NCoef="0" IVar="-1" Cut="0.0000000000000000e+00" cType="1" res="-4.9308659508824348e-03" rms="4.3465393781661987e-01" purity="2.8968009352684021e-01" nType="-99"/>
        </Node>
        <Node pos="r" depth="1" NCoef="0" IVar="0" Cut="6.6912628173828125e+01" cType="1" res="4.8542734235525131e-02" rms="4.7467046976089478e-01" purity="5.7719248533248901e-01" nType="0">
          <Node pos="l" depth="2" NCoef="0" IVar="-1" Cut="0.0000000000000000e+00" cType="1" res="-4.0483838529326022e-04" rms="4.8789680004119873e-01" purity="4.7576743364334106e-01" nType="-99"/>
          <Node pos="r" depth="2" NCoef="0" IVar="-1" Cut="0.0000000000000000e+00" cType="1" res="3.8907718844711781e-03" rms="4.5010915398597717e-01" purity="6.9038385152816772e-01" nType="-99"/>
        </Node>
      </Node>
    </BinaryTree>
    <BinaryTree type="DecisionTree" boostWeight="1.0000000000000000e+00" itree="74">
      <Node pos="s" depth="0" NCoef="0" IVar="0" Cut="5.4980583190917969e+01" cType="1" res="1.3397114351391792e-02" rms="4.7021642327308655e-01" purity="5.0781089067459106e-01" nType="0">
        <Node pos="l" depth="1" NCoef="0" IVar="0" Cut="2.9372463226318359e+01" cType="1" res="-6.0000002384185791e-02" rms="4.6686461567878723e-01" purity="3.8520610332489014e-01" nType="0">
          <Node pos="l" depth="2" NCoef="0" IVar="-1" Cut="0.0000000000000000e+00" cType="1" res="-9.5108523964881897e-03" rms="3.6061647534370422e-01" purity="1.5678809583187103e-01" nType="-99"/>
          <Node pos="r" depth="2" NCoef="0" IVar="-1" Cut="0.0000000000000000e+00" cType="1" res="-6.6481396788731217e-04" rms="4.8226127028465271e-01" purity="4.4471767544746399e-01" nType="-99"/>
        </Node>
        <Node pos="r" depth="1" NCoef="0" IVar="2" Cut="2.2767782211303711e+00" cType="1" res="6.2288507819175720e-02" rms="4.6606528759002686e-01" purity="5.8948057889938354e-01" nType="0">
          <Node pos="l" depth="2" NCoef="0" IVar="-1" Cut="0.0000000000000000e+00" cType="1" res="3.7992922589182854e-03" rms="4.5091819763183594e-01" purity="7.0642030239105225e-01" nType="-99"/>
          <Node pos="r" depth="2" NCoef="0" IVar="-1" Cut="0.0000000000000000e+00" cType="1" res="-8.5629156092181802e-04" rms="4.7731706500053406e-01" purity="3.9836108684539795e-01" nType="-99"/>
        </Node>
      </Node>
    </BinaryTree>
    <BinaryTree type="DecisionTree" boostWeight="1.0000000000000000e+00" itree="75">
      <Node pos="s" depth="0" NCoef="0" IVar="10" Cut="6.3958507776260376e-01" cType="1" res="2.0893841981887817e-02" rms="4.7566747665405273e-01" purity="5.2024120092391968e-01" nType="0">
        <Node pos="l" depth="1" NCoef="0" IVar="0" Cut="6.1500816345214844e+01" cType="1" res="-2.5410886853933334e-02" rms="4.7444283962249756e-01" purity="4.3586024641990662e-01" nType="0">
          <Node pos="l" depth="2" NCoef="0" IVar="-1" Cut="0.0000000000000000e+00" cType="1" res="-3.0205775983631611e-03" rms="4.6067282557487488e-01" purity="3.5030618309974670e-01" nType="-99"/>
          <Node pos="r" depth="2" NCoef="0" IVar="-1" Cut="0.0000000000000000e+00" cType="1" res="9.3723757890984416e-04" rms="4.8199796676635742e-01" purity="5.2102780342102051e-01" nType="-99"/>
        </Node>
        <Node pos="r" depth="1" NCoef="0" IVar="1" Cut="1.7544813537597656e+02" cType="1" res="7.8627556562423706e-02" rms="4.7085425257682800e-01" purity="6.2544918060302734e-01" nType="0">
          <Node pos="l" depth="2" NCoef="0" IVar="-1" Cut="0.0000000000000000e+00" cType="1" res="3.3991988748311996e-03" rms="4.6427163481712341e-01" purity="6.4467477798461914e-01" nType="-99"/>
          <Node pos="r" depth="2" NCoef="0" IVar="-1" Cut="0.0000000000000000e+00" cType="1" res="-2.8730386402457952e-03" rms="4.8803338408470154e-01" purity="4.8569759726524353e-01" nType="-99"/>
        </Node>
      </Node>
    </BinaryTree>
    <BinaryTree type="DecisionTree" boostWeight="1.0000000000000000e+00" itree="76">
      <Node pos="s" depth="0" NCoef="0" IVar="7" Cut="8.9273513793945312e+01" cType="1" res="2.5311121717095375e-03" rms="4.7157764434814453e-01" purity="5.0157362222671509e-01" nType="0">
        <Node pos="l" depth="1" NCoef="0" IVar="8" Cut="3.1788833618164062e+02" cType="1" res="-2.4127624928951263e-02" rms="4.7211751341819763e-01" purity="4.6470892429351807e-01" nType="0">
          <Node pos="l" depth="2" NCoef="0" IVar="-1" Cut="0.0000000000000000e+00" cType="1" res="3.6529023782350123e-04" rms="4.7575238347053528e-01" purity="5.1169657707214355e-01" nType="-99"/>
          <Node pos="r" depth="2" NCoef="0" IVar="-1" Cut="0.0000000000000000e+00" cType="1" res="-5.1914919167757034e-03" rms="4.4142055511474609e-01" purity="3.0986350774765015e-01" nType="-99"/>
        </Node>
        <Node pos="r" depth="1" NCoef="0" IVar="11" Cut="6.4769047498703003e-01" cType="1" res="1.3310824334621429e-01" rms="4.4649577140808105e-01" purity="6.8214011192321777e-01" nType="0">
          <Node pos="l" depth="2" NCoef="0" IVar="-1" Cut="0.0000000000000000e+00" cType="1" res="1.4050886966288090e-03" rms="4.8286911845207214e-01" purity="5.2239644527435303e-01" nType="-99"/>
          <Node pos="r" depth="2" NCoef="0" IVar="-1" Cut="0.0000000000000000e+00" cType="1" res="6.3899722881615162e-03" rms="4.0801155567169189e-01" purity="7.9053813219070435e-01" nType="-99"/>
        </Node>
      </Node>
    </BinaryTree>
    <BinaryTree type="DecisionTree" boostWeight="1.0000000000000000e+00" itree="77">
      <Node pos="s" depth="0" NCoef="0" IVar="2" Cut="1.5282952785491943e+00" cType="1" res="2.3481231182813644e-03" rms="4.6928828954696655e-01" purity="4.9923127889633179e-01" nType="0">
        <Node pos="l" depth="1" NCoef="0" IVar="1" Cut="8.9020126342773438e+01" cType="1" res="8.3187960088253021e-02" rms="4.6166837215423584e-01" purity="6.4269906282424927e-01" nType="0">
          <Node pos="l" depth="2" NCoef="0" IVar="-1" Cut="0.0000000000000000e+00" cType="1" res="-2.8252613265067339e-04" rms="4.8454174399375916e-01" purity="5.0758969783782959e-01" nType="-99"/>
          <Node pos="r" depth="2" NCoef="0" IVar="-1" Cut="0.0000000000000000e+00" cType="1" res="3.9196219295263290e-03" rms="4.4887167215347290e-01" purity="6.9057762622833252e-01" nType="-99"/>
        </Node>
        <Node pos="r" depth="1" NCoef="0" IVar="7" Cut="1.0726578521728516e+02" cType="1" res="-3.7732679396867752e-02" rms="4.6786969900131226e-01" purity="4.2809918522834778e-01" nType="0">
          <Node pos="l" depth="2" NCoef="0" IVar="-1" Cut="0.0000000000000000e+00" cType="1" res="-2.1792552433907986e-03" rms="4.6354982256889343e-01" purity="3.9983552694320679e-01" nType="-99"/>
          <Node pos="r" depth="2" NCoef="0" IVar="-1" Cut="0.0000000000000000e+00" cType="1" res="4.6588177792727947e-03" rms="4.6473959088325500e-01" purity="6.5258568525314331e-01" nType="-99"/>
        </Node>
      </Node>
    </BinaryTree>
    <BinaryTree type="DecisionTree" boostWeight="1.0000000000000000e+00" itree="78">
      <Node pos="s" depth="0" NCoef="0" IVar="9" Cut="1.4173837900161743e+00" cType="1" res="-1.0453874245285988e-02" rms="4.7002440690994263e-01" purity="4.8516598343849182e-01" nType="0">
        <Node pos="l" depth="1" NCoef="0" IVar="2" Cut="1.1304280757904053e+00" cType="1" res="1.4291490614414215e-01" rms="4.4939324259757996e-01" purity="7.0083224773406982e-01" nType="0">
          <Node pos="l" depth="2" NCoef="0" IVar="-1" Cut="0.0000000000000000e+00" cType="1" res="3.4485682845115662e-03" rms="4.6957296133041382e-01" purity="6.5272259712219238e-01" nType="-99"/>
          <Node pos="r" depth="2" NCoef="0" IVar="-1" Cut="0.0000000000000000e+00" cType="1" res="6.4566065557301044e-03" rms="4.1564586758613586e-01" purity="7.6353728771209717e-01" nType="-99"/>
        </Node>
        <Node pos="r" depth="1" NCoef="0" IVar="0" Cut="3.9125598907470703e+01" cType="1" res="-3.4416560083627701e-02" rms="4.6865481138229370e-01" purity="4.5146980881690979e-01" nType="0">
          <Node pos="l" depth="2" NCoef="0" IVar="-1" Cut="0.0000000000000000e+00" cType="1" res="-5.4387035779654980e-03" rms="4.2234796285629272e-01" purity="2.5086820125579834e-01" nType="-99"/>
          <Node pos="r" depth="2" NCoef="0" IVar="-1" Cut="0.0000000000000000e+00" cType="1" res="-3.1495498842559755e-04" rms="4.7628772258758545e-01" purity="5.0220525264739990e-01" nType="-99"/>
        </Node>
      </Node>
    </BinaryTree>
    <BinaryTree type="DecisionTree" boostWeight="1.0000000000000000e+00" itree="79">
      <Node pos="s" depth="0" NCoef="0" IVar="0" Cut="6.1500816345214844e+01" cType="1" res="5.3055481985211372e-03" rms="4.7317546606063843e-01" purity="5.0265061855316162e-01" nType="0">
        <Node pos="l" depth="1" NCoef="0" IVar="4" Cut="1.7591975402832031e+02" cType="1" res="-4.8814982175827026e-02" rms="4.7115746140480042e-01" purity="4.0213108062744141e-01" nType="0">
          <Node pos="l" depth="2" NCoef="0" IVar="-1" Cut="0.0000000000000000e+00" cType="1" res="-9.5898834988474846e-03" rms="3.7984433770179749e-01" purity="1.7112426459789276e-01" nType="-99"/>
          <Node pos="r" depth="2" NCoef="0" IVar="-1" Cut="0.0000000000000000e+00" cType="1" res="-1.0600375244393945e-03" rms="4.7699788212776184e-01" purity="4.2951270937919617e-01" nType="-99"/>
        </Node>
        <Node pos="r" depth="1" NCoef="0" IVar="8" Cut="4.1592053222656250e+02" cType="1" res="5.4011821746826172e-02" rms="4.6968260407447815e-01" purity="5.9311413764953613e-01" nType="0">
          <Node pos="l" depth="2" NCoef="0" IVar="-1" Cut="0.0000000000000000e+00" cType="1" res="3.0557725112885237e-03" rms="4.6167290210723877e-01" purity="6.4787024259567261e-01" nType="-99"/>
          <Node pos="r" depth="2" NCoef="0" IVar="-1" Cut="0.0000000000000000e+00" cType="1" res="-3.0448599718511105e-03" rms="4.7371691465377808e-01" purity="3.8972696661949158e-01" nType="-99"/>
        </Node>
      </Node>
    </BinaryTree>
    <BinaryTree type="DecisionTree" boostWeight="1.0000000000000000e+00" itree="80">
      <Node pos="s" depth="0" NCoef="0" IVar="5" Cut="9.2831593751907349e-01" cType="1" res="5.1922583952546120e-03" rms="4.7117733955383301e-01" purity="5.0659543275833130e-01" nType="0">
        <Node pos="l" depth="1" NCoef="0" IVar="0" Cut="8.3288345336914062e+01" cType="1" res="-1.2946406006813049e-01" rms="4.4598457217216492e-01" purity="3.3253529667854309e-01" nType="0">
          <Node pos="l" depth="2" NCoef="0" IVar="-1" Cut="0.0000000000000000e+00" cType="1" res="-6.5893116407096386e-03" rms="4.1424870491027832e-01" purity="2.4262960255146027e-01" nType="-99"/>
          <Node pos="r" depth="2" NCoef="0" IVar="-1" Cut="0.0000000000000000e+00" cType="1" res="-1.1620734585449100e-03" rms="4.7760888934135437e-01" purity="4.7663766145706177e-01" nType="-99"/>
        </Node>
        <Node pos="r" depth="1" NCoef="0" IVar="0" Cut="6.2663940429687500e+01" cType="1" res="2.7508934959769249e-02" rms="4.7152340412139893e-01" purity="5.3544259071350098e-01" nType="0">
          <Node pos="l" depth="2" NCoef="0" IVar="-1" Cut="0.0000000000000000e+00" cType="1" res="-7.8816927270963788e-04" rms="4.7825771570205688e-01" purity="4.4316533207893372e-01" nType="-99"/>
          <Node pos="r" depth="2" NCoef="0" IVar="-1" Cut="0.0000000000000000e+00" cType="1" res="2.5010306853801012e-03" rms="4.6036773920059204e-01" purity="6.2232482433319092e-01" nType="-99"/>
        </Node>
      </Node>
    </BinaryTree>
    <BinaryTree type="DecisionTree" boostWeight="1.0000000000000000e+00" itree="81">
      <Node pos="s" depth="0" NCoef="0" IVar="0" Cut="3.7093166351318359e+01" cType="1" res="-5.2893767133355141e-03" rms="4.7488394379615784e-01" purity="4.9373015761375427e-01" nType="0">
        <Node pos="l" depth="1" NCoef="0" IVar="0" Cut="3.3210556030273438e+01" cType="1" res="-1.0332017391920090e-01" rms="4.3923032283782959e-01" purity="2.8828808665275574e-01" nType="0">
          <Node pos="l" depth="2" NCoef="0" IVar="-1" Cut="0.0000000000000000e+00" cType="1" res="-6.2414733693003654e-03" rms="4.0665078163146973e-01" purity="2.2489809989929199e-01" nType="-99"/>
          <Node pos="r" depth="2" NCoef="0" IVar="-1" Cut="0.0000000000000000e+00" cType="1" res="5.2811327623203397e-04" rms="4.9081891775131226e-01" purity="4.4402739405632019e-01" nType="-99"/>
        </Node>
        <Node pos="r" depth="1" NCoef="0" IVar="3" Cut="1.3422457885742188e+02" cType="1" res="1.5968132764101028e-02" rms="4.7963139414787292e-01" purity="5.3827929496765137e-01" nType="0">
          <Node pos="l" depth="2" NCoef="0" IVar="-1" Cut="0.0000000000000000e+00" cType="1" res="1.2014592066407204e-03" rms="4.7887247800827026e-01" purity="5.5909788608551025e-01" nType="-99"/>
          <Node pos="r" depth="2" NCoef="0" IVar="-1" Cut="0.0000000000000000e+00" cType="1" res="-4.6867369674146175e-03" rms="4.6175003051757812e-01" purity="3.8043004274368286e-01" nType="-99"/>
        </Node>
      </Node>
    </BinaryTree>
    <BinaryTree type="DecisionTree" boostWeight="1.0000000000000000e+00" itree="82">
      <Node pos="s" depth="0" NCoef="0" IVar="2" Cut="2.5234286785125732e+00" cType="1" res="-1.5826228773221374e-03" rms="4.6829009056091309e-01" purity="4.9465528130531311e-01" nType="0">
        <Node pos="l" depth="1" NCoef="0" IVar="5" Cut="9.1819733381271362e-01" cType="1" res="3.3768784254789352e-02" rms="4.7560408711433411e-01" purity="5.7011413574218750e-01" nType="0">
          <Node pos="l" depth="2" NCoef="0" IVar="-1" Cut="0.0000000000000000e+00" cType="1" res="-5.8169658295810223e-03" rms="4.5728334784507751e-01" purity="3.2822981476783752e-01" nType="-99"/>
          <Node pos="r" depth="2" NCoef="0" IVar="-1" Cut="0.0000000000000000e+00" cType="1" res="1.6968398122116923e-03" rms="4.7346448898315430e-01" purity="5.8863377571105957e-01" nType="-99"/>
        </Node>
        <Node pos="r" depth="1" NCoef="0" IVar="5" Cut="9.4366115331649780e-01" cType="1" res="-1.0791204124689102e-01" rms="4.2832943797111511e-01" purity="2.6769131422042847e-01" nType="0">
          <Node pos="l" depth="2" NCoef="0" IVar="-1" Cut="0.0000000000000000e+00" cType="1" res="-8.2157775759696960e-03" rms="3.4476858377456665e-01" purity="1.4498689770698547e-01" nType="-99"/>
          <Node pos="r" depth="2" NCoef="0" IVar="-1" Cut="0.0000000000000000e+00" cType="1" res="-2.3172062356024981e-03" rms="4.5827782154083252e-01" purity="3.3055591583251953e-01" nType="-99"/>
        </Node>
      </Node>
    </BinaryTree>
    <BinaryTree type="DecisionTree" boostWeight="1.0000000000000000e+00" itree="83">
      <Node pos="s" depth="0" NCoef="0" IVar="5" Cut="9.2829084396362305e-01" cType="1" res="-1.0582792572677135e-02" rms="4.6838569641113281e-01" purity="4.8541876673698425e-01" nType="0">
        <Node pos="l" depth="1" NCoef="0" IVar="11" Cut="6.9321930408477783e-01" cType="1" res="-1.8047194182872772e-01" rms="4.2087289690971375e-01" purity="2.6585677266120911e-01" nType="0">
          <Node pos="l" depth="2" NCoef="0" IVar="-1" Cut="0.0000000000000000e+00" cType="1" res="-9.6803298220038414e-03" rms="3.5019892454147339e-01" purity="1.4647454023361206e-01" nType="-99"/>
          <Node pos="r" depth="2" NCoef="0" IVar="-1" Cut="0.0000000000000000e+00" cType="1" res="-2.4375813081860542e-03" rms="4.8362237215042114e-01" purity="4.3214049935340881e-01" nType="-99"/>
        </Node>
        <Node pos="r" depth="1" NCoef="0" IVar="0" Cut="3.6632106781005859e+01" cType="1" res="1.7117822542786598e-02" rms="4.6989455819129944e-01" purity="5.2121859788894653e-01" nType="0">
          <Node pos="l" depth="2" NCoef="0" IVar="-1" Cut="0.0000000000000000e+00" cType="1" res="-3.6485027521848679e-03" rms="4.4959938526153564e-01" purity="3.0006846785545349e-01" nType="-99"/>
          <Node pos="r" depth="2" NCoef="0" IVar="-1" Cut="0.0000000000000000e+00" cType="1" res="1.4046253636479378e-03" rms="4.7073027491569519e-01" purity="5.6674522161483765e-01" nType="-99"/>
        </Node>
      </Node>
    </BinaryTree>
    <BinaryTree type="DecisionTree" boostWeight="1.0000000000000000e+00" itree="84">
      <Node pos="s" depth="0" NCoef="0" IVar="10" Cut="6.3754904270172119e-01" cType="1" res="1.0918539948761463e-02" rms="4.7059044241905212e-01" purity="5.0660526752471924e-01" nType="0">
        <Node pos="l" depth="1" NCoef="0" IVar="3" Cut="1.2942700195312500e+02" cType="1" res="-3.8615871220827103e-02" rms="4.6631151437759399e-01" purity="4.1654947400093079e-01" nType="0">
          <Node pos="l" depth="2" NCoef="0" IVar="-1" Cut="0.0000000000000000e+00" cType="1" res="-3.5813282011076808e-04" rms="4.7058337926864624e-01" purity="4.4732975959777832e-01" nType="-99"/>
          <Node pos="r" depth="2" NCoef="0" IVar="-1" Cut="0.0000000000000000e+00" cType="1" res="-5.2294470369815826e-03" rms="4.3931001424789429e-01" purity="3.1620439887046814e-01" nType="-99"/>
        </Node>
        <Node pos="r" depth="1" NCoef="0" IVar="0" Cut="5.0803611755371094e+01" cType="1" res="7.5623311102390289e-02" rms="4.6829506754875183e-01" purity="6.2424141168594360e-01" nType="0">
          <Node pos="l" depth="2" NCoef="0" IVar="-1" Cut="0.0000000000000000e+00" cType="1" res="1.6838434385135770e-04" rms="4.8736339807510376e-01" purity="4.8056229948997498e-01" nType="-99"/>
          <Node pos="r" depth="2" NCoef="0" IVar="-1" Cut="0.0000000000000000e+00" cType="1" res="3.6863365676254034e-03" rms="4.5420631766319275e-01" purity="6.9667935371398926e-01" nType="-99"/>
        </Node>
      </Node>
    </BinaryTree>
    <BinaryTree type="DecisionTree" boostWeight="1.0000000000000000e+00" itree="85">
      <Node pos="s" depth="0" NCoef="0" IVar="10" Cut="5.3087037801742554e-01" cType="1" res="-1.0078034829348326e-03" rms="4.6909382939338684e-01" purity="4.9674382805824280e-01" nType="0">
        <Node pos="l" depth="1" NCoef="0" IVar="0" Cut="5.6705642700195312e+01" cType="1" res="-1.1197598278522491e-01" rms="4.3990784883499146e-01" purity="3.1024038791656494e-01" nType="0">
          <Node pos="l" depth="2" NCoef="0" IVar="-1" Cut="0.0000000000000000e+00" cType="1" res="-6.6960123367607594e-03" rms="4.0045696496963501e-01" purity="2.1749812364578247e-01" nType="-99"/>
          <Node pos="r" depth="2" NCoef="0" IVar="-1" Cut="0.0000000000000000e+00" cType="1" res="-2.3269404191523790e-03" rms="4.6335339546203613e-01" purity="3.8492199778556824e-01" nType="-99"/>
        </Node>
        <Node pos="r" depth="1" NCoef="0" IVar="3" Cut="1.0682248687744141e+02" cType="1" res="4.4813625514507294e-02" rms="4.7309577465057373e-01" purity="5.7375556230545044e-01" nType="0">
          <Node pos="l" depth="2" NCoef="0" IVar="-1" Cut="0.0000000000000000e+00" cType="1" res="-6.1554308049380779e-03" rms="4.6636399626731873e-01" purity="3.5989579558372498e-01" nType="-99"/>
          <Node pos="r" depth="2" NCoef="0" IVar="-1" Cut="0.0000000000000000e+00" cType="1" res="2.1128221414983273e-03" rms="4.6989127993583679e-01" purity="5.9051680564880371e-01" nType="-99"/>
        </Node>
      </Node>
    </BinaryTree>
    <BinaryTree type="DecisionTree" boostWeight="1.0000000000000000e+00" itree="86">
      <Node pos="s" depth="0" NCoef="0" IVar="0" Cut="3.6861167907714844e+01" cType="1" res="-8.2311797887086868e-03" rms="4.6754676103591919e-01" purity="4.8619017004966736e-01" nType="0">
        <Node pos="l" depth="1" NCoef="0" IVar="0" Cut="2.9528934478759766e+01" cType="1" res="-1.3048791885375977e-01" rms="4.2121019959449768e-01" purity="2.5255265831947327e-01" nType="0">
          <Node pos="l" depth="2" NCoef="0" IVar="-1" Cut="0.0000000000000000e+00" cType="1" res="-9.8770577460527420e-03" rms="3.4645363688468933e-01" purity="1.4346340298652649e-01" nType="-99"/>
          <Node pos="r" depth="2" NCoef="0" IVar="-1" Cut="0.0000000000000000e+00" cType="1" res="-1.5891568036749959e-03" rms="4.6577623486518860e-01" purity="3.5614550113677979e-01" nType="-99"/>
        </Node>
        <Node pos="r" depth="1" NCoef="0" IVar="8" Cut="1.9989770507812500e+02" cType="1" res="1.5936527401208878e-02" rms="4.7244265675544739e-01" purity="5.3237557411193848e-01" nType="0">
          <Node pos="l" depth="2" NCoef="0" IVar="-1" Cut="0.0000000000000000e+00" cType="1" res="3.5611970815807581e-03" rms="4.6089833974838257e-01" purity="6.5188544988632202e-01" nType="-99"/>
          <Node pos="r" depth="2" NCoef="0" IVar="-1" Cut="0.0000000000000000e+00" cType="1" res="-1.1720309266820550e-03" rms="4.7130739688873291e-01" purity="4.6891978383064270e-01" nType="-99"/>
        </Node>
      </Node>
    </BinaryTree>
    <BinaryTree type="DecisionTree" boostWeight="1.0000000000000000e+00" itree="87">
      <Node pos="s" depth="0" NCoef="0" IVar="2" Cut="1.5368267297744751e+00" cType="1" res="2.0154731348156929e-02" rms="4.7236865758895874e-01" purity="5.1967704296112061e-01" nType="0">
        <Node pos="l" depth="1" NCoef="0" IVar="0" Cut="8.7185325622558594e+01" cType="1" res="8.6113810539245605e-02" rms="4.5974814891815186e-01" purity="6.5344202518463135e-01" nType="0">
          <Node pos="l" depth="2" NCoef="0" IVar="-1" Cut="0.0000000000000000e+00" cType="1" res="2.0927356090396643e-03" rms="4.7507646679878235e-01" purity="6.0432147979736328e-01" nType="-99"/>
          <Node pos="r" depth="2" NCoef="0" IVar="-1" Cut="0.0000000000000000e+00" cType="1" res="5.1518194377422333e-03" rms="4.0804213285446167e-01" purity="7.8581255674362183e-01" nType="-99"/>
        </Node>
        <Node pos="r" depth="1" NCoef="0" IVar="5" Cut="9.7285640239715576e-01" cType="1" res="-1.4720289967954159e-02" rms="4.7522154450416565e-01" purity="4.4895049929618835e-01" nType="0">
          <Node pos="l" depth="2" NCoef="0" IVar="-1" Cut="0.0000000000000000e+00" cType="1" res="-1.4879193622618914e-03" rms="4.7278365492820740e-01" purity="4.1620680689811707e-01" nType="-99"/>
          <Node pos="r" depth="2" NCoef="0" IVar="-1" Cut="0.0000000000000000e+00" cType="1" res="3.3186241053044796e-03" rms="4.7020035982131958e-01" purity="5.8105731010437012e-01" nType="-99"/>
        </Node>
      </Node>
    </BinaryTree>
    <BinaryTree type="DecisionTree" boostWeight="1.0000000000000000e+00" itree="88">
      <Node pos="s" depth="0" NCoef="0" IVar="3" Cut="1.3899418640136719e+02" cType="1" res="-1.0491065680980682e-02" rms="4.6904507279396057e-01" purity="4.8525115847587585e-01" nType="0">
        <Node pos="l" depth="1" NCoef="0" IVar="0" Cut="4.9239097595214844e+01" cType="1" res="2.5582083035260439e-03" rms="4.6971982717514038e-01" purity="5.0218552350997925e-01" nType="0">
          <Node pos="l" depth="2" NCoef="0" IVar="-1" Cut="0.0000000000000000e+00" cType="1" res="-2.5460734032094479e-03" rms="4.5581278204917908e-01" purity="3.5894775390625000e-01" nType="-99"/>
          <Node pos="r" depth="2" NCoef="0" IVar="-1" Cut="0.0000000000000000e+00" cType="1" res="1.2766229920089245e-03" rms="4.7267860174179077e-01" purity="5.7316613197326660e-01" nType="-99"/>
        </Node>
        <Node pos="r" depth="1" NCoef="0" IVar="-1" Cut="0.0000000000000000e+00" cType="1" res="-8.6504621431231499e-03" rms="4.1424626111984253e-01" purity="2.3692235350608826e-01" nType="-99"/>
      </Node>
    </BinaryTree>
    <BinaryTree type="DecisionTree" boostWeight="1.0000000000000000e+00" itree="89">
      <Node pos="s" depth="0" NCoef="0" IVar="9" Cut="1.4175978899002075e+00" cType="1" res="2.5189218576997519e-03" rms="4.6602967381477356e-01" purity="5.0294935703277588e-01" nType="0">
        <Node pos="l" depth="1" NCoef="0" IVar="1" Cut="1.0000016021728516e+02" cType="1" res="1.6821369528770447e-01" rms="4.2497521638870239e-01" purity="7.3412883281707764e-01" nType="0">
          <Node pos="l" depth="2" NCoef="0" IVar="-1" Cut="0.0000000000000000e+00" cType="1" res="3.5251954104751348e-03" rms="4.6605718135833740e-01" purity="6.3011097908020020e-01" nType="-99"/>
          <Node pos="r" depth="2" NCoef="0" IVar="-1" Cut="0.0000000000000000e+00" cType="1" res="7.3340013623237610e-03" rms="3.7827631831169128e-01" purity="8.2264995574951172e-01" nType="-99"/>
        </Node>
        <Node pos="r" depth="1" NCoef="0" IVar="0" Cut="8.5792678833007812e+01" cType="1" res="-2.1956661716103554e-02" rms="4.6683242917060852e-01" purity="4.6880069375038147e-01" nType="0">
          <Node pos="l" depth="2" NCoef="0" IVar="-1" Cut="0.0000000000000000e+00" cType="1" res="-2.2133747115731239e-03" rms="4.6398746967315674e-01" purity="4.0671911835670471e-01" nType="-99"/>
          <Node pos="r" depth="2" NCoef="0" IVar="-1" Cut="0.0000000000000000e+00" cType="1" res="1.9309128401800990e-03" rms="4.6279123425483704e-01" purity="5.9636586904525757e-01" nType="-99"/>
        </Node>
      </Node>
    </BinaryTree>
    <BinaryTree type="DecisionTree" boostWeight="1.0000000000000000e+00" itree="90">
      <Node pos="s" depth="0" NCoef="0" IVar="8" Cut="3.2648428344726562e+02" cType="1" res="3.3514434471726418e-03" rms="4.6927067637443542e-01" purity="4.9874296784400940e-01" nType="0">
        <Node pos="l" depth="1" NCoef="0" IVar="4" Cut="2.0977523803710938e+02" cType="1" res="3.5695977509021759e-02" rms="4.6982818841934204e-01" purity="5.4155671596527100e-01" nType="0">
          <Node pos="l" depth="2" NCoef="0" IVar="-1" Cut="0.0000000000000000e+00" cType="1" res="-2.7010615449398756e-03" rms="4.5597252249717712e-01" purity="3.4495246410369873e-01" nType="-99"/>
          <Node pos="r" depth="2" NCoef="0" IVar="-1" Cut="0.0000000000000000e+00" cType="1" res="2.1977338474243879e-03" rms="4.6936872601509094e-01" purity="5.9347414970397949e-01" nType="-99"/>
        </Node>
        <Node pos="r" depth="1" NCoef="0" IVar="11" Cut="7.2694772481918335e-01" cType="1" res="-8.9523650705814362e-02" rms="4.5506247878074646e-01" purity="3.7580627202987671e-01" nType="0">
          <Node pos="l" depth="2" NCoef="0" IVar="-1" Cut="0.0000000000000000e+00" cType="1" res="-5.3575299680233002e-03" rms="4.3634504079818726e-01" purity="2.8517520427703857e-01" nType="-99"/>
          <Node pos="r" depth="2" NCoef="0" IVar="-1" Cut="0.0000000000000000e+00" cType="1" res="1.1275593424215913e-03" rms="4.8026376962661743e-01" purity="6.1501932144165039e-01" nType="-99"/>
        </Node>
      </Node>
    </BinaryTree>
    <BinaryTree type="DecisionTree" boostWeight="1.0000000000000000e+00" itree="91">
      <Node pos="s" depth="0" NCoef="0" IVar="5" Cut="9.5918715000152588e-01" cType="1" res="1.0624685324728489e-02" rms="4.6914860606193542e-01" purity="5.1019847393035889e-01" nType="0">
        <Node pos="l" depth="1" NCoef="0" IVar="4" Cut="2.0222799682617188e+02" cType="1" res="-3.3110253512859344e-02" rms="4.6800968050956726e-01" purity="4.4718244671821594e-01" nType="0">
          <Node pos="l" depth="2" NCoef="0" IVar="-1" Cut="0.0000000000000000e+00" cType="1" res="-6.6245486959815025e-03" rms="3.9257010817527771e-01" purity="2.2360971570014954e-01" nType="-99"/>
          <Node pos="r" depth="2" NCoef="0" IVar="-1" Cut="0.0000000000000000e+00" cType="1" res="-3.4126784885302186e-04" rms="4.7567844390869141e-01" purity="4.8502036929130554e-01" nType="-99"/>
        </Node>
        <Node pos="r" depth="1" NCoef="0" IVar="8" Cut="2.0172634887695312e+02" cType="1" res="6.5608419477939606e-02" rms="4.6477341651916504e-01" purity="5.8942234516143799e-01" nType="0">
          <Node pos="l" depth="2" NCoef="0" IVar="-1" Cut="0.0000000000000000e+00" cType="1" res="4.5507582835853100e-03" rms="4.5148715376853943e-01" purity="6.5745317935943604e-01" nType="-99"/>
          <Node pos="r" depth="2" NCoef="0" IVar="-1" Cut="0.0000000000000000e+00" cType="1" res="8.6200615623965859e-04" rms="4.6883970499038696e-01" purity="5.4378944635391235e-01" nType="-99"/>
        </Node>
      </Node>
    </BinaryTree>
    <BinaryTree type="DecisionTree" boostWeight="1.0000000000000000e+00" itree="92">
      <Node pos="s" depth="0" NCoef="0" IVar="8" Cut="3.1340469360351562e+02" cType="1" res="7.7000930905342102e-03" rms="4.6868303418159485e-01" purity="5.0656193494796753e-01" nType="0">
        <Node pos="l" depth="1" NCoef="0" IVar="0" Cut="3.1298889160156250e+01" cType="1" res="3.9800669997930527e-02" rms="4.6762812137603760e-01" purity="5.4855096340179443e-01" nType="0">
          <Node pos="l" depth="2" NCoef="0" IVar="-1" Cut="0.0000000000000000e+00" cType="1" res="-5.6115272454917431e-03" rms="4.1427129507064819e-01" purity="2.3595397174358368e-01" nType="-99"/>
          <Node pos="r" depth="2" NCoef="0" IVar="-1" Cut="0.0000000000000000e+00" cType="1" res="2.2464650683104992e-03" rms="4.6947231888771057e-01" purity="5.9449416399002075e-01" nType="-99"/>
        </Node>
        <Node pos="r" depth="1" NCoef="0" IVar="7" Cut="9.3898719787597656e+01" cType="1" res="-7.0089355111122131e-02" rms="4.6207043528556824e-01" purity="4.0480968356132507e-01" nType="0">
          <Node pos="l" depth="2" NCoef="0" IVar="-1" Cut="0.0000000000000000e+00" cType="1" res="-4.4176662340760231e-03" rms="4.5064917206764221e-01" purity="3.3821380138397217e-01" nType="-99"/>
          <Node pos="r" depth="2" NCoef="0" IVar="-1" Cut="0.0000000000000000e+00" cType="1" res="1.9282866269350052e-03" rms="4.6691837906837463e-01" purity="5.7488185167312622e-01" nType="-99"/>
        </Node>
      </Node>
    </BinaryTree>
    <BinaryTree type="DecisionTree" boostWeight="1.0000000000000000e+00" itree="93">
      <Node pos="s" depth="0" NCoef="0" IVar="8" Cut="3.3525610351562500e+02" cType="1" res="8.0540897324681282e-03" rms="4.7011867165565491e-01" purity="5.0186538696289062e-01" nType="0">
        <Node pos="l" depth="1" NCoef="0" IVar="0" Cut="4.9445331573486328e+01" cType="1" res="3.7094596773386002e-02" rms="4.6952831745147705e-01" purity="5.4056972265243530e-01" nType="0">
          <Node pos="l" depth="2" NCoef="0" IVar="-1" Cut="0.0000000000000000e+00" cType="1" res="-1.2611767742782831e-03" rms="4.7113475203514099e-01" purity="3.9602684974670410e-01" nType="-99"/>
          <Node pos="r" depth="2" NCoef="0" IVar="-1" Cut="0.0000000000000000e+00" cType="1" res="2.8578075580298901e-03" rms="4.6242651343345642e-01" purity="6.3815367221832275e-01" nType="-99"/>
        </Node>
        <Node pos="r" depth="1" NCoef="0" IVar="7" Cut="1.0286632537841797e+02" cType="1" res="-7.6608866453170776e-02" rms="4.6152171492576599e-01" purity="3.8902887701988220e-01" nType="0">
          <Node pos="l" depth="2" NCoef="0" IVar="-1" Cut="0.0000000000000000e+00" cType="1" res="-4.5593199320137501e-03" rms="4.5235496759414673e-01" purity="3.3133488893508911e-01" nType="-99"/>
          <Node pos="r" depth="2" NCoef="0" IVar="-1" Cut="0.0000000000000000e+00" cType="1" res="2.1240443456918001e-03" rms="4.6519663929939270e-01" purity="5.8225023746490479e-01" nType="-99"/>
        </Node>
      </Node>
    </BinaryTree>
    <BinaryTree type="DecisionTree" boostWeight="1.0000000000000000e+00" itree="94">
      <Node pos="s" depth="0" NCoef="0" IVar="5" Cut="9.4813078641891479e-01" cType="1" res="-4.8908232711255550e-03" rms="4.6904432773590088e-01" purity="4.9131619930267334e-01" nType="0">
        <Node pos="l" depth="1" NCoef="0" IVar="6" Cut="3.2370090484619141e+01" cType="1" res="-6.8891100585460663e-02" rms="4.6252009272575378e-01" purity="3.9370286464691162e-01" nType="0">
          <Node pos="l" depth="2" NCoef="0" IVar="-1" Cut="0.0000000000000000e+00" cType="1" res="-8.1708095967769623e-03" rms="3.8379913568496704e-01" purity="1.9482378661632538e-01" nType="-99"/>
          <Node pos="r" depth="2" NCoef="0" IVar="-1" Cut="0.0000000000000000e+00" cType="1" res="-1.2673032470047474e-03" rms="4.7439259290695190e-01" purity="4.4270694255828857e-01" nType="-99"/>
        </Node>
        <Node pos="r" depth="1" NCoef="0" IVar="11" Cut="5.8970487117767334e-01" cType="1" res="3.3392526209354401e-02" rms="4.6874555945396423e-01" purity="5.4970604181289673e-01" nType="0">
          <Node pos="l" depth="2" NCoef="0" IVar="-1" Cut="0.0000000000000000e+00" cType="1" res="-1.7671363893896341e-03" rms="4.6182551980018616e-01" purity="3.8842159509658813e-01" nType="-99"/>
          <Node pos="r" depth="2" NCoef="0" IVar="-1" Cut="0.0000000000000000e+00" cType="1" res="2.5441017933189869e-03" rms="4.6730273962020874e-01" purity="6.2794417142868042e-01" nType="-99"/>
        </Node>
      </Node>
    </BinaryTree>
    <BinaryTree type="DecisionTree" boostWeight="1.0000000000000000e+00" itree="95">
      <Node pos="s" depth="0" NCoef="0" IVar="0" Cut="6.1423625946044922e+01" cType="1" res="1.0462909936904907e-02" rms="4.7233256697654724e-01" purity="5.0681573152542114e-01" nType="0">
        <Node pos="l" depth="1" NCoef="0" IVar="5" Cut="9.2833119630813599e-01" cType="1" res="-3.0340507626533508e-02" rms="4.7408935427665710e-01" purity="4.1882687807083130e-01" nType="0">
          <Node pos="l" depth="2" NCoef="0" IVar="-1" Cut="0.0000000000000000e+00" cType="1" res="-7.2944215498864651e-03" rms="3.8737216591835022e-01" purity="1.9649794697761536e-01" nType="-99"/>
          <Node pos="r" depth="2" NCoef="0" IVar="-1" Cut="0.0000000000000000e+00" cType="1" res="-2.7744987164624035e-04" rms="4.8136326670646667e-01" purity="4.5155793428421021e-01" nType="-99"/>
        </Node>
        <Node pos="r" depth="1" NCoef="0" IVar="0" Cut="1.4864231872558594e+02" cType="1" res="4.8016730695962906e-02" rms="4.6757373213768005e-01" purity="5.8779722452163696e-01" nType="0">
          <Node pos="l" depth="2" NCoef="0" IVar="-1" Cut="0.0000000000000000e+00" cType="1" res="2.3938894737511873e-03" rms="4.6494343876838684e-01" purity="6.1328983306884766e-01" nType="-99"/>
          <Node pos="r" depth="2" NCoef="0" IVar="-1" Cut="0.0000000000000000e+00" cType="1" res="-5.0054183229804039e-03" rms="4.5049384236335754e-01" purity="3.7664493918418884e-01" nType="-99"/>
        </Node>
      </Node>
    </BinaryTree>
    <BinaryTree type="DecisionTree" boostWeight="1.0000000000000000e+00" itree="96">
      <Node pos="s" depth="0" NCoef="0" IVar="5" Cut="9.3055450916290283e-01" cType="1" res="-1.0089667048305273e-03" rms="4.7019863128662109e-01" purity="4.9531897902488708e-01" nType="0">
        <Node pos="l" depth="1" NCoef="0" IVar="11" Cut="6.7379224300384521e-01" cType="1" res="-1.3029991090297699e-01" rms="4.3054831027984619e-01" purity="3.1906318664550781e-01" nType="0">
          <Node pos="l" depth="2" NCoef="0" IVar="-1" Cut="0.0000000000000000e+00" cType="1" res="-6.8800621666014194e-03" rms="3.8828265666961670e-01" purity="2.0677128434181213e-01" nType="-99"/>
          <Node pos="r" depth="2" NCoef="0" IVar="-1" Cut="0.0000000000000000e+00" cType="1" res="-1.4192974194884300e-03" rms="4.6908688545227051e-01" purity="4.7252690792083740e-01" nType="-99"/>
        </Node>
        <Node pos="r" depth="1" NCoef="0" IVar="9" Cut="1.5412955284118652e+00" cType="1" res="2.5936737656593323e-02" rms="4.7362458705902100e-01" purity="5.3205269575119019e-01" nType="0">
          <Node pos="l" depth="2" NCoef="0" IVar="-1" Cut="0.0000000000000000e+00" cType="1" res="4.4776909053325653e-03" rms="4.3748244643211365e-01" purity="7.0089697837829590e-01" nType="-99"/>
          <Node pos="r" depth="2" NCoef="0" IVar="-1" Cut="0.0000000000000000e+00" cType="1" res="1.5822084969840944e-04" rms="4.7798344492912292e-01" purity="4.9692308902740479e-01" nType="-99"/>
        </Node>
      </Node>
    </BinaryTree>
    <BinaryTree type="DecisionTree" boostWeight="1.0000000000000000e+00" itree="97">
      <Node pos="s" depth="0" NCoef="0" IVar="11" Cut="7.2334182262420654e-01" cType="1" res="7.9793268814682961e-03" rms="4.7002920508384705e-01" purity="5.0345134735107422e-01" nType="0">
        <Node pos="l" depth="1" NCoef="0" IVar="3" Cut="1.3052755737304688e+02" cType="1" res="-2.7166247367858887e-02" rms="4.7199669480323792e-01" purity="4.3251433968544006e-01" nType="0">
          <Node pos="l" depth="2" NCoef="0" IVar="-1" Cut="0.0000000000000000e+00" cType="1" res="-1.0807395301526412e-04" rms="4.7675803303718567e-01" purity="4.6264982223510742e-01" nType="-99"/>
          <Node pos="r" depth="2" NCoef="0" IVar="-1" Cut="0.0000000000000000e+00" cType="1" res="-5.0103417597711086e-03" rms="4.3877786397933960e-01" purity="3.1030833721160889e-01" nType="-99"/>
        </Node>
        <Node pos="r" depth="1" NCoef="0" IVar="7" Cut="8.7721931457519531e+01" cType="1" res="7.1240559220314026e-02" rms="4.5974561572074890e-01" purity="6.3113641738891602e-01" nType="0">
          <Node pos="l" depth="2" NCoef="0" IVar="-1" Cut="0.0000000000000000e+00" cType="1" res="1.3621051330119371e-03" rms="4.7271648049354553e-01" purity="5.8444851636886597e-01" nType="-99"/>
          <Node pos="r" depth="2" NCoef="0" IVar="-1" Cut="0.0000000000000000e+00" cType="1" res="6.7777610383927822e-03" rms="3.7409198284149170e-01" purity="8.2388329505920410e-01" nType="-99"/>
        </Node>
      </Node>
    </BinaryTree>
    <BinaryTree type="DecisionTree" boostWeight="1.0000000000000000e+00" itree="98">
      <Node pos="s" depth="0" NCoef="0" IVar="2" Cut="1.6314512491226196e+00" cType="1" res="2.9162019491195679e-03" rms="4.6494668722152710e-01" purity="4.9753966927528381e-01" nType="0">
        <Node pos="l" depth="1" NCoef="0" IVar="4" Cut="3.6479010009765625e+02" cType="1" res="7.4779160320758820e-02" rms="4.5929244160652161e-01" purity="6.4005941152572632e-01" nType="0">
          <Node pos="l" depth="2" NCoef="0" IVar="-1" Cut="0.0000000000000000e+00" cType="1" res="9.5517747104167938e-04" rms="4.7508603334426880e-01" purity="5.7246428728103638e-01" nType="-99"/>
          <Node pos="r" depth="2" NCoef="0" IVar="-1" Cut="0.0000000000000000e+00" cType="1" res="5.2419570274651051e-03" rms="4.1681683063507080e-01" purity="7.5916087627410889e-01" nType="-99"/>
        </Node>
        <Node pos="r" depth="1" NCoef="0" IVar="10" Cut="4.4517821073532104e-01" cType="1" res="-4.1305478662252426e-02" rms="4.6287983655929565e-01" purity="4.0983855724334717e-01" nType="0">
          <Node pos="l" depth="2" NCoef="0" IVar="-1" Cut="0.0000000000000000e+00" cType="1" res="-6.3763195648789406e-03" rms="3.7111511826515198e-01" purity="2.0548172295093536e-01" nType="-99"/>
          <Node pos="r" depth="2" NCoef="0" IVar="-1" Cut="0.0000000000000000e+00" cType="1" res="-6.6742039052769542e-04" rms="4.7541022300720215e-01" purity="4.4972166419029236e-01" nType="-99"/>
        </Node>
      </Node>
    </BinaryTree>
    <BinaryTree type="DecisionTree" boostWeight="1.0000000000000000e+00" itree="99">
      <Node pos="s" depth="0" NCoef="0" IVar="0" Cut="6.2340850830078125e+01" cType="1" res="-3.4797654952853918e-03" rms="4.6754351258277893e-01" purity="4.9617907404899597e-01" nType="0">
        <Node pos="l" depth="1" NCoef="0" IVar="10" Cut="6.4235091209411621e-01" cType="1" res="-6.0208931565284729e-02" rms="4.6691450476646423e-01" purity="3.9142826199531555e-01" nType="0">
          <Node pos="l" depth="2" NCoef="0" IVar="-1" Cut="0.0000000000000000e+00" cType="1" res="-3.9864093996584415e-03" rms="4.4867351651191711e-01" purity="3.1779435276985168e-01" nType="-99"/>
          <Node pos="r" depth="2" NCoef="0" IVar="-1" Cut="0.0000000000000000e+00" cType="1" res="-1.3719912385568023e-04" rms="4.8529818654060364e-01" purity="4.9281242489814758e-01" nType="-99"/>
        </Node>
        <Node pos="r" depth="1" NCoef="0" IVar="2" Cut="2.2665519714355469e+00" cType="1" res="5.1375675946474075e-02" rms="4.6156722307205200e-01" purity="5.9747004508972168e-01" nType="0">
          <Node pos="l" depth="2" NCoef="0" IVar="-1" Cut="0.0000000000000000e+00" cType="1" res="3.2971408218145370e-03" rms="4.4529277086257935e-01" purity="7.1208226680755615e-01" nType="-99"/>
          <Node pos="r" depth="2" NCoef="0" IVar="-1" Cut="0.0000000000000000e+00" cType="1" res="-1.2740979436784983e-03" rms="4.7769141197204590e-01" purity="3.9015984535217285e-01" nType="-99"/>
        </Node>
      </Node>
    </BinaryTree>
    <BinaryTree type="DecisionTree" boostWeight="1.0000000000000000e+00" itree="100">
      <Node pos="s" depth="0" NCoef="0" IVar="9" Cut="1.4456834793090820e+00" cType="1" res="1.3750428333878517e-02" rms="4.6752417087554932e-01" purity="5.1277583837509155e-01" nType="0">
        <Node pos="l" depth="1" NCoef="0" IVar="6" Cut="4.4167057037353516e+01" cType="1" res="1.5814656019210815e-01" rms="4.1628682613372803e-01" purity="7.3970973491668701e-01" nType="0">
          <Node pos="l" depth="2" NCoef="0" IVar="-1" Cut="0.0000000000000000e+00" cType="1" res="2.1984437480568886e-03" rms="4.7483289241790771e-01" purity="5.8391863107681274e-01" nType="-99"/>
          <Node pos="r" depth="2" NCoef="0" IVar="-1" Cut="0.0000000000000000e+00" cType="1" res="7.2975992225110531e-03" rms="3.6096599698066711e-01" purity="8.4068715572357178e-01" nType="-99"/>
        </Node>
        <Node pos="r" depth="1" NCoef="0" IVar="5" Cut="9.3506377935409546e-01" cType="1" res="-1.0245824232697487e-02" rms="4.7123619914054871e-01" purity="4.7506317496299744e-01" nType="0">
          <Node pos="l" depth="2" NCoef="0" IVar="-1" Cut="0.0000000000000000e+00" cType="1" res="-3.3904840238392353e-03" rms="4.4519889354705811e-01" purity="3.4789130091667175e-01" nType="-99"/>
          <Node pos="r" depth="2" NCoef="0" IVar="-1" Cut="0.0000000000000000e+00" cType="1" res="4.1789814713411033e-04" rms="4.7523403167724609e-01" purity="5.0767433643341064e-01" nType="-99"/>
        </Node>
      </Node>
    </BinaryTree>
    <BinaryTree type="DecisionTree" boostWeight="1.0000000000000000e+00" itree="101">
      <Node pos="s" depth="0" NCoef="0" IVar="2" Cut="2.0301277637481689e+00" cType="1" res="1.4905441552400589e-02" rms="4.6673086285591125e-01" purity="5.1036608219146729e-01" nType="0">
        <Node pos="l" depth="1" NCoef="0" IVar="10" Cut="4.7205883264541626e-01" cType="1" res="5.8447994291782379e-02" rms="4.6894738078117371e-01" purity="6.1792188882827759e-01" nType="0">
          <Node pos="l" depth="2" NCoef="0" IVar="-1" Cut="0.0000000000000000e+00" cType="1" res="-2.0853038877248764e-03" rms="4.8087847232818604e-01" purity="4.6896052360534668e-01" nType="-99"/>
          <Node pos="r" depth="2" NCoef="0" IVar="-1" Cut="0.0000000000000000e+00" cType="1" res="2.5239752139896154e-03" rms="4.6546587347984314e-01" purity="6.3604152202606201e-01" nType="-99"/>
        </Node>
        <Node pos="r" depth="1" NCoef="0" IVar="5" Cut="9.3413358926773071e-01" cType="1" res="-3.8289938122034073e-02" rms="4.5842987298965454e-01" purity="3.7896659970283508e-01" nType="0">
          <Node pos="l" depth="2" NCoef="0" IVar="-1" Cut="0.0000000000000000e+00" cType="1" res="-5.7941209524869919e-03" rms="3.9605942368507385e-01" purity="2.2090579569339752e-01" nType="-99"/>
          <Node pos="r" depth="2" NCoef="0" IVar="-1" Cut="0.0000000000000000e+00" cType="1" res="-1.4279235620051622e-04" rms="4.7036010026931763e-01" purity="4.2698001861572266e-01" nType="-99"/>
        </Node>
      </Node>
    </BinaryTree>
    <BinaryTree type="DecisionTree" boostWeight="1.0000000000000000e+00" itree="102">
      <Node pos="s" depth="0" NCoef="0" IVar="0" Cut="3.7965995788574219e+01" cType="1" res="6.6552229691296816e-04" rms="4.6423152089118958e-01" purity="4.9393314123153687e-01" nType="0">
        <Node pos="l" depth="1" NCoef="0" IVar="8" Cut="1.7839218139648438e+02" cType="1" res="-1.1226417124271393e-01" rms="4.2290079593658447e-01" purity="2.6563066244125366e-01" nType="0">
          <Node pos="l" depth="2" NCoef="0" IVar="-1" Cut="0.0000000000000000e+00" cType="1" res="-1.9045092631131411e-03" rms="4.6338230371475220e-01" purity="3.5288909077644348e-01" nType="-99"/>
          <Node pos="r" depth="2" NCoef="0" IVar="-1" Cut="0.0000000000000000e+00" cType="1" res="-7.6360790990293026e-03" rms="3.6099776625633240e-01" purity="1.7040459811687469e-01" nType="-99"/>
        </Node>
        <Node pos="r" depth="1" NCoef="0" IVar="5" Cut="9.5904517173767090e-01" cType="1" res="2.6274032890796661e-02" rms="4.6933749318122864e-01" purity="5.4570418596267700e-01" nType="0">
          <Node pos="l" depth="2" NCoef="0" IVar="-1" Cut="0.0000000000000000e+00" cType="1" res="-7.8021944500505924e-04" rms="4.7245207428932190e-01" purity="4.7373047471046448e-01" nType="-99"/>
          <Node pos="r" depth="2" NCoef="0" IVar="-1" Cut="0.0000000000000000e+00" cType="1" res="3.0886216554790735e-03" rms="4.5799773931503296e-01" purity="6.3672703504562378e-01" nType="-99"/>
        </Node>
      </Node>
    </BinaryTree>
    <BinaryTree type="DecisionTree" boostWeight="1.0000000000000000e+00" itree="103">
      <Node pos="s" depth="0" NCoef="0" IVar="0" Cut="6.2412242889404297e+01" cType="1" res="3.7640149239450693e-03" rms="4.6637290716171265e-01" purity="4.9979996681213379e-01" nType="0">
        <Node pos="l" depth="1" NCoef="0" IVar="10" Cut="4.5584771037101746e-01" cType="1" res="-4.7971442341804504e-02" rms="4.6533992886543274e-01" purity="3.9767193794250488e-01" nType="0">
          <Node pos="l" depth="2" NCoef="0" IVar="-1" Cut="0.0000000000000000e+00" cType="1" res="-7.1307998150587082e-03" rms="3.7918093800544739e-01" purity="1.9991382956504822e-01" nType="-99"/>
          <Node pos="r" depth="2" NCoef="0" IVar="-1" Cut="0.0000000000000000e+00" cType="1" res="-9.8448968492448330e-04" rms="4.7502583265304565e-01" purity="4.3105468153953552e-01" nType="-99"/>
        </Node>
        <Node pos="r" depth="1" NCoef="0" IVar="8" Cut="1.9929550170898438e+02" cType="1" res="5.4179415106773376e-02" rms="4.6183505654335022e-01" purity="5.9932219982147217e-01" nType="0">
          <Node pos="l" depth="2" NCoef="0" IVar="-1" Cut="0.0000000000000000e+00" cType="1" res="5.0278357230126858e-03" rms="4.2462179064750671e-01" purity="7.4058347940444946e-01" nType="-99"/>
          <Node pos="r" depth="2" NCoef="0" IVar="-1" Cut="0.0000000000000000e+00" cType="1" res="8.0220791278406978e-04" rms="4.6881061792373657e-01" purity="5.5408465862274170e-01" nType="-99"/>
        </Node>
      </Node>
    </BinaryTree>
    <BinaryTree type="DecisionTree" boostWeight="1.0000000000000000e+00" itree="104">
      <Node pos="s" depth="0" NCoef="0" IVar="6" Cut="8.4763259887695312e+01" cType="1" res="1.0685286484658718e-02" rms="4.6554598212242126e-01" purity="5.0941067934036255e-01" nType="0">
        <Node pos="l" depth="1" NCoef="0" IVar="8" Cut="3.2669412231445312e+02" cType="1" res="-1.4258801005780697e-02" rms="4.6475154161453247e-01" purity="4.6759563684463501e-01" nType="0">
          <Node pos="l" depth="2" NCoef="0" IVar="-1" Cut="0.0000000000000000e+00" cType="1" res="6.2773318495601416e-04" rms="4.6846491098403931e-01" purity="5.1282125711441040e-01" nType="-99"/>
          <Node pos="r" depth="2" NCoef="0" IVar="-1" Cut="0.0000000000000000e+00" cType="1" res="-4.8929499462246895e-03" rms="4.3283367156982422e-01" purity="3.0710265040397644e-01" nType="-99"/>
        </Node>
        <Node pos="r" depth="1" NCoef="0" IVar="4" Cut="5.1217944335937500e+02" cType="1" res="1.0984382033348083e-01" rms="4.5537367463111877e-01" purity="6.7563509941101074e-01" nType="0">
          <Node pos="l" depth="2" NCoef="0" IVar="-1" Cut="0.0000000000000000e+00" cType="1" res="4.7933817841112614e-03" rms="4.4486567378044128e-01" purity="7.0624470710754395e-01" nType="-99"/>
          <Node pos="r" depth="2" NCoef="0" IVar="-1" Cut="0.0000000000000000e+00" cType="1" res="9.1091857757419348e-04" rms="4.7274330258369446e-01" purity="5.9164780378341675e-01" nType="-99"/>
        </Node>
      </Node>
    </BinaryTree>
    <BinaryTree type="DecisionTree" boostWeight="1.0000000000000000e+00" itree="105">
      <Node pos="s" depth="0" NCoef="0" IVar="0" Cut="2.5733409881591797e+01" cType="1" res="-3.1849180813878775e-03" rms="4.7047173976898193e-01" purity="4.9230644106864929e-01" nType="0">
        <Node pos="l" depth="1" NCoef="0" IVar="-1" Cut="0.0000000000000000e+00" cType="1" res="-1.0442146100103855e-02" rms="3.1405031681060791e-01" purity="1.1532484740018845e-01" nType="-99"/>
        <Node pos="r" depth="1" NCoef="0" IVar="10" Cut="7.5445437431335449e-01" cType="1" res="8.5316095501184464e-03" rms="4.7446253895759583e-01" purity="5.1227438449859619e-01" nType="0">
          <Node pos="l" depth="2" NCoef="0" IVar="-1" Cut="0.0000000000000000e+00" cType="1" res="-4.7840678598731756e-04" rms="4.7691547870635986e-01" purity="4.7307074069976807e-01" nType="-99"/>
          <Node pos="r" depth="2" NCoef="0" IVar="-1" Cut="0.0000000000000000e+00" cType="1" res="3.5890864674001932e-03" rms="4.5110866427421570e-01" purity="6.8536573648452759e-01" nType="-99"/>
        </Node>
      </Node>
    </BinaryTree>
    <BinaryTree type="DecisionTree" boostWeight="1.0000000000000000e+00" itree="106">
      <Node pos="s" depth="0" NCoef="0" IVar="5" Cut="9.5918715000152588e-01" cType="1" res="-3.0073295347392559e-03" rms="4.6697637438774109e-01" purity="4.9294129014015198e-01" nType="0">
        <Node pos="l" depth="1" NCoef="0" IVar="0" Cut="8.6794578552246094e+01" cType="1" res="-4.5174043625593185e-02" rms="4.6404072642326355e-01" purity="4.2518016695976257e-01" nType="0">
          <Node pos="l" depth="2" NCoef="0" IVar="-1" Cut="0.0000000000000000e+00" cType="1" res="-3.1084530055522919e-03" rms="4.5647665858268738e-01" purity="3.5888823866844177e-01" nType="-99"/>
          <Node pos="r" depth="2" NCoef="0" IVar="-1" Cut="0.0000000000000000e+00" cType="1" res="1.4537430834025145e-03" rms="4.6861335635185242e-01" purity="5.7111996412277222e-01" nType="-99"/>
        </Node>
        <Node pos="r" depth="1" NCoef="0" IVar="9" Cut="1.5036681890487671e+00" cType="1" res="5.2354719489812851e-02" rms="4.6503329277038574e-01" purity="5.8190703392028809e-01" nType="0">
          <Node pos="l" depth="2" NCoef="0" IVar="-1" Cut="0.0000000000000000e+00" cType="1" res="5.8884546160697937e-03" rms="4.0730008482933044e-01" purity="7.7027148008346558e-01" nType="-99"/>
          <Node pos="r" depth="2" NCoef="0" IVar="-1" Cut="0.0000000000000000e+00" cType="1" res="1.1459237430244684e-03" rms="4.7205510735511780e-01" purity="5.4650092124938965e-01" nType="-99"/>
        </Node>
      </Node>
    </BinaryTree>
    <BinaryTree type="DecisionTree" boostWeight="1.0000000000000000e+00" itree="107">
      <Node pos="s" depth="0" NCoef="0" IVar="2" Cut="1.5368267297744751e+00" cType="1" res="7.7347023761831224e-05" rms="4.6524903178215027e-01" purity="4.9543306231498718e-01" nType="0">
        <Node pos="l" depth="1" NCoef="0" IVar="0" Cut="4.0129684448242188e+01" cType="1" res="6.3265345990657806e-02" rms="4.5709455013275146e-01" purity="6.3194578886032104e-01" nType="0">
          <Node pos="l" depth="2" NCoef="0" IVar="-1" Cut="0.0000000000000000e+00" cType="1" res="-2.5202122051268816e-03" rms="4.7498986124992371e-01" purity="3.7545487284660339e-01" nType="-99"/>
          <Node pos="r" depth="2" NCoef="0" IVar="-1" Cut="0.0000000000000000e+00" cType="1" res="3.6337776109576225e-03" rms="4.4258883595466614e-01" purity="7.1686899662017822e-01" nType="-99"/>
        </Node>
        <Node pos="r" depth="1" NCoef="0" IVar="3" Cut="1.3560838317871094e+02" cType="1" res="-3.3937510102987289e-02" rms="4.6604621410369873e-01" purity="4.2194664478302002e-01" nType="0">
          <Node pos="l" depth="2" NCoef="0" IVar="-1" Cut="0.0000000000000000e+00" cType="1" res="-5.3892761934548616e-04" rms="4.7045132517814636e-01" purity="4.4579273462295532e-01" nType="-99"/>
          <Node pos="r" depth="2" NCoef="0" IVar="-1" Cut="0.0000000000000000e+00" cType="1" res="-7.2765471413731575e-03" rms="4.0322169661521912e-01" purity="2.4154749512672424e-01" nType="-99"/>
        </Node>
      </Node>
    </BinaryTree>
    <BinaryTree type="DecisionTree" boostWeight="1.0000000000000000e+00" itree="108">
      <Node pos="s" depth="0" NCoef="0" IVar="9" Cut="1.5412955284118652e+00" cType="1" res="-2.1669017150998116e-03" rms="4.6939346194267273e-01" purity="4.9621492624282837e-01" nType="0">
        <Node pos="l" depth="1" NCoef="0" IVar="5" Cut="9.6734297275543213e-01" cType="1" res="9.6039526164531708e-02" rms="4.5528861880302429e-01" purity="6.7225760221481323e-01" nType="0">
          <Node pos="l" depth="2" NCoef="0" IVar="-1" Cut="0.0000000000000000e+00" cType="1" res="2.2148119751363993e-03" rms="4.6794492006301880e-01" purity="6.2802428007125854e-01" nType="-99"/>
          <Node pos="r" depth="2" NCoef="0" IVar="-1" Cut="0.0000000000000000e+00" cType="1" res="5.6053362786769867e-03" rms="4.2339366674423218e-01" purity="7.5747543573379517e-01" nType="-99"/>
        </Node>
        <Node pos="r" depth="1" NCoef="0" IVar="5" Cut="9.4486188888549805e-01" cType="1" res="-2.1567098796367645e-02" rms="4.6970748901367188e-01" purity="4.6143853664398193e-01" nType="0">
          <Node pos="l" depth="2" NCoef="0" IVar="-1" Cut="0.0000000000000000e+00" cType="1" res="-3.0769861768931150e-03" rms="4.5534163713455200e-01" purity="3.6062908172607422e-01" nType="-99"/>
          <Node pos="r" depth="2" NCoef="0" IVar="-1" Cut="0.0000000000000000e+00" cType="1" res="3.9791475865058601e-04" rms="4.7345981001853943e-01" purity="5.1208233833312988e-01" nType="-99"/>
        </Node>
      </Node>
    </BinaryTree>
    <BinaryTree type="DecisionTree" boostWeight="1.0000000000000000e+00" itree="109">
      <Node pos="s" depth="0" NCoef="0" IVar="0" Cut="8.6794578552246094e+01" cType="1" res="9.9103488028049469e-03" rms="4.6549305319786072e-01" purity="5.0753325223922729e-01" nType="0">
        <Node pos="l" depth="1" NCoef="0" IVar="9" Cut="1.8188120126724243e+00" cType="1" res="-2.5573048740625381e-02" rms="4.6531185507774353e-01" purity="4.4878819584846497e-01" nType="0">
          <Node pos="l" depth="2" NCoef="0" IVar="-1" Cut="0.0000000000000000e+00" cType="1" res="1.7643410246819258e-03" rms="4.6398907899856567e-01" purity="5.9151935577392578e-01" nType="-99"/>
          <Node pos="r" depth="2" NCoef="0" IVar="-1" Cut="0.0000000000000000e+00" cType="1" res="-2.2211533505469561e-03" rms="4.6188071370124817e-01" purity="3.8621148467063904e-01" nType="-99"/>
        </Node>
        <Node pos="r" depth="1" NCoef="0" IVar="0" Cut="1.3171684265136719e+02" cType="1" res="8.5465677082538605e-02" rms="4.5678588747978210e-01" purity="6.3262009620666504e-01" nType="0">
          <Node pos="l" depth="2" NCoef="0" IVar="-1" Cut="0.0000000000000000e+00" cType="1" res="4.4548092409968376e-03" rms="4.4476807117462158e-01" purity="6.9046086072921753e-01" nType="-99"/>
          <Node pos="r" depth="2" NCoef="0" IVar="-1" Cut="0.0000000000000000e+00" cType="1" res="-1.4538957038894296e-03" rms="4.6455076336860657e-01" purity="4.7800713777542114e-01" nType="-99"/>
        </Node>
      </Node>
    </BinaryTree>
    <BinaryTree type="DecisionTree" boostWeight="1.0000000000000000e+00" itree="110">
      <Node pos="s" depth="0" NCoef="0" IVar="2" Cut="2.8129262924194336e+00" cType="1" res="2.9687366914004087e-03" rms="4.6451693773269653e-01" purity="4.9887245893478394e-01" nType="0">
        <Node pos="l" depth="1" NCoef="0" IVar="5" Cut="9.5828568935394287e-01" cType="1" res="2.6418961584568024e-02" rms="4.7265195846557617e-01" purity="5.5381655693054199e-01" nType="0">
          <Node pos="l" depth="2" NCoef="0" IVar="-1" Cut="0.0000000000000000e+00" cType="1" res="-8.0994208110496402e-04" rms="4.7585436701774597e-01" purity="4.8244023323059082e-01" nType="-99"/>
          <Node pos="r" depth="2" NCoef="0" IVar="-1" Cut="0.0000000000000000e+00" cType="1" res="2.9264215845614672e-03" rms="4.6262907981872559e-01" purity="6.3438177108764648e-01" nType="-99"/>
        </Node>
        <Node pos="r" depth="1" NCoef="0" IVar="10" Cut="5.1774621009826660e-01" cType="1" res="-1.1207936704158783e-01" rms="4.0303689241409302e-01" purity="2.2931356728076935e-01" nType="0">
          <Node pos="l" depth="2" NCoef="0" IVar="-1" Cut="0.0000000000000000e+00" cType="1" res="-7.7448054216802120e-03" rms="3.4124949574470520e-01" purity="1.4278092980384827e-01" nType="-99"/>
          <Node pos="r" depth="2" NCoef="0" IVar="-1" Cut="0.0000000000000000e+00" cType="1" res="-7.0760637754574418e-04" rms="4.6769714355468750e-01" purity="3.6239907145500183e-01" nType="-99"/>
        </Node>
      </Node>
    </BinaryTree>
    <BinaryTree type="DecisionTree" boostWeight="1.0000000000000000e+00" itree="111">
      <Node pos="s" depth="0" NCoef="0" IVar="2" Cut="1.3647240400314331e+00" cType="1" res="1.1937549337744713e-02" rms="4.6528232097625732e-01" purity="5.1161962747573853e-01" nType="0">
        <Node pos="l" depth="1" NCoef="0" IVar="7" Cut="6.5375656127929688e+01" cType="1" res="1.0411787033081055e-01" rms="4.4531056284904480e-01" purity="6.7831999063491821e-01" nType="0">
          <Node pos="l" depth="2" NCoef="0" IVar="-1" Cut="0.0000000000000000e+00" cType="1" res="2.1128146909177303e-03" rms="4.7119277715682983e-01" purity="6.0926014184951782e-01" nType="-99"/>
          <Node pos="r" depth="2" NCoef="0" IVar="-1" Cut="0.0000000000000000e+00" cType="1" res="6.6010137088596821e-03" rms="3.5825410485267639e-01" purity="8.4177923202514648e-01" nType="-99"/>
        </Node>
        <Node pos="r" depth="1" NCoef="0" IVar="5" Cut="9.5784157514572144e-01" cType="1" res="-2.2225948050618172e-02" rms="4.6787965297698975e-01" purity="4.4983789324760437e-01" nType="0">
          <Node pos="l" depth="2" NCoef="0" IVar="-1" Cut="0.0000000000000000e+00" cType="1" res="-2.6524327695369720e-03" rms="4.6085059642791748e-01" purity="3.7486603856086731e-01" nType="-99"/>
          <Node pos="r" depth="2" NCoef="0" IVar="-1" Cut="0.0000000000000000e+00" cType="1" res="1.4929772587493062e-03" rms="4.6883520483970642e-01" purity="5.4167604446411133e-01" nType="-99"/>
        </Node>
      </Node>
    </BinaryTree>
    <BinaryTree type="DecisionTree" boostWeight="1.0000000000000000e+00" itree="112">
      <Node pos="s" depth="0" NCoef="0" IVar="0" Cut="6.2284416198730469e+01" cType="1" res="1.9776998087763786e-02" rms="4.6394681930541992e-01" purity="5.1476943492889404e-01" nType="0">
        <Node pos="l" depth="1" NCoef="0" IVar="5" Cut="9.5739263296127319e-01" cType="1" res="-2.6869812980294228e-02" rms="4.6293976902961731e-01" purity="4.1351565718650818e-01" nType="0">
          <Node pos="l" depth="2" NCoef="0" IVar="-1" Cut="0.0000000000000000e+00" cType="1" res="-2.8232221957296133e-03" rms="4.4671738147735596e-01" purity="3.3720690011978149e-01" nType="-99"/>
          <Node pos="r" depth="2" NCoef="0" IVar="-1" Cut="0.0000000000000000e+00" cType="1" res="1.3914214214310050e-03" rms="4.7592344880104065e-01" purity="5.1425510644912720e-01" nType="-99"/>
        </Node>
        <Node pos="r" depth="1" NCoef="0" IVar="8" Cut="3.3153890991210938e+02" cType="1" res="6.5039850771427155e-02" rms="4.6042624115943909e-01" purity="6.1301904916763306e-01" nType="0">
          <Node pos="l" depth="2" NCoef="0" IVar="-1" Cut="0.0000000000000000e+00" cType="1" res="3.7570712156593800e-03" rms="4.4431769847869873e-01" purity="6.9156724214553833e-01" nType="-99"/>
          <Node pos="r" depth="2" NCoef="0" IVar="-1" Cut="0.0000000000000000e+00" cType="1" res="-8.2531891530379653e-04" rms="4.7725668549537659e-01" purity="4.6563366055488586e-01" nType="-99"/>
        </Node>
      </Node>
    </BinaryTree>
    <BinaryTree type="DecisionTree" boostWeight="1.0000000000000000e+00" itree="113">
      <Node pos="s" depth="0" NCoef="0" IVar="2" Cut="2.4853901863098145e+00" cType="1" res="-9.3718711286783218e-03" rms="4.6410158276557922e-01" purity="4.8830956220626831e-01" nType="0">
        <Node pos="l" depth="1" NCoef="0" IVar="5" Cut="9.2697536945343018e-01" cType="1" res="2.1679021418094635e-02" rms="4.7126200795173645e-01" purity="5.6628054380416870e-01" nType="0">
          <Node pos="l" depth="2" NCoef="0" IVar="-1" Cut="0.0000000000000000e+00" cType="1" res="-4.1145295836031437e-03" rms="4.5725622773170471e-01" purity="3.6175394058227539e-01" nType="-99"/>
          <Node pos="r" depth="2" NCoef="0" IVar="-1" Cut="0.0000000000000000e+00" cType="1" res="1.4237720752134919e-03" rms="4.6984350681304932e-01" purity="5.9297960996627808e-01" nType="-99"/>
        </Node>
        <Node pos="r" depth="1" NCoef="0" IVar="4" Cut="3.4898687744140625e+02" cType="1" res="-9.7047679126262665e-02" rms="4.3135765194892883e-01" purity="2.6814937591552734e-01" nType="0">
          <Node pos="l" depth="2" NCoef="0" IVar="-1" Cut="0.0000000000000000e+00" cType="1" res="-5.2584628574550152e-03" rms="4.1021347045898438e-01" purity="2.3251487314701080e-01" nType="-99"/>
          <Node pos="r" depth="2" NCoef="0" IVar="-1" Cut="0.0000000000000000e+00" cType="1" res="-1.5504446346312761e-03" rms="4.6505317091941833e-01" purity="3.3822348713874817e-01" nType="-99"/>
        </Node>
      </Node>
    </BinaryTree>
    <BinaryTree type="DecisionTree" boostWeight="1.0000000000000000e+00" itree="114">
      <Node pos="s" depth="0" NCoef="0" IVar="5" Cut="9.6848130226135254e-01" cType="1" res="-4.2624152265489101e-03" rms="4.6525895595550537e-01" purity="4.9369397759437561e-01" nType="0">
        <Node pos="l" depth="1" NCoef="0" IVar="2" Cut="1.8320798873901367e+00" cType="1" res="-3.7629760801792145e-02" rms="4.6304905414581299e-01" purity="4.4522824883460999e-01" nType="0">
          <Node pos="l" depth="2" NCoef="0" IVar="-1" Cut="0.0000000000000000e+00" cType="1" res="2.3469429288525134e-04" rms="4.7409951686859131e-01" purity="5.6252658367156982e-01" nType="-99"/>
          <Node pos="r" depth="2" NCoef="0" IVar="-1" Cut="0.0000000000000000e+00" cType="1" res="-2.8667617589235306e-03" rms="4.5005127787590027e-01" purity="3.4566128253936768e-01" nType="-99"/>
        </Node>
        <Node pos="r" depth="1" NCoef="0" IVar="10" Cut="5.4137462377548218e-01" cType="1" res="7.8606411814689636e-02" rms="4.6035683155059814e-01" purity="6.1406004428863525e-01" nType="0">
          <Node pos="l" depth="2" NCoef="0" IVar="-1" Cut="0.0000000000000000e+00" cType="1" res="-8.6102174827829003e-04" rms="4.6931555867195129e-01" purity="4.3076610565185547e-01" nType="-99"/>
          <Node pos="r" depth="2" NCoef="0" IVar="-1" Cut="0.0000000000000000e+00" cType="1" res="4.2223669588565826e-03" rms="4.5107829570770264e-01" purity="6.8337810039520264e-01" nType="-99"/>
        </Node>
      </Node>
    </BinaryTree>
    <BinaryTree type="DecisionTree" boostWeight="1.0000000000000000e+00" itree="115">
      <Node pos="s" depth="0" NCoef="0" IVar="8" Cut="2.6386907958984375e+02" cType="1" res="-7.0353639312088490e-03" rms="4.6436282992362976e-01" purity="4.8992869257926941e-01" nType="0">
        <Node pos="l" depth="1" NCoef="0" IVar="4" Cut="1.8230413818359375e+02" cType="1" res="3.6977078765630722e-02" rms="4.6711701154708862e-01" purity="5.4788428544998169e-01" nType="0">
          <Node pos="l" depth="2" NCoef="0" IVar="-1" Cut="0.0000000000000000e+00" cType="1" res="-5.9981630183756351e-03" rms="4.1773048043251038e-01" purity="2.4697650969028473e-01" nType="-99"/>
          <Node pos="r" depth="2" NCoef="0" IVar="-1" Cut="0.0000000000000000e+00" cType="1" res="2.0357558969408274e-03" rms="4.6831649541854858e-01" purity="5.8476775884628296e-01" nType="-99"/>
        </Node>
        <Node pos="r" depth="1" NCoef="0" IVar="3" Cut="1.3273857116699219e+02" cType="1" res="-7.6836012303829193e-02" rms="4.5124268531799316e-01" purity="3.9801508188247681e-01" nType="0">
          <Node pos="l" depth="2" NCoef="0" IVar="-1" Cut="0.0000000000000000e+00" cType="1" res="-1.8570389365777373e-03" rms="4.5741194486618042e-01" purity="4.3432581424713135e-01" nType="-99"/>
          <Node pos="r" depth="2" NCoef="0" IVar="-1" Cut="0.0000000000000000e+00" cType="1" res="-8.1606786698102951e-03" rms="4.0152218937873840e-01" purity="2.3769183456897736e-01" nType="-99"/>
        </Node>
      </Node>
    </BinaryTree>
    <BinaryTree type="DecisionTree" boostWeight="1.0000000000000000e+00" itree="116">
      <Node pos="s" depth="0" NCoef="0" IVar="0" Cut="8.4763259887695312e+01" cType="1" res="-7.0049865171313286e-03" rms="4.6569401025772095e-01" purity="4.8964995145797729e-01" nType="0">
        <Node pos="l" depth="1" NCoef="0" IVar="0" Cut="2.9745111465454102e+01" cType="1" res="-3.8219518959522247e-02" rms="4.6521344780921936e-01" purity="4.3216049671173096e-01" nType="0">
          <Node pos="l" depth="2" NCoef="0" IVar="-1" Cut="0.0000000000000000e+00" cType="1" res="-7.5823683291673660e-03" rms="3.7672787904739380e-01" purity="1.7371490597724915e-01" nType="-99"/>
          <Node pos="r" depth="2" NCoef="0" IVar="-1" Cut="0.0000000000000000e+00" cType="1" res="-7.2501716203987598e-04" rms="4.7332611680030823e-01" purity="4.6787706017494202e-01" nType="-99"/>
        </Node>
        <Node pos="r" depth="1" NCoef="0" IVar="0" Cut="1.4547764587402344e+02" cType="1" res="5.8730885386466980e-02" rms="4.5982599258422852e-01" purity="6.1071920394897461e-01" nType="0">
          <Node pos="l" depth="2" NCoef="0" IVar="-1" Cut="0.0000000000000000e+00" cType="1" res="3.1684243585914373e-03" rms="4.5310539007186890e-01" purity="6.5649479627609253e-01" nType="-99"/>
          <Node pos="r" depth="2" NCoef="0" IVar="-1" Cut="0.0000000000000000e+00" cType="1" res="-3.4598656930029392e-03" rms="4.5922467112541199e-01" purity="4.0036901831626892e-01" nType="-99"/>
        </Node>
      </Node>
    </BinaryTree>
    <BinaryTree type="DecisionTree" boostWeight="1.0000000000000000e+00" itree="117">
      <Node pos="s" depth="0" NCoef="0" IVar="0" Cut="8.5908470153808594e+01" cType="1" res="-3.9733438752591610e-03" rms="4.6387144923210144e-01" purity="4.9085697531700134e-01" nType="0">
        <Node pos="l" depth="1" NCoef="0" IVar="2" Cut="1.1187728643417358e+00" cType="1" res="-3.4790180623531342e-02" rms="4.6469900012016296e-01" purity="4.3265265226364136e-01" nType="0">
          <Node pos="l" depth="2" NCoef="0" IVar="-1" Cut="0.0000000000000000e+00" cType="1" res="2.5101769715547562e-03" rms="4.5685783028602600e-01" purity="6.1647146940231323e-01" nType="-99"/>
          <Node pos="r" depth="2" NCoef="0" IVar="-1" Cut="0.0000000000000000e+00" cType="1" res="-2.1405799780040979e-03" rms="4.6329686045646667e-01" purity="3.9522126317024231e-01" nType="-99"/>
        </Node>
        <Node pos="r" depth="1" NCoef="0" IVar="0" Cut="1.3095033264160156e+02" cType="1" res="6.5807200968265533e-02" rms="4.5433133840560913e-01" purity="6.2265270948410034e-01" nType="0">
          <Node pos="l" depth="2" NCoef="0" IVar="-1" Cut="0.0000000000000000e+00" cType="1" res="3.4753037616610527e-03" rms="4.4699227809906006e-01" purity="6.6820126771926880e-01" nType="-99"/>
          <Node pos="r" depth="2" NCoef="0" IVar="-1" Cut="0.0000000000000000e+00" cType="1" res="-1.2250754516571760e-03" rms="4.6026328206062317e-01" purity="4.9311253428459167e-01" nType="-99"/>
        </Node>
      </Node>
    </BinaryTree>
    <BinaryTree type="DecisionTree" boostWeight="1.0000000000000000e+00" itree="118">
      <Node pos="s" depth="0" NCoef="0" IVar="0" Cut="6.2340850830078125e+01" cType="1" res="-5.7878703810274601e-03" rms="4.6353262662887573e-01" purity="4.9028897285461426e-01" nType="0">
        <Node pos="l" depth="1" NCoef="0" IVar="8" Cut="1.9584188842773438e+02" cType="1" res="-5.8340482413768768e-02" rms="4.6096992492675781e-01" purity="3.8523456454277039e-01" nType="0">
          <Node pos="l" depth="2" NCoef="0" IVar="-1" Cut="0.0000000000000000e+00" cType="1" res="-1.3379359734244645e-04" rms="4.7233816981315613e-01" purity="4.6795210242271423e-01" nType="-99"/>
          <Node pos="r" depth="2" NCoef="0" IVar="-1" Cut="0.0000000000000000e+00" cType="1" res="-4.4337688013911247e-03" rms="4.4326299428939819e-01" purity="3.0502754449844360e-01" nType="-99"/>
        </Node>
        <Node pos="r" depth="1" NCoef="0" IVar="8" Cut="2.2004542541503906e+02" cType="1" res="4.3781295418739319e-02" rms="4.6047273278236389e-01" purity="5.8937931060791016e-01" nType="0">
          <Node pos="l" depth="2" NCoef="0" IVar="-1" Cut="0.0000000000000000e+00" cType="1" res="4.8104687593877316e-03" rms="4.2711514234542847e-01" purity="7.3218649625778198e-01" nType="-99"/>
          <Node pos="r" depth="2" NCoef="0" IVar="-1" Cut="0.0000000000000000e+00" cType="1" res="-8.3710074250120670e-05" rms="4.6825844049453735e-01" purity="5.2235543727874756e-01" nType="-99"/>
        </Node>
      </Node>
    </BinaryTree>
    <BinaryTree type="DecisionTree" boostWeight="1.0000000000000000e+00" itree="119">
      <Node pos="s" depth="0" NCoef="0" IVar="0" Cut="6.1500816345214844e+01" cType="1" res="2.4854179937392473e-03" rms="4.6357968449592590e-01" purity="5.0065737962722778e-01" nType="0">
        <Node pos="l" depth="1" NCoef="0" IVar="9" Cut="1.3686878681182861e+00" cType="1" res="-4.6862915158271790e-02" rms="4.6319451928138733e-01" purity="3.9184993505477905e-01" nType="0">
          <Node pos="l" depth="2" NCoef="0" IVar="-1" Cut="0.0000000000000000e+00" cType="1" res="3.8110208697617054e-03" rms="4.8202043771743774e-01" purity="6.2766861915588379e-01" nType="-99"/>
          <Node pos="r" depth="2" NCoef="0" IVar="-1" Cut="0.0000000000000000e+00" cType="1" res="-2.6979737449437380e-03" rms="4.5577868819236755e-01" purity="3.5761970281600952e-01" nType="-99"/>
        </Node>
        <Node pos="r" depth="1" NCoef="0" IVar="1" Cut="1.7278211975097656e+02" cType="1" res="4.8244405537843704e-02" rms="4.5922225713729858e-01" purity="6.0155075788497925e-01" nType="0">
          <Node pos="l" depth="2" NCoef="0" IVar="-1" Cut="0.0000000000000000e+00" cType="1" res="2.7237636968493462e-03" rms="4.5241105556488037e-01" purity="6.4164632558822632e-01" nType="-99"/>
          <Node pos="r" depth="2" NCoef="0" IVar="-1" Cut="0.0000000000000000e+00" cType="1" res="-2.1545356139540672e-03" rms="4.6649697422981262e-01" purity="4.6458688378334045e-01" nType="-99"/>
        </Node>
      </Node>
    </BinaryTree>
    <BinaryTree type="DecisionTree" boostWeight="1.0000000000000000e+00" itree="120">
      <Node pos="s" depth="0" NCoef="0" IVar="3" Cut="1.1159719085693359e+02" cType="1" res="1.5247324481606483e-02" rms="4.6649038791656494e-01" purity="5.1102656126022339e-01" nType="0">
        <Node pos="l" depth="1" NCoef="0" IVar="9" Cut="2.1474270820617676e+00" cType="1" res="-1.1195749044418335e-01" rms="4.4936075806617737e-01" purity="3.6391398310661316e-01" nType="0">
          <Node pos="l" depth="2" NCoef="0" IVar="-1" Cut="0.0000000000000000e+00" cType="1" res="-2.1908860653638840e-03" rms="4.7106096148490906e-01" purity="4.7497138381004333e-01" nType="-99"/>
          <Node pos="r" depth="2" NCoef="0" IVar="-1" Cut="0.0000000000000000e+00" cType="1" res="-6.5036034211516380e-03" rms="4.1959810256958008e-01" purity="2.5349819660186768e-01" nType="-99"/>
        </Node>
        <Node pos="r" depth="1" NCoef="0" IVar="3" Cut="1.3770269775390625e+02" cType="1" res="3.1565397977828979e-02" rms="4.6613705158233643e-01" purity="5.2989846467971802e-01" nType="0">
          <Node pos="l" depth="2" NCoef="0" IVar="-1" Cut="0.0000000000000000e+00" cType="1" res="1.5718812355771661e-03" rms="4.6712929010391235e-01" purity="5.4972100257873535e-01" nType="-99"/>
          <Node pos="r" depth="2" NCoef="0" IVar="-1" Cut="0.0000000000000000e+00" cType="1" res="-5.5089769884943962e-03" rms="4.2124125361442566e-01" purity="2.8949254751205444e-01" nType="-99"/>
        </Node>
      </Node>
    </BinaryTree>
    <BinaryTree type="DecisionTree" boostWeight="1.0000000000000000e+00" itree="121">
      <Node pos="s" depth="0" NCoef="0" IVar="10" Cut="4.2014148831367493e-01" cType="1" res="1.5323384432122111e-03" rms="4.6448522806167603e-01" purity="4.9880492687225342e-01" nType="0">
        <Node pos="l" depth="1" NCoef="0" IVar="-1" Cut="0.0000000000000000e+00" cType="1" res="-5.2654067985713482e-03" rms="3.8780033588409424e-01" purity="2.4695546925067902e-01" nType="-99"/>
        <Node pos="r" depth="1" NCoef="0" IVar="0" Cut="8.6506278991699219e+01" cType="1" res="1.4205006882548332e-02" rms="4.6877008676528931e-01" purity="5.2165412902832031e-01" nType="0">
          <Node pos="l" depth="2" NCoef="0" IVar="-1" Cut="0.0000000000000000e+00" cType="1" res="-3.8514166953973472e-04" rms="4.7054466605186462e-01" purity="4.6815738081932068e-01" nType="-99"/>
          <Node pos="r" depth="2" NCoef="0" IVar="-1" Cut="0.0000000000000000e+00" cType="1" res="2.4138949811458588e-03" rms="4.5983189344406128e-01" purity="6.4280247688293457e-01" nType="-99"/>
        </Node>
      </Node>
    </BinaryTree>
    <BinaryTree type="DecisionTree" boostWeight="1.0000000000000000e+00" itree="122">
      <Node pos="s" depth="0" NCoef="0" IVar="0" Cut="1.4126876831054688e+02" cType="1" res="-1.2981405481696129e-02" rms="4.6659377217292786e-01" purity="4.8351621627807617e-01" nType="0">
        <Node pos="l" depth="1" NCoef="0" IVar="3" Cut="1.1159719085693359e+02" cType="1" res="-1.5758435474708676e-03" rms="4.6521398425102234e-01" purity="4.9462544918060303e-01" nType="0">
          <Node pos="l" depth="2" NCoef="0" IVar="-1" Cut="0.0000000000000000e+00" cType="1" res="-4.5445100404322147e-03" rms="4.4664698839187622e-01" purity="3.6452379822731018e-01" nType="-99"/>
          <Node pos="r" depth="2" NCoef="0" IVar="-1" Cut="0.0000000000000000e+00" cType="1" res="5.2612577565014362e-04" rms="4.6546453237533569e-01" purity="5.1272535324096680e-01" nType="-99"/>
        </Node>
        <Node pos="r" depth="1" NCoef="0" IVar="-1" Cut="0.0000000000000000e+00" cType="1" res="-7.0814350619912148e-03" rms="4.5390132069587708e-01" purity="3.1790137290954590e-01" nType="-99"/>
      </Node>
    </BinaryTree>
    <BinaryTree type="DecisionTree" boostWeight="1.0000000000000000e+00" itree="123">
      <Node pos="s" depth="0" NCoef="0" IVar="3" Cut="1.3994331359863281e+02" cType="1" res="-7.4892737902700901e-03" rms="4.6938526630401611e-01" purity="4.9356889724731445e-01" nType="0">
        <Node pos="l" depth="1" NCoef="0" IVar="5" Cut="9.4707506895065308e-01" cType="1" res="3.6641291808336973e-03" rms="4.7004362940788269e-01" purity="5.0790137052536011e-01" nType="0">
          <Node pos="l" depth="2" NCoef="0" IVar="-1" Cut="0.0000000000000000e+00" cType="1" res="-2.0320448093116283e-03" rms="4.6793216466903687e-01" purity="4.0478363633155823e-01" nType="-99"/>
          <Node pos="r" depth="2" NCoef="0" IVar="-1" Cut="0.0000000000000000e+00" cType="1" res="1.3635009527206421e-03" rms="4.6787869930267334e-01" purity="5.6559914350509644e-01" nType="-99"/>
        </Node>
        <Node pos="r" depth="1" NCoef="0" IVar="-1" Cut="0.0000000000000000e+00" cType="1" res="-9.0637868270277977e-03" rms="4.0752872824668884e-01" purity="2.3403394222259521e-01" nType="-99"/>
      </Node>
    </BinaryTree>
    <BinaryTree type="DecisionTree" boostWeight="1.0000000000000000e+00" itree="124">
      <Node pos="s" depth="0" NCoef="0" IVar="4" Cut="2.1016319274902344e+02" cType="1" res="6.8948515690863132e-03" rms="4.6384513378143311e-01" purity="5.0195372104644775e-01" nType="0">
        <Node pos="l" depth="1" NCoef="0" IVar="0" Cut="3.4469841003417969e+01" cType="1" res="-9.9659286439418793e-02" rms="4.2791378498077393e-01" purity="3.0076310038566589e-01" nType="0">
          <Node pos="l" depth="2" NCoef="0" IVar="-1" Cut="0.0000000000000000e+00" cType="1" res="-8.7263379245996475e-03" rms="3.3721110224723816e-01" purity="1.3865689933300018e-01" nType="-99"/>
          <Node pos="r" depth="2" NCoef="0" IVar="-1" Cut="0.0000000000000000e+00" cType="1" res="-1.5458887210115790e-03" rms="4.6539813280105591e-01" purity="3.9999625086784363e-01" nType="-99"/>
        </Node>
        <Node pos="r" depth="1" NCoef="0" IVar="8" Cut="1.6582910156250000e+02" cType="1" res="2.7018114924430847e-02" rms="4.6760502457618713e-01" purity="5.3994959592819214e-01" nType="0">
          <Node pos="l" depth="2" NCoef="0" IVar="-1" Cut="0.0000000000000000e+00" cType="1" res="4.7297165729105473e-03" rms="4.4059440493583679e-01" purity="7.0190227031707764e-01" nType="-99"/>
          <Node pos="r" depth="2" NCoef="0" IVar="-1" Cut="0.0000000000000000e+00" cType="1" res="1.6739229613449425e-04" rms="4.6946862339973450e-01" purity="5.0829273462295532e-01" nType="-99"/>
        </Node>
      </Node>
    </BinaryTree>
    <BinaryTree type="DecisionTree" boostWeight="1.0000000000000000e+00" itree="125">
      <Node pos="s" depth="0" NCoef="0" IVar="0" Cut="3.8616088867187500e+01" cType="1" res="7.6116230338811874e-03" rms="4.6141448616981506e-01" purity="5.0307363271713257e-01" nType="0">
        <Node pos="l" depth="1" NCoef="0" IVar="4" Cut="1.8520916748046875e+02" cType="1" res="-8.9712440967559814e-02" rms="4.2940229177474976e-01" purity="2.7509590983390808e-01" nType="0">
          <Node pos="l" depth="2" NCoef="0" IVar="-1" Cut="0.0000000000000000e+00" cType="1" res="-8.4733208641409874e-03" rms="3.5366654396057129e-01" purity="1.4950254559516907e-01" nType="-99"/>
          <Node pos="r" depth="2" NCoef="0" IVar="-1" Cut="0.0000000000000000e+00" cType="1" res="-2.1262255031615496e-03" rms="4.4993233680725098e-01" purity="3.2399034500122070e-01" nType="-99"/>
        </Node>
        <Node pos="r" depth="1" NCoef="0" IVar="8" Cut="3.3001971435546875e+02" cType="1" res="3.0880371108651161e-02" rms="4.6574163436889648e-01" purity="5.5757969617843628e-01" nType="0">
          <Node pos="l" depth="2" NCoef="0" IVar="-1" Cut="0.0000000000000000e+00" cType="1" res="2.2428429219871759e-03" rms="4.6150919795036316e-01" purity="6.1682504415512085e-01" nType="-99"/>
          <Node pos="r" depth="2" NCoef="0" IVar="-1" Cut="0.0000000000000000e+00" cType="1" res="-1.9907208625227213e-03" rms="4.6536988019943237e-01" purity="4.1328126192092896e-01" nType="-99"/>
        </Node>
      </Node>
    </BinaryTree>
    <BinaryTree type="DecisionTree" boostWeight="1.0000000000000000e+00" itree="126">
      <Node pos="s" depth="0" NCoef="0" IVar="3" Cut="1.0733383178710938e+02" cType="1" res="1.1635706759989262e-02" rms="4.6550282835960388e-01" purity="5.1178508996963501e-01" nType="0">
        <Node pos="l" depth="1" NCoef="0" IVar="-1" Cut="0.0000000000000000e+00" cType="1" res="-6.8065500818192959e-03" rms="4.2676174640655518e-01" purity="2.8646099567413330e-01" nType="-99"/>
        <Node pos="r" depth="1" NCoef="0" IVar="3" Cut="1.3803567504882812e+02" cType="1" res="2.6541898027062416e-02" rms="4.6531027555465698e-01" purity="5.2999067306518555e-01" nType="0">
          <Node pos="l" depth="2" NCoef="0" IVar="-1" Cut="0.0000000000000000e+00" cType="1" res="1.3762174639850855e-03" rms="4.6463963389396667e-01" purity="5.4651522636413574e-01" nType="-99"/>
          <Node pos="r" depth="2" NCoef="0" IVar="-1" Cut="0.0000000000000000e+00" cType="1" res="-5.7582464069128036e-03" rms="4.4339236617088318e-01" purity="3.0193606019020081e-01" nType="-99"/>
        </Node>
      </Node>
    </BinaryTree>
    <BinaryTree type="DecisionTree" boostWeight="1.0000000000000000e+00" itree="127">
      <Node pos="s" depth="0" NCoef="0" IVar="8" Cut="4.2296557617187500e+02" cType="1" res="6.6916276700794697e-03" rms="4.6633508801460266e-01" purity="5.0278031826019287e-01" nType="0">
        <Node pos="l" depth="1" NCoef="0" IVar="4" Cut="2.1618278503417969e+02" cType="1" res="2.5349389761686325e-02" rms="4.6739509701728821e-01" purity="5.3300577402114868e-01" nType="0">
          <Node pos="l" depth="2" NCoef="0" IVar="-1" Cut="0.0000000000000000e+00" cType="1" res="-2.8029675595462322e-03" rms="4.4908705353736877e-01" purity="3.3451834321022034e-01" nType="-99"/>
          <Node pos="r" depth="2" NCoef="0" IVar="-1" Cut="0.0000000000000000e+00" cType="1" res="1.7827253323048353e-03" rms="4.6877428889274597e-01" purity="5.8421987295150757e-01" nType="-99"/>
        </Node>
        <Node pos="r" depth="1" NCoef="0" IVar="9" Cut="3.2224516868591309e+00" cType="1" res="-1.0194531083106995e-01" rms="4.4483307003974915e-01" purity="3.2678931951522827e-01" nType="0">
          <Node pos="l" depth="2" NCoef="0" IVar="-1" Cut="0.0000000000000000e+00" cType="1" res="-2.2128401324152946e-03" rms="4.9513384699821472e-01" purity="4.3380784988403320e-01" nType="-99"/>
          <Node pos="r" depth="2" NCoef="0" IVar="-1" Cut="0.0000000000000000e+00" cType="1" res="-7.1949125267565250e-03" rms="3.5637328028678894e-01" purity="1.8018396198749542e-01" nType="-99"/>
        </Node>
      </Node>
    </BinaryTree>
    <BinaryTree type="DecisionTree" boostWeight="1.0000000000000000e+00" itree="128">
      <Node pos="s" depth="0" NCoef="0" IVar="10" Cut="5.1382595300674438e-01" cType="1" res="5.4206894710659981e-03" rms="4.6270400285720825e-01" purity="5.0081801414489746e-01" nType="0">
        <Node pos="l" depth="1" NCoef="0" IVar="0" Cut="8.5908470153808594e+01" cType="1" res="-8.7784364819526672e-02" rms="4.3445289134979248e-01" purity="3.1730690598487854e-01" nType="0">
          <Node pos="l" depth="2" NCoef="0" IVar="-1" Cut="0.0000000000000000e+00" cType="1" res="-4.4879904016852379e-03" rms="4.1777643561363220e-01" purity="2.7173340320587158e-01" nType="-99"/>
          <Node pos="r" depth="2" NCoef="0" IVar="-1" Cut="0.0000000000000000e+00" cType="1" res="-7.1736320387572050e-04" rms="4.6453896164894104e-01" purity="4.2539784312248230e-01" nType="-99"/>
        </Node>
        <Node pos="r" depth="1" NCoef="0" IVar="5" Cut="9.1934543848037720e-01" cType="1" res="3.8568135350942612e-02" rms="4.6788957715034485e-01" purity="5.6608188152313232e-01" nType="0">
          <Node pos="l" depth="2" NCoef="0" IVar="-1" Cut="0.0000000000000000e+00" cType="1" res="-3.1445843633264303e-03" rms="4.6071818470954895e-01" purity="3.7532854080200195e-01" nType="-99"/>
          <Node pos="r" depth="2" NCoef="0" IVar="-1" Cut="0.0000000000000000e+00" cType="1" res="1.7877478385344148e-03" rms="4.6682953834533691e-01" purity="5.8205151557922363e-01" nType="-99"/>
        </Node>
      </Node>
    </BinaryTree>
    <BinaryTree type="DecisionTree" boostWeight="1.0000000000000000e+00" itree="129">
      <Node pos="s" depth="0" NCoef="0" IVar="10" Cut="6.9778203964233398e-01" cType="1" res="-3.1848568469285965e-03" rms="4.6191263198852539e-01" purity="4.9153274297714233e-01" nType="0">
        <Node pos="l" depth="1" NCoef="0" IVar="2" Cut="1.7373710870742798e+00" cType="1" res="-3.4068208187818527e-02" rms="4.6021240949630737e-01" purity="4.2835515737533569e-01" nType="0">
          <Node pos="l" depth="2" NCoef="0" IVar="-1" Cut="0.0000000000000000e+00" cType="1" res="7.6246965909376740e-04" rms="4.6891415119171143e-01" purity="5.8318287134170532e-01" nType="-99"/>
          <Node pos="r" depth="2" NCoef="0" IVar="-1" Cut="0.0000000000000000e+00" cType="1" res="-2.3267602082341909e-03" rms="4.5341101288795471e-01" purity="3.5257521271705627e-01" nType="-99"/>
        </Node>
        <Node pos="r" depth="1" NCoef="0" IVar="5" Cut="9.3557244539260864e-01" cType="1" res="7.0669345557689667e-02" rms="4.5757752656936646e-01" purity="6.4261507987976074e-01" nType="0">
          <Node pos="l" depth="2" NCoef="0" IVar="-1" Cut="0.0000000000000000e+00" cType="1" res="-9.6661312272772193e-04" rms="4.7264775633811951e-01" purity="5.0286424160003662e-01" nType="-99"/>
          <Node pos="r" depth="2" NCoef="0" IVar="-1" Cut="0.0000000000000000e+00" cType="1" res="3.2147886231541634e-03" rms="4.5175832509994507e-01" purity="6.7135602235794067e-01" nType="-99"/>
        </Node>
      </Node>
    </BinaryTree>
    <BinaryTree type="DecisionTree" boostWeight="1.0000000000000000e+00" itree="130">
      <Node pos="s" depth="0" NCoef="0" IVar="3" Cut="1.3422457885742188e+02" cType="1" res="3.7885862402617931e-03" rms="4.6204936504364014e-01" purity="4.9769431352615356e-01" nType="0">
        <Node pos="l" depth="1" NCoef="0" IVar="3" Cut="1.0433274841308594e+02" cType="1" res="1.8857162445783615e-02" rms="4.6337544918060303e-01" purity="5.1793831586837769e-01" nType="0">
          <Node pos="l" depth="2" NCoef="0" IVar="-1" Cut="0.0000000000000000e+00" cType="1" res="-6.5297055989503860e-03" rms="4.1496744751930237e-01" purity="2.7598169445991516e-01" nType="-99"/>
          <Node pos="r" depth="2" NCoef="0" IVar="-1" Cut="0.0000000000000000e+00" cType="1" res="1.1096956441178918e-03" rms="4.6389853954315186e-01" purity="5.3400689363479614e-01" nType="-99"/>
        </Node>
        <Node pos="r" depth="1" NCoef="0" IVar="2" Cut="2.1106820106506348e+00" cType="1" res="-1.2155335396528244e-01" rms="4.3090897798538208e-01" purity="3.2930275797843933e-01" nType="0">
          <Node pos="l" depth="2" NCoef="0" IVar="-1" Cut="0.0000000000000000e+00" cType="1" res="-1.0362709872424603e-03" rms="4.8643156886100769e-01" purity="5.0894641876220703e-01" nType="-99"/>
          <Node pos="r" depth="2" NCoef="0" IVar="-1" Cut="0.0000000000000000e+00" cType="1" res="-9.9922949448227882e-03" rms="3.4191384911537170e-01" purity="1.4888694882392883e-01" nType="-99"/>
        </Node>
      </Node>
    </BinaryTree>
    <BinaryTree type="DecisionTree" boostWeight="1.0000000000000000e+00" itree="131">
      <Node pos="s" depth="0" NCoef="0" IVar="9" Cut="1.3770515918731689e+00" cType="1" res="-7.6266778632998466e-03" rms="4.6480914950370789e-01" purity="4.8777481913566589e-01" nType="0">
        <Node pos="l" depth="1" NCoef="0" IVar="9" Cut="1.0994325876235962e+00" cType="1" res="1.2029420584440231e-01" rms="4.3033775687217712e-01" purity="7.1917057037353516e-01" nType="0">
          <Node pos="l" depth="2" NCoef="0" IVar="-1" Cut="0.0000000000000000e+00" cType="1" res="2.2859075106680393e-03" rms="4.5466768741607666e-01" purity="6.5877079963684082e-01" nType="-99"/>
          <Node pos="r" depth="2" NCoef="0" IVar="-1" Cut="0.0000000000000000e+00" cType="1" res="6.2658647075295448e-03" rms="3.9147347211837769e-01" purity="7.8770047426223755e-01" nType="-99"/>
        </Node>
        <Node pos="r" depth="1" NCoef="0" IVar="0" Cut="1.3652125549316406e+02" cType="1" res="-2.5462023913860321e-02" rms="4.6663707494735718e-01" purity="4.5551252365112305e-01" nType="0">
          <Node pos="l" depth="2" NCoef="0" IVar="-1" Cut="0.0000000000000000e+00" cType="1" res="-5.3387397201731801e-04" rms="4.6579793095588684e-01" purity="4.6428063511848450e-01" nType="-99"/>
          <Node pos="r" depth="2" NCoef="0" IVar="-1" Cut="0.0000000000000000e+00" cType="1" res="-6.3606705516576767e-03" rms="4.5544502139091492e-01" purity="3.4800723195075989e-01" nType="-99"/>
        </Node>
      </Node>
    </BinaryTree>
    <BinaryTree type="DecisionTree" boostWeight="1.0000000000000000e+00" itree="132">
      <Node pos="s" depth="0" NCoef="0" IVar="5" Cut="9.5805746316909790e-01" cType="1" res="7.4653360061347485e-03" rms="4.6073898673057556e-01" purity="5.0782430171966553e-01" nType="0">
        <Node pos="l" depth="1" NCoef="0" IVar="4" Cut="2.0222799682617188e+02" cType="1" res="-3.4682035446166992e-02" rms="4.6092325448989868e-01" purity="4.3763956427574158e-01" nType="0">
          <Node pos="l" depth="2" NCoef="0" IVar="-1" Cut="0.0000000000000000e+00" cType="1" res="-6.3817780464887619e-03" rms="3.7871345877647400e-01" purity="2.0161703228950500e-01" nType="-99"/>
          <Node pos="r" depth="2" NCoef="0" IVar="-1" Cut="0.0000000000000000e+00" cType="1" res="-3.8789710379205644e-04" rms="4.6982038021087646e-01" purity="4.7888395190238953e-01" nType="-99"/>
        </Node>
        <Node pos="r" depth="1" NCoef="0" IVar="0" Cut="4.5223510742187500e+01" cType="1" res="5.9509921818971634e-02" rms="4.5515766739845276e-01" purity="5.9449011087417603e-01" nType="0">
          <Node pos="l" depth="2" NCoef="0" IVar="-1" Cut="0.0000000000000000e+00" cType="1" res="-1.3444464420899749e-03" rms="4.7218179702758789e-01" purity="4.0511837601661682e-01" nType="-99"/>
          <Node pos="r" depth="2" NCoef="0" IVar="-1" Cut="0.0000000000000000e+00" cType="1" res="3.2272161915898323e-03" rms="4.4530591368675232e-01" purity="6.5618741512298584e-01" nType="-99"/>
        </Node>
      </Node>
    </BinaryTree>
    <BinaryTree type="DecisionTree" boostWeight="1.0000000000000000e+00" itree="133">
      <Node pos="s" depth="0" NCoef="0" IVar="11" Cut="7.8273892402648926e-01" cType="1" res="-5.1217093132436275e-03" rms="4.6077799797058105e-01" purity="4.9052754044532776e-01" nType="0">
        <Node pos="l" depth="1" NCoef="0" IVar="5" Cut="9.4487082958221436e-01" cType="1" res="-2.9158867895603180e-02" rms="4.6030464768409729e-01" purity="4.3878945708274841e-01" nType="0">
          <Node pos="l" depth="2" NCoef="0" IVar="-1" Cut="0.0000000000000000e+00" cType="1" res="-3.0456741806119680e-03" rms="4.4346374273300171e-01" purity="3.4121397137641907e-01" nType="-99"/>
          <Node pos="r" depth="2" NCoef="0" IVar="-1" Cut="0.0000000000000000e+00" cType="1" res="7.7627199061680585e-05" rms="4.6693804860115051e-01" purity="4.9527490139007568e-01" nType="-99"/>
        </Node>
        <Node pos="r" depth="1" NCoef="0" IVar="3" Cut="1.2161946868896484e+02" cType="1" res="7.1158960461616516e-02" rms="4.5392477512359619e-01" purity="6.5471571683883667e-01" nType="0">
          <Node pos="l" depth="2" NCoef="0" IVar="-1" Cut="0.0000000000000000e+00" cType="1" res="1.0875752195715904e-04" rms="4.7807914018630981e-01" purity="5.8261144161224365e-01" nType="-99"/>
          <Node pos="r" depth="2" NCoef="0" IVar="-1" Cut="0.0000000000000000e+00" cType="1" res="3.9119562134146690e-03" rms="4.3500363826751709e-01" purity="6.9544363021850586e-01" nType="-99"/>
        </Node>
      </Node>
    </BinaryTree>
    <BinaryTree type="DecisionTree" boostWeight="1.0000000000000000e+00" itree="134">
      <Node pos="s" depth="0" NCoef="0" IVar="9" Cut="1.3686878681182861e+00" cType="1" res="1.5939090400934219e-02" rms="4.6056225895881653e-01" purity="5.1423817873001099e-01" nType="0">
        <Node pos="l" depth="1" NCoef="0" IVar="10" Cut="7.5069677829742432e-01" cType="1" res="1.3891986012458801e-01" rms="4.1945394873619080e-01" purity="7.4294340610504150e-01" nType="0">
          <Node pos="l" depth="2" NCoef="0" IVar="-1" Cut="0.0000000000000000e+00" cType="1" res="6.4703701063990593e-03" rms="4.0040713548660278e-01" purity="7.7760547399520874e-01" nType="-99"/>
          <Node pos="r" depth="2" NCoef="0" IVar="-1" Cut="0.0000000000000000e+00" cType="1" res="2.8950171545147896e-03" rms="4.3133351206779480e-01" purity="7.0673877000808716e-01" nType="-99"/>
        </Node>
        <Node pos="r" depth="1" NCoef="0" IVar="11" Cut="4.8698726296424866e-01" cType="1" res="-1.5362602425739169e-03" rms="4.6346908807754517e-01" purity="4.8173958063125610e-01" nType="0">
          <Node pos="l" depth="2" NCoef="0" IVar="-1" Cut="0.0000000000000000e+00" cType="1" res="-3.9684041403234005e-03" rms="4.0802207589149475e-01" purity="2.5622731447219849e-01" nType="-99"/>
          <Node pos="r" depth="2" NCoef="0" IVar="-1" Cut="0.0000000000000000e+00" cType="1" res="7.7051622793078423e-04" rms="4.7360852360725403e-01" purity="5.3873556852340698e-01" nType="-99"/>
        </Node>
      </Node>
    </BinaryTree>
    <BinaryTree type="DecisionTree" boostWeight="1.0000000000000000e+00" itree="135">
      <Node pos="s" depth="0" NCoef="0" IVar="5" Cut="9.3172204494476318e-01" cType="1" res="9.1816680505871773e-03" rms="4.6531859040260315e-01" purity="5.0280821323394775e-01" nType="0">
        <Node pos="l" depth="1" NCoef="0" IVar="7" Cut="6.5589149475097656e+01" cType="1" res="-9.2591747641563416e-02" rms="4.3453222513198853e-01" purity="3.3234810829162598e-01" nType="0">
          <Node pos="l" depth="2" NCoef="0" IVar="-1" Cut="0.0000000000000000e+00" cType="1" res="-5.2783857099711895e-03" rms="4.0792322158813477e-01" purity="2.5667327642440796e-01" nType="-99"/>
          <Node pos="r" depth="2" NCoef="0" IVar="-1" Cut="0.0000000000000000e+00" cType="1" res="2.8971215942874551e-04" rms="4.6952080726623535e-01" purity="4.9027281999588013e-01" nType="-99"/>
        </Node>
        <Node pos="r" depth="1" NCoef="0" IVar="1" Cut="7.4524101257324219e+01" cType="1" res="2.9299683868885040e-02" rms="4.6855673193931580e-01" purity="5.3650385141372681e-01" nType="0">
          <Node pos="l" depth="2" NCoef="0" IVar="-1" Cut="0.0000000000000000e+00" cType="1" res="-5.7680401951074600e-03" rms="4.5237860083580017e-01" purity="3.2886019349098206e-01" nType="-99"/>
          <Node pos="r" depth="2" NCoef="0" IVar="-1" Cut="0.0000000000000000e+00" cType="1" res="1.4570594066753983e-03" rms="4.6750196814537048e-01" purity="5.5013996362686157e-01" nType="-99"/>
        </Node>
      </Node>
    </BinaryTree>
    <BinaryTree type="DecisionTree" boostWeight="1.0000000000000000e+00" itree="136">
      <Node pos="s" depth="0" NCoef="0" IVar="6" Cut="2.8425746917724609e+01" cType="1" res="-3.0303692910820246e-03" rms="4.6352770924568176e-01" purity="4.9079561233520508e-01" nType="0">
        <Node pos="l" depth="1" NCoef="0" IVar="4" Cut="2.3992755126953125e+02" cType="1" res="-1.1168208718299866e-01" rms="4.1511249542236328e-01" purity="2.9079937934875488e-01" nType="0">
          <Node pos="l" depth="2" NCoef="0" IVar="-1" Cut="0.0000000000000000e+00" cType="1" res="-6.7173209972679615e-03" rms="3.7994375824928284e-01" purity="2.0619377493858337e-01" nType="-99"/>
          <Node pos="r" depth="2" NCoef="0" IVar="-1" Cut="0.0000000000000000e+00" cType="1" res="-2.2676060907542706e-03" rms="4.4846010208129883e-01" purity="3.9392310380935669e-01" nType="-99"/>
        </Node>
        <Node pos="r" depth="1" NCoef="0" IVar="0" Cut="1.4712098693847656e+02" cType="1" res="1.1904331855475903e-02" rms="4.6782422065734863e-01" purity="5.1828610897064209e-01" nType="0">
          <Node pos="l" depth="2" NCoef="0" IVar="-1" Cut="0.0000000000000000e+00" cType="1" res="7.8768725506961346e-04" rms="4.6722108125686646e-01" purity="5.3029447793960571e-01" nType="-99"/>
          <Node pos="r" depth="2" NCoef="0" IVar="-1" Cut="0.0000000000000000e+00" cType="1" res="-5.3276061080396175e-03" rms="4.4978505373001099e-01" purity="3.3639454841613770e-01" nType="-99"/>
        </Node>
      </Node>
    </BinaryTree>
    <BinaryTree type="DecisionTree" boostWeight="1.0000000000000000e+00" itree="137">
      <Node pos="s" depth="0" NCoef="0" IVar="0" Cut="8.4763259887695312e+01" cType="1" res="-6.7543657496571541e-03" rms="4.6561950445175171e-01" purity="4.9026834964752197e-01" nType="0">
        <Node pos="l" depth="1" NCoef="0" IVar="5" Cut="9.5520949363708496e-01" cType="1" res="-3.7813413888216019e-02" rms="4.6442306041717529e-01" purity="4.3144237995147705e-01" nType="0">
          <Node pos="l" depth="2" NCoef="0" IVar="-1" Cut="0.0000000000000000e+00" cType="1" res="-3.1072522979229689e-03" rms="4.4875335693359375e-01" purity="3.4665682911872864e-01" nType="-99"/>
          <Node pos="r" depth="2" NCoef="0" IVar="-1" Cut="0.0000000000000000e+00" cType="1" res="3.2718441798351705e-04" rms="4.7466510534286499e-01" purity="5.1426053047180176e-01" nType="-99"/>
        </Node>
        <Node pos="r" depth="1" NCoef="0" IVar="0" Cut="1.4547764587402344e+02" cType="1" res="5.7951360940933228e-02" rms="4.6143603324890137e-01" purity="6.1282122135162354e-01" nType="0">
          <Node pos="l" depth="2" NCoef="0" IVar="-1" Cut="0.0000000000000000e+00" cType="1" res="3.5561455879360437e-03" rms="4.5009574294090271e-01" purity="6.7012912034988403e-01" nType="-99"/>
          <Node pos="r" depth="2" NCoef="0" IVar="-1" Cut="0.0000000000000000e+00" cType="1" res="-5.1872623153030872e-03" rms="4.6063631772994995e-01" purity="3.5294190049171448e-01" nType="-99"/>
        </Node>
      </Node>
    </BinaryTree>
    <BinaryTree type="DecisionTree" boostWeight="1.0000000000000000e+00" itree="138">
      <Node pos="s" depth="0" NCoef="0" IVar="9" Cut="1.3654636144638062e+00" cType="1" res="1.3020277954638004e-02" rms="4.6519574522972107e-01" purity="5.1206028461456299e-01" nType="0">
        <Node pos="l" depth="1" NCoef="0" IVar="9" Cut="1.0581859350204468e+00" cType="1" res="1.2387942522764206e-01" rms="4.3179413676261902e-01" purity="7.2833240032196045e-01" nType="0">
          <Node pos="l" depth="2" NCoef="0" IVar="-1" Cut="0.0000000000000000e+00" cType="1" res="2.9613445512950420e-03" rms="4.5668521523475647e-01" purity="6.8388825654983521e-01" nType="-99"/>
          <Node pos="r" depth="2" NCoef="0" IVar="-1" Cut="0.0000000000000000e+00" cType="1" res="5.6112878955900669e-03" rms="4.0118208527565002e-01" purity="7.7295446395874023e-01" nType="-99"/>
        </Node>
        <Node pos="r" depth="1" NCoef="0" IVar="5" Cut="9.7696149349212646e-01" cType="1" res="-9.4843312399461865e-04" rms="4.6737414598464966e-01" purity="4.8480913043022156e-01" nType="0">
          <Node pos="l" depth="2" NCoef="0" IVar="-1" Cut="0.0000000000000000e+00" cType="1" res="-7.0966518251225352e-04" rms="4.6669581532478333e-01" purity="4.5693832635879517e-01" nType="-99"/>
          <Node pos="r" depth="2" NCoef="0" IVar="-1" Cut="0.0000000000000000e+00" cType="1" res="2.9982102569192648e-03" rms="4.6125340461730957e-01" purity="6.1373734474182129e-01" nType="-99"/>
        </Node>
      </Node>
    </BinaryTree>
    <BinaryTree type="DecisionTree" boostWeight="1.0000000000000000e+00" itree="139">
      <Node pos="s" depth="0" NCoef="0" IVar="5" Cut="9.2808210849761963e-01" cType="1" res="-8.3440355956554413e-03" rms="4.6070805191993713e-01" purity="4.9144831299781799e-01" nType="0">
        <Node pos="l" depth="1" NCoef="0" IVar="0" Cut="6.0613407135009766e+01" cType="1" res="-1.4822553098201752e-01" rms="4.1895720362663269e-01" purity="2.8151926398277283e-01" nType="0">
          <Node pos="l" depth="2" NCoef="0" IVar="-1" Cut="0.0000000000000000e+00" cType="1" res="-7.9846465960144997e-03" rms="3.4654155373573303e-01" purity="1.7332643270492554e-01" nType="-99"/>
          <Node pos="r" depth="2" NCoef="0" IVar="-1" Cut="0.0000000000000000e+00" cType="1" res="-3.8583495188504457e-03" rms="4.6485540270805359e-01" purity="3.6790767312049866e-01" nType="-99"/>
        </Node>
        <Node pos="r" depth="1" NCoef="0" IVar="10" Cut="5.4699200391769409e-01" cType="1" res="1.5177568420767784e-02" rms="4.6323227882385254e-01" purity="5.2674871683120728e-01" nType="0">
          <Node pos="l" depth="2" NCoef="0" IVar="-1" Cut="0.0000000000000000e+00" cType="1" res="-1.9738152623176575e-03" rms="4.5177233219146729e-01" purity="3.7201610207557678e-01" nType="-99"/>
          <Node pos="r" depth="2" NCoef="0" IVar="-1" Cut="0.0000000000000000e+00" cType="1" res="1.6002734191715717e-03" rms="4.6534946560859680e-01" purity="5.9736889600753784e-01" nType="-99"/>
        </Node>
      </Node>
    </BinaryTree>
    <BinaryTree type="DecisionTree" boostWeight="1.0000000000000000e+00" itree="140">
      <Node pos="s" depth="0" NCoef="0" IVar="0" Cut="4.9488281250000000e+01" cType="1" res="9.9146179854869843e-03" rms="4.6010103821754456e-01" purity="5.0807023048400879e-01" nType="0">
        <Node pos="l" depth="1" NCoef="0" IVar="10" Cut="4.7406798601150513e-01" cType="1" res="-6.3529878854751587e-02" rms="4.4893473386764526e-01" purity="3.5048308968544006e-01" nType="0">
          <Node pos="l" depth="2" NCoef="0" IVar="-1" Cut="0.0000000000000000e+00" cType="1" res="-1.0559022426605225e-02" rms="2.9265224933624268e-01" purity="1.0824888944625854e-01" nType="-99"/>
          <Node pos="r" depth="2" NCoef="0" IVar="-1" Cut="0.0000000000000000e+00" cType="1" res="-1.3141289819031954e-03" rms="4.6638801693916321e-01" purity="3.9513966441154480e-01" nType="-99"/>
        </Node>
        <Node pos="r" depth="1" NCoef="0" IVar="1" Cut="1.1739672851562500e+02" cType="1" res="4.6638306230306625e-02" rms="4.6121865510940552e-01" purity="5.8686685562133789e-01" nType="0">
          <Node pos="l" depth="2" NCoef="0" IVar="-1" Cut="0.0000000000000000e+00" cType="1" res="3.9111818186938763e-03" rms="4.4389972090721130e-01" purity="6.8042010068893433e-01" nType="-99"/>
          <Node pos="r" depth="2" NCoef="0" IVar="-1" Cut="0.0000000000000000e+00" cType="1" res="3.1801479053683579e-04" rms="4.6613258123397827e-01" purity="5.3541475534439087e-01" nType="-99"/>
        </Node>
      </Node>
    </BinaryTree>
    <BinaryTree type="DecisionTree" boostWeight="1.0000000000000000e+00" itree="141">
      <Node pos="s" depth="0" NCoef="0" IVar="2" Cut="3.1751248836517334e+00" cType="1" res="-6.7255162866786122e-04" rms="4.5960476994514465e-01" purity="5.0088393688201904e-01" nType="0">
        <Node pos="l" depth="1" NCoef="0" IVar="5" Cut="9.6000802516937256e-01" cType="1" res="1.5533165074884892e-02" rms="4.6667885780334473e-01" purity="5.3595185279846191e-01" nType="0">
          <Node pos="l" depth="2" NCoef="0" IVar="-1" Cut="0.0000000000000000e+00" cType="1" res="-8.8609335944056511e-04" rms="4.7186589241027832e-01" purity="4.6919324994087219e-01" nType="-99"/>
          <Node pos="r" depth="2" NCoef="0" IVar="-1" Cut="0.0000000000000000e+00" cType="1" res="2.4327221326529980e-03" rms="4.5495259761810303e-01" purity="6.1983376741409302e-01" nType="-99"/>
        </Node>
        <Node pos="r" depth="1" NCoef="0" IVar="-1" Cut="0.0000000000000000e+00" cType="1" res="-7.4017713777720928e-03" rms="3.4018784761428833e-01" purity="1.4703246951103210e-01" nType="-99"/>
      </Node>
    </BinaryTree>
    <BinaryTree type="DecisionTree" boostWeight="1.0000000000000000e+00" itree="142">
      <Node pos="s" depth="0" NCoef="0" IVar="3" Cut="1.4030700683593750e+02" cType="1" res="4.0458869189023972e-03" rms="4.6419358253479004e-01" purity="5.0049656629562378e-01" nType="0">
        <Node pos="l" depth="1" NCoef="0" IVar="9" Cut="1.4135015010833740e+00" cType="1" res="1.5653261914849281e-02" rms="4.6527925133705139e-01" purity="5.1649588346481323e-01" nType="0">
          <Node pos="l" depth="2" NCoef="0" IVar="-1" Cut="0.0000000000000000e+00" cType="1" res="4.3566194362938404e-03" rms="4.3833327293395996e-01" purity="7.1710741519927979e-01" nType="-99"/>
          <Node pos="r" depth="2" NCoef="0" IVar="-1" Cut="0.0000000000000000e+00" cType="1" res="-1.2697654892690480e-04" rms="4.6706610918045044e-01" purity="4.8215758800506592e-01" nType="-99"/>
        </Node>
        <Node pos="r" depth="1" NCoef="0" IVar="-1" Cut="0.0000000000000000e+00" cType="1" res="-9.3614067882299423e-03" rms="3.8795584440231323e-01" purity="2.1058082580566406e-01" nType="-99"/>
      </Node>
    </BinaryTree>
    <BinaryTree type="DecisionTree" boostWeight="1.0000000000000000e+00" itree="143">
      <Node pos="s" depth="0" NCoef="0" IVar="3" Cut="1.3524841308593750e+02" cType="1" res="1.5476268017664552e-03" rms="4.6123743057250977e-01" purity="4.9959355592727661e-01" nType="0">
        <Node pos="l" depth="1" NCoef="0" IVar="10" Cut="5.1223838329315186e-01" cType="1" res="1.5264547429978848e-02" rms="4.6226593852043152e-01" purity="5.1951497793197632e-01" nType="0">
          <Node pos="l" depth="2" NCoef="0" IVar="-1" Cut="0.0000000000000000e+00" cType="1" res="-2.5888169184327126e-03" rms="4.4476959109306335e-01" purity="3.4268760681152344e-01" nType="-99"/>
          <Node pos="r" depth="2" NCoef="0" IVar="-1" Cut="0.0000000000000000e+00" cType="1" res="1.4635949628427625e-03" rms="4.6461200714111328e-01" purity="5.7477563619613647e-01" nType="-99"/>
        </Node>
        <Node pos="r" depth="1" NCoef="0" IVar="-1" Cut="0.0000000000000000e+00" cType="1" res="-5.7280180044472218e-03" rms="4.2514055967330933e-01" purity="2.9316213726997375e-01" nType="-99"/>
      </Node>
    </BinaryTree>
    <BinaryTree type="DecisionTree" boostWeight="1.0000000000000000e+00" itree="144">
      <Node pos="s" depth="0" NCoef="0" IVar="3" Cut="1.3812481689453125e+02" cType="1" res="7.2193483356386423e-04" rms="4.6412169933319092e-01" purity="4.9275532364845276e-01" nType="0">
        <Node pos="l" depth="1" NCoef="0" IVar="11" Cut="4.2186072468757629e-01" cType="1" res="1.1634496040642262e-02" rms="4.6531629562377930e-01" purity="5.0807231664657593e-01" nType="0">
          <Node pos="l" depth="2" NCoef="0" IVar="-1" Cut="0.0000000000000000e+00" cType="1" res="-4.9893553368747234e-03" rms="4.1023519635200500e-01" purity="2.3570419847965240e-01" nType="-99"/>
          <Node pos="r" depth="2" NCoef="0" IVar="-1" Cut="0.0000000000000000e+00" cType="1" res="8.5295183816924691e-04" rms="4.6838492155075073e-01" purity="5.3408873081207275e-01" nType="-99"/>
        </Node>
        <Node pos="r" depth="1" NCoef="0" IVar="-1" Cut="0.0000000000000000e+00" cType="1" res="-6.2021100893616676e-03" rms="4.2053863406181335e-01" purity="2.8509384393692017e-01" nType="-99"/>
      </Node>
    </BinaryTree>
    <BinaryTree type="DecisionTree" boostWeight="1.0000000000000000e+00" itree="145">
      <Node pos="s" depth="0" NCoef="0" IVar="8" Cut="4.3222863769531250e+02" cType="1" res="6.1205425299704075e-03" rms="4.6445137262344360e-01" purity="5.0224494934082031e-01" nType="0">
        <Node pos="l" depth="1" NCoef="0" IVar="5" Cut="9.3711578845977783e-01" cType="1" res="2.3651534691452980e-02" rms="4.6603929996490479e-01" purity="5.3162336349487305e-01" nType="0">
          <Node pos="l" depth="2" NCoef="0" IVar="-1" Cut="0.0000000000000000e+00" cType="1" res="-1.9583641551434994e-03" rms="4.4920489192008972e-01" purity="3.9223292469978333e-01" nType="-99"/>
          <Node pos="r" depth="2" NCoef="0" IVar="-1" Cut="0.0000000000000000e+00" cType="1" res="1.6499893972650170e-03" rms="4.6837055683135986e-01" purity="5.7135254144668579e-01" nType="-99"/>
        </Node>
        <Node pos="r" depth="1" NCoef="0" IVar="1" Cut="1.9302145385742188e+02" cType="1" res="-1.1264266073703766e-01" rms="4.3533742427825928e-01" purity="3.0322122573852539e-01" nType="0">
          <Node pos="l" depth="2" NCoef="0" IVar="-1" Cut="0.0000000000000000e+00" cType="1" res="-6.5644085407257080e-03" rms="4.1236221790313721e-01" purity="2.5483649969100952e-01" nType="-99"/>
          <Node pos="r" depth="2" NCoef="0" IVar="-1" Cut="0.0000000000000000e+00" cType="1" res="-1.4020504895597696e-03" rms="4.5759314298629761e-01" purity="3.7766048312187195e-01" nType="-99"/>
        </Node>
      </Node>
    </BinaryTree>
    <BinaryTree type="DecisionTree" boostWeight="1.0000000000000000e+00" itree="146">
      <Node pos="s" depth="0" NCoef="0" IVar="11" Cut="4.3990239500999451e-01" cType="1" res="-3.8870740681886673e-03" rms="4.6397691965103149e-01" purity="4.9472784996032715e-01" nType="0">
        <Node pos="l" depth="1" NCoef="0" IVar="7" Cut="5.0901477813720703e+01" cType="1" res="-1.2435561418533325e-01" rms="3.9929693937301636e-01" purity="2.2996434569358826e-01" nType="0">
          <Node pos="l" depth="2" NCoef="0" IVar="-1" Cut="0.0000000000000000e+00" cType="1" res="-7.2361347265541553e-03" rms="3.5518530011177063e-01" purity="1.7645367980003357e-01" nType="-99"/>
          <Node pos="r" depth="2" NCoef="0" IVar="-1" Cut="0.0000000000000000e+00" cType="1" res="-3.3840949181467295e-03" rms="4.4286227226257324e-01" purity="2.9386729001998901e-01" nType="-99"/>
        </Node>
        <Node pos="r" depth="1" NCoef="0" IVar="1" Cut="2.0222323608398438e+02" cType="1" res="1.2172251008450985e-02" rms="4.6960136294364929e-01" purity="5.3002274036407471e-01" nType="0">
          <Node pos="l" depth="2" NCoef="0" IVar="-1" Cut="0.0000000000000000e+00" cType="1" res="8.6750875925645232e-04" rms="4.6911945939064026e-01" purity="5.4385888576507568e-01" nType="-99"/>
          <Node pos="r" depth="2" NCoef="0" IVar="-1" Cut="0.0000000000000000e+00" cType="1" res="-4.6490500681102276e-03" rms="4.5319548249244690e-01" purity="3.7596851587295532e-01" nType="-99"/>
        </Node>
      </Node>
    </BinaryTree>
    <BinaryTree type="DecisionTree" boostWeight="1.0000000000000000e+00" itree="147">
      <Node pos="s" depth="0" NCoef="0" IVar="11" Cut="4.4195947051048279e-01" cType="1" res="3.4426853526383638e-03" rms="4.6239137649536133e-01" purity="4.9854600429534912e-01" nType="0">
        <Node pos="l" depth="1" NCoef="0" IVar="0" Cut="5.8007446289062500e+01" cType="1" res="-1.0331957787275314e-01" rms="4.0624055266380310e-01" purity="2.4244879186153412e-01" nType="0">
          <Node pos="l" depth="2" NCoef="0" IVar="-1" Cut="0.0000000000000000e+00" cType="1" res="-8.0527290701866150e-03" rms="3.4037271142005920e-01" purity="1.4938966929912567e-01" nType="-99"/>
          <Node pos="r" depth="2" NCoef="0" IVar="-1" Cut="0.0000000000000000e+00" cType="1" res="-2.1621761843562126e-03" rms="4.4867244362831116e-01" purity="3.2116314768791199e-01" nType="-99"/>
        </Node>
        <Node pos="r" depth="1" NCoef="0" IVar="5" Cut="9.4477862119674683e-01" cType="1" res="2.0102066919207573e-02" rms="4.6835938096046448e-01" purity="5.3850787878036499e-01" nType="0">
          <Node pos="l" depth="2" NCoef="0" IVar="-1" Cut="0.0000000000000000e+00" cType="1" res="-1.1953301727771759e-03" rms="4.6854606270790100e-01" purity="4.3109402060508728e-01" nType="-99"/>
          <Node pos="r" depth="2" NCoef="0" IVar="-1" Cut="0.0000000000000000e+00" cType="1" res="1.6752395313233137e-03" rms="4.6600160002708435e-01" purity="5.8990734815597534e-01" nType="-99"/>
        </Node>
      </Node>
    </BinaryTree>
    <BinaryTree type="DecisionTree" boostWeight="1.0000000000000000e+00" itree="148">
      <Node pos="s" depth="0" NCoef="0" IVar="0" Cut="6.6324378967285156e+01" cType="1" res="1.4566554687917233e-02" rms="4.6599113941192627e-01" purity="5.1138979196548462e-01" nType="0">
        <Node pos="l" depth="1" NCoef="0" IVar="8" Cut="1.9450186157226562e+02" cType="1" res="-1.7569689080119133e-02" rms="4.6488529443740845e-01" purity="4.3005010485649109e-01" nType="0">
          <Node pos="l" depth="2" NCoef="0" IVar="-1" Cut="0.0000000000000000e+00" cType="1" res="1.4627301134169102e-03" rms="4.7387444972991943e-01" purity="5.1276689767837524e-01" nType="-99"/>
          <Node pos="r" depth="2" NCoef="0" IVar="-1" Cut="0.0000000000000000e+00" cType="1" res="-2.8569169808179140e-03" rms="4.4917288422584534e-01" purity="3.5085219144821167e-01" nType="-99"/>
        </Node>
        <Node pos="r" depth="1" NCoef="0" IVar="0" Cut="1.4882835388183594e+02" cType="1" res="5.1013175398111343e-02" rms="4.6455961465835571e-01" purity="6.0363948345184326e-01" nType="0">
          <Node pos="l" depth="2" NCoef="0" IVar="-1" Cut="0.0000000000000000e+00" cType="1" res="2.4601323530077934e-03" rms="4.6423387527465820e-01" purity="6.3015538454055786e-01" nType="-99"/>
          <Node pos="r" depth="2" NCoef="0" IVar="-1" Cut="0.0000000000000000e+00" cType="1" res="-3.4036110155284405e-03" rms="4.4212409853935242e-01" purity="4.0245771408081055e-01" nType="-99"/>
        </Node>
      </Node>
    </BinaryTree>
    <BinaryTree type="DecisionTree" boostWeight="1.0000000000000000e+00" itree="149">
      <Node pos="s" depth="0" NCoef="0" IVar="7" Cut="8.8008689880371094e+01" cType="1" res="-1.0024928487837315e-02" rms="4.6112573146820068e-01" purity="4.8968547582626343e-01" nType="0">
        <Node pos="l" depth="1" NCoef="0" IVar="3" Cut="1.0723417663574219e+02" cType="1" res="-3.2298550009727478e-02" rms="4.5974767208099365e-01" purity="4.5464208722114563e-01" nType="0">
          <Node pos="l" depth="2" NCoef="0" IVar="-1" Cut="0.0000000000000000e+00" cType="1" res="-6.8416474387049675e-03" rms="4.2936590313911438e-01" purity="2.8148868680000305e-01" nType="-99"/>
          <Node pos="r" depth="2" NCoef="0" IVar="-1" Cut="0.0000000000000000e+00" cType="1" res="-7.7495857840403914e-04" rms="4.6043121814727783e-01" purity="4.6922594308853149e-01" nType="-99"/>
        </Node>
        <Node pos="r" depth="1" NCoef="0" IVar="9" Cut="3.1260073184967041e+00" cType="1" res="9.5467790961265564e-02" rms="4.5295575261116028e-01" purity="6.5565854310989380e-01" nType="0">
          <Node pos="l" depth="2" NCoef="0" IVar="-1" Cut="0.0000000000000000e+00" cType="1" res="2.2675022482872009e-03" rms="4.4637238979339600e-01" purity="6.6243922710418701e-01" nType="-99"/>
          <Node pos="r" depth="2" NCoef="0" IVar="-1" Cut="0.0000000000000000e+00" cType="1" res="5.6766183115541935e-03" rms="4.5945844054222107e-01" purity="6.4106220006942749e-01" nType="-99"/>
        </Node>
      </Node>
    </BinaryTree>
    <BinaryTree type="DecisionTree" boostWeight="1.0000000000000000e+00" itree="150">
      <Node pos="s" depth="0" NCoef="0" IVar="8" Cut="2.1905630493164062e+02" cType="1" res="-7.5885285623371601e-03" rms="4.6599495410919189e-01" purity="4.8845866322517395e-01" nType="0">
        <Node pos="l" depth="1" NCoef="0" IVar="6" Cut="2.9699279785156250e+01" cType="1" res="3.6157414317131042e-02" rms="4.6938866376876831e-01" purity="5.4835283756256104e-01" nType="0">
          <Node pos="l" depth="2" NCoef="0" IVar="-1" Cut="0.0000000000000000e+00" cType="1" res="-2.2610202431678772e-03" rms="4.4810110330581665e-01" purity="3.6141166090965271e-01" nType="-99"/>
          <Node pos="r" depth="2" NCoef="0" IVar="-1" Cut="0.0000000000000000e+00" cType="1" res="2.1656805183738470e-03" rms="4.7187402844429016e-01" purity="5.9963554143905640e-01" nType="-99"/>
        </Node>
        <Node pos="r" depth="1" NCoef="0" IVar="2" Cut="1.5346983671188354e+00" cType="1" res="-4.2711902409791946e-02" rms="4.6025255322456360e-01" purity="4.4036993384361267e-01" nType="0">
          <Node pos="l" depth="2" NCoef="0" IVar="-1" Cut="0.0000000000000000e+00" cType="1" res="1.1774552986025810e-03" rms="4.6066293120384216e-01" purity="6.5443688631057739e-01" nType="-99"/>
          <Node pos="r" depth="2" NCoef="0" IVar="-1" Cut="0.0000000000000000e+00" cType="1" res="-2.5759893469512463e-03" rms="4.5754250884056091e-01" purity="3.7324321269989014e-01" nType="-99"/>
        </Node>
      </Node>
    </BinaryTree>
    <BinaryTree type="DecisionTree" boostWeight="1.0000000000000000e+00" itree="151">
      <Node pos="s" depth="0" NCoef="0" IVar="0" Cut="3.7054573059082031e+01" cType="1" res="2.3357639089226723e-02" rms="4.5853456854820251e-01" purity="5.1992255449295044e-01" nType="0">
        <Node pos="l" depth="1" NCoef="0" IVar="0" Cut="2.9347026824951172e+01" cType="1" res="-8.5965752601623535e-02" rms="4.2055273056030273e-01" purity="2.6707530021667480e-01" nType="0">
          <Node pos="l" depth="2" NCoef="0" IVar="-1" Cut="0.0000000000000000e+00" cType="1" res="-7.6502715237438679e-03" rms="3.5954451560974121e-01" purity="1.5488499402999878e-01" nType="-99"/>
          <Node pos="r" depth="2" NCoef="0" IVar="-1" Cut="0.0000000000000000e+00" cType="1" res="-8.0353324301540852e-04" rms="4.5372688770294189e-01" purity="3.5800924897193909e-01" nType="-99"/>
        </Node>
        <Node pos="r" depth="1" NCoef="0" IVar="8" Cut="1.8289433288574219e+02" cType="1" res="4.6913541853427887e-02" rms="4.6294522285461426e-01" purity="5.7440358400344849e-01" nType="0">
          <Node pos="l" depth="2" NCoef="0" IVar="-1" Cut="0.0000000000000000e+00" cType="1" res="4.1609685868024826e-03" rms="4.5604744553565979e-01" purity="6.8188214302062988e-01" nType="-99"/>
          <Node pos="r" depth="2" NCoef="0" IVar="-1" Cut="0.0000000000000000e+00" cType="1" res="7.1416597347706556e-04" rms="4.6252828836441040e-01" purity="5.3463602066040039e-01" nType="-99"/>
        </Node>
      </Node>
    </BinaryTree>
    <BinaryTree type="DecisionTree" boostWeight="1.0000000000000000e+00" itree="152">
      <Node pos="s" depth="0" NCoef="0" IVar="0" Cut="6.1500816345214844e+01" cType="1" res="-1.0681184008717537e-02" rms="4.6504238247871399e-01" purity="4.8706689476966858e-01" nType="0">
        <Node pos="l" depth="1" NCoef="0" IVar="8" Cut="3.3128085327148438e+02" cType="1" res="-5.3071469068527222e-02" rms="4.6531665325164795e-01" purity="3.8526555895805359e-01" nType="0">
          <Node pos="l" depth="2" NCoef="0" IVar="-1" Cut="0.0000000000000000e+00" cType="1" res="-1.4158074045553803e-03" rms="4.7275280952453613e-01" purity="4.1608530282974243e-01" nType="-99"/>
          <Node pos="r" depth="2" NCoef="0" IVar="-1" Cut="0.0000000000000000e+00" cType="1" res="-6.5543134696781635e-03" rms="4.0279605984687805e-01" purity="1.9536232948303223e-01" nType="-99"/>
        </Node>
        <Node pos="r" depth="1" NCoef="0" IVar="8" Cut="4.3278930664062500e+02" cType="1" res="2.8727320954203606e-02" rms="4.6130642294883728e-01" purity="5.8170741796493530e-01" nType="0">
          <Node pos="l" depth="2" NCoef="0" IVar="-1" Cut="0.0000000000000000e+00" cType="1" res="1.7460909439250827e-03" rms="4.6022224426269531e-01" purity="6.2359547615051270e-01" nType="-99"/>
          <Node pos="r" depth="2" NCoef="0" IVar="-1" Cut="0.0000000000000000e+00" cType="1" res="-2.8919409960508347e-03" rms="4.5203015208244324e-01" purity="3.7535789608955383e-01" nType="-99"/>
        </Node>
      </Node>
    </BinaryTree>
    <BinaryTree type="DecisionTree" boostWeight="1.0000000000000000e+00" itree="153">
      <Node pos="s" depth="0" NCoef="0" IVar="8" Cut="2.1905630493164062e+02" cType="1" res="1.1844623368233442e-03" rms="4.6198615431785583e-01" purity="4.9716398119926453e-01" nType="0">
        <Node pos="l" depth="1" NCoef="0" IVar="0" Cut="5.2813598632812500e+01" cType="1" res="4.7848708927631378e-02" rms="4.5768731832504272e-01" purity="5.6430673599243164e-01" nType="0">
          <Node pos="l" depth="2" NCoef="0" IVar="-1" Cut="0.0000000000000000e+00" cType="1" res="-6.5009330864995718e-04" rms="4.6847417950630188e-01" purity="4.2897811532020569e-01" nType="-99"/>
          <Node pos="r" depth="2" NCoef="0" IVar="-1" Cut="0.0000000000000000e+00" cType="1" res="4.1975639760494232e-03" rms="4.3236032128334045e-01" purity="7.2347939014434814e-01" nType="-99"/>
        </Node>
        <Node pos="r" depth="1" NCoef="0" IVar="9" Cut="1.6822371482849121e+00" cType="1" res="-3.9624173194169998e-02" rms="4.6186468005180359e-01" purity="4.3844649195671082e-01" nType="0">
          <Node pos="l" depth="2" NCoef="0" IVar="-1" Cut="0.0000000000000000e+00" cType="1" res="2.0967377349734306e-03" rms="4.4764897227287292e-01" purity="6.8903458118438721e-01" nType="-99"/>
          <Node pos="r" depth="2" NCoef="0" IVar="-1" Cut="0.0000000000000000e+00" cType="1" res="-2.1078584250062704e-03" rms="4.6222984790802002e-01" purity="3.9667236804962158e-01" nType="-99"/>
        </Node>
      </Node>
    </BinaryTree>
    <BinaryTree type="DecisionTree" boostWeight="1.0000000000000000e+00" itree="154">
      <Node pos="s" depth="0" NCoef="0" IVar="3" Cut="1.3996926879882812e+02" cType="1" res="-3.4434106200933456e-03" rms="4.6288141608238220e-01" purity="4.9246814846992493e-01" nType="0">
        <Node pos="l" depth="1" NCoef="0" IVar="5" Cut="9.2808210849761963e-01" cType="1" res="6.2075038440525532e-03" rms="4.6421432495117188e-01" purity="5.0716358423233032e-01" nType="0">
          <Node pos="l" depth="2" NCoef="0" IVar="-1" Cut="0.0000000000000000e+00" cType="1" res="-3.0058061238378286e-03" rms="4.4371083378791809e-01" purity="3.3872044086456299e-01" nType="-99"/>
          <Node pos="r" depth="2" NCoef="0" IVar="-1" Cut="0.0000000000000000e+00" cType="1" res="7.3635601438581944e-04" rms="4.6584975719451904e-01" purity="5.3389704227447510e-01" nType="-99"/>
        </Node>
        <Node pos="r" depth="1" NCoef="0" IVar="-1" Cut="0.0000000000000000e+00" cType="1" res="-7.0650386624038219e-03" rms="4.0882271528244019e-01" purity="2.5052976608276367e-01" nType="-99"/>
      </Node>
    </BinaryTree>
    <BinaryTree type="DecisionTree" boostWeight="1.0000000000000000e+00" itree="155">
      <Node pos="s" depth="0" NCoef="0" IVar="9" Cut="1.9120965003967285e+00" cType="1" res="7.6003735885024071e-03" rms="4.6238583326339722e-01" purity="5.0409072637557983e-01" nType="0">
        <Node pos="l" depth="1" NCoef="0" IVar="5" Cut="9.5802187919616699e-01" cType="1" res="7.3169440031051636e-02" rms="4.4788604974746704e-01" purity="6.5232235193252563e-01" nType="0">
          <Node pos="l" depth="2" NCoef="0" IVar="-1" Cut="0.0000000000000000e+00" cType="1" res="1.0244679870083928e-03" rms="4.6714079380035400e-01" purity="5.7859069108963013e-01" nType="-99"/>
          <Node pos="r" depth="2" NCoef="0" IVar="-1" Cut="0.0000000000000000e+00" cType="1" res="4.1611832566559315e-03" rms="4.2335823178291321e-01" purity="7.2557061910629272e-01" nType="-99"/>
        </Node>
        <Node pos="r" depth="1" NCoef="0" IVar="5" Cut="9.3746376037597656e-01" cType="1" res="-1.6916673630475998e-02" rms="4.6532481908798218e-01" purity="4.4866517186164856e-01" nType="0">
          <Node pos="l" depth="2" NCoef="0" IVar="-1" Cut="0.0000000000000000e+00" cType="1" res="-2.9645059257745743e-03" rms="4.4065821170806885e-01" purity="3.2554772496223450e-01" nType="-99"/>
          <Node pos="r" depth="2" NCoef="0" IVar="-1" Cut="0.0000000000000000e+00" cType="1" res="2.5937132886610925e-04" rms="4.7171020507812500e-01" purity="4.9343442916870117e-01" nType="-99"/>
        </Node>
      </Node>
    </BinaryTree>
    <BinaryTree type="DecisionTree" boostWeight="1.0000000000000000e+00" itree="156">
      <Node pos="s" depth="0" NCoef="0" IVar="0" Cut="6.7649749755859375e+01" cType="1" res="-8.9535638689994812e-03" rms="4.6233400702476501e-01" purity="4.8488283157348633e-01" nType="0">
        <Node pos="l" depth="1" NCoef="0" IVar="0" Cut="3.8713069915771484e+01" cType="1" res="-5.2437618374824524e-02" rms="4.6008464694023132e-01" purity="3.8952061533927917e-01" nType="0">
          <Node pos="l" depth="2" NCoef="0" IVar="-1" Cut="0.0000000000000000e+00" cType="1" res="-4.3262336403131485e-03" rms="4.2429041862487793e-01" purity="2.5588974356651306e-01" nType="-99"/>
          <Node pos="r" depth="2" NCoef="0" IVar="-1" Cut="0.0000000000000000e+00" cType="1" res="-8.6615752661600709e-04" rms="4.7672241926193237e-01" purity="4.6469286084175110e-01" nType="-99"/>
        </Node>
        <Node pos="r" depth="1" NCoef="0" IVar="8" Cut="2.9226220703125000e+02" cType="1" res="4.2284026741981506e-02" rms="4.5972192287445068e-01" purity="5.9724891185760498e-01" nType="0">
          <Node pos="l" depth="2" NCoef="0" IVar="-1" Cut="0.0000000000000000e+00" cType="1" res="3.3865899313241243e-03" rms="4.4266134500503540e-01" purity="6.9826602935791016e-01" nType="-99"/>
          <Node pos="r" depth="2" NCoef="0" IVar="-1" Cut="0.0000000000000000e+00" cType="1" res="-6.8180082598701119e-04" rms="4.7006994485855103e-01" purity="4.8773974180221558e-01" nType="-99"/>
        </Node>
      </Node>
    </BinaryTree>
    <BinaryTree type="DecisionTree" boostWeight="1.0000000000000000e+00" itree="157">
      <Node pos="s" depth="0" NCoef="0" IVar="2" Cut="1.2562319040298462e+00" cType="1" res="5.4116686806082726e-03" rms="4.6103569865226746e-01" purity="5.0745660066604614e-01" nType="0">
        <Node pos="l" depth="1" NCoef="0" IVar="4" Cut="3.8594332885742188e+02" cType="1" res="8.4666937589645386e-02" rms="4.4228383898735046e-01" purity="6.7683982849121094e-01" nType="0">
          <Node pos="l" depth="2" NCoef="0" IVar="-1" Cut="0.0000000000000000e+00" cType="1" res="1.4849660219624639e-03" rms="4.6188181638717651e-01" purity="6.1077314615249634e-01" nType="-99"/>
          <Node pos="r" depth="2" NCoef="0" IVar="-1" Cut="0.0000000000000000e+00" cType="1" res="5.6710443459451199e-03" rms="3.9147403836250305e-01" purity="7.9779577255249023e-01" nType="-99"/>
        </Node>
        <Node pos="r" depth="1" NCoef="0" IVar="0" Cut="1.3652125549316406e+02" cType="1" res="-1.8037931993603706e-02" rms="4.6385055780410767e-01" purity="4.5734041929244995e-01" nType="0">
          <Node pos="l" depth="2" NCoef="0" IVar="-1" Cut="0.0000000000000000e+00" cType="1" res="-1.9494994194246829e-04" rms="4.6359956264495850e-01" purity="4.6837547421455383e-01" nType="-99"/>
          <Node pos="r" depth="2" NCoef="0" IVar="-1" Cut="0.0000000000000000e+00" cType="1" res="-6.3398601487278938e-03" rms="4.4049277901649475e-01" purity="3.2948333024978638e-01" nType="-99"/>
        </Node>
      </Node>
    </BinaryTree>
    <BinaryTree type="DecisionTree" boostWeight="1.0000000000000000e+00" itree="158">
      <Node pos="s" depth="0" NCoef="0" IVar="1" Cut="1.6283410644531250e+02" cType="1" res="6.4856400713324547e-03" rms="4.6191716194152832e-01" purity="5.0143778324127197e-01" nType="0">
        <Node pos="l" depth="1" NCoef="0" IVar="0" Cut="6.6585845947265625e+01" cType="1" res="2.5641147047281265e-02" rms="4.6184819936752319e-01" purity="5.2584683895111084e-01" nType="0">
          <Node pos="l" depth="2" NCoef="0" IVar="-1" Cut="0.0000000000000000e+00" cType="1" res="-3.6199926398694515e-04" rms="4.6798893809318542e-01" purity="4.3501412868499756e-01" nType="-99"/>
          <Node pos="r" depth="2" NCoef="0" IVar="-1" Cut="0.0000000000000000e+00" cType="1" res="2.6895417831838131e-03" rms="4.4796755909919739e-01" purity="6.5711909532546997e-01" nType="-99"/>
        </Node>
        <Node pos="r" depth="1" NCoef="0" IVar="7" Cut="9.9635978698730469e+01" cType="1" res="-6.7813947796821594e-02" rms="4.5461064577102661e-01" purity="4.0676102042198181e-01" nType="0">
          <Node pos="l" depth="2" NCoef="0" IVar="-1" Cut="0.0000000000000000e+00" cType="1" res="-4.8386007547378540e-03" rms="4.4602531194686890e-01" purity="3.2788676023483276e-01" nType="-99"/>
          <Node pos="r" depth="2" NCoef="0" IVar="-1" Cut="0.0000000000000000e+00" cType="1" res="9.3828723765909672e-04" rms="4.5486822724342346e-01" purity="5.4685389995574951e-01" nType="-99"/>
        </Node>
      </Node>
    </BinaryTree>
    <BinaryTree type="DecisionTree" boostWeight="1.0000000000000000e+00" itree="159">
      <Node pos="s" depth="0" NCoef="0" IVar="5" Cut="9.3804478645324707e-01" cType="1" res="-5.7828170247375965e-04" rms="4.6302434802055359e-01" purity="4.9623501300811768e-01" nType="0">
        <Node pos="l" depth="1" NCoef="0" IVar="6" Cut="3.2947437286376953e+01" cType="1" res="-7.6199196279048920e-02" rms="4.4416838884353638e-01" purity="3.5604715347290039e-01" nType="0">
          <Node pos="l" depth="2" NCoef="0" IVar="-1" Cut="0.0000000000000000e+00" cType="1" res="-8.1493938341736794e-03" rms="3.5472756624221802e-01" purity="1.5796793997287750e-01" nType="-99"/>
          <Node pos="r" depth="2" NCoef="0" IVar="-1" Cut="0.0000000000000000e+00" cType="1" res="-1.5720425872132182e-03" rms="4.6032992005348206e-01" purity="4.0876662731170654e-01" nType="-99"/>
        </Node>
        <Node pos="r" depth="1" NCoef="0" IVar="0" Cut="7.9389289855957031e+01" cType="1" res="2.4174557998776436e-02" rms="4.6637567877769470e-01" purity="5.4212242364883423e-01" nType="0">
          <Node pos="l" depth="2" NCoef="0" IVar="-1" Cut="0.0000000000000000e+00" cType="1" res="-2.2165832342579961e-04" rms="4.7439259290695190e-01" purity="4.7960361838340759e-01" nType="-99"/>
          <Node pos="r" depth="2" NCoef="0" IVar="-1" Cut="0.0000000000000000e+00" cType="1" res="2.8652020264416933e-03" rms="4.4557070732116699e-01" purity="6.5917080640792847e-01" nType="-99"/>
        </Node>
      </Node>
    </BinaryTree>
    <BinaryTree type="DecisionTree" boostWeight="1.0000000000000000e+00" itree="160">
      <Node pos="s" depth="0" NCoef="0" IVar="0" Cut="8.5792678833007812e+01" cType="1" res="-7.5351144187152386e-03" rms="4.6135917305946350e-01" purity="4.9167683720588684e-01" nType="0">
        <Node pos="l" depth="1" NCoef="0" IVar="5" Cut="9.4510060548782349e-01" cType="1" res="-3.7486646324396133e-02" rms="4.6250221133232117e-01" purity="4.3188735842704773e-01" nType="0">
          <Node pos="l" depth="2" NCoef="0" IVar="-1" Cut="0.0000000000000000e+00" cType="1" res="-3.7567215040326118e-03" rms="4.3594419956207275e-01" purity="3.1639960408210754e-01" nType="-99"/>
          <Node pos="r" depth="2" NCoef="0" IVar="-1" Cut="0.0000000000000000e+00" cType="1" res="-1.9582970708142966e-04" rms="4.7213184833526611e-01" purity="4.9049326777458191e-01" nType="-99"/>
        </Node>
        <Node pos="r" depth="1" NCoef="0" IVar="0" Cut="1.3711569213867188e+02" cType="1" res="5.6948725134134293e-02" rms="4.5220491290092468e-01" purity="6.2040007114410400e-01" nType="0">
          <Node pos="l" depth="2" NCoef="0" IVar="-1" Cut="0.0000000000000000e+00" cType="1" res="3.1946389935910702e-03" rms="4.4105339050292969e-01" purity="6.7480134963989258e-01" nType="-99"/>
          <Node pos="r" depth="2" NCoef="0" IVar="-1" Cut="0.0000000000000000e+00" cType="1" res="-2.6808823458850384e-03" rms="4.7047105431556702e-01" purity="4.1596776247024536e-01" nType="-99"/>
        </Node>
      </Node>
    </BinaryTree>
    <BinaryTree type="DecisionTree" boostWeight="1.0000000000000000e+00" itree="161">
      <Node pos="s" depth="0" NCoef="0" IVar="11" Cut="7.2253906726837158e-01" cType="1" res="8.3045260980725288e-03" rms="4.6023151278495789e-01" purity="5.0295674800872803e-01" nType="0">
        <Node pos="l" depth="1" NCoef="0" IVar="4" Cut="2.0723660278320312e+02" cType="1" res="-2.0124429836869240e-02" rms="4.6186894178390503e-01" purity="4.2497235536575317e-01" nType="0">
          <Node pos="l" depth="2" NCoef="0" IVar="-1" Cut="0.0000000000000000e+00" cType="1" res="-4.1958093643188477e-03" rms="4.2473593354225159e-01" purity="2.5789538025856018e-01" nType="-99"/>
          <Node pos="r" depth="2" NCoef="0" IVar="-1" Cut="0.0000000000000000e+00" cType="1" res="-1.5953389811329544e-04" rms="4.6750214695930481e-01" purity="4.5897817611694336e-01" nType="-99"/>
        </Node>
        <Node pos="r" depth="1" NCoef="0" IVar="7" Cut="8.8966339111328125e+01" cType="1" res="5.8325793594121933e-02" rms="4.5302560925483704e-01" purity="6.4017164707183838e-01" nType="0">
          <Node pos="l" depth="2" NCoef="0" IVar="-1" Cut="0.0000000000000000e+00" cType="1" res="1.1745644733309746e-03" rms="4.6425712108612061e-01" purity="5.9597426652908325e-01" nType="-99"/>
          <Node pos="r" depth="2" NCoef="0" IVar="-1" Cut="0.0000000000000000e+00" cType="1" res="5.2625457756221294e-03" rms="3.9372101426124573e-01" purity="8.0557686090469360e-01" nType="-99"/>
        </Node>
      </Node>
    </BinaryTree>
    <BinaryTree type="DecisionTree" boostWeight="1.0000000000000000e+00" itree="162">
      <Node pos="s" depth="0" NCoef="0" IVar="3" Cut="1.3812481689453125e+02" cType="1" res="2.4696860928088427e-03" rms="4.6306547522544861e-01" purity="4.9738252162933350e-01" nType="0">
        <Node pos="l" depth="1" NCoef="0" IVar="8" Cut="3.3699230957031250e+02" cType="1" res="1.2257166206836700e-02" rms="4.6537685394287109e-01" purity="5.1429307460784912e-01" nType="0">
          <Node pos="l" depth="2" NCoef="0" IVar="-1" Cut="0.0000000000000000e+00" cType="1" res="1.1804433306679130e-03" rms="4.6339154243469238e-01" purity="5.5008751153945923e-01" nType="-99"/>
          <Node pos="r" depth="2" NCoef="0" IVar="-1" Cut="0.0000000000000000e+00" cType="1" res="-1.9214260391891003e-03" rms="4.6576902270317078e-01" purity="4.0284678339958191e-01" nType="-99"/>
        </Node>
        <Node pos="r" depth="1" NCoef="0" IVar="-1" Cut="0.0000000000000000e+00" cType="1" res="-5.8798487298190594e-03" rms="4.0634682774543762e-01" purity="2.6356044411659241e-01" nType="-99"/>
      </Node>
    </BinaryTree>
    <BinaryTree type="DecisionTree" boostWeight="1.0000000000000000e+00" itree="163">
      <Node pos="s" depth="0" NCoef="0" IVar="0" Cut="3.7431503295898438e+01" cType="1" res="6.3132769428193569e-03" rms="4.5921397209167480e-01" purity="5.0782358646392822e-01" nType="0">
        <Node pos="l" depth="1" NCoef="0" IVar="4" Cut="2.0230291748046875e+02" cType="1" res="-7.6706804335117340e-02" rms="4.3429619073867798e-01" purity="2.8138107061386108e-01" nType="0">
          <Node pos="l" depth="2" NCoef="0" IVar="-1" Cut="0.0000000000000000e+00" cType="1" res="-5.4683587513864040e-03" rms="3.9094159007072449e-01" purity="2.0514255762100220e-01" nType="-99"/>
          <Node pos="r" depth="2" NCoef="0" IVar="-1" Cut="0.0000000000000000e+00" cType="1" res="-2.2026568185538054e-03" rms="4.5292490720748901e-01" purity="3.1992462277412415e-01" nType="-99"/>
        </Node>
        <Node pos="r" depth="1" NCoef="0" IVar="5" Cut="9.1819733381271362e-01" cType="1" res="2.3693274706602097e-02" rms="4.6237808465957642e-01" purity="5.5522859096527100e-01" nType="0">
          <Node pos="l" depth="2" NCoef="0" IVar="-1" Cut="0.0000000000000000e+00" cType="1" res="-4.1547594591975212e-03" rms="4.5099005103111267e-01" purity="3.4399384260177612e-01" nType="-99"/>
          <Node pos="r" depth="2" NCoef="0" IVar="-1" Cut="0.0000000000000000e+00" cType="1" res="1.2457296252250671e-03" rms="4.6139478683471680e-01" purity="5.7076609134674072e-01" nType="-99"/>
        </Node>
      </Node>
    </BinaryTree>
    <BinaryTree type="DecisionTree" boostWeight="1.0000000000000000e+00" itree="164">
      <Node pos="s" depth="0" NCoef="0" IVar="11" Cut="4.6167290210723877e-01" cType="1" res="1.5400913543999195e-02" rms="4.6023139357566833e-01" purity="5.1066833734512329e-01" nType="0">
        <Node pos="l" depth="1" NCoef="0" IVar="1" Cut="1.2342720794677734e+02" cType="1" res="-7.7508099377155304e-02" rms="4.0774747729301453e-01" purity="2.7197921276092529e-01" nType="0">
          <Node pos="l" depth="2" NCoef="0" IVar="-1" Cut="0.0000000000000000e+00" cType="1" res="-1.6723281005397439e-03" rms="4.2649853229522705e-01" purity="3.2766342163085938e-01" nType="-99"/>
          <Node pos="r" depth="2" NCoef="0" IVar="-1" Cut="0.0000000000000000e+00" cType="1" res="-5.1976433023810387e-03" rms="3.8522857427597046e-01" purity="2.1791626513004303e-01" nType="-99"/>
        </Node>
        <Node pos="r" depth="1" NCoef="0" IVar="3" Cut="1.1171659851074219e+02" cType="1" res="3.2660398632287979e-02" rms="4.6730515360832214e-01" purity="5.5500906705856323e-01" nType="0">
          <Node pos="l" depth="2" NCoef="0" IVar="-1" Cut="0.0000000000000000e+00" cType="1" res="-2.4519199505448341e-03" rms="4.7507178783416748e-01" purity="4.2232459783554077e-01" nType="-99"/>
          <Node pos="r" depth="2" NCoef="0" IVar="-1" Cut="0.0000000000000000e+00" cType="1" res="1.6333658713847399e-03" rms="4.6468093991279602e-01" purity="5.7283574342727661e-01" nType="-99"/>
        </Node>
      </Node>
    </BinaryTree>
    <BinaryTree type="DecisionTree" boostWeight="1.0000000000000000e+00" itree="165">
      <Node pos="s" depth="0" NCoef="0" IVar="5" Cut="9.7691428661346436e-01" cType="1" res="1.0935734026134014e-02" rms="4.6493455767631531e-01" purity="5.0537645816802979e-01" nType="0">
        <Node pos="l" depth="1" NCoef="0" IVar="7" Cut="6.3931644439697266e+01" cType="1" res="-4.4539845548570156e-03" rms="4.6609589457511902e-01" purity="4.7920030355453491e-01" nType="0">
          <Node pos="l" depth="2" NCoef="0" IVar="-1" Cut="0.0000000000000000e+00" cType="1" res="-9.8773103673011065e-04" rms="4.6419885754585266e-01" purity="4.2643302679061890e-01" nType="-99"/>
          <Node pos="r" depth="2" NCoef="0" IVar="-1" Cut="0.0000000000000000e+00" cType="1" res="1.4393242308869958e-03" rms="4.6671703457832336e-01" purity="5.8777105808258057e-01" nType="-99"/>
        </Node>
        <Node pos="r" depth="1" NCoef="0" IVar="8" Cut="2.1243177795410156e+02" cType="1" res="8.8447667658329010e-02" rms="4.5112901926040649e-01" purity="6.3721561431884766e-01" nType="0">
          <Node pos="l" depth="2" NCoef="0" IVar="-1" Cut="0.0000000000000000e+00" cType="1" res="5.0956760533154011e-03" rms="4.3147456645965576e-01" purity="7.0582485198974609e-01" nType="-99"/>
          <Node pos="r" depth="2" NCoef="0" IVar="-1" Cut="0.0000000000000000e+00" cType="1" res="1.9939236808568239e-03" rms="4.6180477738380432e-01" purity="5.8772557973861694e-01" nType="-99"/>
        </Node>
      </Node>
    </BinaryTree>
    <BinaryTree type="DecisionTree" boostWeight="1.0000000000000000e+00" itree="166">
      <Node pos="s" depth="0" NCoef="0" IVar="10" Cut="5.1223838329315186e-01" cType="1" res="-7.9655200242996216e-03" rms="4.5594337582588196e-01" purity="4.8597627878189087e-01" nType="0">
        <Node pos="l" depth="1" NCoef="0" IVar="2" Cut="2.5569207668304443e+00" cType="1" res="-8.5427708923816681e-02" rms="4.1918915510177612e-01" purity="3.0571794509887695e-01" nType="0">
          <Node pos="l" depth="2" NCoef="0" IVar="-1" Cut="0.0000000000000000e+00" cType="1" res="-1.2591148260980844e-03" rms="4.7088161110877991e-01" purity="4.3665140867233276e-01" nType="-99"/>
          <Node pos="r" depth="2" NCoef="0" IVar="-1" Cut="0.0000000000000000e+00" cType="1" res="-6.9089243188500404e-03" rms="3.3107575774192810e-01" purity="1.3804784417152405e-01" nType="-99"/>
        </Node>
        <Node pos="r" depth="1" NCoef="0" IVar="5" Cut="9.2828565835952759e-01" cType="1" res="1.8797928467392921e-02" rms="4.6498167514801025e-01" purity="5.4825603961944580e-01" nType="0">
          <Node pos="l" depth="2" NCoef="0" IVar="-1" Cut="0.0000000000000000e+00" cType="1" res="-3.6586653441190720e-03" rms="4.4496908783912659e-01" purity="3.4798696637153625e-01" nType="-99"/>
          <Node pos="r" depth="2" NCoef="0" IVar="-1" Cut="0.0000000000000000e+00" cType="1" res="1.3488383265212178e-03" rms="4.6512955427169800e-01" purity="5.7833397388458252e-01" nType="-99"/>
        </Node>
      </Node>
    </BinaryTree>
    <BinaryTree type="DecisionTree" boostWeight="1.0000000000000000e+00" itree="167">
      <Node pos="s" depth="0" NCoef="0" IVar="1" Cut="8.0273941040039062e+01" cType="1" res="-1.3211953453719616e-02" rms="4.6323934197425842e-01" purity="4.8107749223709106e-01" nType="0">
        <Node pos="l" depth="1" NCoef="0" IVar="1" Cut="7.3118179321289062e+01" cType="1" res="-1.0603980720043182e-01" rms="4.5534729957580566e-01" purity="3.4719273447990417e-01" nType="0">
          <Node pos="l" depth="2" NCoef="0" IVar="-1" Cut="0.0000000000000000e+00" cType="1" res="-7.7066156081855297e-03" rms="4.1397181153297424e-01" purity="2.3732919991016388e-01" nType="-99"/>
          <Node pos="r" depth="2" NCoef="0" IVar="-1" Cut="0.0000000000000000e+00" cType="1" res="-9.9240452982485294e-04" rms="4.8616504669189453e-01" purity="4.7273266315460205e-01" nType="-99"/>
        </Node>
        <Node pos="r" depth="1" NCoef="0" IVar="8" Cut="3.2760876464843750e+02" cType="1" res="-1.4460656093433499e-03" rms="4.6290272474288940e-01" purity="4.9804738163948059e-01" nType="0">
          <Node pos="l" depth="2" NCoef="0" IVar="-1" Cut="0.0000000000000000e+00" cType="1" res="8.1990653416141868e-04" rms="4.6285948157310486e-01" purity="5.4535084962844849e-01" nType="-99"/>
          <Node pos="r" depth="2" NCoef="0" IVar="-1" Cut="0.0000000000000000e+00" cType="1" res="-2.2991374135017395e-03" rms="4.5798218250274658e-01" purity="3.8518667221069336e-01" nType="-99"/>
        </Node>
      </Node>
    </BinaryTree>
    <BinaryTree type="DecisionTree" boostWeight="1.0000000000000000e+00" itree="168">
      <Node pos="s" depth="0" NCoef="0" IVar="3" Cut="1.0623238372802734e+02" cType="1" res="3.0937378760427237e-03" rms="4.5916247367858887e-01" purity="4.9720180034637451e-01" nType="0">
        <Node pos="l" depth="1" NCoef="0" IVar="-1" Cut="0.0000000000000000e+00" cType="1" res="-5.1482100971043110e-03" rms="4.1756922006607056e-01" purity="3.0504953861236572e-01" nType="-99"/>
        <Node pos="r" depth="1" NCoef="0" IVar="9" Cut="1.4896881580352783e+00" cType="1" res="1.4778793789446354e-02" rms="4.6061807870864868e-01" purity="5.1347273588180542e-01" nType="0">
          <Node pos="l" depth="2" NCoef="0" IVar="-1" Cut="0.0000000000000000e+00" cType="1" res="3.4962147474288940e-03" rms="4.3888640403747559e-01" purity="6.9977807998657227e-01" nType="-99"/>
          <Node pos="r" depth="2" NCoef="0" IVar="-1" Cut="0.0000000000000000e+00" cType="1" res="2.9058286600047722e-05" rms="4.6279704570770264e-01" purity="4.8153299093246460e-01" nType="-99"/>
        </Node>
      </Node>
    </BinaryTree>
    <BinaryTree type="DecisionTree" boostWeight="1.0000000000000000e+00" itree="169">
      <Node pos="s" depth="0" NCoef="0" IVar="0" Cut="8.6725166320800781e+01" cType="1" res="-1.4257209841161966e-03" rms="4.5832493901252747e-01" purity="4.9469092488288879e-01" nType="0">
        <Node pos="l" depth="1" NCoef="0" IVar="9" Cut="1.3465222120285034e+00" cType="1" res="-2.7161732316017151e-02" rms="4.6173536777496338e-01" purity="4.3864896893501282e-01" nType="0">
          <Node pos="l" depth="2" NCoef="0" IVar="-1" Cut="0.0000000000000000e+00" cType="1" res="3.6954975221306086e-03" rms="4.3854534626007080e-01" purity="6.8818914890289307e-01" nType="-99"/>
          <Node pos="r" depth="2" NCoef="0" IVar="-1" Cut="0.0000000000000000e+00" cType="1" res="-1.7926839645951986e-03" rms="4.6185728907585144e-01" purity="4.0211614966392517e-01" nType="-99"/>
        </Node>
        <Node pos="r" depth="1" NCoef="0" IVar="9" Cut="2.7745692729949951e+00" cType="1" res="6.0152690857648849e-02" rms="4.4404655694961548e-01" purity="6.2878233194351196e-01" nType="0">
          <Node pos="l" depth="2" NCoef="0" IVar="-1" Cut="0.0000000000000000e+00" cType="1" res="4.3180678039789200e-03" rms="4.1826245188713074e-01" purity="7.5006681680679321e-01" nType="-99"/>
          <Node pos="r" depth="2" NCoef="0" IVar="-1" Cut="0.0000000000000000e+00" cType="1" res="-6.6671986132860184e-04" rms="4.6221724152565002e-01" purity="4.7866293787956238e-01" nType="-99"/>
        </Node>
      </Node>
    </BinaryTree>
    <BinaryTree type="DecisionTree" boostWeight="1.0000000000000000e+00" itree="170">
      <Node pos="s" depth="0" NCoef="0" IVar="5" Cut="9.6322041749954224e-01" cType="1" res="-7.3238504119217396e-03" rms="4.5844483375549316e-01" purity="4.9214953184127808e-01" nType="0">
        <Node pos="l" depth="1" NCoef="0" IVar="0" Cut="1.3652125549316406e+02" cType="1" res="-3.5442147403955460e-02" rms="4.5825073122978210e-01" purity="4.3654090166091919e-01" nType="0">
          <Node pos="l" depth="2" NCoef="0" IVar="-1" Cut="0.0000000000000000e+00" cType="1" res="-8.8839023374021053e-04" rms="4.5887830853462219e-01" purity="4.4599729776382446e-01" nType="-99"/>
          <Node pos="r" depth="2" NCoef="0" IVar="-1" Cut="0.0000000000000000e+00" cType="1" res="-5.5496534332633018e-03" rms="4.3420451879501343e-01" purity="3.3761793375015259e-01" nType="-99"/>
        </Node>
        <Node pos="r" depth="1" NCoef="0" IVar="10" Cut="4.8047360777854919e-01" cType="1" res="4.1288387030363083e-02" rms="4.5469683408737183e-01" purity="5.8828836679458618e-01" nType="0">
          <Node pos="l" depth="2" NCoef="0" IVar="-1" Cut="0.0000000000000000e+00" cType="1" res="-2.7392026968300343e-03" rms="4.3339902162551880e-01" purity="3.5172906517982483e-01" nType="-99"/>
          <Node pos="r" depth="2" NCoef="0" IVar="-1" Cut="0.0000000000000000e+00" cType="1" res="2.2171703167259693e-03" rms="4.5573541522026062e-01" purity="6.2695485353469849e-01" nType="-99"/>
        </Node>
      </Node>
    </BinaryTree>
    <BinaryTree type="DecisionTree" boostWeight="1.0000000000000000e+00" itree="171">
      <Node pos="s" depth="0" NCoef="0" IVar="9" Cut="1.7983258962631226e+00" cType="1" res="1.4481232501566410e-02" rms="4.5902487635612488e-01" purity="5.0953632593154907e-01" nType="0">
        <Node pos="l" depth="1" NCoef="0" IVar="2" Cut="1.0073355436325073e+00" cType="1" res="8.1102691590785980e-02" rms="4.4765365123748779e-01" purity="6.7067819833755493e-01" nType="0">
          <Node pos="l" depth="2" NCoef="0" IVar="-1" Cut="0.0000000000000000e+00" cType="1" res="6.5509090200066566e-04" rms="4.4722512364387512e-01" purity="6.2166082859039307e-01" nType="-99"/>
          <Node pos="r" depth="2" NCoef="0" IVar="-1" Cut="0.0000000000000000e+00" cType="1" res="3.6943298764526844e-03" rms="4.4556993246078491e-01" purity="6.8858790397644043e-01" nType="-99"/>
        </Node>
        <Node pos="r" depth="1" NCoef="0" IVar="5" Cut="9.4381153583526611e-01" cType="1" res="-4.5918365940451622e-03" rms="4.6045741438865662e-01" purity="4.6340292692184448e-01" nType="0">
          <Node pos="l" depth="2" NCoef="0" IVar="-1" Cut="0.0000000000000000e+00" cType="1" res="-2.2692910861223936e-03" rms="4.3991053104400635e-01" purity="3.4869250655174255e-01" nType="-99"/>
          <Node pos="r" depth="2" NCoef="0" IVar="-1" Cut="0.0000000000000000e+00" cType="1" res="8.7813218124210835e-04" rms="4.6807372570037842e-01" purity="5.2151900529861450e-01" nType="-99"/>
        </Node>
      </Node>
    </BinaryTree>
    <BinaryTree type="DecisionTree" boostWeight="1.0000000000000000e+00" itree="172">
      <Node pos="s" depth="0" NCoef="0" IVar="0" Cut="6.1500816345214844e+01" cType="1" res="1.2596712913364172e-03" rms="4.5438608527183533e-01" purity="5.0450462102890015e-01" nType="0">
        <Node pos="l" depth="1" NCoef="0" IVar="10" Cut="6.5238428115844727e-01" cType="1" res="-4.6370893716812134e-02" rms="4.5738479495048523e-01" purity="3.9285698533058167e-01" nType="0">
          <Node pos="l" depth="2" NCoef="0" IVar="-1" Cut="0.0000000000000000e+00" cType="1" res="-3.5180931445211172e-03" rms="4.3501037359237671e-01" purity="3.0819225311279297e-01" nType="-99"/>
          <Node pos="r" depth="2" NCoef="0" IVar="-1" Cut="0.0000000000000000e+00" cType="1" res="4.8437062650918961e-04" rms="4.8250156641006470e-01" purity="5.1840698719024658e-01" nType="-99"/>
        </Node>
        <Node pos="r" depth="1" NCoef="0" IVar="8" Cut="2.2328167724609375e+02" cType="1" res="4.4942293316125870e-02" rms="4.4718047976493835e-01" purity="6.0689818859100342e-01" nType="0">
          <Node pos="l" depth="2" NCoef="0" IVar="-1" Cut="0.0000000000000000e+00" cType="1" res="4.4247191399335861e-03" rms="4.0823304653167725e-01" purity="7.4820899963378906e-01" nType="-99"/>
          <Node pos="r" depth="2" NCoef="0" IVar="-1" Cut="0.0000000000000000e+00" cType="1" res="2.8117252441006713e-05" rms="4.6090725064277649e-01" purity="5.3044950962066650e-01" nType="-99"/>
        </Node>
      </Node>
    </BinaryTree>
    <BinaryTree type="DecisionTree" boostWeight="1.0000000000000000e+00" itree="173">
      <Node pos="s" depth="0" NCoef="0" IVar="9" Cut="1.4173837900161743e+00" cType="1" res="6.3900668174028397e-03" rms="4.6300548315048218e-01" purity="4.9989327788352966e-01" nType="0">
        <Node pos="l" depth="1" NCoef="0" IVar="2" Cut="1.0943164825439453e+00" cType="1" res="9.9836662411689758e-02" rms="4.3064144253730774e-01" purity="7.1246671676635742e-01" nType="0">
          <Node pos="l" depth="2" NCoef="0" IVar="-1" Cut="0.0000000000000000e+00" cType="1" res="2.1609652321785688e-03" rms="4.4980153441429138e-01" purity="6.5727853775024414e-01" nType="-99"/>
          <Node pos="r" depth="2" NCoef="0" IVar="-1" Cut="0.0000000000000000e+00" cType="1" res="5.1851174794137478e-03" rms="3.9989697933197021e-01" purity="7.8193300962448120e-01" nType="-99"/>
        </Node>
        <Node pos="r" depth="1" NCoef="0" IVar="8" Cut="3.2648428344726562e+02" cType="1" res="-8.3402255550026894e-03" rms="4.6619704365730286e-01" purity="4.6638458967208862e-01" nType="0">
          <Node pos="l" depth="2" NCoef="0" IVar="-1" Cut="0.0000000000000000e+00" cType="1" res="4.2677554301917553e-04" rms="4.6902567148208618e-01" purity="5.0445389747619629e-01" nType="-99"/>
          <Node pos="r" depth="2" NCoef="0" IVar="-1" Cut="0.0000000000000000e+00" cType="1" res="-2.2674454376101494e-03" rms="4.5531117916107178e-01" purity="3.7162578105926514e-01" nType="-99"/>
        </Node>
      </Node>
    </BinaryTree>
    <BinaryTree type="DecisionTree" boostWeight="1.0000000000000000e+00" itree="174">
      <Node pos="s" depth="0" NCoef="0" IVar="6" Cut="9.9290344238281250e+01" cType="1" res="2.7821934781968594e-03" rms="4.6084347367286682e-01" purity="4.9413943290710449e-01" nType="0">
        <Node pos="l" depth="1" NCoef="0" IVar="1" Cut="1.6257960510253906e+02" cType="1" res="-1.0635269805788994e-02" rms="4.6119973063468933e-01" purity="4.7046080231666565e-01" nType="0">
          <Node pos="l" depth="2" NCoef="0" IVar="-1" Cut="0.0000000000000000e+00" cType="1" res="1.6494606097694486e-04" rms="4.6245867013931274e-01" purity="4.9282810091972351e-01" nType="-99"/>
          <Node pos="r" depth="2" NCoef="0" IVar="-1" Cut="0.0000000000000000e+00" cType="1" res="-3.9007952436804771e-03" rms="4.4345918297767639e-01" purity="3.3898636698722839e-01" nType="-99"/>
        </Node>
        <Node pos="r" depth="1" NCoef="0" IVar="0" Cut="1.2568090057373047e+02" cType="1" res="9.1273352503776550e-02" rms="4.4854453206062317e-01" purity="6.5030544996261597e-01" nType="0">
          <Node pos="l" depth="2" NCoef="0" IVar="-1" Cut="0.0000000000000000e+00" cType="1" res="5.7297539897263050e-03" rms="4.3400776386260986e-01" purity="7.4130845069885254e-01" nType="-99"/>
          <Node pos="r" depth="2" NCoef="0" IVar="-1" Cut="0.0000000000000000e+00" cType="1" res="-8.5458147805184126e-04" rms="4.4616425037384033e-01" purity="5.1274079084396362e-01" nType="-99"/>
        </Node>
      </Node>
    </BinaryTree>
    <BinaryTree type="DecisionTree" boostWeight="1.0000000000000000e+00" itree="175">
      <Node pos="s" depth="0" NCoef="0" IVar="10" Cut="7.9578453302383423e-01" cType="1" res="8.9281285181641579e-03" rms="4.5933946967124939e-01" purity="5.1148104667663574e-01" nType="0">
        <Node pos="l" depth="1" NCoef="0" IVar="5" Cut="9.5831930637359619e-01" cType="1" res="-5.9297690168023109e-03" rms="4.6274307370185852e-01" purity="4.8187839984893799e-01" nType="0">
          <Node pos="l" depth="2" NCoef="0" IVar="-1" Cut="0.0000000000000000e+00" cType="1" res="-1.5897076809778810e-03" rms="4.5850357413291931e-01" purity="4.0867331624031067e-01" nType="-99"/>
          <Node pos="r" depth="2" NCoef="0" IVar="-1" Cut="0.0000000000000000e+00" cType="1" res="1.4516175724565983e-03" rms="4.6398937702178955e-01" purity="5.7122915983200073e-01" nType="-99"/>
        </Node>
        <Node pos="r" depth="1" NCoef="0" IVar="0" Cut="6.7077239990234375e+01" cType="1" res="1.1246617138385773e-01" rms="4.2055210471153259e-01" purity="7.1776831150054932e-01" nType="0">
          <Node pos="l" depth="2" NCoef="0" IVar="-1" Cut="0.0000000000000000e+00" cType="1" res="1.3888319954276085e-03" rms="4.8287004232406616e-01" purity="5.6614500284194946e-01" nType="-99"/>
          <Node pos="r" depth="2" NCoef="0" IVar="-1" Cut="0.0000000000000000e+00" cType="1" res="6.8055051378905773e-03" rms="3.2774436473846436e-01" purity="8.7407314777374268e-01" nType="-99"/>
        </Node>
      </Node>
    </BinaryTree>
    <BinaryTree type="DecisionTree" boostWeight="1.0000000000000000e+00" itree="176">
      <Node pos="s" depth="0" NCoef="0" IVar="11" Cut="4.2153963446617126e-01" cType="1" res="8.5605643689632416e-03" rms="4.6039915084838867e-01" purity="5.0280952453613281e-01" nType="0">
        <Node pos="l" depth="1" NCoef="0" IVar="-1" Cut="0.0000000000000000e+00" cType="1" res="-5.7199485599994659e-03" rms="3.7983042001724243e-01" purity="2.0220658183097839e-01" nType="-99"/>
        <Node pos="r" depth="1" NCoef="0" IVar="6" Cut="3.4148857116699219e+01" cType="1" res="2.2075816988945007e-02" rms="4.6581548452377319e-01" purity="5.3377187252044678e-01" nType="0">
          <Node pos="l" depth="2" NCoef="0" IVar="-1" Cut="0.0000000000000000e+00" cType="1" res="-1.6680731205269694e-03" rms="4.4371369481086731e-01" purity="3.8074445724487305e-01" nType="-99"/>
          <Node pos="r" depth="2" NCoef="0" IVar="-1" Cut="0.0000000000000000e+00" cType="1" res="1.4885520795360208e-03" rms="4.7072580456733704e-01" purity="5.8124464750289917e-01" nType="-99"/>
        </Node>
      </Node>
    </BinaryTree>
    <BinaryTree type="DecisionTree" boostWeight="1.0000000000000000e+00" itree="177">
      <Node pos="s" depth="0" NCoef="0" IVar="0" Cut="7.3520332336425781e+01" cType="1" res="-1.2725443812087178e-03" rms="4.6336874365806580e-01" purity="4.9245584011077881e-01" nType="0">
        <Node pos="l" depth="1" NCoef="0" IVar="9" Cut="1.3645834922790527e+00" cType="1" res="-2.7868373319506645e-02" rms="4.6517273783683777e-01" purity="4.2490303516387939e-01" nType="0">
          <Node pos="l" depth="2" NCoef="0" IVar="-1" Cut="0.0000000000000000e+00" cType="1" res="2.7298883069306612e-03" rms="4.5428508520126343e-01" purity="6.4458811283111572e-01" nType="-99"/>
          <Node pos="r" depth="2" NCoef="0" IVar="-1" Cut="0.0000000000000000e+00" cType="1" res="-1.7394253518432379e-03" rms="4.6466216444969177e-01" purity="3.9004698395729065e-01" nType="-99"/>
        </Node>
        <Node pos="r" depth="1" NCoef="0" IVar="0" Cut="1.4647373962402344e+02" cType="1" res="4.0188036859035492e-02" rms="4.5746868848800659e-01" purity="5.9776479005813599e-01" nType="0">
          <Node pos="l" depth="2" NCoef="0" IVar="-1" Cut="0.0000000000000000e+00" cType="1" res="2.3243490140885115e-03" rms="4.5271930098533630e-01" purity="6.3755309581756592e-01" nType="-99"/>
          <Node pos="r" depth="2" NCoef="0" IVar="-1" Cut="0.0000000000000000e+00" cType="1" res="-5.0227739848196507e-03" rms="4.5401397347450256e-01" purity="3.3866783976554871e-01" nType="-99"/>
        </Node>
      </Node>
    </BinaryTree>
    <BinaryTree type="DecisionTree" boostWeight="1.0000000000000000e+00" itree="178">
      <Node pos="s" depth="0" NCoef="0" IVar="3" Cut="1.3422457885742188e+02" cType="1" res="8.9717889204621315e-03" rms="4.5913276076316833e-01" purity="5.0815212726593018e-01" nType="0">
        <Node pos="l" depth="1" NCoef="0" IVar="11" Cut="4.5226299762725830e-01" cType="1" res="2.2008424624800682e-02" rms="4.5968207716941833e-01" purity="5.2761942148208618e-01" nType="0">
          <Node pos="l" depth="2" NCoef="0" IVar="-1" Cut="0.0000000000000000e+00" cType="1" res="-3.7450967356562614e-03" rms="4.0797212719917297e-01" purity="2.6450625061988831e-01" nType="-99"/>
          <Node pos="r" depth="2" NCoef="0" IVar="-1" Cut="0.0000000000000000e+00" cType="1" res="1.4003479154780507e-03" rms="4.6522763371467590e-01" purity="5.6996327638626099e-01" nType="-99"/>
        </Node>
        <Node pos="r" depth="1" NCoef="0" IVar="8" Cut="2.3990376281738281e+02" cType="1" res="-9.4590634107589722e-02" rms="4.4126883149147034e-01" purity="3.5350462794303894e-01" nType="0">
          <Node pos="l" depth="2" NCoef="0" IVar="-1" Cut="0.0000000000000000e+00" cType="1" res="-5.5767036974430084e-04" rms="4.6247225999832153e-01" purity="4.6492987871170044e-01" nType="-99"/>
          <Node pos="r" depth="2" NCoef="0" IVar="-1" Cut="0.0000000000000000e+00" cType="1" res="-7.1670501492917538e-03" rms="4.0881365537643433e-01" purity="2.5509017705917358e-01" nType="-99"/>
        </Node>
      </Node>
    </BinaryTree>
    <BinaryTree type="DecisionTree" boostWeight="1.0000000000000000e+00" itree="179">
      <Node pos="s" depth="0" NCoef="0" IVar="0" Cut="1.4739888000488281e+02" cType="1" res="-9.4068879261612892e-03" rms="4.5923137664794922e-01" purity="4.8908570408821106e-01" nType="0">
        <Node pos="l" depth="1" NCoef="0" IVar="0" Cut="8.3676559448242188e+01" cType="1" res="2.1009098272770643e-03" rms="4.5898666977882385e-01" purity="5.0169622898101807e-01" nType="0">
          <Node pos="l" depth="2" NCoef="0" IVar="-1" Cut="0.0000000000000000e+00" cType="1" res="-1.1151758953928947e-03" rms="4.5838749408721924e-01" purity="4.3778458237648010e-01" nType="-99"/>
          <Node pos="r" depth="2" NCoef="0" IVar="-1" Cut="0.0000000000000000e+00" cType="1" res="2.7836465742439032e-03" rms="4.5142674446105957e-01" purity="6.5443158149719238e-01" nType="-99"/>
        </Node>
        <Node pos="r" depth="1" NCoef="0" IVar="-1" Cut="0.0000000000000000e+00" cType="1" res="-7.9700620844960213e-03" rms="4.2217844724655151e-01" purity="2.8660857677459717e-01" nType="-99"/>
      </Node>
    </BinaryTree>
    <BinaryTree type="DecisionTree" boostWeight="1.0000000000000000e+00" itree="180">
      <Node pos="s" depth="0" NCoef="0" IVar="4" Cut="2.0745880126953125e+02" cType="1" res="6.5942555665969849e-03" rms="4.6274402737617493e-01" purity="5.0024986267089844e-01" nType="0">
        <Node pos="l" depth="1" NCoef="0" IVar="2" Cut="1.8389904499053955e+00" cType="1" res="-7.5473122298717499e-02" rms="4.3741106986999512e-01" purity="3.0596113204956055e-01" nType="0">
          <Node pos="l" depth="2" NCoef="0" IVar="-1" Cut="0.0000000000000000e+00" cType="1" res="-6.2525738030672073e-03" rms="4.2361372709274292e-01" purity="2.7479031682014465e-01" nType="-99"/>
          <Node pos="r" depth="2" NCoef="0" IVar="-1" Cut="0.0000000000000000e+00" cType="1" res="-1.0568232974037528e-03" rms="4.3792125582695007e-01" purity="3.2472050189971924e-01" nType="-99"/>
        </Node>
        <Node pos="r" depth="1" NCoef="0" IVar="3" Cut="1.3324072265625000e+02" cType="1" res="2.1220091730356216e-02" rms="4.6559834480285645e-01" purity="5.3487551212310791e-01" nType="0">
          <Node pos="l" depth="2" NCoef="0" IVar="-1" Cut="0.0000000000000000e+00" cType="1" res="1.3620604295283556e-03" rms="4.6661075949668884e-01" purity="5.6097936630249023e-01" nType="-99"/>
          <Node pos="r" depth="2" NCoef="0" IVar="-1" Cut="0.0000000000000000e+00" cType="1" res="-3.6977261770516634e-03" rms="4.4277381896972656e-01" purity="3.5996618866920471e-01" nType="-99"/>
        </Node>
      </Node>
    </BinaryTree>
    <BinaryTree type="DecisionTree" boostWeight="1.0000000000000000e+00" itree="181">
      <Node pos="s" depth="0" NCoef="0" IVar="5" Cut="9.3763321638107300e-01" cType="1" res="-6.5638832747936249e-03" rms="4.6202683448791504e-01" purity="4.9191397428512573e-01" nType="0">
        <Node pos="l" depth="1" NCoef="0" IVar="2" Cut="1.5072171688079834e+00" cType="1" res="-7.2704792022705078e-02" rms="4.3884348869323730e-01" purity="3.5786652565002441e-01" nType="0">
          <Node pos="l" depth="2" NCoef="0" IVar="-1" Cut="0.0000000000000000e+00" cType="1" res="1.0078343329951167e-03" rms="4.6836817264556885e-01" purity="5.5771958827972412e-01" nType="-99"/>
          <Node pos="r" depth="2" NCoef="0" IVar="-1" Cut="0.0000000000000000e+00" cType="1" res="-4.3631852604448795e-03" rms="4.1898947954177856e-01" purity="2.7626925706863403e-01" nType="-99"/>
        </Node>
        <Node pos="r" depth="1" NCoef="0" IVar="0" Cut="1.3281509399414062e+02" cType="1" res="1.3451657257974148e-02" rms="4.6697387099266052e-01" purity="5.3247934579849243e-01" nType="0">
          <Node pos="l" depth="2" NCoef="0" IVar="-1" Cut="0.0000000000000000e+00" cType="1" res="8.6803099839016795e-04" rms="4.6519467234611511e-01" purity="5.4120957851409912e-01" nType="-99"/>
          <Node pos="r" depth="2" NCoef="0" IVar="-1" Cut="0.0000000000000000e+00" cType="1" res="-3.7516371812671423e-03" rms="4.7341334819793701e-01" purity="4.2979037761688232e-01" nType="-99"/>
        </Node>
      </Node>
    </BinaryTree>
    <BinaryTree type="DecisionTree" boostWeight="1.0000000000000000e+00" itree="182">
      <Node pos="s" depth="0" NCoef="0" IVar="3" Cut="1.4098097229003906e+02" cType="1" res="9.0054301545023918e-03" rms="4.5800694823265076e-01" purity="5.0582295656204224e-01" nType="0">
        <Node pos="l" depth="1" NCoef="0" IVar="10" Cut="6.8523758649826050e-01" cType="1" res="1.8095832318067551e-02" rms="4.5909267663955688e-01" purity="5.1988893747329712e-01" nType="0">
          <Node pos="l" depth="2" NCoef="0" IVar="-1" Cut="0.0000000000000000e+00" cType="1" res="-2.6246241759508848e-04" rms="4.5819336175918579e-01" purity="4.5567518472671509e-01" nType="-99"/>
          <Node pos="r" depth="2" NCoef="0" IVar="-1" Cut="0.0000000000000000e+00" cType="1" res="2.4188254028558731e-03" rms="4.5690554380416870e-01" purity="6.4480143785476685e-01" nType="-99"/>
        </Node>
        <Node pos="r" depth="1" NCoef="0" IVar="-1" Cut="0.0000000000000000e+00" cType="1" res="-6.9561358541250229e-03" rms="4.0412369370460510e-01" purity="2.5170019268989563e-01" nType="-99"/>
      </Node>
    </BinaryTree>
    <BinaryTree type="DecisionTree" boostWeight="1.0000000000000000e+00" itree="183">
      <Node pos="s" depth="0" NCoef="0" IVar="5" Cut="9.7659200429916382e-01" cType="1" res="-5.4064858704805374e-03" rms="4.5977231860160828e-01" purity="4.8432350158691406e-01" nType="0">
        <Node pos="l" depth="1" NCoef="0" IVar="0" Cut="9.8700569152832031e+01" cType="1" res="-2.3196123540401459e-02" rms="4.6009710431098938e-01" purity="4.5253646373748779e-01" nType="0">
          <Node pos="l" depth="2" NCoef="0" IVar="-1" Cut="0.0000000000000000e+00" cType="1" res="-1.6720681451261044e-03" rms="4.5962986350059509e-01" purity="4.1230022907257080e-01" nType="-99"/>
          <Node pos="r" depth="2" NCoef="0" IVar="-1" Cut="0.0000000000000000e+00" cType="1" res="1.4787667896598577e-03" rms="4.5549532771110535e-01" purity="5.7732999324798584e-01" nType="-99"/>
        </Node>
        <Node pos="r" depth="1" NCoef="0" IVar="7" Cut="6.4733558654785156e+01" cType="1" res="7.7353380620479584e-02" rms="4.4908702373504639e-01" purity="6.3220131397247314e-01" nType="0">
          <Node pos="l" depth="2" NCoef="0" IVar="-1" Cut="0.0000000000000000e+00" cType="1" res="4.4799912720918655e-03" rms="4.3539586663246155e-01" purity="6.4681971073150635e-01" nType="-99"/>
          <Node pos="r" depth="2" NCoef="0" IVar="-1" Cut="0.0000000000000000e+00" cType="1" res="-2.9136156081221998e-04" rms="4.6470773220062256e-01" purity="6.0204839706420898e-01" nType="-99"/>
        </Node>
      </Node>
    </BinaryTree>
    <BinaryTree type="DecisionTree" boostWeight="1.0000000000000000e+00" itree="184">
      <Node pos="s" depth="0" NCoef="0" IVar="4" Cut="2.1050573730468750e+02" cType="1" res="1.5023536048829556e-02" rms="4.6218988299369812e-01" purity="5.1511389017105103e-01" nType="0">
        <Node pos="l" depth="1" NCoef="0" IVar="1" Cut="8.1142631530761719e+01" cType="1" res="-7.0866681635379791e-02" rms="4.3732500076293945e-01" purity="3.2427597045898438e-01" nType="0">
          <Node pos="l" depth="2" NCoef="0" IVar="-1" Cut="0.0000000000000000e+00" cType="1" res="-7.1774278767406940e-03" rms="4.2500615119934082e-01" purity="2.4612523615360260e-01" nType="-99"/>
          <Node pos="r" depth="2" NCoef="0" IVar="-1" Cut="0.0000000000000000e+00" cType="1" res="-4.6183046652004123e-04" rms="4.3409118056297302e-01" purity="3.7148994207382202e-01" nType="-99"/>
        </Node>
        <Node pos="r" depth="1" NCoef="0" IVar="8" Cut="2.9759323120117188e+02" cType="1" res="3.0855370685458183e-02" rms="4.6489971876144409e-01" purity="5.5029034614562988e-01" nType="0">
          <Node pos="l" depth="2" NCoef="0" IVar="-1" Cut="0.0000000000000000e+00" cType="1" res="2.3275588173419237e-03" rms="4.6266472339630127e-01" purity="6.1867439746856689e-01" nType="-99"/>
          <Node pos="r" depth="2" NCoef="0" IVar="-1" Cut="0.0000000000000000e+00" cType="1" res="-1.1180911678820848e-03" rms="4.6263447403907776e-01" purity="4.3436670303344727e-01" nType="-99"/>
        </Node>
      </Node>
    </BinaryTree>
    <BinaryTree type="DecisionTree" boostWeight="1.0000000000000000e+00" itree="185">
      <Node pos="s" depth="0" NCoef="0" IVar="3" Cut="1.4030700683593750e+02" cType="1" res="4.3198750354349613e-03" rms="4.5742106437683105e-01" purity="5.0079959630966187e-01" nType="0">
        <Node pos="l" depth="1" NCoef="0" IVar="0" Cut="8.5509956359863281e+01" cType="1" res="1.4275382272899151e-02" rms="4.5770832896232605e-01" purity="5.1578390598297119e-01" nType="0">
          <Node pos="l" depth="2" NCoef="0" IVar="-1" Cut="0.0000000000000000e+00" cType="1" res="-3.2103570993058383e-04" rms="4.5927301049232483e-01" purity="4.5870059728622437e-01" nType="-99"/>
          <Node pos="r" depth="2" NCoef="0" IVar="-1" Cut="0.0000000000000000e+00" cType="1" res="2.3075290955603123e-03" rms="4.5019194483757019e-01" purity="6.4156097173690796e-01" nType="-99"/>
        </Node>
        <Node pos="r" depth="1" NCoef="0" IVar="-1" Cut="0.0000000000000000e+00" cType="1" res="-7.7681010589003563e-03" rms="4.1435214877128601e-01" purity="2.3523516952991486e-01" nType="-99"/>
      </Node>
    </BinaryTree>
    <BinaryTree type="DecisionTree" boostWeight="1.0000000000000000e+00" itree="186">
      <Node pos="s" depth="0" NCoef="0" IVar="5" Cut="9.1944378614425659e-01" cType="1" res="9.1334097087383270e-03" rms="4.6329271793365479e-01" purity="5.0775533914566040e-01" nType="0">
        <Node pos="l" depth="1" NCoef="0" IVar="-1" Cut="0.0000000000000000e+00" cType="1" res="-3.8949893787503242e-03" rms="4.3103557825088501e-01" purity="2.9345676302909851e-01" nType="-99"/>
        <Node pos="r" depth="1" NCoef="0" IVar="4" Cut="2.0745880126953125e+02" cType="1" res="1.7588829621672630e-02" rms="4.6453902125358582e-01" purity="5.2391809225082397e-01" nType="0">
          <Node pos="l" depth="2" NCoef="0" IVar="-1" Cut="0.0000000000000000e+00" cType="1" res="-2.0791522692888975e-03" rms="4.6088683605194092e-01" purity="3.3957916498184204e-01" nType="-99"/>
          <Node pos="r" depth="2" NCoef="0" IVar="-1" Cut="0.0000000000000000e+00" cType="1" res="1.0804556077346206e-03" rms="4.6417105197906494e-01" purity="5.5661177635192871e-01" nType="-99"/>
        </Node>
      </Node>
    </BinaryTree>
    <BinaryTree type="DecisionTree" boostWeight="1.0000000000000000e+00" itree="187">
      <Node pos="s" depth="0" NCoef="0" IVar="8" Cut="2.0622109985351562e+02" cType="1" res="-1.6746106557548046e-03" rms="4.5903855562210083e-01" purity="4.9520629644393921e-01" nType="0">
        <Node pos="l" depth="1" NCoef="0" IVar="4" Cut="2.1219595336914062e+02" cType="1" res="3.6945950239896774e-02" rms="4.5707115530967712e-01" purity="5.6168955564498901e-01" nType="0">
          <Node pos="l" depth="2" NCoef="0" IVar="-1" Cut="0.0000000000000000e+00" cType="1" res="-2.2082547657191753e-03" rms="4.5186439156532288e-01" purity="3.4417977929115295e-01" nType="-99"/>
          <Node pos="r" depth="2" NCoef="0" IVar="-1" Cut="0.0000000000000000e+00" cType="1" res="2.8612317983061075e-03" rms="4.5252957940101624e-01" purity="6.6420173645019531e-01" nType="-99"/>
        </Node>
        <Node pos="r" depth="1" NCoef="0" IVar="6" Cut="1.0954869842529297e+02" cType="1" res="-2.9373534023761749e-02" rms="4.5844531059265137e-01" purity="4.4752407073974609e-01" nType="0">
          <Node pos="l" depth="2" NCoef="0" IVar="-1" Cut="0.0000000000000000e+00" cType="1" res="-1.9408072112128139e-03" rms="4.5530328154563904e-01" purity="4.1358089447021484e-01" nType="-99"/>
          <Node pos="r" depth="2" NCoef="0" IVar="-1" Cut="0.0000000000000000e+00" cType="1" res="3.4437321592122316e-03" rms="4.5754143595695496e-01" purity="6.4733457565307617e-01" nType="-99"/>
        </Node>
      </Node>
    </BinaryTree>
    <BinaryTree type="DecisionTree" boostWeight="1.0000000000000000e+00" itree="188">
      <Node pos="s" depth="0" NCoef="0" IVar="9" Cut="1.5637462139129639e+00" cType="1" res="5.0400365144014359e-03" rms="4.6051341295242310e-01" purity="5.0115960836410522e-01" nType="0">
        <Node pos="l" depth="1" NCoef="0" IVar="0" Cut="5.9829048156738281e+01" cType="1" res="8.0886304378509521e-02" rms="4.3616166710853577e-01" purity="6.9389075040817261e-01" nType="0">
          <Node pos="l" depth="2" NCoef="0" IVar="-1" Cut="0.0000000000000000e+00" cType="1" res="8.1239501014351845e-04" rms="4.8445996642112732e-01" purity="5.5919927358627319e-01" nType="-99"/>
          <Node pos="r" depth="2" NCoef="0" IVar="-1" Cut="0.0000000000000000e+00" cType="1" res="5.0373324193060398e-03" rms="3.7053847312927246e-01" purity="8.3260518312454224e-01" nType="-99"/>
        </Node>
        <Node pos="r" depth="1" NCoef="0" IVar="8" Cut="4.0901797485351562e+02" cType="1" res="-8.7868673726916313e-03" rms="4.6347963809967041e-01" purity="4.6602436900138855e-01" nType="0">
          <Node pos="l" depth="2" NCoef="0" IVar="-1" Cut="0.0000000000000000e+00" cType="1" res="2.3473805049434304e-04" rms="4.6675178408622742e-01" purity="4.9681052565574646e-01" nType="-99"/>
          <Node pos="r" depth="2" NCoef="0" IVar="-1" Cut="0.0000000000000000e+00" cType="1" res="-3.2626807224005461e-03" rms="4.4115370512008667e-01" purity="3.2304793596267700e-01" nType="-99"/>
        </Node>
      </Node>
    </BinaryTree>
    <BinaryTree type="DecisionTree" boostWeight="1.0000000000000000e+00" itree="189">
      <Node pos="s" depth="0" NCoef="0" IVar="3" Cut="1.3899418640136719e+02" cType="1" res="7.0156594738364220e-03" rms="4.6227875351905823e-01" purity="5.0351190567016602e-01" nType="0">
        <Node pos="l" depth="1" NCoef="0" IVar="3" Cut="1.0493711853027344e+02" cType="1" res="1.6688430681824684e-02" rms="4.6371394395828247e-01" purity="5.2006757259368896e-01" nType="0">
          <Node pos="l" depth="2" NCoef="0" IVar="-1" Cut="0.0000000000000000e+00" cType="1" res="-6.5241996198892593e-03" rms="4.1891175508499146e-01" purity="2.8043022751808167e-01" nType="-99"/>
          <Node pos="r" depth="2" NCoef="0" IVar="-1" Cut="0.0000000000000000e+00" cType="1" res="9.8180596251040697e-04" rms="4.6425935626029968e-01" purity="5.3419917821884155e-01" nType="-99"/>
        </Node>
        <Node pos="r" depth="1" NCoef="0" IVar="-1" Cut="0.0000000000000000e+00" cType="1" res="-6.2696035020053387e-03" rms="4.1355618834495544e-01" purity="2.5407049059867859e-01" nType="-99"/>
      </Node>
    </BinaryTree>
    <BinaryTree type="DecisionTree" boostWeight="1.0000000000000000e+00" itree="190">
      <Node pos="s" depth="0" NCoef="0" IVar="8" Cut="3.7642715454101562e+02" cType="1" res="-9.3299022410064936e-04" rms="4.6214792132377625e-01" purity="5.0021737813949585e-01" nType="0">
        <Node pos="l" depth="1" NCoef="0" IVar="5" Cut="9.1975671052932739e-01" cType="1" res="1.4867844991385937e-02" rms="4.6425443887710571e-01" purity="5.3193366527557373e-01" nType="0">
          <Node pos="l" depth="2" NCoef="0" IVar="-1" Cut="0.0000000000000000e+00" cType="1" res="-5.4060332477092743e-03" rms="4.3737718462944031e-01" purity="2.7683696150779724e-01" nType="-99"/>
          <Node pos="r" depth="2" NCoef="0" IVar="-1" Cut="0.0000000000000000e+00" cType="1" res="9.5387460896745324e-04" rms="4.6391600370407104e-01" purity="5.4901212453842163e-01" nType="-99"/>
        </Node>
        <Node pos="r" depth="1" NCoef="0" IVar="6" Cut="8.4250747680664062e+01" cType="1" res="-7.2629503905773163e-02" rms="4.4548007845878601e-01" purity="3.5630416870117188e-01" nType="0">
          <Node pos="l" depth="2" NCoef="0" IVar="-1" Cut="0.0000000000000000e+00" cType="1" res="-4.8318542540073395e-03" rms="4.2299228906631470e-01" purity="2.6937651634216309e-01" nType="-99"/>
          <Node pos="r" depth="2" NCoef="0" IVar="-1" Cut="0.0000000000000000e+00" cType="1" res="-1.3152412429917604e-04" rms="4.7225609421730042e-01" purity="4.9983561038970947e-01" nType="-99"/>
        </Node>
      </Node>
    </BinaryTree>
    <BinaryTree type="DecisionTree" boostWeight="1.0000000000000000e+00" itree="191">
      <Node pos="s" depth="0" NCoef="0" IVar="5" Cut="9.1830205917358398e-01" cType="1" res="3.0005439184606075e-03" rms="4.5588284730911255e-01" purity="5.0169771909713745e-01" nType="0">
        <Node pos="l" depth="1" NCoef="0" IVar="-1" Cut="0.0000000000000000e+00" cType="1" res="-5.8618425391614437e-03" rms="4.0045309066772461e-01" purity="2.3768721520900726e-01" nType="-99"/>
        <Node pos="r" depth="1" NCoef="0" IVar="0" Cut="5.0125205993652344e+01" cType="1" res="1.3529030606150627e-02" rms="4.5753788948059082e-01" purity="5.1974296569824219e-01" nType="0">
          <Node pos="l" depth="2" NCoef="0" IVar="-1" Cut="0.0000000000000000e+00" cType="1" res="-1.7866430571302772e-03" rms="4.5841217041015625e-01" purity="3.6477828025817871e-01" nType="-99"/>
          <Node pos="r" depth="2" NCoef="0" IVar="-1" Cut="0.0000000000000000e+00" cType="1" res="1.5253379242494702e-03" rms="4.5440298318862915e-01" purity="5.9651678800582886e-01" nType="-99"/>
        </Node>
      </Node>
    </BinaryTree>
    <BinaryTree type="DecisionTree" boostWeight="1.0000000000000000e+00" itree="192">
      <Node pos="s" depth="0" NCoef="0" IVar="0" Cut="3.7551464080810547e+01" cType="1" res="1.1362429708242416e-02" rms="4.5640727877616882e-01" purity="5.0592517852783203e-01" nType="0">
        <Node pos="l" depth="1" NCoef="0" IVar="0" Cut="2.9341819763183594e+01" cType="1" res="-7.4127726256847382e-02" rms="4.2482870817184448e-01" purity="2.7234965562820435e-01" nType="0">
          <Node pos="l" depth="2" NCoef="0" IVar="-1" Cut="0.0000000000000000e+00" cType="1" res="-6.3365609385073185e-03" rms="3.7520164251327515e-01" purity="1.7604047060012817e-01" nType="-99"/>
          <Node pos="r" depth="2" NCoef="0" IVar="-1" Cut="0.0000000000000000e+00" cType="1" res="-9.7959605045616627e-04" rms="4.5382118225097656e-01" purity="3.4734839200973511e-01" nType="-99"/>
        </Node>
        <Node pos="r" depth="1" NCoef="0" IVar="5" Cut="9.5818728208541870e-01" cType="1" res="3.0182819813489914e-02" rms="4.6094548702239990e-01" purity="5.5734610557556152e-01" nType="0">
          <Node pos="l" depth="2" NCoef="0" IVar="-1" Cut="0.0000000000000000e+00" cType="1" res="-3.1248634331859648e-04" rms="4.6735349297523499e-01" purity="4.7979778051376343e-01" nType="-99"/>
          <Node pos="r" depth="2" NCoef="0" IVar="-1" Cut="0.0000000000000000e+00" cType="1" res="2.7263397350907326e-03" rms="4.4965717196464539e-01" purity="6.4464902877807617e-01" nType="-99"/>
        </Node>
      </Node>
    </BinaryTree>
    <BinaryTree type="DecisionTree" boostWeight="1.0000000000000000e+00" itree="193">
      <Node pos="s" depth="0" NCoef="0" IVar="3" Cut="1.3277694702148438e+02" cType="1" res="1.5076987445354462e-02" rms="4.5770511031150818e-01" purity="5.1303434371948242e-01" nType="0">
        <Node pos="l" depth="1" NCoef="0" IVar="0" Cut="1.1016173553466797e+02" cType="1" res="3.0322091653943062e-02" rms="4.5816066861152649e-01" purity="5.3582572937011719e-01" nType="0">
          <Node pos="l" depth="2" NCoef="0" IVar="-1" Cut="0.0000000000000000e+00" cType="1" res="4.5179351582191885e-04" rms="4.6093007922172546e-01" purity="5.0536519289016724e-01" nType="-99"/>
          <Node pos="r" depth="2" NCoef="0" IVar="-1" Cut="0.0000000000000000e+00" cType="1" res="3.9747045375406742e-03" rms="4.3607419729232788e-01" purity="6.7281121015548706e-01" nType="-99"/>
        </Node>
        <Node pos="r" depth="1" NCoef="0" IVar="5" Cut="9.5823019742965698e-01" cType="1" res="-8.3906754851341248e-02" rms="4.4212907552719116e-01" purity="3.6505430936813354e-01" nType="0">
          <Node pos="l" depth="2" NCoef="0" IVar="-1" Cut="0.0000000000000000e+00" cType="1" res="-6.0886228457093239e-03" rms="4.2683362960815430e-01" purity="2.7050119638442993e-01" nType="-99"/>
          <Node pos="r" depth="2" NCoef="0" IVar="-1" Cut="0.0000000000000000e+00" cType="1" res="-4.3761733104474843e-04" rms="4.5029950141906738e-01" purity="4.8526966571807861e-01" nType="-99"/>
        </Node>
      </Node>
    </BinaryTree>
    <BinaryTree type="DecisionTree" boostWeight="1.0000000000000000e+00" itree="194">
      <Node pos="s" depth="0" NCoef="0" IVar="8" Cut="3.3410659790039062e+02" cType="1" res="1.2753026559948921e-02" rms="4.6464917063713074e-01" purity="5.0658404827117920e-01" nType="0">
        <Node pos="l" depth="1" NCoef="0" IVar="0" Cut="2.9330484390258789e+01" cType="1" res="3.3869758248329163e-02" rms="4.6597284078598022e-01" purity="5.4704636335372925e-01" nType="0">
          <Node pos="l" depth="2" NCoef="0" IVar="-1" Cut="0.0000000000000000e+00" cType="1" res="-5.1182382740080357e-03" rms="3.9783886075019836e-01" purity="2.0677058398723602e-01" nType="-99"/>
          <Node pos="r" depth="2" NCoef="0" IVar="-1" Cut="0.0000000000000000e+00" cType="1" res="1.7468933947384357e-03" rms="4.6967929601669312e-01" purity="5.8052432537078857e-01" nType="-99"/>
        </Node>
        <Node pos="r" depth="1" NCoef="0" IVar="0" Cut="1.0954869842529297e+02" cType="1" res="-5.0890371203422546e-02" rms="4.5474365353584290e-01" purity="3.8463521003723145e-01" nType="0">
          <Node pos="l" depth="2" NCoef="0" IVar="-1" Cut="0.0000000000000000e+00" cType="1" res="-4.3028621003031731e-03" rms="4.3434587121009827e-01" purity="3.0269840359687805e-01" nType="-99"/>
          <Node pos="r" depth="2" NCoef="0" IVar="-1" Cut="0.0000000000000000e+00" cType="1" res="1.0979148792102933e-03" rms="4.7485062479972839e-01" purity="5.1832640171051025e-01" nType="-99"/>
        </Node>
      </Node>
    </BinaryTree>
    <BinaryTree type="DecisionTree" boostWeight="1.0000000000000000e+00" itree="195">
      <Node pos="s" depth="0" NCoef="0" IVar="9" Cut="1.9739810228347778e+00" cType="1" res="2.9323784634470940e-02" rms="4.5792317390441895e-01" purity="5.2977150678634644e-01" nType="0">
        <Node pos="l" depth="1" NCoef="0" IVar="1" Cut="7.8214492797851562e+01" cType="1" res="8.9903876185417175e-02" rms="4.3881914019584656e-01" purity="6.7564809322357178e-01" nType="0">
          <Node pos="l" depth="2" NCoef="0" IVar="-1" Cut="0.0000000000000000e+00" cType="1" res="-1.4509696047753096e-03" rms="4.7293794155120850e-01" purity="4.4641017913818359e-01" nType="-99"/>
          <Node pos="r" depth="2" NCoef="0" IVar="-1" Cut="0.0000000000000000e+00" cType="1" res="4.3107559904456139e-03" rms="4.2456936836242676e-01" purity="7.3056232929229736e-01" nType="-99"/>
        </Node>
        <Node pos="r" depth="1" NCoef="0" IVar="10" Cut="4.0861648321151733e-01" cType="1" res="3.5957612562924623e-03" rms="4.6340987086296082e-01" purity="4.6781852841377258e-01" nType="0">
          <Node pos="l" depth="2" NCoef="0" IVar="-1" Cut="0.0000000000000000e+00" cType="1" res="-4.6020275913178921e-03" rms="4.0804898738861084e-01" purity="2.2178474068641663e-01" nType="-99"/>
          <Node pos="r" depth="2" NCoef="0" IVar="-1" Cut="0.0000000000000000e+00" cType="1" res="5.2023422904312611e-04" rms="4.6700277924537659e-01" purity="4.9137112498283386e-01" nType="-99"/>
        </Node>
      </Node>
    </BinaryTree>
    <BinaryTree type="DecisionTree" boostWeight="1.0000000000000000e+00" itree="196">
      <Node pos="s" depth="0" NCoef="0" IVar="8" Cut="2.7650659179687500e+02" cType="1" res="1.8449524650350213e-03" rms="4.5920243859291077e-01" purity="4.9396932125091553e-01" nType="0">
        <Node pos="l" depth="1" NCoef="0" IVar="5" Cut="9.5704984664916992e-01" cType="1" res="3.0029971152544022e-02" rms="4.6013563871383667e-01" purity="5.4584401845932007e-01" nType="0">
          <Node pos="l" depth="2" NCoef="0" IVar="-1" Cut="0.0000000000000000e+00" cType="1" res="-3.9903455763123930e-04" rms="4.6553683280944824e-01" purity="4.6551182866096497e-01" nType="-99"/>
          <Node pos="r" depth="2" NCoef="0" IVar="-1" Cut="0.0000000000000000e+00" cType="1" res="2.8381962329149246e-03" rms="4.4982120394706726e-01" purity="6.3381832838058472e-01" nType="-99"/>
        </Node>
        <Node pos="r" depth="1" NCoef="0" IVar="0" Cut="1.1441686248779297e+02" cType="1" res="-4.4991642236709595e-02" rms="4.5379230380058289e-01" purity="4.0776628255844116e-01" nType="0">
          <Node pos="l" depth="2" NCoef="0" IVar="-1" Cut="0.0000000000000000e+00" cType="1" res="-2.9867517296224833e-03" rms="4.5058962702751160e-01" purity="3.6141622066497803e-01" nType="-99"/>
          <Node pos="r" depth="2" NCoef="0" IVar="-1" Cut="0.0000000000000000e+00" cType="1" res="8.1013876479119062e-04" rms="4.5444419980049133e-01" purity="5.1834267377853394e-01" nType="-99"/>
        </Node>
      </Node>
    </BinaryTree>
    <BinaryTree type="DecisionTree" boostWeight="1.0000000000000000e+00" itree="197">
      <Node pos="s" depth="0" NCoef="0" IVar="9" Cut="1.7886908054351807e+00" cType="1" res="5.6143649853765965e-03" rms="4.5702925324440002e-01" purity="5.0724238157272339e-01" nType="0">
        <Node pos="l" depth="1" NCoef="0" IVar="11" Cut="7.4228477478027344e-01" cType="1" res="7.0262700319290161e-02" rms="4.4382649660110474e-01" purity="6.7023062705993652e-01" nType="0">
          <Node pos="l" depth="2" NCoef="0" IVar="-1" Cut="0.0000000000000000e+00" cType="1" res="6.7182839848101139e-04" rms="4.6489900350570679e-01" purity="6.0827440023422241e-01" nType="-99"/>
          <Node pos="r" depth="2" NCoef="0" IVar="-1" Cut="0.0000000000000000e+00" cType="1" res="3.8990073371678591e-03" rms="4.2445355653762817e-01" purity="7.1404838562011719e-01" nType="-99"/>
        </Node>
        <Node pos="r" depth="1" NCoef="0" IVar="8" Cut="1.9346220397949219e+02" cType="1" res="-1.5177745372056961e-02" rms="4.5926520228385925e-01" purity="4.5482233166694641e-01" nType="0">
          <Node pos="l" depth="2" NCoef="0" IVar="-1" Cut="0.0000000000000000e+00" cType="1" res="1.3758259592577815e-03" rms="4.6413990855216980e-01" purity="5.3215223550796509e-01" nType="-99"/>
          <Node pos="r" depth="2" NCoef="0" IVar="-1" Cut="0.0000000000000000e+00" cType="1" res="-1.5057964483276010e-03" rms="4.5494908094406128e-01" purity="4.1923034191131592e-01" nType="-99"/>
        </Node>
      </Node>
    </BinaryTree>
    <BinaryTree type="DecisionTree" boostWeight="1.0000000000000000e+00" itree="198">
      <Node pos="s" depth="0" NCoef="0" IVar="10" Cut="7.8918570280075073e-01" cType="1" res="-5.6218989193439484e-03" rms="4.5694950222969055e-01" purity="4.9052467942237854e-01" nType="0">
        <Node pos="l" depth="1" NCoef="0" IVar="2" Cut="1.4158619642257690e+00" cType="1" res="-1.9951172173023224e-02" rms="4.5919173955917358e-01" purity="4.5976525545120239e-01" nType="0">
          <Node pos="l" depth="2" NCoef="0" IVar="-1" Cut="0.0000000000000000e+00" cType="1" res="1.3105005491524935e-03" rms="4.5499232411384583e-01" purity="6.2294203042984009e-01" nType="-99"/>
          <Node pos="r" depth="2" NCoef="0" IVar="-1" Cut="0.0000000000000000e+00" cType="1" res="-1.4308713143691421e-03" rms="4.5908147096633911e-01" purity="4.0807607769966125e-01" nType="-99"/>
        </Node>
        <Node pos="r" depth="1" NCoef="0" IVar="1" Cut="1.0897634124755859e+02" cType="1" res="9.8789989948272705e-02" rms="4.2595383524894714e-01" purity="7.1465671062469482e-01" nType="0">
          <Node pos="l" depth="2" NCoef="0" IVar="-1" Cut="0.0000000000000000e+00" cType="1" res="2.5698309764266014e-03" rms="4.6192833781242371e-01" purity="6.5471029281616211e-01" nType="-99"/>
          <Node pos="r" depth="2" NCoef="0" IVar="-1" Cut="0.0000000000000000e+00" cType="1" res="4.8013310879468918e-03" rms="3.8003072142601013e-01" purity="7.8010642528533936e-01" nType="-99"/>
        </Node>
      </Node>
    </BinaryTree>
    <BinaryTree type="DecisionTree" boostWeight="1.0000000000000000e+00" itree="199">
      <Node pos="s" depth="0" NCoef="0" IVar="9" Cut="1.5412955284118652e+00" cType="1" res="-2.4943081662058830e-03" rms="4.5593768358230591e-01" purity="4.9337637424468994e-01" nType="0">
        <Node pos="l" depth="1" NCoef="0" IVar="2" Cut="1.0715425014495850e+00" cType="1" res="7.9414695501327515e-02" rms="4.4027230143547058e-01" purity="6.8489795923233032e-01" nType="0">
          <Node pos="l" depth="2" NCoef="0" IVar="-1" Cut="0.0000000000000000e+00" cType="1" res="9.7109441412612796e-04" rms="4.5169818401336670e-01" purity="6.3417750597000122e-01" nType="-99"/>
          <Node pos="r" depth="2" NCoef="0" IVar="-1" Cut="0.0000000000000000e+00" cType="1" res="4.2537502013146877e-03" rms="4.2757344245910645e-01" purity="7.2183227539062500e-01" nType="-99"/>
        </Node>
        <Node pos="r" depth="1" NCoef="0" IVar="10" Cut="5.4709774255752563e-01" cType="1" res="-1.8036071211099625e-02" rms="4.5719638466835022e-01" purity="4.5703625679016113e-01" nType="0">
          <Node pos="l" depth="2" NCoef="0" IVar="-1" Cut="0.0000000000000000e+00" cType="1" res="-2.4851269554346800e-03" rms="4.3500071763992310e-01" purity="3.2202270627021790e-01" nType="-99"/>
          <Node pos="r" depth="2" NCoef="0" IVar="-1" Cut="0.0000000000000000e+00" cType="1" res="2.6254681870341301e-04" rms="4.6804964542388916e-01" purity="5.3712201118469238e-01" nType="-99"/>
        </Node>
      </Node>
    </BinaryTree>
    <BinaryTree type="DecisionTree" boostWeight="1.0000000000000000e+00" itree="200">
      <Node pos="s" depth="0" NCoef="0" IVar="0" Cut="6.5554344177246094e+01" cType="1" res="8.6257781367748976e-04" rms="4.6259272098541260e-01" purity="4.9620673060417175e-01" nType="0">
        <Node pos="l" depth="1" NCoef="0" IVar="9" Cut="1.3706732988357544e+00" cType="1" res="-2.9648104682564735e-02" rms="4.6283149719238281e-01" purity="4.1297069191932678e-01" nType="0">
          <Node pos="l" depth="2" NCoef="0" IVar="-1" Cut="0.0000000000000000e+00" cType="1" res="3.4480693284422159e-03" rms="4.5712032914161682e-01" purity="6.5103322267532349e-01" nType="-99"/>
          <Node pos="r" depth="2" NCoef="0" IVar="-1" Cut="0.0000000000000000e+00" cType="1" res="-2.0574626978486776e-03" rms="4.6025627851486206e-01" purity="3.7212270498275757e-01" nType="-99"/>
        </Node>
        <Node pos="r" depth="1" NCoef="0" IVar="8" Cut="2.5658786010742188e+02" cType="1" res="3.6806628108024597e-02" rms="4.5972064137458801e-01" purity="5.9426546096801758e-01" nType="0">
          <Node pos="l" depth="2" NCoef="0" IVar="-1" Cut="0.0000000000000000e+00" cType="1" res="3.2543526031076908e-03" rms="4.4064715504646301e-01" purity="7.0809638500213623e-01" nType="-99"/>
          <Node pos="r" depth="2" NCoef="0" IVar="-1" Cut="0.0000000000000000e+00" cType="1" res="-3.7839829019503668e-05" rms="4.6869274973869324e-01" purity="5.1581639051437378e-01" nType="-99"/>
        </Node>
      </Node>
    </BinaryTree>
    <BinaryTree type="DecisionTree" boostWeight="1.0000000000000000e+00" itree="201">
      <Node pos="s" depth="0" NCoef="0" IVar="8" Cut="1.8987771606445312e+02" cType="1" res="4.5574471005238593e-04" rms="4.5712971687316895e-01" purity="4.9794122576713562e-01" nType="0">
        <Node pos="l" depth="1" NCoef="0" IVar="4" Cut="1.8206639099121094e+02" cType="1" res="6.2441341578960419e-02" rms="4.6207150816917419e-01" purity="5.8448469638824463e-01" nType="0">
          <Node pos="l" depth="2" NCoef="0" IVar="-1" Cut="0.0000000000000000e+00" cType="1" res="-2.6020559016615152e-03" rms="4.3961855769157410e-01" purity="3.2442343235015869e-01" nType="-99"/>
          <Node pos="r" depth="2" NCoef="0" IVar="-1" Cut="0.0000000000000000e+00" cType="1" res="3.1392816454172134e-03" rms="4.6221739053726196e-01" purity="6.4048844575881958e-01" nType="-99"/>
        </Node>
        <Node pos="r" depth="1" NCoef="0" IVar="0" Cut="8.5509956359863281e+01" cType="1" res="-3.2896865159273148e-02" rms="4.5093637704849243e-01" purity="4.5137479901313782e-01" nType="0">
          <Node pos="l" depth="2" NCoef="0" IVar="-1" Cut="0.0000000000000000e+00" cType="1" res="-3.0006763990968466e-03" rms="4.4091671705245972e-01" purity="3.6599704623222351e-01" nType="-99"/>
          <Node pos="r" depth="2" NCoef="0" IVar="-1" Cut="0.0000000000000000e+00" cType="1" res="1.3282542349770665e-03" rms="4.5829480886459351e-01" purity="5.8855479955673218e-01" nType="-99"/>
        </Node>
      </Node>
    </BinaryTree>
    <BinaryTree type="DecisionTree" boostWeight="1.0000000000000000e+00" itree="202">
      <Node pos="s" depth="0" NCoef="0" IVar="9" Cut="1.3671994209289551e+00" cType="1" res="5.1195458509027958e-03" rms="4.5934909582138062e-01" purity="5.0826346874237061e-01" nType="0">
        <Node pos="l" depth="1" NCoef="0" IVar="0" Cut="5.4767089843750000e+01" cType="1" res="9.2617377638816833e-02" rms="4.3604376912117004e-01" purity="7.1882975101470947e-01" nType="0">
          <Node pos="l" depth="2" NCoef="0" IVar="-1" Cut="0.0000000000000000e+00" cType="1" res="4.6541090123355389e-03" rms="4.4582247734069824e-01" purity="6.8061876296997070e-01" nType="-99"/>
          <Node pos="r" depth="2" NCoef="0" IVar="-1" Cut="0.0000000000000000e+00" cType="1" res="1.9816213753074408e-03" rms="4.2162102460861206e-01" purity="7.5752645730972290e-01" nType="-99"/>
        </Node>
        <Node pos="r" depth="1" NCoef="0" IVar="7" Cut="9.6814758300781250e+01" cType="1" res="-6.1302511021494865e-03" rms="4.6105709671974182e-01" purity="4.8119047284126282e-01" nType="0">
          <Node pos="l" depth="2" NCoef="0" IVar="-1" Cut="0.0000000000000000e+00" cType="1" res="-7.8271114034578204e-04" rms="4.5928028225898743e-01" purity="4.5286121964454651e-01" nType="-99"/>
          <Node pos="r" depth="2" NCoef="0" IVar="-1" Cut="0.0000000000000000e+00" cType="1" res="2.8805825859308243e-03" rms="4.6232628822326660e-01" purity="6.4574462175369263e-01" nType="-99"/>
        </Node>
      </Node>
    </BinaryTree>
    <BinaryTree type="DecisionTree" boostWeight="1.0000000000000000e+00" itree="203">
      <Node pos="s" depth="0" NCoef="0" IVar="0" Cut="1.4520637512207031e+02" cType="1" res="2.0130310207605362e-02" rms="4.5847469568252563e-01" purity="5.1879549026489258e-01" nType="0">
        <Node pos="l" depth="1" NCoef="0" IVar="0" Cut="1.1742585754394531e+02" cType="1" res="2.8428191319108009e-02" rms="4.5807039737701416e-01" purity="5.2920734882354736e-01" nType="0">
          <Node pos="l" depth="2" NCoef="0" IVar="-1" Cut="0.0000000000000000e+00" cType="1" res="5.2339280955493450e-04" rms="4.6012520790100098e-01" purity="5.0601142644882202e-01" nType="-99"/>
          <Node pos="r" depth="2" NCoef="0" IVar="-1" Cut="0.0000000000000000e+00" cType="1" res="6.1107077635824680e-03" rms="4.0831664204597473e-01" purity="7.6573455333709717e-01" nType="-99"/>
        </Node>
        <Node pos="r" depth="1" NCoef="0" IVar="-1" Cut="0.0000000000000000e+00" cType="1" res="-4.4923508539795876e-03" rms="4.4263419508934021e-01" purity="3.4434524178504944e-01" nType="-99"/>
      </Node>
    </BinaryTree>
    <BinaryTree type="DecisionTree" boostWeight="1.0000000000000000e+00" itree="204">
      <Node pos="s" depth="0" NCoef="0" IVar="8" Cut="2.8734362792968750e+02" cType="1" res="1.3141401112079620e-02" rms="4.5709732174873352e-01" purity="5.1581579446792603e-01" nType="0">
        <Node pos="l" depth="1" NCoef="0" IVar="1" Cut="7.2878372192382812e+01" cType="1" res="4.2151983827352524e-02" rms="4.5937174558639526e-01" purity="5.6945097446441650e-01" nType="0">
          <Node pos="l" depth="2" NCoef="0" IVar="-1" Cut="0.0000000000000000e+00" cType="1" res="-3.2173199579119682e-03" rms="4.6298772096633911e-01" purity="3.7379464507102966e-01" nType="-99"/>
          <Node pos="r" depth="2" NCoef="0" IVar="-1" Cut="0.0000000000000000e+00" cType="1" res="1.9542730879038572e-03" rms="4.5734116435050964e-01" purity="5.8837676048278809e-01" nType="-99"/>
        </Node>
        <Node pos="r" depth="1" NCoef="0" IVar="6" Cut="1.0908649444580078e+02" cType="1" res="-4.6639177948236465e-02" rms="4.4646912813186646e-01" purity="4.0529260039329529e-01" nType="0">
          <Node pos="l" depth="2" NCoef="0" IVar="-1" Cut="0.0000000000000000e+00" cType="1" res="-3.2952860929071903e-03" rms="4.3651297688484192e-01" purity="3.5167828202247620e-01" nType="-99"/>
          <Node pos="r" depth="2" NCoef="0" IVar="-1" Cut="0.0000000000000000e+00" cType="1" res="2.7229336556047201e-03" rms="4.6058765053749084e-01" purity="5.9747862815856934e-01" nType="-99"/>
        </Node>
      </Node>
    </BinaryTree>
    <BinaryTree type="DecisionTree" boostWeight="1.0000000000000000e+00" itree="205">
      <Node pos="s" depth="0" NCoef="0" IVar="0" Cut="8.5792678833007812e+01" cType="1" res="-3.2226447947323322e-03" rms="4.5957255363464355e-01" purity="4.9667489528656006e-01" nType="0">
        <Node pos="l" depth="1" NCoef="0" IVar="8" Cut="2.9443045043945312e+02" cType="1" res="-2.7085775509476662e-02" rms="4.5896127820014954e-01" purity="4.3795198202133179e-01" nType="0">
          <Node pos="l" depth="2" NCoef="0" IVar="-1" Cut="0.0000000000000000e+00" cType="1" res="-5.7305846894450951e-06" rms="4.6523001790046692e-01" purity="4.9024844169616699e-01" nType="-99"/>
          <Node pos="r" depth="2" NCoef="0" IVar="-1" Cut="0.0000000000000000e+00" cType="1" res="-5.5837901309132576e-03" rms="4.2032766342163086e-01" purity="2.4479383230209351e-01" nType="-99"/>
        </Node>
        <Node pos="r" depth="1" NCoef="0" IVar="0" Cut="1.4737574768066406e+02" cType="1" res="4.4829700142145157e-02" rms="4.5703592896461487e-01" purity="6.1492317914962769e-01" nType="0">
          <Node pos="l" depth="2" NCoef="0" IVar="-1" Cut="0.0000000000000000e+00" cType="1" res="2.5093802250921726e-03" rms="4.5620650053024292e-01" purity="6.5851604938507080e-01" nType="-99"/>
          <Node pos="r" depth="2" NCoef="0" IVar="-1" Cut="0.0000000000000000e+00" cType="1" res="-2.6666286867111921e-03" rms="4.4315978884696960e-01" purity="4.0744850039482117e-01" nType="-99"/>
        </Node>
      </Node>
    </BinaryTree>
    <BinaryTree type="DecisionTree" boostWeight="1.0000000000000000e+00" itree="206">
      <Node pos="s" depth="0" NCoef="0" IVar="3" Cut="1.0806293487548828e+02" cType="1" res="1.5100837685167789e-02" rms="4.5715022087097168e-01" purity="5.1538735628128052e-01" nType="0">
        <Node pos="l" depth="1" NCoef="0" IVar="-1" Cut="0.0000000000000000e+00" cType="1" res="-3.9788661524653435e-03" rms="4.4377866387367249e-01" purity="3.5175734758377075e-01" nType="-99"/>
        <Node pos="r" depth="1" NCoef="0" IVar="3" Cut="1.2918376159667969e+02" cType="1" res="2.5220051407814026e-02" rms="4.5693007111549377e-01" purity="5.2981692552566528e-01" nType="0">
          <Node pos="l" depth="2" NCoef="0" IVar="-1" Cut="0.0000000000000000e+00" cType="1" res="1.7307727830484509e-03" rms="4.5733940601348877e-01" purity="5.6471705436706543e-01" nType="-99"/>
          <Node pos="r" depth="2" NCoef="0" IVar="-1" Cut="0.0000000000000000e+00" cType="1" res="-1.7997870454564691e-03" rms="4.4833999872207642e-01" purity="4.1957488656044006e-01" nType="-99"/>
        </Node>
      </Node>
    </BinaryTree>
    <BinaryTree type="DecisionTree" boostWeight="1.0000000000000000e+00" itree="207">
      <Node pos="s" depth="0" NCoef="0" IVar="10" Cut="6.4167159795761108e-01" cType="1" res="-1.1513856239616871e-02" rms="4.5260247588157654e-01" purity="4.8745113611221313e-01" nType="0">
        <Node pos="l" depth="1" NCoef="0" IVar="0" Cut="6.5554344177246094e+01" cType="1" res="-4.4572960585355759e-02" rms="4.4698527455329895e-01" purity="3.9482459425926208e-01" nType="0">
          <Node pos="l" depth="2" NCoef="0" IVar="-1" Cut="0.0000000000000000e+00" cType="1" res="-3.0769892036914825e-03" rms="4.3060252070426941e-01" purity="3.0786809325218201e-01" nType="-99"/>
          <Node pos="r" depth="2" NCoef="0" IVar="-1" Cut="0.0000000000000000e+00" cType="1" res="-5.4297409951686859e-04" rms="4.6132549643516541e-01" purity="4.8420903086662292e-01" nType="-99"/>
        </Node>
        <Node pos="r" depth="1" NCoef="0" IVar="5" Cut="9.6158772706985474e-01" cType="1" res="3.3962309360504150e-02" rms="4.5632076263427734e-01" purity="6.1486840248107910e-01" nType="0">
          <Node pos="l" depth="2" NCoef="0" IVar="-1" Cut="0.0000000000000000e+00" cType="1" res="3.8270685763563961e-05" rms="4.6205800771713257e-01" purity="5.5394315719604492e-01" nType="-99"/>
          <Node pos="r" depth="2" NCoef="0" IVar="-1" Cut="0.0000000000000000e+00" cType="1" res="2.9977338854223490e-03" rms="4.4430184364318848e-01" purity="6.9896954298019409e-01" nType="-99"/>
        </Node>
      </Node>
    </BinaryTree>
    <BinaryTree type="DecisionTree" boostWeight="1.0000000000000000e+00" itree="208">
      <Node pos="s" depth="0" NCoef="0" IVar="0" Cut="8.2478187561035156e+01" cType="1" res="1.0104905813932419e-02" rms="4.5429798960685730e-01" purity="5.0922501087188721e-01" nType="0">
        <Node pos="l" depth="1" NCoef="0" IVar="10" Cut="7.9078030586242676e-01" cType="1" res="-2.1974377334117889e-02" rms="4.5825231075286865e-01" purity="4.3781423568725586e-01" nType="0">
          <Node pos="l" depth="2" NCoef="0" IVar="-1" Cut="0.0000000000000000e+00" cType="1" res="-1.5197914326563478e-03" rms="4.5653378963470459e-01" purity="4.0552428364753723e-01" nType="-99"/>
          <Node pos="r" depth="2" NCoef="0" IVar="-1" Cut="0.0000000000000000e+00" cType="1" res="3.3059820998460054e-03" rms="4.5394968986511230e-01" purity="6.5990746021270752e-01" nType="-99"/>
        </Node>
        <Node pos="r" depth="1" NCoef="0" IVar="11" Cut="7.7290695905685425e-01" cType="1" res="7.2064347565174103e-02" rms="4.3998906016349792e-01" purity="6.4715123176574707e-01" nType="0">
          <Node pos="l" depth="2" NCoef="0" IVar="-1" Cut="0.0000000000000000e+00" cType="1" res="1.4813012676313519e-03" rms="4.6584373712539673e-01" purity="5.7111990451812744e-01" nType="-99"/>
          <Node pos="r" depth="2" NCoef="0" IVar="-1" Cut="0.0000000000000000e+00" cType="1" res="5.7366746477782726e-03" rms="3.5275384783744812e-01" purity="8.4340119361877441e-01" nType="-99"/>
        </Node>
      </Node>
    </BinaryTree>
    <BinaryTree type="DecisionTree" boostWeight="1.0000000000000000e+00" itree="209">
      <Node pos="s" depth="0" NCoef="0" IVar="2" Cut="2.9479954242706299e+00" cType="1" res="-1.3106210390105844e-03" rms="4.5841866731643677e-01" purity="5.0132846832275391e-01" nType="0">
        <Node pos="l" depth="1" NCoef="0" IVar="2" Cut="2.6556258201599121e+00" cType="1" res="9.4955544918775558e-03" rms="4.6614655852317810e-01" purity="5.4357582330703735e-01" nType="0">
          <Node pos="l" depth="2" NCoef="0" IVar="-1" Cut="0.0000000000000000e+00" cType="1" res="8.5963583842385560e-06" rms="4.6432718634605408e-01" purity="5.4874050617218018e-01" nType="-99"/>
          <Node pos="r" depth="2" NCoef="0" IVar="-1" Cut="0.0000000000000000e+00" cType="1" res="4.3525774963200092e-03" rms="4.7384014725685120e-01" purity="4.8553332686424255e-01" nType="-99"/>
        </Node>
        <Node pos="r" depth="1" NCoef="0" IVar="9" Cut="3.4254782199859619e+00" cType="1" res="-7.3261864483356476e-02" rms="3.9575216174125671e-01" purity="2.2003097832202911e-01" nType="0">
          <Node pos="l" depth="2" NCoef="0" IVar="-1" Cut="0.0000000000000000e+00" cType="1" res="3.6524960887618363e-04" rms="4.4769418239593506e-01" purity="3.3010786771774292e-01" nType="-99"/>
          <Node pos="r" depth="2" NCoef="0" IVar="-1" Cut="0.0000000000000000e+00" cType="1" res="-6.4938068389892578e-03" rms="3.4743285179138184e-01" purity="1.4818766713142395e-01" nType="-99"/>
        </Node>
      </Node>
    </BinaryTree>
    <BinaryTree type="DecisionTree" boostWeight="1.0000000000000000e+00" itree="210">
      <Node pos="s" depth="0" NCoef="0" IVar="5" Cut="9.4150590896606445e-01" cType="1" res="-3.8560735993087292e-03" rms="4.5362028479576111e-01" purity="4.9836701154708862e-01" nType="0">
        <Node pos="l" depth="1" NCoef="0" IVar="6" Cut="3.2370090484619141e+01" cType="1" res="-7.1216940879821777e-02" rms="4.3328553438186646e-01" purity="3.5745128989219666e-01" nType="0">
          <Node pos="l" depth="2" NCoef="0" IVar="-1" Cut="0.0000000000000000e+00" cType="1" res="-8.2878340035676956e-03" rms="3.3338984847068787e-01" purity="1.3985900580883026e-01" nType="-99"/>
          <Node pos="r" depth="2" NCoef="0" IVar="-1" Cut="0.0000000000000000e+00" cType="1" res="-1.5924272593110800e-03" rms="4.5045340061187744e-01" purity="4.1073232889175415e-01" nType="-99"/>
        </Node>
        <Node pos="r" depth="1" NCoef="0" IVar="8" Cut="3.2343548583984375e+02" cType="1" res="2.2968269884586334e-02" rms="4.5872297883033752e-01" purity="5.5448222160339355e-01" nType="0">
          <Node pos="l" depth="2" NCoef="0" IVar="-1" Cut="0.0000000000000000e+00" cType="1" res="1.8788521410897374e-03" rms="4.5212450623512268e-01" purity="5.9858155250549316e-01" nType="-99"/>
          <Node pos="r" depth="2" NCoef="0" IVar="-1" Cut="0.0000000000000000e+00" cType="1" res="-2.4603521451354027e-03" rms="4.6852245926856995e-01" purity="4.2003577947616577e-01" nType="-99"/>
        </Node>
      </Node>
    </BinaryTree>
    <BinaryTree type="DecisionTree" boostWeight="1.0000000000000000e+00" itree="211">
      <Node pos="s" depth="0" NCoef="0" IVar="7" Cut="9.9161506652832031e+01" cType="1" res="-4.7617233358323574e-03" rms="4.5616814494132996e-01" purity="4.9285289645195007e-01" nType="0">
        <Node pos="l" depth="1" NCoef="0" IVar="8" Cut="3.1788833618164062e+02" cType="1" res="-2.1104788407683372e-02" rms="4.5545119047164917e-01" purity="4.6356919407844543e-01" nType="0">
          <Node pos="l" depth="2" NCoef="0" IVar="-1" Cut="0.0000000000000000e+00" cType="1" res="-5.3576975915348157e-05" rms="4.6087509393692017e-01" purity="5.0584697723388672e-01" nType="-99"/>
          <Node pos="r" depth="2" NCoef="0" IVar="-1" Cut="0.0000000000000000e+00" cType="1" res="-3.3056389074772596e-03" rms="4.3336442112922668e-01" purity="3.3626937866210938e-01" nType="-99"/>
        </Node>
        <Node pos="r" depth="1" NCoef="0" IVar="9" Cut="2.3659188747406006e+00" cType="1" res="9.8864294588565826e-02" rms="4.4699195027351379e-01" purity="6.7853128910064697e-01" nType="0">
          <Node pos="l" depth="2" NCoef="0" IVar="-1" Cut="0.0000000000000000e+00" cType="1" res="8.5841066902503371e-04" rms="4.4995775818824768e-01" purity="6.8798941373825073e-01" nType="-99"/>
          <Node pos="r" depth="2" NCoef="0" IVar="-1" Cut="0.0000000000000000e+00" cType="1" res="5.5417465046048164e-03" rms="4.3673971295356750e-01" purity="6.7173558473587036e-01" nType="-99"/>
        </Node>
      </Node>
    </BinaryTree>
    <BinaryTree type="DecisionTree" boostWeight="1.0000000000000000e+00" itree="212">
      <Node pos="s" depth="0" NCoef="0" IVar="1" Cut="1.7434855651855469e+02" cType="1" res="1.8540751188993454e-02" rms="4.5709505677223206e-01" purity="5.1801764965057373e-01" nType="0">
        <Node pos="l" depth="1" NCoef="0" IVar="5" Cut="9.3045455217361450e-01" cType="1" res="3.3553294837474823e-02" rms="4.5809561014175415e-01" purity="5.3642058372497559e-01" nType="0">
          <Node pos="l" depth="2" NCoef="0" IVar="-1" Cut="0.0000000000000000e+00" cType="1" res="-1.8989560194313526e-03" rms="4.4664385914802551e-01" purity="3.5437473654747009e-01" nType="-99"/>
          <Node pos="r" depth="2" NCoef="0" IVar="-1" Cut="0.0000000000000000e+00" cType="1" res="1.8581835320219398e-03" rms="4.5841851830482483e-01" purity="5.7160252332687378e-01" nType="-99"/>
        </Node>
        <Node pos="r" depth="1" NCoef="0" IVar="7" Cut="1.0954869842529297e+02" cType="1" res="-6.5650410950183868e-02" rms="4.4209560751914978e-01" purity="4.1481307148933411e-01" nType="0">
          <Node pos="l" depth="2" NCoef="0" IVar="-1" Cut="0.0000000000000000e+00" cType="1" res="-4.4165528379380703e-03" rms="4.2978945374488831e-01" purity="3.3955854177474976e-01" nType="-99"/>
          <Node pos="r" depth="2" NCoef="0" IVar="-1" Cut="0.0000000000000000e+00" cType="1" res="4.1245846659876406e-04" rms="4.5599597692489624e-01" purity="5.6360954046249390e-01" nType="-99"/>
        </Node>
      </Node>
    </BinaryTree>
    <BinaryTree type="DecisionTree" boostWeight="1.0000000000000000e+00" itree="213">
      <Node pos="s" depth="0" NCoef="0" IVar="8" Cut="1.8119381713867188e+02" cType="1" res="7.8989723697304726e-03" rms="4.6031090617179871e-01" purity="5.0533753633499146e-01" nType="0">
        <Node pos="l" depth="1" NCoef="0" IVar="4" Cut="1.7737490844726562e+02" cType="1" res="6.3162557780742645e-02" rms="4.5889443159103394e-01" purity="5.7706648111343384e-01" nType="0">
          <Node pos="l" depth="2" NCoef="0" IVar="-1" Cut="0.0000000000000000e+00" cType="1" res="-2.7121233288198709e-03" rms="4.4698244333267212e-01" purity="2.9719614982604980e-01" nType="-99"/>
          <Node pos="r" depth="2" NCoef="0" IVar="-1" Cut="0.0000000000000000e+00" cType="1" res="3.1774498056620359e-03" rms="4.5688477158546448e-01" purity="6.3678663969039917e-01" nType="-99"/>
        </Node>
        <Node pos="r" depth="1" NCoef="0" IVar="4" Cut="3.1676339721679688e+02" cType="1" res="-1.7366232350468636e-02" rms="4.5874482393264771e-01" purity="4.7254478931427002e-01" nType="0">
          <Node pos="l" depth="2" NCoef="0" IVar="-1" Cut="0.0000000000000000e+00" cType="1" res="-2.9545708093792200e-03" rms="4.4439962506294250e-01" purity="3.6121359467506409e-01" nType="-99"/>
          <Node pos="r" depth="2" NCoef="0" IVar="-1" Cut="0.0000000000000000e+00" cType="1" res="6.4645550446584821e-04" rms="4.6388557553291321e-01" purity="5.4044204950332642e-01" nType="-99"/>
        </Node>
      </Node>
    </BinaryTree>
    <BinaryTree type="DecisionTree" boostWeight="1.0000000000000000e+00" itree="214">
      <Node pos="s" depth="0" NCoef="0" IVar="8" Cut="1.8939866638183594e+02" cType="1" res="-6.7285345867276192e-03" rms="4.5551973581314087e-01" purity="4.9284175038337708e-01" nType="0">
        <Node pos="l" depth="1" NCoef="0" IVar="8" Cut="1.1782012939453125e+02" cType="1" res="4.3750666081905365e-02" rms="4.5764857530593872e-01" purity="5.6474894285202026e-01" nType="0">
          <Node pos="l" depth="2" NCoef="0" IVar="-1" Cut="0.0000000000000000e+00" cType="1" res="-4.7068558633327484e-03" rms="4.3601539731025696e-01" purity="3.4102237224578857e-01" nType="-99"/>
          <Node pos="r" depth="2" NCoef="0" IVar="-1" Cut="0.0000000000000000e+00" cType="1" res="2.6620943099260330e-03" rms="4.5547363162040710e-01" purity="6.0685777664184570e-01" nType="-99"/>
        </Node>
        <Node pos="r" depth="1" NCoef="0" IVar="4" Cut="3.4588150024414062e+02" cType="1" res="-3.2534874975681305e-02" rms="4.5225629210472107e-01" purity="4.5608076453208923e-01" nType="0">
          <Node pos="l" depth="2" NCoef="0" IVar="-1" Cut="0.0000000000000000e+00" cType="1" res="-3.0451803468167782e-03" rms="4.4152048230171204e-01" purity="3.6511388421058655e-01" nType="-99"/>
          <Node pos="r" depth="2" NCoef="0" IVar="-1" Cut="0.0000000000000000e+00" cType="1" res="1.4712402480654418e-04" rms="4.5819702744483948e-01" purity="5.3460973501205444e-01" nType="-99"/>
        </Node>
      </Node>
    </BinaryTree>
    <BinaryTree type="DecisionTree" boostWeight="1.0000000000000000e+00" itree="215">
      <Node pos="s" depth="0" NCoef="0" IVar="0" Cut="3.0777185440063477e+01" cType="1" res="-1.8490666523575783e-02" rms="4.5198225975036621e-01" purity="4.8251393437385559e-01" nType="0">
        <Node pos="l" depth="1" NCoef="0" IVar="-1" Cut="0.0000000000000000e+00" cType="1" res="-8.2186888903379440e-03" rms="3.4086123108863831e-01" purity="1.3985140621662140e-01" nType="-99"/>
        <Node pos="r" depth="1" NCoef="0" IVar="3" Cut="1.1037651062011719e+02" cType="1" res="-4.3608918786048889e-03" rms="4.5886829495429993e-01" purity="5.1570272445678711e-01" nType="0">
          <Node pos="l" depth="2" NCoef="0" IVar="-1" Cut="0.0000000000000000e+00" cType="1" res="-3.9670225232839584e-03" rms="4.4459637999534607e-01" purity="3.9102008938789368e-01" nType="-99"/>
          <Node pos="r" depth="2" NCoef="0" IVar="-1" Cut="0.0000000000000000e+00" cType="1" res="2.4466068134643137e-04" rms="4.5919352769851685e-01" purity="5.2997779846191406e-01" nType="-99"/>
        </Node>
      </Node>
    </BinaryTree>
    <BinaryTree type="DecisionTree" boostWeight="1.0000000000000000e+00" itree="216">
      <Node pos="s" depth="0" NCoef="0" IVar="2" Cut="1.2527641057968140e+00" cType="1" res="2.6434287428855896e-03" rms="4.5791733264923096e-01" purity="5.0079065561294556e-01" nType="0">
        <Node pos="l" depth="1" NCoef="0" IVar="2" Cut="1.0008432865142822e+00" cType="1" res="6.1201523989439011e-02" rms="4.5264962315559387e-01" purity="6.6115915775299072e-01" nType="0">
          <Node pos="l" depth="2" NCoef="0" IVar="-1" Cut="0.0000000000000000e+00" cType="1" res="4.4977662037126720e-04" rms="4.7779899835586548e-01" purity="6.0042303800582886e-01" nType="-99"/>
          <Node pos="r" depth="2" NCoef="0" IVar="-1" Cut="0.0000000000000000e+00" cType="1" res="4.1542556136846542e-03" rms="4.1633188724517822e-01" purity="7.2840440273284912e-01" nType="-99"/>
        </Node>
        <Node pos="r" depth="1" NCoef="0" IVar="8" Cut="2.8904858398437500e+02" cType="1" res="-1.4068353921175003e-02" rms="4.5803850889205933e-01" purity="4.5502346754074097e-01" nType="0">
          <Node pos="l" depth="2" NCoef="0" IVar="-1" Cut="0.0000000000000000e+00" cType="1" res="5.2226724801585078e-04" rms="4.5869079232215881e-01" purity="5.0796341896057129e-01" nType="-99"/>
          <Node pos="r" depth="2" NCoef="0" IVar="-1" Cut="0.0000000000000000e+00" cType="1" res="-2.2098775953054428e-03" rms="4.5389655232429504e-01" purity="3.7699961662292480e-01" nType="-99"/>
        </Node>
      </Node>
    </BinaryTree>
    <BinaryTree type="DecisionTree" boostWeight="1.0000000000000000e+00" itree="217">
      <Node pos="s" depth="0" NCoef="0" IVar="1" Cut="7.8161643981933594e+01" cType="1" res="-2.9006758704781532e-03" rms="4.5569854974746704e-01" purity="4.9593201279640198e-01" nType="0">
        <Node pos="l" depth="1" NCoef="0" IVar="-1" Cut="0.0000000000000000e+00" cType="1" res="-4.4547393918037415e-03" rms="4.5667073130607605e-01" purity="3.1948405504226685e-01" nType="-99"/>
        <Node pos="r" depth="1" NCoef="0" IVar="9" Cut="1.7886908054351807e+00" cType="1" res="8.1705916672945023e-03" rms="4.5415154099464417e-01" purity="5.1404720544815063e-01" nType="0">
          <Node pos="l" depth="2" NCoef="0" IVar="-1" Cut="0.0000000000000000e+00" cType="1" res="2.7529569342732430e-03" rms="4.3388438224792480e-01" purity="6.9834470748901367e-01" nType="-99"/>
          <Node pos="r" depth="2" NCoef="0" IVar="-1" Cut="0.0000000000000000e+00" cType="1" res="-4.6301793190650642e-04" rms="4.5809984207153320e-01" purity="4.5875903964042664e-01" nType="-99"/>
        </Node>
      </Node>
    </BinaryTree>
    <BinaryTree type="DecisionTree" boostWeight="1.0000000000000000e+00" itree="218">
      <Node pos="s" depth="0" NCoef="0" IVar="10" Cut="7.8773403167724609e-01" cType="1" res="-2.4344895500689745e-03" rms="4.5426917076110840e-01" purity="4.9387893080711365e-01" nType="0">
        <Node pos="l" depth="1" NCoef="0" IVar="8" Cut="2.7650659179687500e+02" cType="1" res="-1.7142729833722115e-02" rms="4.5662960410118103e-01" purity="4.6032768487930298e-01" nType="0">
          <Node pos="l" depth="2" NCoef="0" IVar="-1" Cut="0.0000000000000000e+00" cType="1" res="2.9516601352952421e-04" rms="4.5919653773307800e-01" purity="5.1077210903167725e-01" nType="-99"/>
          <Node pos="r" depth="2" NCoef="0" IVar="-1" Cut="0.0000000000000000e+00" cType="1" res="-2.3631048388779163e-03" rms="4.4911774992942810e-01" purity="3.7548556923866272e-01" nType="-99"/>
        </Node>
        <Node pos="r" depth="1" NCoef="0" IVar="2" Cut="1.3461530208587646e+00" cType="1" res="9.9253125488758087e-02" rms="4.2386248707771301e-01" purity="7.2584050893783569e-01" nType="0">
          <Node pos="l" depth="2" NCoef="0" IVar="-1" Cut="0.0000000000000000e+00" cType="1" res="2.2906260564923286e-03" rms="4.2721447348594666e-01" purity="7.1506750583648682e-01" nType="-99"/>
          <Node pos="r" depth="2" NCoef="0" IVar="-1" Cut="0.0000000000000000e+00" cType="1" res="5.1849121227860451e-03" rms="4.1513240337371826e-01" purity="7.3851037025451660e-01" nType="-99"/>
        </Node>
      </Node>
    </BinaryTree>
    <BinaryTree type="DecisionTree" boostWeight="1.0000000000000000e+00" itree="219">
      <Node pos="s" depth="0" NCoef="0" IVar="2" Cut="1.6626485586166382e+00" cType="1" res="-1.1081006377935410e-03" rms="4.5802477002143860e-01" purity="4.9276074767112732e-01" nType="0">
        <Node pos="l" depth="1" NCoef="0" IVar="9" Cut="1.2056907415390015e+00" cType="1" res="4.1391693055629730e-02" rms="4.5582094788551331e-01" purity="6.2809425592422485e-01" nType="0">
          <Node pos="l" depth="2" NCoef="0" IVar="-1" Cut="0.0000000000000000e+00" cType="1" res="4.5106573961675167e-03" rms="4.2533275485038757e-01" purity="7.4619889259338379e-01" nType="-99"/>
          <Node pos="r" depth="2" NCoef="0" IVar="-1" Cut="0.0000000000000000e+00" cType="1" res="7.6429423643276095e-04" rms="4.6080318093299866e-01" purity="5.9873181581497192e-01" nType="-99"/>
        </Node>
        <Node pos="r" depth="1" NCoef="0" IVar="8" Cut="3.3092575073242188e+02" cType="1" res="-3.0153527855873108e-02" rms="4.5725816488265991e-01" purity="4.0027043223381042e-01" nType="0">
          <Node pos="l" depth="2" NCoef="0" IVar="-1" Cut="0.0000000000000000e+00" cType="1" res="-2.3841034271754324e-04" rms="4.6874815225601196e-01" purity="4.5335152745246887e-01" nType="-99"/>
          <Node pos="r" depth="2" NCoef="0" IVar="-1" Cut="0.0000000000000000e+00" cType="1" res="-3.3535554539412260e-03" rms="4.2828559875488281e-01" purity="2.9030463099479675e-01" nType="-99"/>
        </Node>
      </Node>
    </BinaryTree>
    <BinaryTree type="DecisionTree" boostWeight="1.0000000000000000e+00" itree="220">
      <Node pos="s" depth="0" NCoef="0" IVar="8" Cut="4.0901797485351562e+02" cType="1" res="1.5555514022707939e-02" rms="4.5583599805831909e-01" purity="5.1284193992614746e-01" nType="0">
        <Node pos="l" depth="1" NCoef="0" IVar="4" Cut="3.6006723022460938e+02" cType="1" res="3.0656475573778152e-02" rms="4.5804387331008911e-01" purity="5.4289615154266357e-01" nType="0">
          <Node pos="l" depth="2" NCoef="0" IVar="-1" Cut="0.0000000000000000e+00" cType="1" res="4.5013974886387587e-04" rms="4.5849025249481201e-01" purity="5.0194895267486572e-01" nType="-99"/>
          <Node pos="r" depth="2" NCoef="0" IVar="-1" Cut="0.0000000000000000e+00" cType="1" res="3.3410273026674986e-03" rms="4.5103600621223450e-01" purity="6.7993223667144775e-01" nType="-99"/>
        </Node>
        <Node pos="r" depth="1" NCoef="0" IVar="7" Cut="8.2458473205566406e+01" cType="1" res="-7.3821164667606354e-02" rms="4.3186378479003906e-01" purity="3.3496284484863281e-01" nType="0">
          <Node pos="l" depth="2" NCoef="0" IVar="-1" Cut="0.0000000000000000e+00" cType="1" res="-5.2673863247036934e-03" rms="4.0792080760002136e-01" purity="2.5046154856681824e-01" nType="-99"/>
          <Node pos="r" depth="2" NCoef="0" IVar="-1" Cut="0.0000000000000000e+00" cType="1" res="1.9074615556746721e-04" rms="4.6080529689788818e-01" purity="4.8443719744682312e-01" nType="-99"/>
        </Node>
      </Node>
    </BinaryTree>
    <BinaryTree type="DecisionTree" boostWeight="1.0000000000000000e+00" itree="221">
      <Node pos="s" depth="0" NCoef="0" IVar="0" Cut="6.1500816345214844e+01" cType="1" res="5.7122358120977879e-03" rms="4.5284834504127502e-01" purity="5.0494563579559326e-01" nType="0">
        <Node pos="l" depth="1" NCoef="0" IVar="5" Cut="9.3507754802703857e-01" cType="1" res="-3.0000790953636169e-02" rms="4.5435234904289246e-01" purity="3.9746594429016113e-01" nType="0">
          <Node pos="l" depth="2" NCoef="0" IVar="-1" Cut="0.0000000000000000e+00" cType="1" res="-5.2762846462428570e-03" rms="3.8673567771911621e-01" purity="2.0747649669647217e-01" nType="-99"/>
          <Node pos="r" depth="2" NCoef="0" IVar="-1" Cut="0.0000000000000000e+00" cType="1" res="-1.5260202053468674e-04" rms="4.6651747822761536e-01" purity="4.4603234529495239e-01" nType="-99"/>
        </Node>
        <Node pos="r" depth="1" NCoef="0" IVar="0" Cut="1.5402519226074219e+02" cType="1" res="3.7624981254339218e-02" rms="4.4910383224487305e-01" purity="6.0098826885223389e-01" nType="0">
          <Node pos="l" depth="2" NCoef="0" IVar="-1" Cut="0.0000000000000000e+00" cType="1" res="1.9289504271000624e-03" rms="4.4671913981437683e-01" purity="6.2722033262252808e-01" nType="-99"/>
          <Node pos="r" depth="2" NCoef="0" IVar="-1" Cut="0.0000000000000000e+00" cType="1" res="-4.0924390777945518e-03" rms="4.4607505202293396e-01" purity="3.5439345240592957e-01" nType="-99"/>
        </Node>
      </Node>
    </BinaryTree>
    <BinaryTree type="DecisionTree" boostWeight="1.0000000000000000e+00" itree="222">
      <Node pos="s" depth="0" NCoef="0" IVar="5" Cut="9.4487082958221436e-01" cType="1" res="-1.1712409323081374e-03" rms="4.5714253187179565e-01" purity="4.9847930669784546e-01" nType="0">
        <Node pos="l" depth="1" NCoef="0" IVar="7" Cut="6.7772094726562500e+01" cType="1" res="-4.6593558043241501e-02" rms="4.4872212409973145e-01" purity="3.8852098584175110e-01" nType="0">
          <Node pos="l" depth="2" NCoef="0" IVar="-1" Cut="0.0000000000000000e+00" cType="1" res="-3.8102085236459970e-03" rms="4.3665421009063721e-01" purity="3.0473151803016663e-01" nType="-99"/>
          <Node pos="r" depth="2" NCoef="0" IVar="-1" Cut="0.0000000000000000e+00" cType="1" res="2.0812577567994595e-03" rms="4.5544263720512390e-01" purity="5.6315487623214722e-01" nType="-99"/>
        </Node>
        <Node pos="r" depth="1" NCoef="0" IVar="1" Cut="1.4683251953125000e+02" cType="1" res="2.2996190935373306e-02" rms="4.5973464846611023e-01" purity="5.5698388814926147e-01" nType="0">
          <Node pos="l" depth="2" NCoef="0" IVar="-1" Cut="0.0000000000000000e+00" cType="1" res="1.7992324428632855e-03" rms="4.5595511794090271e-01" purity="5.8775871992111206e-01" nType="-99"/>
          <Node pos="r" depth="2" NCoef="0" IVar="-1" Cut="0.0000000000000000e+00" cType="1" res="-1.2843072181567550e-03" rms="4.6345067024230957e-01" purity="4.8605772852897644e-01" nType="-99"/>
        </Node>
      </Node>
    </BinaryTree>
    <BinaryTree type="DecisionTree" boostWeight="1.0000000000000000e+00" itree="223">
      <Node pos="s" depth="0" NCoef="0" IVar="9" Cut="1.7884184122085571e+00" cType="1" res="-5.1696640439331532e-03" rms="4.5719811320304871e-01" purity="4.9289330840110779e-01" nType="0">
        <Node pos="l" depth="1" NCoef="0" IVar="2" Cut="1.0134209394454956e+00" cType="1" res="5.1853150129318237e-02" rms="4.4796770811080933e-01" purity="6.5450298786163330e-01" nType="0">
          <Node pos="l" depth="2" NCoef="0" IVar="-1" Cut="0.0000000000000000e+00" cType="1" res="-1.2645022070501000e-04" rms="4.4528838992118835e-01" purity="6.0858285427093506e-01" nType="-99"/>
          <Node pos="r" depth="2" NCoef="0" IVar="-1" Cut="0.0000000000000000e+00" cType="1" res="2.6688650250434875e-03" rms="4.4717115163803101e-01" purity="6.7230433225631714e-01" nType="-99"/>
        </Node>
        <Node pos="r" depth="1" NCoef="0" IVar="6" Cut="9.3248718261718750e+01" cType="1" res="-2.3052418604493141e-02" rms="4.5859655737876892e-01" purity="4.4221141934394836e-01" nType="0">
          <Node pos="l" depth="2" NCoef="0" IVar="-1" Cut="0.0000000000000000e+00" cType="1" res="-1.4472504844889045e-03" rms="4.5732110738754272e-01" purity="4.1051930189132690e-01" nType="-99"/>
          <Node pos="r" depth="2" NCoef="0" IVar="-1" Cut="0.0000000000000000e+00" cType="1" res="1.7819347558543086e-03" rms="4.5810711383819580e-01" purity="5.9516441822052002e-01" nType="-99"/>
        </Node>
      </Node>
    </BinaryTree>
    <BinaryTree type="DecisionTree" boostWeight="1.0000000000000000e+00" itree="224">
      <Node pos="s" depth="0" NCoef="0" IVar="10" Cut="6.0443568229675293e-01" cType="1" res="1.0513442568480968e-02" rms="4.5565253496170044e-01" purity="5.0431108474731445e-01" nType="0">
        <Node pos="l" depth="1" NCoef="0" IVar="3" Cut="1.2885522460937500e+02" cType="1" res="-2.6200009509921074e-02" rms="4.4874617457389832e-01" purity="3.9219820499420166e-01" nType="0">
          <Node pos="l" depth="2" NCoef="0" IVar="-1" Cut="0.0000000000000000e+00" cType="1" res="1.3279727136250585e-04" rms="4.5635730028152466e-01" purity="4.2622300982475281e-01" nType="-99"/>
          <Node pos="r" depth="2" NCoef="0" IVar="-1" Cut="0.0000000000000000e+00" cType="1" res="-4.3896925635635853e-03" rms="4.1707953810691833e-01" purity="3.0013632774353027e-01" nType="-99"/>
        </Node>
        <Node pos="r" depth="1" NCoef="0" IVar="1" Cut="1.7544813537597656e+02" cType="1" res="4.4709008187055588e-02" rms="4.5936062932014465e-01" purity="6.0873502492904663e-01" nType="0">
          <Node pos="l" depth="2" NCoef="0" IVar="-1" Cut="0.0000000000000000e+00" cType="1" res="2.2210641764104366e-03" rms="4.5511791110038757e-01" purity="6.2574428319931030e-01" nType="-99"/>
          <Node pos="r" depth="2" NCoef="0" IVar="-1" Cut="0.0000000000000000e+00" cType="1" res="-3.1200989615172148e-03" rms="4.7037944197654724e-01" purity="4.8574471473693848e-01" nType="-99"/>
        </Node>
      </Node>
    </BinaryTree>
    <BinaryTree type="DecisionTree" boostWeight="1.0000000000000000e+00" itree="225">
      <Node pos="s" depth="0" NCoef="0" IVar="1" Cut="1.8639300537109375e+02" cType="1" res="1.0881696827709675e-02" rms="4.6074798703193665e-01" purity="5.0801306962966919e-01" nType="0">
        <Node pos="l" depth="1" NCoef="0" IVar="4" Cut="1.8163641357421875e+02" cType="1" res="2.1723872050642967e-02" rms="4.5894086360931396e-01" purity="5.2308273315429688e-01" nType="0">
          <Node pos="l" depth="2" NCoef="0" IVar="-1" Cut="0.0000000000000000e+00" cType="1" res="-3.0457319226115942e-03" rms="4.3106961250305176e-01" purity="2.8984147310256958e-01" nType="-99"/>
          <Node pos="r" depth="2" NCoef="0" IVar="-1" Cut="0.0000000000000000e+00" cType="1" res="1.0903977090492845e-03" rms="4.6032392978668213e-01" purity="5.4213625192642212e-01" nType="-99"/>
        </Node>
        <Node pos="r" depth="1" NCoef="0" IVar="10" Cut="5.6869226694107056e-01" cType="1" res="-7.6230667531490326e-02" rms="4.6594953536987305e-01" purity="3.8693436980247498e-01" nType="0">
          <Node pos="l" depth="2" NCoef="0" IVar="-1" Cut="0.0000000000000000e+00" cType="1" res="-1.7688279331196100e-04" rms="4.6099710464477539e-01" purity="3.7561196088790894e-01" nType="-99"/>
          <Node pos="r" depth="2" NCoef="0" IVar="-1" Cut="0.0000000000000000e+00" cType="1" res="-6.0188155621290207e-03" rms="4.5884814858436584e-01" purity="3.9911121129989624e-01" nType="-99"/>
        </Node>
      </Node>
    </BinaryTree>
    <BinaryTree type="DecisionTree" boostWeight="1.0000000000000000e+00" itree="226">
      <Node pos="s" depth="0" NCoef="0" IVar="6" Cut="3.4524650573730469e+01" cType="1" res="-4.8665110953152180e-03" rms="4.5770236849784851e-01" purity="4.9065032601356506e-01" nType="0">
        <Node pos="l" depth="1" NCoef="0" IVar="5" Cut="9.5833456516265869e-01" cType="1" res="-7.2131477296352386e-02" rms="4.3122178316116333e-01" purity="3.3566039800643921e-01" nType="0">
          <Node pos="l" depth="2" NCoef="0" IVar="-1" Cut="0.0000000000000000e+00" cType="1" res="-4.9816365353763103e-03" rms="4.0735402703285217e-01" purity="2.5382626056671143e-01" nType="-99"/>
          <Node pos="r" depth="2" NCoef="0" IVar="-1" Cut="0.0000000000000000e+00" cType="1" res="-3.5680260043591261e-04" rms="4.5744961500167847e-01" purity="4.5844283699989319e-01" nType="-99"/>
        </Node>
        <Node pos="r" depth="1" NCoef="0" IVar="3" Cut="1.3267501831054688e+02" cType="1" res="1.5241404995322227e-02" rms="4.6343424916267395e-01" purity="5.3698235750198364e-01" nType="0">
          <Node pos="l" depth="2" NCoef="0" IVar="-1" Cut="0.0000000000000000e+00" cType="1" res="1.1443875264376402e-03" rms="4.6405011415481567e-01" purity="5.6508028507232666e-01" nType="-99"/>
          <Node pos="r" depth="2" NCoef="0" IVar="-1" Cut="0.0000000000000000e+00" cType="1" res="-3.1966958194971085e-03" rms="4.4860869646072388e-01" purity="3.7453284859657288e-01" nType="-99"/>
        </Node>
      </Node>
    </BinaryTree>
    <BinaryTree type="DecisionTree" boostWeight="1.0000000000000000e+00" itree="227">
      <Node pos="s" depth="0" NCoef="0" IVar="5" Cut="9.2833119630813599e-01" cType="1" res="-3.2353585120290518e-03" rms="4.5739230513572693e-01" purity="4.9640884995460510e-01" nType="0">
        <Node pos="l" depth="1" NCoef="0" IVar="6" Cut="4.5019565582275391e+01" cType="1" res="-9.1267906129360199e-02" rms="4.1803327202796936e-01" purity="2.9683324694633484e-01" nType="0">
          <Node pos="l" depth="2" NCoef="0" IVar="-1" Cut="0.0000000000000000e+00" cType="1" res="-6.5758768469095230e-03" rms="3.5012358427047729e-01" purity="1.7964957654476166e-01" nType="-99"/>
          <Node pos="r" depth="2" NCoef="0" IVar="-1" Cut="0.0000000000000000e+00" cType="1" res="-1.5992184635251760e-03" rms="4.5915469527244568e-01" purity="3.8961407542228699e-01" nType="-99"/>
        </Node>
        <Node pos="r" depth="1" NCoef="0" IVar="3" Cut="1.0884149932861328e+02" cType="1" res="1.0853340849280357e-02" rms="4.6182602643966675e-01" purity="5.2834886312484741e-01" nType="0">
          <Node pos="l" depth="2" NCoef="0" IVar="-1" Cut="0.0000000000000000e+00" cType="1" res="-3.2272546086460352e-03" rms="4.5934534072875977e-01" purity="3.9499858021736145e-01" nType="-99"/>
          <Node pos="r" depth="2" NCoef="0" IVar="-1" Cut="0.0000000000000000e+00" cType="1" res="7.7817443525418639e-04" rms="4.6097937226295471e-01" purity="5.4214411973953247e-01" nType="-99"/>
        </Node>
      </Node>
    </BinaryTree>
    <BinaryTree type="DecisionTree" boostWeight="1.0000000000000000e+00" itree="228">
      <Node pos="s" depth="0" NCoef="0" IVar="10" Cut="8.2189387083053589e-01" cType="1" res="1.3630021363496780e-02" rms="4.5739993453025818e-01" purity="5.1410460472106934e-01" nType="0">
        <Node pos="l" depth="1" NCoef="0" IVar="5" Cut="9.3048262596130371e-01" cType="1" res="3.3432305790483952e-03" rms="4.6003347635269165e-01" purity="4.9171173572540283e-01" nType="0">
          <Node pos="l" depth="2" NCoef="0" IVar="-1" Cut="0.0000000000000000e+00" cType="1" res="-2.7784779667854309e-03" rms="4.3287912011146545e-01" purity="3.1714895367622375e-01" nType="-99"/>
          <Node pos="r" depth="2" NCoef="0" IVar="-1" Cut="0.0000000000000000e+00" cType="1" res="6.7604251671582460e-04" rms="4.6368488669395447e-01" purity="5.2542805671691895e-01" nType="-99"/>
        </Node>
        <Node pos="r" depth="1" NCoef="0" IVar="-1" Cut="0.0000000000000000e+00" cType="1" res="4.6334126964211464e-03" rms="4.1094085574150085e-01" purity="7.5948870182037354e-01" nType="-99"/>
      </Node>
    </BinaryTree>
    <BinaryTree type="DecisionTree" boostWeight="1.0000000000000000e+00" itree="229">
      <Node pos="s" depth="0" NCoef="0" IVar="11" Cut="4.0077355504035950e-01" cType="1" res="-4.8183258622884750e-03" rms="4.5575374364852905e-01" purity="4.9530297517776489e-01" nType="0">
        <Node pos="l" depth="1" NCoef="0" IVar="-1" Cut="0.0000000000000000e+00" cType="1" res="-6.1534466221928596e-03" rms="3.5963863134384155e-01" purity="1.9436712563037872e-01" nType="-99"/>
        <Node pos="r" depth="1" NCoef="0" IVar="0" Cut="8.5908470153808594e+01" cType="1" res="3.0208143871277571e-03" rms="4.6033498644828796e-01" purity="5.1521962881088257e-01" nType="0">
          <Node pos="l" depth="2" NCoef="0" IVar="-1" Cut="0.0000000000000000e+00" cType="1" res="-6.3539046095684171e-04" rms="4.6180599927902222e-01" purity="4.6134802699089050e-01" nType="-99"/>
          <Node pos="r" depth="2" NCoef="0" IVar="-1" Cut="0.0000000000000000e+00" cType="1" res="1.6365055926144123e-03" rms="4.5423534512519836e-01" purity="6.3191467523574829e-01" nType="-99"/>
        </Node>
      </Node>
    </BinaryTree>
    <BinaryTree type="DecisionTree" boostWeight="1.0000000000000000e+00" itree="230">
      <Node pos="s" depth="0" NCoef="0" IVar="0" Cut="6.1500816345214844e+01" cType="1" res="1.9180654780939221e-03" rms="4.5406848192214966e-01" purity="5.0229209661483765e-01" nType="0">
        <Node pos="l" depth="1" NCoef="0" IVar="0" Cut="2.9384754180908203e+01" cType="1" res="-3.8470242172479630e-02" rms="4.5476451516151428e-01" purity="3.8526561856269836e-01" nType="0">
          <Node pos="l" depth="2" NCoef="0" IVar="-1" Cut="0.0000000000000000e+00" cType="1" res="-6.1625759117305279e-03" rms="3.7119147181510925e-01" purity="1.8251053988933563e-01" nType="-99"/>
          <Node pos="r" depth="2" NCoef="0" IVar="-1" Cut="0.0000000000000000e+00" cType="1" res="-8.1152364145964384e-04" rms="4.6775865554809570e-01" purity="4.2593464255332947e-01" nType="-99"/>
        </Node>
        <Node pos="r" depth="1" NCoef="0" IVar="1" Cut="2.1045848083496094e+02" cType="1" res="3.9311777800321579e-02" rms="4.5020434260368347e-01" purity="6.1064165830612183e-01" nType="0">
          <Node pos="l" depth="2" NCoef="0" IVar="-1" Cut="0.0000000000000000e+00" cType="1" res="2.0483953412622213e-03" rms="4.4602644443511963e-01" purity="6.4028090238571167e-01" nType="-99"/>
          <Node pos="r" depth="2" NCoef="0" IVar="-1" Cut="0.0000000000000000e+00" cType="1" res="-3.3064782619476318e-03" rms="4.6099054813385010e-01" purity="3.9779070019721985e-01" nType="-99"/>
        </Node>
      </Node>
    </BinaryTree>
    <BinaryTree type="DecisionTree" boostWeight="1.0000000000000000e+00" itree="231">
      <Node pos="s" depth="0" NCoef="0" IVar="8" Cut="3.4228884887695312e+02" cType="1" res="1.4558260329067707e-02" rms="4.5744627714157104e-01" purity="5.1501303911209106e-01" nType="0">
        <Node pos="l" depth="1" NCoef="0" IVar="5" Cut="9.5670098066329956e-01" cType="1" res="3.6792986094951630e-02" rms="4.5822015404701233e-01" purity="5.5875778198242188e-01" nType="0">
          <Node pos="l" depth="2" NCoef="0" IVar="-1" Cut="0.0000000000000000e+00" cType="1" res="2.1463615121319890e-04" rms="4.6525698900222778e-01" purity="4.7065088152885437e-01" nType="-99"/>
          <Node pos="r" depth="2" NCoef="0" IVar="-1" Cut="0.0000000000000000e+00" cType="1" res="2.4954876862466335e-03" rms="4.4954136013984680e-01" purity="6.4174842834472656e-01" nType="-99"/>
        </Node>
        <Node pos="r" depth="1" NCoef="0" IVar="9" Cut="3.0937168598175049e+00" cType="1" res="-6.0538303107023239e-02" rms="4.4671532511711121e-01" purity="3.6726772785186768e-01" nType="0">
          <Node pos="l" depth="2" NCoef="0" IVar="-1" Cut="0.0000000000000000e+00" cType="1" res="-3.9732223376631737e-03" rms="4.5961353182792664e-01" purity="3.9141264557838440e-01" nType="-99"/>
          <Node pos="r" depth="2" NCoef="0" IVar="-1" Cut="0.0000000000000000e+00" cType="1" res="-3.4392677480354905e-04" rms="4.2480370402336121e-01" purity="3.3832320570945740e-01" nType="-99"/>
        </Node>
      </Node>
    </BinaryTree>
    <BinaryTree type="DecisionTree" boostWeight="1.0000000000000000e+00" itree="232">
      <Node pos="s" depth="0" NCoef="0" IVar="1" Cut="1.7731318664550781e+02" cType="1" res="9.3157403171062469e-03" rms="4.5972746610641479e-01" purity="5.0331407785415649e-01" nType="0">
        <Node pos="l" depth="1" NCoef="0" IVar="0" Cut="2.9963008880615234e+01" cType="1" res="2.2479299455881119e-02" rms="4.5994395017623901e-01" purity="5.2352595329284668e-01" nType="0">
          <Node pos="l" depth="2" NCoef="0" IVar="-1" Cut="0.0000000000000000e+00" cType="1" res="-4.6420195139944553e-03" rms="3.9401358366012573e-01" purity="2.0459882915019989e-01" nType="-99"/>
          <Node pos="r" depth="2" NCoef="0" IVar="-1" Cut="0.0000000000000000e+00" cType="1" res="1.2841526186093688e-03" rms="4.6435642242431641e-01" purity="5.5610638856887817e-01" nType="-99"/>
        </Node>
        <Node pos="r" depth="1" NCoef="0" IVar="4" Cut="3.9884741210937500e+02" cType="1" res="-6.5059147775173187e-02" rms="4.5134663581848145e-01" purity="3.8911575078964233e-01" nType="0">
          <Node pos="l" depth="2" NCoef="0" IVar="-1" Cut="0.0000000000000000e+00" cType="1" res="-6.7001795396208763e-03" rms="3.9958587288856506e-01" purity="2.3786947131156921e-01" nType="-99"/>
          <Node pos="r" depth="2" NCoef="0" IVar="-1" Cut="0.0000000000000000e+00" cType="1" res="-7.0293340831995010e-04" rms="4.7045621275901794e-01" purity="4.7187715768814087e-01" nType="-99"/>
        </Node>
      </Node>
    </BinaryTree>
    <BinaryTree type="DecisionTree" boostWeight="1.0000000000000000e+00" itree="233">
      <Node pos="s" depth="0" NCoef="0" IVar="8" Cut="4.4730950927734375e+02" cType="1" res="2.3396061733365059e-03" rms="4.5299148559570312e-01" purity="5.0381952524185181e-01" nType="0">
        <Node pos="l" depth="1" NCoef="0" IVar="0" Cut="5.0518218994140625e+01" cType="1" res="1.4889308251440525e-02" rms="4.5309868454933167e-01" purity="5.3110331296920776e-01" nType="0">
          <Node pos="l" depth="2" NCoef="0" IVar="-1" Cut="0.0000000000000000e+00" cType="1" res="-1.4079862739890814e-03" rms="4.5148384571075439e-01" purity="3.7141779065132141e-01" nType="-99"/>
          <Node pos="r" depth="2" NCoef="0" IVar="-1" Cut="0.0000000000000000e+00" cType="1" res="1.5712850727140903e-03" rms="4.5160204172134399e-01" purity="6.2192958593368530e-01" nType="-99"/>
        </Node>
        <Node pos="r" depth="1" NCoef="0" IVar="2" Cut="2.7138373851776123e+00" cType="1" res="-9.2877253890037537e-02" rms="4.4068491458892822e-01" purity="2.9681247472763062e-01" nType="0">
          <Node pos="l" depth="2" NCoef="0" IVar="-1" Cut="0.0000000000000000e+00" cType="1" res="-6.2051634304225445e-03" rms="4.6280547976493835e-01" purity="3.4522199630737305e-01" nType="-99"/>
          <Node pos="r" depth="2" NCoef="0" IVar="-1" Cut="0.0000000000000000e+00" cType="1" res="-1.0799097362905741e-03" rms="4.0315473079681396e-01" purity="2.4302840232849121e-01" nType="-99"/>
        </Node>
      </Node>
    </BinaryTree>
    <BinaryTree type="DecisionTree" boostWeight="1.0000000000000000e+00" itree="234">
      <Node pos="s" depth="0" NCoef="0" IVar="5" Cut="9.3771266937255859e-01" cType="1" res="-1.3342756778001785e-02" rms="4.5163324475288391e-01" purity="4.8610445857048035e-01" nType="0">
        <Node pos="l" depth="1" NCoef="0" IVar="0" Cut="6.1182254791259766e+01" cType="1" res="-6.9057837128639221e-02" rms="4.3634811043739319e-01" purity="3.4816315770149231e-01" nType="0">
          <Node pos="l" depth="2" NCoef="0" IVar="-1" Cut="0.0000000000000000e+00" cType="1" res="-4.6471464447677135e-03" rms="3.9249613881111145e-01" purity="2.1894150972366333e-01" nType="-99"/>
          <Node pos="r" depth="2" NCoef="0" IVar="-1" Cut="0.0000000000000000e+00" cType="1" res="-7.8107119770720601e-04" rms="4.6838983893394470e-01" purity="4.6709942817687988e-01" nType="-99"/>
        </Node>
        <Node pos="r" depth="1" NCoef="0" IVar="2" Cut="2.1101946830749512e+00" cType="1" res="3.5706388298422098e-03" rms="4.5482358336448669e-01" purity="5.2797919511795044e-01" nType="0">
          <Node pos="l" depth="2" NCoef="0" IVar="-1" Cut="0.0000000000000000e+00" cType="1" res="1.2284698896110058e-03" rms="4.5598632097244263e-01" purity="6.3043248653411865e-01" nType="-99"/>
          <Node pos="r" depth="2" NCoef="0" IVar="-1" Cut="0.0000000000000000e+00" cType="1" res="-1.7270193202421069e-03" rms="4.4907340407371521e-01" purity="3.6438617110252380e-01" nType="-99"/>
        </Node>
      </Node>
    </BinaryTree>
    <BinaryTree type="DecisionTree" boostWeight="1.0000000000000000e+00" itree="235">
      <Node pos="s" depth="0" NCoef="0" IVar="3" Cut="1.0995105743408203e+02" cType="1" res="-4.1384791256859899e-04" rms="4.5636782050132751e-01" purity="4.9650755524635315e-01" nType="0">
        <Node pos="l" depth="1" NCoef="0" IVar="11" Cut="6.4572048187255859e-01" cType="1" res="-1.0236708074808121e-01" rms="4.4013041257858276e-01" purity="3.4985190629959106e-01" nType="0">
          <Node pos="l" depth="2" NCoef="0" IVar="-1" Cut="0.0000000000000000e+00" cType="1" res="-1.8300187075510621e-03" rms="4.2209461331367493e-01" purity="3.2993918657302856e-01" nType="-99"/>
          <Node pos="r" depth="2" NCoef="0" IVar="-1" Cut="0.0000000000000000e+00" cType="1" res="-5.8228978887200356e-03" rms="4.4935774803161621e-01" purity="3.6795580387115479e-01" nType="-99"/>
        </Node>
        <Node pos="r" depth="1" NCoef="0" IVar="5" Cut="9.6258527040481567e-01" cType="1" res="1.1836215853691101e-02" rms="4.5675116777420044e-01" purity="5.1412880420684814e-01" nType="0">
          <Node pos="l" depth="2" NCoef="0" IVar="-1" Cut="0.0000000000000000e+00" cType="1" res="-5.2237411728128791e-04" rms="4.6254736185073853e-01" purity="4.5069867372512817e-01" nType="-99"/>
          <Node pos="r" depth="2" NCoef="0" IVar="-1" Cut="0.0000000000000000e+00" cType="1" res="1.9796704873442650e-03" rms="4.4469821453094482e-01" purity="6.1255699396133423e-01" nType="-99"/>
        </Node>
      </Node>
    </BinaryTree>
    <BinaryTree type="DecisionTree" boostWeight="1.0000000000000000e+00" itree="236">
      <Node pos="s" depth="0" NCoef="0" IVar="9" Cut="1.3686878681182861e+00" cType="1" res="-4.6758493408560753e-03" rms="4.5011299848556519e-01" purity="4.9218156933784485e-01" nType="0">
        <Node pos="l" depth="1" NCoef="0" IVar="6" Cut="4.7769435882568359e+01" cType="1" res="9.4676472246646881e-02" rms="4.3315047025680542e-01" purity="7.2051489353179932e-01" nType="0">
          <Node pos="l" depth="2" NCoef="0" IVar="-1" Cut="0.0000000000000000e+00" cType="1" res="4.5394636690616608e-03" rms="4.4405826926231384e-01" purity="6.7749780416488647e-01" nType="-99"/>
          <Node pos="r" depth="2" NCoef="0" IVar="-1" Cut="0.0000000000000000e+00" cType="1" res="2.2592858877032995e-03" rms="4.1814807057380676e-01" purity="7.6505410671234131e-01" nType="-99"/>
        </Node>
        <Node pos="r" depth="1" NCoef="0" IVar="11" Cut="4.0069642663002014e-01" cType="1" res="-1.7139777541160583e-02" rms="4.5065242052078247e-01" purity="4.6353670954704285e-01" nType="0">
          <Node pos="l" depth="2" NCoef="0" IVar="-1" Cut="0.0000000000000000e+00" cType="1" res="-6.4681475050747395e-03" rms="3.4165641665458679e-01" purity="1.7447292804718018e-01" nType="-99"/>
          <Node pos="r" depth="2" NCoef="0" IVar="-1" Cut="0.0000000000000000e+00" cType="1" res="-2.9592995997518301e-04" rms="4.5750564336776733e-01" purity="4.8800921440124512e-01" nType="-99"/>
        </Node>
      </Node>
    </BinaryTree>
    <BinaryTree type="DecisionTree" boostWeight="1.0000000000000000e+00" itree="237">
      <Node pos="s" depth="0" NCoef="0" IVar="8" Cut="1.8119381713867188e+02" cType="1" res="-5.2083557238802314e-04" rms="4.5869547128677368e-01" purity="4.9414408206939697e-01" nType="0">
        <Node pos="l" depth="1" NCoef="0" IVar="4" Cut="2.1484425354003906e+02" cType="1" res="6.2156174331903458e-02" rms="4.5630976557731628e-01" purity="5.7501626014709473e-01" nType="0">
          <Node pos="l" depth="2" NCoef="0" IVar="-1" Cut="0.0000000000000000e+00" cType="1" res="5.3716532420367002e-04" rms="4.6604737639427185e-01" purity="4.2716005444526672e-01" nType="-99"/>
          <Node pos="r" depth="2" NCoef="0" IVar="-1" Cut="0.0000000000000000e+00" cType="1" res="3.5526133142411709e-03" rms="4.4500091671943665e-01" purity="6.9014996290206909e-01" nType="-99"/>
        </Node>
        <Node pos="r" depth="1" NCoef="0" IVar="3" Cut="1.3277694702148438e+02" cType="1" res="-3.0347943305969238e-02" rms="4.5681640505790710e-01" purity="4.5565813779830933e-01" nType="0">
          <Node pos="l" depth="2" NCoef="0" IVar="-1" Cut="0.0000000000000000e+00" cType="1" res="-6.2269641784951091e-04" rms="4.6191087365150452e-01" purity="4.8166456818580627e-01" nType="-99"/>
          <Node pos="r" depth="2" NCoef="0" IVar="-1" Cut="0.0000000000000000e+00" cType="1" res="-4.8367539420723915e-03" rms="4.1761979460716248e-01" purity="3.0762141942977905e-01" nType="-99"/>
        </Node>
      </Node>
    </BinaryTree>
    <BinaryTree type="DecisionTree" boostWeight="1.0000000000000000e+00" itree="238">
      <Node pos="s" depth="0" NCoef="0" IVar="9" Cut="1.2937055826187134e+00" cType="1" res="-6.3578966073691845e-03" rms="4.6007567644119263e-01" purity="4.8597198724746704e-01" nType="0">
        <Node pos="l" depth="1" NCoef="0" IVar="-1" Cut="0.0000000000000000e+00" cType="1" res="3.5483872052282095e-03" rms="4.3514558672904968e-01" purity="7.3252964019775391e-01" nType="-99"/>
        <Node pos="r" depth="1" NCoef="0" IVar="0" Cut="1.1031611633300781e+02" cType="1" res="-1.7210036516189575e-02" rms="4.6140104532241821e-01" purity="4.5919758081436157e-01" nType="0">
          <Node pos="l" depth="2" NCoef="0" IVar="-1" Cut="0.0000000000000000e+00" cType="1" res="-1.1864148546010256e-03" rms="4.6004757285118103e-01" purity="4.3230569362640381e-01" nType="-99"/>
          <Node pos="r" depth="2" NCoef="0" IVar="-1" Cut="0.0000000000000000e+00" cType="1" res="1.7596633406355977e-03" rms="4.6199792623519897e-01" purity="5.8136135339736938e-01" nType="-99"/>
        </Node>
      </Node>
    </BinaryTree>
    <BinaryTree type="DecisionTree" boostWeight="1.0000000000000000e+00" itree="239">
      <Node pos="s" depth="0" NCoef="0" IVar="1" Cut="7.1150833129882812e+01" cType="1" res="-4.2297518812119961e-03" rms="4.5501151680946350e-01" purity="4.8857188224792480e-01" nType="0">
        <Node pos="l" depth="1" NCoef="0" IVar="-1" Cut="0.0000000000000000e+00" cType="1" res="-7.0418915711343288e-03" rms="4.0593430399894714e-01" purity="2.4292005598545074e-01" nType="-99"/>
        <Node pos="r" depth="1" NCoef="0" IVar="3" Cut="1.1019987487792969e+02" cType="1" res="4.2410232126712799e-03" rms="4.5594146847724915e-01" purity="5.0171262025833130e-01" nType="0">
          <Node pos="l" depth="2" NCoef="0" IVar="-1" Cut="0.0000000000000000e+00" cType="1" res="-4.7541046515107155e-03" rms="4.2861837148666382e-01" purity="3.4292018413543701e-01" nType="-99"/>
          <Node pos="r" depth="2" NCoef="0" IVar="-1" Cut="0.0000000000000000e+00" cType="1" res="5.9525447431951761e-04" rms="4.5671594142913818e-01" purity="5.1681089401245117e-01" nType="-99"/>
        </Node>
      </Node>
    </BinaryTree>
    <BinaryTree type="DecisionTree" boostWeight="1.0000000000000000e+00" itree="240">
      <Node pos="s" depth="0" NCoef="0" IVar="8" Cut="1.7541705322265625e+02" cType="1" res="2.1266625262796879e-03" rms="4.5675206184387207e-01" purity="4.9494844675064087e-01" nType="0">
        <Node pos="l" depth="1" NCoef="0" IVar="1" Cut="7.4874176025390625e+01" cType="1" res="4.6530079096555710e-02" rms="4.5090597867965698e-01" purity="5.6604957580566406e-01" nType="0">
          <Node pos="l" depth="2" NCoef="0" IVar="-1" Cut="0.0000000000000000e+00" cType="1" res="-3.2305871136486530e-03" rms="4.5396551489830017e-01" purity="3.5416734218597412e-01" nType="-99"/>
          <Node pos="r" depth="2" NCoef="0" IVar="-1" Cut="0.0000000000000000e+00" cType="1" res="3.0098040588200092e-03" rms="4.4353574514389038e-01" purity="6.2733972072601318e-01" nType="-99"/>
        </Node>
        <Node pos="r" depth="1" NCoef="0" IVar="0" Cut="8.5509956359863281e+01" cType="1" res="-1.5424418263137341e-02" rms="4.5785638689994812e-01" purity="4.6684473752975464e-01" nType="0">
          <Node pos="l" depth="2" NCoef="0" IVar="-1" Cut="0.0000000000000000e+00" cType="1" res="-1.5707332640886307e-03" rms="4.5696979761123657e-01" purity="3.9524707198143005e-01" nType="-99"/>
          <Node pos="r" depth="2" NCoef="0" IVar="-1" Cut="0.0000000000000000e+00" cType="1" res="8.6252810433506966e-04" rms="4.5661708712577820e-01" purity="5.8245062828063965e-01" nType="-99"/>
        </Node>
      </Node>
    </BinaryTree>
    <BinaryTree type="DecisionTree" boostWeight="1.0000000000000000e+00" itree="241">
      <Node pos="s" depth="0" NCoef="0" IVar="3" Cut="1.3994331359863281e+02" cType="1" res="7.4082496576011181e-03" rms="4.5975291728973389e-01" purity="5.0127273797988892e-01" nType="0">
        <Node pos="l" depth="1" NCoef="0" IVar="3" Cut="1.0265694427490234e+02" cType="1" res="1.3614384457468987e-02" rms="4.6171078085899353e-01" purity="5.1473557949066162e-01" nType="0">
          <Node pos="l" depth="2" NCoef="0" IVar="-1" Cut="0.0000000000000000e+00" cType="1" res="-4.7097196802496910e-03" rms="4.3574568629264832e-01" purity="3.1017985939979553e-01" nType="-99"/>
          <Node pos="r" depth="2" NCoef="0" IVar="-1" Cut="0.0000000000000000e+00" cType="1" res="7.8956357901915908e-04" rms="4.6213072538375854e-01" purity="5.2671492099761963e-01" nType="-99"/>
        </Node>
        <Node pos="r" depth="1" NCoef="0" IVar="-1" Cut="0.0000000000000000e+00" cType="1" res="-4.2193364351987839e-03" rms="4.1426652669906616e-01" purity="2.8405725955963135e-01" nType="-99"/>
      </Node>
    </BinaryTree>
    <BinaryTree type="DecisionTree" boostWeight="1.0000000000000000e+00" itree="242">
      <Node pos="s" depth="0" NCoef="0" IVar="5" Cut="9.4844990968704224e-01" cType="1" res="1.6707199392840266e-03" rms="4.5122483372688293e-01" purity="4.9631348252296448e-01" nType="0">
        <Node pos="l" depth="1" NCoef="0" IVar="6" Cut="8.0013557434082031e+01" cType="1" res="-4.2106796056032181e-02" rms="4.5032483339309692e-01" purity="3.8643550872802734e-01" nType="0">
          <Node pos="l" depth="2" NCoef="0" IVar="-1" Cut="0.0000000000000000e+00" cType="1" res="-2.2841787431389093e-03" rms="4.4448590278625488e-01" purity="3.5191726684570312e-01" nType="-99"/>
          <Node pos="r" depth="2" NCoef="0" IVar="-1" Cut="0.0000000000000000e+00" cType="1" res="1.1135748354718089e-03" rms="4.6770814061164856e-01" purity="5.3505694866180420e-01" nType="-99"/>
        </Node>
        <Node pos="r" depth="1" NCoef="0" IVar="0" Cut="3.7894603729248047e+01" cType="1" res="2.9693216085433960e-02" rms="4.4956782460212708e-01" purity="5.6664770841598511e-01" nType="0">
          <Node pos="l" depth="2" NCoef="0" IVar="-1" Cut="0.0000000000000000e+00" cType="1" res="-2.7188397943973541e-03" rms="4.3439206480979919e-01" purity="3.0050775408744812e-01" nType="-99"/>
          <Node pos="r" depth="2" NCoef="0" IVar="-1" Cut="0.0000000000000000e+00" cType="1" res="1.8377780215814710e-03" rms="4.5042693614959717e-01" purity="6.2281715869903564e-01" nType="-99"/>
        </Node>
      </Node>
    </BinaryTree>
    <BinaryTree type="DecisionTree" boostWeight="1.0000000000000000e+00" itree="243">
      <Node pos="s" depth="0" NCoef="0" IVar="0" Cut="8.4763259887695312e+01" cType="1" res="-1.5615962911397219e-03" rms="4.5535150170326233e-01" purity="4.8979052901268005e-01" nType="0">
        <Node pos="l" depth="1" NCoef="0" IVar="0" Cut="2.9745111465454102e+01" cType="1" res="-2.4157350882887840e-02" rms="4.5535647869110107e-01" purity="4.3077167868614197e-01" nType="0">
          <Node pos="l" depth="2" NCoef="0" IVar="-1" Cut="0.0000000000000000e+00" cType="1" res="-5.5647636763751507e-03" rms="3.7955632805824280e-01" purity="1.7743155360221863e-01" nType="-99"/>
          <Node pos="r" depth="2" NCoef="0" IVar="-1" Cut="0.0000000000000000e+00" cType="1" res="-4.2789909639395773e-04" rms="4.6389847993850708e-01" purity="4.6749734878540039e-01" nType="-99"/>
        </Node>
        <Node pos="r" depth="1" NCoef="0" IVar="8" Cut="3.7598931884765625e+02" cType="1" res="4.6248443424701691e-02" rms="4.5162966847419739e-01" purity="6.1466777324676514e-01" nType="0">
          <Node pos="l" depth="2" NCoef="0" IVar="-1" Cut="0.0000000000000000e+00" cType="1" res="2.9520476236939430e-03" rms="4.3614417314529419e-01" purity="6.9918125867843628e-01" nType="-99"/>
          <Node pos="r" depth="2" NCoef="0" IVar="-1" Cut="0.0000000000000000e+00" cType="1" res="-1.2120894389227033e-03" rms="4.7251430153846741e-01" purity="4.4209408760070801e-01" nType="-99"/>
        </Node>
      </Node>
    </BinaryTree>
    <BinaryTree type="DecisionTree" boostWeight="1.0000000000000000e+00" itree="244">
      <Node pos="s" depth="0" NCoef="0" IVar="6" Cut="2.7200244903564453e+01" cType="1" res="-8.6831944063305855e-03" rms="4.5501172542572021e-01" purity="4.9088144302368164e-01" nType="0">
        <Node pos="l" depth="1" NCoef="0" IVar="-1" Cut="0.0000000000000000e+00" cType="1" res="-4.6158470213413239e-03" rms="4.0635493397712708e-01" purity="2.6558080315589905e-01" nType="-99"/>
        <Node pos="r" depth="1" NCoef="0" IVar="6" Cut="8.9650955200195312e+01" cType="1" res="1.4957715757191181e-03" rms="4.5891347527503967e-01" purity="5.1566982269287109e-01" nType="0">
          <Node pos="l" depth="2" NCoef="0" IVar="-1" Cut="0.0000000000000000e+00" cType="1" res="-4.9571448471397161e-04" rms="4.6037754416465759e-01" purity="4.8304668068885803e-01" nType="-99"/>
          <Node pos="r" depth="2" NCoef="0" IVar="-1" Cut="0.0000000000000000e+00" cType="1" res="2.3246991913765669e-03" rms="4.4741252064704895e-01" purity="6.5446627140045166e-01" nType="-99"/>
        </Node>
      </Node>
    </BinaryTree>
    <BinaryTree type="DecisionTree" boostWeight="1.0000000000000000e+00" itree="245">
      <Node pos="s" depth="0" NCoef="0" IVar="9" Cut="1.2058031558990479e+00" cType="1" res="1.0182080790400505e-02" rms="4.5328363776206970e-01" purity="5.0729870796203613e-01" nType="0">
        <Node pos="l" depth="1" NCoef="0" IVar="-1" Cut="0.0000000000000000e+00" cType="1" res="3.9396593347191811e-03" rms="4.2072024941444397e-01" purity="7.4085247516632080e-01" nType="-99"/>
        <Node pos="r" depth="1" NCoef="0" IVar="0" Cut="8.6725166320800781e+01" cType="1" res="1.4849278377369046e-03" rms="4.5501258969306946e-01" purity="4.8673942685127258e-01" nType="0">
          <Node pos="l" depth="2" NCoef="0" IVar="-1" Cut="0.0000000000000000e+00" cType="1" res="-7.5861485674977303e-04" rms="4.6108222007751465e-01" purity="4.2640089988708496e-01" nType="-99"/>
          <Node pos="r" depth="2" NCoef="0" IVar="-1" Cut="0.0000000000000000e+00" cType="1" res="1.5009777853265405e-03" rms="4.4078603386878967e-01" purity="5.9987998008728027e-01" nType="-99"/>
        </Node>
      </Node>
    </BinaryTree>
    <BinaryTree type="DecisionTree" boostWeight="1.0000000000000000e+00" itree="246">
      <Node pos="s" depth="0" NCoef="0" IVar="2" Cut="1.8506842851638794e+00" cType="1" res="-1.4994034543633461e-02" rms="4.5203810930252075e-01" purity="4.7749274969100952e-01" nType="0">
        <Node pos="l" depth="1" NCoef="0" IVar="2" Cut="7.6498591899871826e-01" cType="1" res="1.2002307921648026e-02" rms="4.5492348074913025e-01" purity="5.9355610609054565e-01" nType="0">
          <Node pos="l" depth="2" NCoef="0" IVar="-1" Cut="0.0000000000000000e+00" cType="1" res="-5.0571518950164318e-03" rms="4.6478006243705750e-01" purity="4.4716542959213257e-01" nType="-99"/>
          <Node pos="r" depth="2" NCoef="0" IVar="-1" Cut="0.0000000000000000e+00" cType="1" res="1.0337256826460361e-03" rms="4.5104378461837769e-01" purity="6.1016559600830078e-01" nType="-99"/>
        </Node>
        <Node pos="r" depth="1" NCoef="0" IVar="3" Cut="1.3157583618164062e+02" cType="1" res="-4.1433244943618774e-02" rms="4.4761899113655090e-01" purity="3.6382457613945007e-01" nType="0">
          <Node pos="l" depth="2" NCoef="0" IVar="-1" Cut="0.0000000000000000e+00" cType="1" res="-8.4691174561157823e-04" rms="4.5895794034004211e-01" purity="3.9439839124679565e-01" nType="-99"/>
          <Node pos="r" depth="2" NCoef="0" IVar="-1" Cut="0.0000000000000000e+00" cType="1" res="-6.1093764379620552e-03" rms="3.8066017627716064e-01" purity="2.2707369923591614e-01" nType="-99"/>
        </Node>
      </Node>
    </BinaryTree>
    <BinaryTree type="DecisionTree" boostWeight="1.0000000000000000e+00" itree="247">
      <Node pos="s" depth="0" NCoef="0" IVar="5" Cut="9.1981720924377441e-01" cType="1" res="-3.4967358224093914e-03" rms="4.5006981492042542e-01" purity="4.9397599697113037e-01" nType="0">
        <Node pos="l" depth="1" NCoef="0" IVar="-1" Cut="0.0000000000000000e+00" cType="1" res="-5.9634130448102951e-03" rms="3.9691719412803650e-01" purity="2.1978245675563812e-01" nType="-99"/>
        <Node pos="r" depth="1" NCoef="0" IVar="0" Cut="8.7486717224121094e+01" cType="1" res="9.2199267819523811e-03" rms="4.5231702923774719e-01" purity="5.1837849617004395e-01" nType="0">
          <Node pos="l" depth="2" NCoef="0" IVar="-1" Cut="0.0000000000000000e+00" cType="1" res="-4.8061748384498060e-04" rms="4.5755416154861450e-01" purity="4.6286204457283020e-01" nType="-99"/>
          <Node pos="r" depth="2" NCoef="0" IVar="-1" Cut="0.0000000000000000e+00" cType="1" res="2.1829272154718637e-03" rms="4.3593412637710571e-01" purity="6.4644145965576172e-01" nType="-99"/>
        </Node>
      </Node>
    </BinaryTree>
    <BinaryTree type="DecisionTree" boostWeight="1.0000000000000000e+00" itree="248">
      <Node pos="s" depth="0" NCoef="0" IVar="9" Cut="1.2476875782012939e+00" cType="1" res="-3.6188662052154541e-03" rms="4.5084893703460693e-01" purity="4.9159747362136841e-01" nType="0">
        <Node pos="l" depth="1" NCoef="0" IVar="-1" Cut="0.0000000000000000e+00" cType="1" res="4.9477797001600266e-03" rms="4.0014040470123291e-01" purity="7.6751220226287842e-01" nType="-99"/>
        <Node pos="r" depth="1" NCoef="0" IVar="5" Cut="9.4478380680084229e-01" cType="1" res="-1.8409289419651031e-02" rms="4.5332029461860657e-01" purity="4.6260157227516174e-01" nType="0">
          <Node pos="l" depth="2" NCoef="0" IVar="-1" Cut="0.0000000000000000e+00" cType="1" res="-2.7079635765403509e-03" rms="4.3755134940147400e-01" purity="3.3943206071853638e-01" nType="-99"/>
          <Node pos="r" depth="2" NCoef="0" IVar="-1" Cut="0.0000000000000000e+00" cType="1" res="2.9198834090493619e-04" rms="4.5907601714134216e-01" purity="5.2596592903137207e-01" nType="-99"/>
        </Node>
      </Node>
    </BinaryTree>
    <BinaryTree type="DecisionTree" boostWeight="1.0000000000000000e+00" itree="249">
      <Node pos="s" depth="0" NCoef="0" IVar="3" Cut="1.3922315979003906e+02" cType="1" res="7.6366928406059742e-03" rms="4.5718908309936523e-01" purity="5.0195026397705078e-01" nType="0">
        <Node pos="l" depth="1" NCoef="0" IVar="0" Cut="6.2705635070800781e+01" cType="1" res="1.5903504565358162e-02" rms="4.5805478096008301e-01" purity="5.1784205436706543e-01" nType="0">
          <Node pos="l" depth="2" NCoef="0" IVar="-1" Cut="0.0000000000000000e+00" cType="1" res="-6.8133772583678365e-04" rms="4.6368822455406189e-01" purity="4.1539430618286133e-01" nType="-99"/>
          <Node pos="r" depth="2" NCoef="0" IVar="-1" Cut="0.0000000000000000e+00" cType="1" res="1.7280047759413719e-03" rms="4.5043274760246277e-01" purity="6.1441093683242798e-01" nType="-99"/>
        </Node>
        <Node pos="r" depth="1" NCoef="0" IVar="-1" Cut="0.0000000000000000e+00" cType="1" res="-5.1451628096401691e-03" rms="4.2648109793663025e-01" purity="2.6991569995880127e-01" nType="-99"/>
      </Node>
    </BinaryTree>
    <BinaryTree type="DecisionTree" boostWeight="1.0000000000000000e+00" itree="250">
      <Node pos="s" depth="0" NCoef="0" IVar="1" Cut="1.3994691467285156e+02" cType="1" res="-4.2964583262801170e-03" rms="4.5930776000022888e-01" purity="4.9584764242172241e-01" nType="0">
        <Node pos="l" depth="1" NCoef="0" IVar="0" Cut="2.9282571792602539e+01" cType="1" res="2.1086039021611214e-02" rms="4.6072518825531006e-01" purity="5.2641731500625610e-01" nType="0">
          <Node pos="l" depth="2" NCoef="0" IVar="-1" Cut="0.0000000000000000e+00" cType="1" res="-4.3578785844147205e-03" rms="3.9081609249114990e-01" purity="2.0081259310245514e-01" nType="-99"/>
          <Node pos="r" depth="2" NCoef="0" IVar="-1" Cut="0.0000000000000000e+00" cType="1" res="1.2394972145557404e-03" rms="4.6624141931533813e-01" purity="5.6326967477798462e-01" nType="-99"/>
        </Node>
        <Node pos="r" depth="1" NCoef="0" IVar="2" Cut="1.3337641954421997e+00" cType="1" res="-5.8935225009918213e-02" rms="4.5142465829849243e-01" purity="4.3004292249679565e-01" nType="0">
          <Node pos="l" depth="2" NCoef="0" IVar="-1" Cut="0.0000000000000000e+00" cType="1" res="1.4940777327865362e-03" rms="4.5010924339294434e-01" purity="6.8520414829254150e-01" nType="-99"/>
          <Node pos="r" depth="2" NCoef="0" IVar="-1" Cut="0.0000000000000000e+00" cType="1" res="-3.2769138924777508e-03" rms="4.4877707958221436e-01" purity="3.7416407465934753e-01" nType="-99"/>
        </Node>
      </Node>
    </BinaryTree>
    <BinaryTree type="DecisionTree" boostWeight="1.0000000000000000e+00" itree="251">
      <Node pos="s" depth="0" NCoef="0" IVar="1" Cut="1.3187461853027344e+02" cType="1" res="9.3705207109451294e-03" rms="4.5173868536949158e-01" purity="5.0508838891983032e-01" nType="0">
        <Node pos="l" depth="1" NCoef="0" IVar="1" Cut="8.1652847290039062e+01" cType="1" res="3.3989153802394867e-02" rms="4.4958245754241943e-01" purity="5.3612345457077026e-01" nType="0">
          <Node pos="l" depth="2" NCoef="0" IVar="-1" Cut="0.0000000000000000e+00" cType="1" res="-2.6032091118395329e-03" rms="4.5399963855743408e-01" purity="3.7750110030174255e-01" nType="-99"/>
          <Node pos="r" depth="2" NCoef="0" IVar="-1" Cut="0.0000000000000000e+00" cType="1" res="2.0999335683882236e-03" rms="4.4533991813659668e-01" purity="5.7442682981491089e-01" nType="-99"/>
        </Node>
        <Node pos="r" depth="1" NCoef="0" IVar="0" Cut="1.3352397155761719e+02" cType="1" res="-2.8634186834096909e-02" rms="4.5242464542388916e-01" purity="4.5717844367027283e-01" nType="0">
          <Node pos="l" depth="2" NCoef="0" IVar="-1" Cut="0.0000000000000000e+00" cType="1" res="-3.5815016599372029e-04" rms="4.5024761557579041e-01" purity="4.7575724124908447e-01" nType="-99"/>
          <Node pos="r" depth="2" NCoef="0" IVar="-1" Cut="0.0000000000000000e+00" cType="1" res="-4.8443377017974854e-03" rms="4.5080423355102539e-01" purity="3.6432105302810669e-01" nType="-99"/>
        </Node>
      </Node>
    </BinaryTree>
    <BinaryTree type="DecisionTree" boostWeight="1.0000000000000000e+00" itree="252">
      <Node pos="s" depth="0" NCoef="0" IVar="5" Cut="9.7708261013031006e-01" cType="1" res="8.3464356139302254e-03" rms="4.5849370956420898e-01" purity="5.1049053668975830e-01" nType="0">
        <Node pos="l" depth="1" NCoef="0" IVar="7" Cut="7.1252525329589844e+01" cType="1" res="-2.4961067829281092e-03" rms="4.6037858724594116e-01" purity="4.8496249318122864e-01" nType="0">
          <Node pos="l" depth="2" NCoef="0" IVar="-1" Cut="0.0000000000000000e+00" cType="1" res="-6.4778962405398488e-04" rms="4.5872601866722107e-01" purity="4.4292795658111572e-01" nType="-99"/>
          <Node pos="r" depth="2" NCoef="0" IVar="-1" Cut="0.0000000000000000e+00" cType="1" res="1.3061161153018475e-03" rms="4.6255755424499512e-01" purity="5.9635263681411743e-01" nType="-99"/>
        </Node>
        <Node pos="r" depth="1" NCoef="0" IVar="0" Cut="7.8985046386718750e+01" cType="1" res="5.8862149715423584e-02" rms="4.4614744186401367e-01" purity="6.2942665815353394e-01" nType="0">
          <Node pos="l" depth="2" NCoef="0" IVar="-1" Cut="0.0000000000000000e+00" cType="1" res="1.0209294268861413e-03" rms="4.5506224036216736e-01" purity="5.6089079380035400e-01" nType="-99"/>
          <Node pos="r" depth="2" NCoef="0" IVar="-1" Cut="0.0000000000000000e+00" cType="1" res="4.1421577334403992e-03" rms="4.2614334821701050e-01" purity="7.3900437355041504e-01" nType="-99"/>
        </Node>
      </Node>
    </BinaryTree>
    <BinaryTree type="DecisionTree" boostWeight="1.0000000000000000e+00" itree="253">
      <Node pos="s" depth="0" NCoef="0" IVar="0" Cut="3.6711433410644531e+01" cType="1" res="5.6906840763986111e-03" rms="4.5200741291046143e-01" purity="5.0494146347045898e-01" nType="0">
        <Node pos="l" depth="1" NCoef="0" IVar="0" Cut="2.9752941131591797e+01" cType="1" res="-6.3635841012001038e-02" rms="4.1379067301750183e-01" purity="2.6243028044700623e-01" nType="0">
          <Node pos="l" depth="2" NCoef="0" IVar="-1" Cut="0.0000000000000000e+00" cType="1" res="-6.3920672982931137e-03" rms="3.5192936658859253e-01" purity="1.5248210728168488e-01" nType="-99"/>
          <Node pos="r" depth="2" NCoef="0" IVar="-1" Cut="0.0000000000000000e+00" cType="1" res="-4.3054422712884843e-04" rms="4.5647129416465759e-01" purity="3.6240705847740173e-01" nType="-99"/>
        </Node>
        <Node pos="r" depth="1" NCoef="0" IVar="3" Cut="1.3588638305664062e+02" cType="1" res="1.8849615007638931e-02" rms="4.5771795511245728e-01" purity="5.5097270011901855e-01" nType="0">
          <Node pos="l" depth="2" NCoef="0" IVar="-1" Cut="0.0000000000000000e+00" cType="1" res="1.1466501746326685e-03" rms="4.5816951990127563e-01" purity="5.7317841053009033e-01" nType="-99"/>
          <Node pos="r" depth="2" NCoef="0" IVar="-1" Cut="0.0000000000000000e+00" cType="1" res="-5.4235849529504776e-03" rms="4.2656826972961426e-01" purity="2.8510349988937378e-01" nType="-99"/>
        </Node>
      </Node>
    </BinaryTree>
    <BinaryTree type="DecisionTree" boostWeight="1.0000000000000000e+00" itree="254">
      <Node pos="s" depth="0" NCoef="0" IVar="3" Cut="1.3996926879882812e+02" cType="1" res="1.2798625975847244e-02" rms="4.5370286703109741e-01" purity="5.0850343704223633e-01" nType="0">
        <Node pos="l" depth="1" NCoef="0" IVar="6" Cut="1.1349290466308594e+02" cType="1" res="2.1072227507829666e-02" rms="4.5599576830863953e-01" purity="5.2372032403945923e-01" nType="0">
          <Node pos="l" depth="2" NCoef="0" IVar="-1" Cut="0.0000000000000000e+00" cType="1" res="3.7819269346073270e-04" rms="4.5811867713928223e-01" purity="5.0209897756576538e-01" nType="-99"/>
          <Node pos="r" depth="2" NCoef="0" IVar="-1" Cut="0.0000000000000000e+00" cType="1" res="4.6845027245581150e-03" rms="4.1871818900108337e-01" purity="7.3788875341415405e-01" nType="-99"/>
        </Node>
        <Node pos="r" depth="1" NCoef="0" IVar="-1" Cut="0.0000000000000000e+00" cType="1" res="-5.7666902430355549e-03" rms="3.8917931914329529e-01" purity="2.5672295689582825e-01" nType="-99"/>
      </Node>
    </BinaryTree>
    <BinaryTree type="DecisionTree" boostWeight="1.0000000000000000e+00" itree="255">
      <Node pos="s" depth="0" NCoef="0" IVar="10" Cut="8.4931945800781250e-01" cType="1" res="-8.2723423838615417e-03" rms="4.5404353737831116e-01" purity="4.8802420496940613e-01" nType="0">
        <Node pos="l" depth="1" NCoef="0" IVar="0" Cut="6.6912628173828125e+01" cType="1" res="-1.6890697181224823e-02" rms="4.5490321516990662e-01" purity="4.7176745533943176e-01" nType="0">
          <Node pos="l" depth="2" NCoef="0" IVar="-1" Cut="0.0000000000000000e+00" cType="1" res="-1.9026141380891204e-03" rms="4.4936361908912659e-01" purity="3.8101810216903687e-01" nType="-99"/>
          <Node pos="r" depth="2" NCoef="0" IVar="-1" Cut="0.0000000000000000e+00" cType="1" res="7.0374616188928485e-04" rms="4.5859187841415405e-01" purity="5.7688432931900024e-01" nType="-99"/>
        </Node>
        <Node pos="r" depth="1" NCoef="0" IVar="-1" Cut="0.0000000000000000e+00" cType="1" res="5.0752144306898117e-03" rms="4.1291135549545288e-01" purity="7.6268905401229858e-01" nType="-99"/>
      </Node>
    </BinaryTree>
    <BinaryTree type="DecisionTree" boostWeight="1.0000000000000000e+00" itree="256">
      <Node pos="s" depth="0" NCoef="0" IVar="5" Cut="9.7691428661346436e-01" cType="1" res="6.0872477479279041e-03" rms="4.5395368337631226e-01" purity="5.0467801094055176e-01" nType="0">
        <Node pos="l" depth="1" NCoef="0" IVar="4" Cut="2.0919854736328125e+02" cType="1" res="-1.0236123576760292e-02" rms="4.5497030019760132e-01" purity="4.7080907225608826e-01" nType="0">
          <Node pos="l" depth="2" NCoef="0" IVar="-1" Cut="0.0000000000000000e+00" cType="1" res="-4.3056104332208633e-03" rms="4.2254120111465454e-01" purity="2.5091770291328430e-01" nType="-99"/>
          <Node pos="r" depth="2" NCoef="0" IVar="-1" Cut="0.0000000000000000e+00" cType="1" res="2.1678423217963427e-04" rms="4.5891830325126648e-01" purity="5.1129424571990967e-01" nType="-99"/>
        </Node>
        <Node pos="r" depth="1" NCoef="0" IVar="8" Cut="2.1227001953125000e+02" cType="1" res="7.4367895722389221e-02" rms="4.4320639967918396e-01" purity="6.4635205268859863e-01" nType="0">
          <Node pos="l" depth="2" NCoef="0" IVar="-1" Cut="0.0000000000000000e+00" cType="1" res="4.6491394750773907e-03" rms="4.2351204156875610e-01" purity="7.1445447206497192e-01" nType="-99"/>
          <Node pos="r" depth="2" NCoef="0" IVar="-1" Cut="0.0000000000000000e+00" cType="1" res="1.1946192244067788e-03" rms="4.5595952868461609e-01" purity="5.8506232500076294e-01" nType="-99"/>
        </Node>
      </Node>
    </BinaryTree>
    <BinaryTree type="DecisionTree" boostWeight="1.0000000000000000e+00" itree="257">
      <Node pos="s" depth="0" NCoef="0" IVar="8" Cut="3.1788833618164062e+02" cType="1" res="4.7950157895684242e-03" rms="4.5243984460830688e-01" purity="5.0140154361724854e-01" nType="0">
        <Node pos="l" depth="1" NCoef="0" IVar="0" Cut="5.6797290802001953e+01" cType="1" res="2.2254692390561104e-02" rms="4.5314916968345642e-01" purity="5.4553586244583130e-01" nType="0">
          <Node pos="l" depth="2" NCoef="0" IVar="-1" Cut="0.0000000000000000e+00" cType="1" res="-5.8444746537134051e-04" rms="4.6075555682182312e-01" purity="4.2165184020996094e-01" nType="-99"/>
          <Node pos="r" depth="2" NCoef="0" IVar="-1" Cut="0.0000000000000000e+00" cType="1" res="2.2129158023744822e-03" rms="4.4204318523406982e-01" purity="6.7164641618728638e-01" nType="-99"/>
        </Node>
        <Node pos="r" depth="1" NCoef="0" IVar="3" Cut="1.1443349456787109e+02" cType="1" res="-3.8580972701311111e-02" rms="4.4773554801940918e-01" purity="3.9175635576248169e-01" nType="0">
          <Node pos="l" depth="2" NCoef="0" IVar="-1" Cut="0.0000000000000000e+00" cType="1" res="-5.4099266417324543e-03" rms="4.3794551491737366e-01" purity="2.9091158509254456e-01" nType="-99"/>
          <Node pos="r" depth="2" NCoef="0" IVar="-1" Cut="0.0000000000000000e+00" cType="1" res="-7.9313112655654550e-04" rms="4.4759795069694519e-01" purity="4.1295090317726135e-01" nType="-99"/>
        </Node>
      </Node>
    </BinaryTree>
    <BinaryTree type="DecisionTree" boostWeight="1.0000000000000000e+00" itree="258">
      <Node pos="s" depth="0" NCoef="0" IVar="11" Cut="4.4195947051048279e-01" cType="1" res="-1.5077401883900166e-02" rms="4.5805186033248901e-01" purity="4.8289015889167786e-01" nType="0">
        <Node pos="l" depth="1" NCoef="0" IVar="11" Cut="3.7200185656547546e-01" cType="1" res="-9.2756710946559906e-02" rms="3.9114439487457275e-01" purity="2.3799400031566620e-01" nType="0">
          <Node pos="l" depth="2" NCoef="0" IVar="-1" Cut="0.0000000000000000e+00" cType="1" res="-2.4309053551405668e-03" rms="4.0380591154098511e-01" purity="2.6983240246772766e-01" nType="-99"/>
          <Node pos="r" depth="2" NCoef="0" IVar="-1" Cut="0.0000000000000000e+00" cType="1" res="-5.7323202490806580e-03" rms="3.7887081503868103e-01" purity="2.1462965011596680e-01" nType="-99"/>
        </Node>
        <Node pos="r" depth="1" NCoef="0" IVar="6" Cut="2.5496477127075195e+01" cType="1" res="-3.6345040425658226e-03" rms="4.6600583195686340e-01" purity="5.1896566152572632e-01" nType="0">
          <Node pos="l" depth="2" NCoef="0" IVar="-1" Cut="0.0000000000000000e+00" cType="1" res="-4.5880503021180630e-03" rms="4.2017605900764465e-01" purity="2.9451450705528259e-01" nType="-99"/>
          <Node pos="r" depth="2" NCoef="0" IVar="-1" Cut="0.0000000000000000e+00" cType="1" res="1.6065184900071472e-04" rms="4.6842437982559204e-01" purity="5.3638780117034912e-01" nType="-99"/>
        </Node>
      </Node>
    </BinaryTree>
    <BinaryTree type="DecisionTree" boostWeight="1.0000000000000000e+00" itree="259">
      <Node pos="s" depth="0" NCoef="0" IVar="5" Cut="9.8165249824523926e-01" cType="1" res="6.2154708430171013e-03" rms="4.6202298998832703e-01" purity="5.0734472274780273e-01" nType="0">
        <Node pos="l" depth="1" NCoef="0" IVar="1" Cut="1.7546202087402344e+02" cType="1" res="-4.7887214459478855e-03" rms="4.6285089850425720e-01" purity="4.8512035608291626e-01" nType="0">
          <Node pos="l" depth="2" NCoef="0" IVar="-1" Cut="0.0000000000000000e+00" cType="1" res="2.4800351820886135e-04" rms="4.6336951851844788e-01" purity="5.0106310844421387e-01" nType="-99"/>
          <Node pos="r" depth="2" NCoef="0" IVar="-1" Cut="0.0000000000000000e+00" cType="1" res="-2.8180219233036041e-03" rms="4.5448780059814453e-01" purity="3.9403837919235229e-01" nType="-99"/>
        </Node>
        <Node pos="r" depth="1" NCoef="0" IVar="1" Cut="1.2816058349609375e+02" cType="1" res="8.0983810126781464e-02" rms="4.4927659630775452e-01" purity="6.5834885835647583e-01" nType="0">
          <Node pos="l" depth="2" NCoef="0" IVar="-1" Cut="0.0000000000000000e+00" cType="1" res="6.7463581217452884e-04" rms="4.6469619870185852e-01" purity="6.0894703865051270e-01" nType="-99"/>
          <Node pos="r" depth="2" NCoef="0" IVar="-1" Cut="0.0000000000000000e+00" cType="1" res="5.2576744928956032e-03" rms="4.1979756951332092e-01" purity="7.1384060382843018e-01" nType="-99"/>
        </Node>
      </Node>
    </BinaryTree>
    <BinaryTree type="DecisionTree" boostWeight="1.0000000000000000e+00" itree="260">
      <Node pos="s" depth="0" NCoef="0" IVar="5" Cut="9.5502912998199463e-01" cType="1" res="-3.2636031974107027e-03" rms="4.5356333255767822e-01" purity="4.9244141578674316e-01" nType="0">
        <Node pos="l" depth="1" NCoef="0" IVar="9" Cut="1.4899021387100220e+00" cType="1" res="-3.1061893329024315e-02" rms="4.4750553369522095e-01" purity="4.1270250082015991e-01" nType="0">
          <Node pos="l" depth="2" NCoef="0" IVar="-1" Cut="0.0000000000000000e+00" cType="1" res="2.6482241228222847e-03" rms="4.6188428997993469e-01" purity="6.5148264169692993e-01" nType="-99"/>
          <Node pos="r" depth="2" NCoef="0" IVar="-1" Cut="0.0000000000000000e+00" cType="1" res="-1.6676685772836208e-03" rms="4.4412484765052795e-01" purity="3.8411879539489746e-01" nType="-99"/>
        </Node>
        <Node pos="r" depth="1" NCoef="0" IVar="6" Cut="5.0404487609863281e+01" cType="1" res="2.3822514340281487e-02" rms="4.5776823163032532e-01" purity="5.7013756036758423e-01" nType="0">
          <Node pos="l" depth="2" NCoef="0" IVar="-1" Cut="0.0000000000000000e+00" cType="1" res="-6.7734852200374007e-04" rms="4.6802428364753723e-01" purity="4.7973009943962097e-01" nType="-99"/>
          <Node pos="r" depth="2" NCoef="0" IVar="-1" Cut="0.0000000000000000e+00" cType="1" res="2.3375947494059801e-03" rms="4.4483202695846558e-01" purity="6.5340781211853027e-01" nType="-99"/>
        </Node>
      </Node>
    </BinaryTree>
    <BinaryTree type="DecisionTree" boostWeight="1.0000000000000000e+00" itree="261">
      <Node pos="s" depth="0" NCoef="0" IVar="1" Cut="1.5173039245605469e+02" cType="1" res="5.1917205564677715e-03" rms="4.5497450232505798e-01" purity="5.0068581104278564e-01" nType="0">
        <Node pos="l" depth="1" NCoef="0" IVar="10" Cut="5.0331181287765503e-01" cType="1" res="2.4774635210633278e-02" rms="4.5588812232017517e-01" purity="5.2868610620498657e-01" nType="0">
          <Node pos="l" depth="2" NCoef="0" IVar="-1" Cut="0.0000000000000000e+00" cType="1" res="-1.9219354726374149e-03" rms="4.4021949172019958e-01" purity="3.2592606544494629e-01" nType="-99"/>
          <Node pos="r" depth="2" NCoef="0" IVar="-1" Cut="0.0000000000000000e+00" cType="1" res="1.5426333993673325e-03" rms="4.5798233151435852e-01" purity="5.7777452468872070e-01" nType="-99"/>
        </Node>
        <Node pos="r" depth="1" NCoef="0" IVar="6" Cut="9.7561058044433594e+01" cType="1" res="-5.0900667905807495e-02" rms="4.4763079285621643e-01" purity="4.2048293352127075e-01" nType="0">
          <Node pos="l" depth="2" NCoef="0" IVar="-1" Cut="0.0000000000000000e+00" cType="1" res="-4.0723225101828575e-03" rms="4.3203154206275940e-01" purity="3.3651813864707947e-01" nType="-99"/>
          <Node pos="r" depth="2" NCoef="0" IVar="-1" Cut="0.0000000000000000e+00" cType="1" res="1.7592457588762045e-03" rms="4.6418398618698120e-01" purity="5.9807991981506348e-01" nType="-99"/>
        </Node>
      </Node>
    </BinaryTree>
    <BinaryTree type="DecisionTree" boostWeight="1.0000000000000000e+00" itree="262">
      <Node pos="s" depth="0" NCoef="0" IVar="3" Cut="1.3967150878906250e+02" cType="1" res="1.0801938362419605e-02" rms="4.5434740185737610e-01" purity="5.0897288322448730e-01" nType="0">
        <Node pos="l" depth="1" NCoef="0" IVar="5" Cut="9.6634531021118164e-01" cType="1" res="1.9076338037848473e-02" rms="4.5583391189575195e-01" purity="5.2567374706268311e-01" nType="0">
          <Node pos="l" depth="2" NCoef="0" IVar="-1" Cut="0.0000000000000000e+00" cType="1" res="1.2786280194632127e-06" rms="4.6158638596534729e-01" purity="4.7537991404533386e-01" nType="-99"/>
          <Node pos="r" depth="2" NCoef="0" IVar="-1" Cut="0.0000000000000000e+00" cType="1" res="2.2979280911386013e-03" rms="4.4094586372375488e-01" purity="6.3064485788345337e-01" nType="-99"/>
        </Node>
        <Node pos="r" depth="1" NCoef="0" IVar="-1" Cut="0.0000000000000000e+00" cType="1" res="-6.2261689454317093e-03" rms="4.0257638692855835e-01" purity="2.2322516143321991e-01" nType="-99"/>
      </Node>
    </BinaryTree>
    <BinaryTree type="DecisionTree" boostWeight="1.0000000000000000e+00" itree="263">
      <Node pos="s" depth="0" NCoef="0" IVar="3" Cut="1.4024966430664062e+02" cType="1" res="7.8709679655730724e-05" rms="4.5533701777458191e-01" purity="4.9784091114997864e-01" nType="0">
        <Node pos="l" depth="1" NCoef="0" IVar="5" Cut="9.4843077659606934e-01" cType="1" res="7.4801808223128319e-03" rms="4.5729029178619385e-01" purity="5.1211047172546387e-01" nType="0">
          <Node pos="l" depth="2" NCoef="0" IVar="-1" Cut="0.0000000000000000e+00" cType="1" res="-1.2353482889011502e-03" rms="4.5558574795722961e-01" purity="4.0422683954238892e-01" nType="-99"/>
          <Node pos="r" depth="2" NCoef="0" IVar="-1" Cut="0.0000000000000000e+00" cType="1" res="1.2822898570448160e-03" rms="4.5647835731506348e-01" purity="5.8198177814483643e-01" nType="-99"/>
        </Node>
        <Node pos="r" depth="1" NCoef="0" IVar="-1" Cut="0.0000000000000000e+00" cType="1" res="-6.2404498457908630e-03" rms="3.9511927962303162e-01" purity="2.3953048884868622e-01" nType="-99"/>
      </Node>
    </BinaryTree>
    <BinaryTree type="DecisionTree" boostWeight="1.0000000000000000e+00" itree="264">
      <Node pos="s" depth="0" NCoef="0" IVar="5" Cut="9.6820098161697388e-01" cType="1" res="-1.5862236032262444e-03" rms="4.5114293694496155e-01" purity="4.9379831552505493e-01" nType="0">
        <Node pos="l" depth="1" NCoef="0" IVar="0" Cut="1.3549378967285156e+02" cType="1" res="-2.4114551022648811e-02" rms="4.4929745793342590e-01" purity="4.4321289658546448e-01" nType="0">
          <Node pos="l" depth="2" NCoef="0" IVar="-1" Cut="0.0000000000000000e+00" cType="1" res="-4.6974010183475912e-04" rms="4.4957798719406128e-01" purity="4.5634829998016357e-01" nType="-99"/>
          <Node pos="r" depth="2" NCoef="0" IVar="-1" Cut="0.0000000000000000e+00" cType="1" res="-6.5936129540205002e-03" rms="4.2316514253616333e-01" purity="2.9327771067619324e-01" nType="-99"/>
        </Node>
        <Node pos="r" depth="1" NCoef="0" IVar="3" Cut="1.1808595275878906e+02" cType="1" res="5.1992636173963547e-02" rms="4.5100367069244385e-01" purity="6.1410516500473022e-01" nType="0">
          <Node pos="l" depth="2" NCoef="0" IVar="-1" Cut="0.0000000000000000e+00" cType="1" res="-9.1300532221794128e-04" rms="4.7413599491119385e-01" purity="5.2525055408477783e-01" nType="-99"/>
          <Node pos="r" depth="2" NCoef="0" IVar="-1" Cut="0.0000000000000000e+00" cType="1" res="2.8901973273605108e-03" rms="4.4148355722427368e-01" purity="6.4052504301071167e-01" nType="-99"/>
        </Node>
      </Node>
    </BinaryTree>
    <BinaryTree type="DecisionTree" boostWeight="1.0000000000000000e+00" itree="265">
      <Node pos="s" depth="0" NCoef="0" IVar="2" Cut="2.5037429332733154e+00" cType="1" res="9.8122954368591309e-03" rms="4.4749027490615845e-01" purity="5.0829344987869263e-01" nType="0">
        <Node pos="l" depth="1" NCoef="0" IVar="8" Cut="1.5353311157226562e+02" cType="1" res="4.0029052644968033e-02" rms="4.5585763454437256e-01" purity="5.9768986701965332e-01" nType="0">
          <Node pos="l" depth="2" NCoef="0" IVar="-1" Cut="0.0000000000000000e+00" cType="1" res="3.6728545092046261e-03" rms="4.4004514813423157e-01" purity="6.1921405792236328e-01" nType="-99"/>
          <Node pos="r" depth="2" NCoef="0" IVar="-1" Cut="0.0000000000000000e+00" cType="1" res="7.7600468648597598e-04" rms="4.5921289920806885e-01" purity="5.9077674150466919e-01" nType="-99"/>
        </Node>
        <Node pos="r" depth="1" NCoef="0" IVar="2" Cut="3.4482798576354980e+00" cType="1" res="-7.9057537019252777e-02" rms="4.0918669104576111e-01" purity="2.4537158012390137e-01" nType="0">
          <Node pos="l" depth="2" NCoef="0" IVar="-1" Cut="0.0000000000000000e+00" cType="1" res="-2.4134982377290726e-03" rms="4.3720668554306030e-01" purity="2.9152002930641174e-01" nType="-99"/>
          <Node pos="r" depth="2" NCoef="0" IVar="-1" Cut="0.0000000000000000e+00" cType="1" res="-7.6970015652477741e-03" rms="2.9638016223907471e-01" purity="1.0251661390066147e-01" nType="-99"/>
        </Node>
      </Node>
    </BinaryTree>
    <BinaryTree type="DecisionTree" boostWeight="1.0000000000000000e+00" itree="266">
      <Node pos="s" depth="0" NCoef="0" IVar="0" Cut="1.3555923461914062e+02" cType="1" res="-2.5962761719711125e-04" rms="4.5228651165962219e-01" purity="4.9616861343383789e-01" nType="0">
        <Node pos="l" depth="1" NCoef="0" IVar="0" Cut="7.7699157714843750e+01" cType="1" res="7.8373542055487633e-03" rms="4.5266890525817871e-01" purity="5.0557589530944824e-01" nType="0">
          <Node pos="l" depth="2" NCoef="0" IVar="-1" Cut="0.0000000000000000e+00" cType="1" res="-4.5977308764122427e-04" rms="4.5843356847763062e-01" purity="4.3838644027709961e-01" nType="-99"/>
          <Node pos="r" depth="2" NCoef="0" IVar="-1" Cut="0.0000000000000000e+00" cType="1" res="1.9860651809722185e-03" rms="4.3585282564163208e-01" purity="6.5974152088165283e-01" nType="-99"/>
        </Node>
        <Node pos="r" depth="1" NCoef="0" IVar="-1" Cut="0.0000000000000000e+00" cType="1" res="-4.3232482858002186e-03" rms="4.3199557065963745e-01" purity="3.6729359626770020e-01" nType="-99"/>
      </Node>
    </BinaryTree>
    <BinaryTree type="DecisionTree" boostWeight="1.0000000000000000e+00" itree="267">
      <Node pos="s" depth="0" NCoef="0" IVar="9" Cut="1.3688825368881226e+00" cType="1" res="8.0669848248362541e-03" rms="4.5060303807258606e-01" purity="5.0523203611373901e-01" nType="0">
        <Node pos="l" depth="1" NCoef="0" IVar="0" Cut="4.8597145080566406e+01" cType="1" res="1.1441876739263535e-01" rms="4.3661952018737793e-01" purity="7.3627859354019165e-01" nType="0">
          <Node pos="l" depth="2" NCoef="0" IVar="-1" Cut="0.0000000000000000e+00" cType="1" res="7.2682905010879040e-03" rms="4.3278527259826660e-01" purity="7.3233079910278320e-01" nType="-99"/>
          <Node pos="r" depth="2" NCoef="0" IVar="-1" Cut="0.0000000000000000e+00" cType="1" res="1.1819760547950864e-03" rms="4.2162108421325684e-01" purity="7.3967909812927246e-01" nType="-99"/>
        </Node>
        <Node pos="r" depth="1" NCoef="0" IVar="7" Cut="9.6776214599609375e+01" cType="1" res="-7.4988859705626965e-03" rms="4.5051214098930359e-01" purity="4.7141557931900024e-01" nType="0">
          <Node pos="l" depth="2" NCoef="0" IVar="-1" Cut="0.0000000000000000e+00" cType="1" res="-8.7757728761062026e-04" rms="4.5076325535774231e-01" purity="4.4023793935775757e-01" nType="-99"/>
          <Node pos="r" depth="2" NCoef="0" IVar="-1" Cut="0.0000000000000000e+00" cType="1" res="3.0552416574209929e-03" rms="4.3839961290359497e-01" purity="6.5818560123443604e-01" nType="-99"/>
        </Node>
      </Node>
    </BinaryTree>
    <BinaryTree type="DecisionTree" boostWeight="1.0000000000000000e+00" itree="268">
      <Node pos="s" depth="0" NCoef="0" IVar="0" Cut="1.3472377014160156e+02" cType="1" res="2.0601971074938774e-02" rms="4.5945796370506287e-01" purity="5.1299709081649780e-01" nType="0">
        <Node pos="l" depth="1" NCoef="0" IVar="0" Cut="7.9996009826660156e+01" cType="1" res="2.9875857755541801e-02" rms="4.6003761887550354e-01" purity="5.2171599864959717e-01" nType="0">
          <Node pos="l" depth="2" NCoef="0" IVar="-1" Cut="0.0000000000000000e+00" cType="1" res="2.8407730860635638e-04" rms="4.6570461988449097e-01" purity="4.5484465360641479e-01" nType="-99"/>
          <Node pos="r" depth="2" NCoef="0" IVar="-1" Cut="0.0000000000000000e+00" cType="1" res="3.2483050599694252e-03" rms="4.3978056311607361e-01" purity="6.9438898563385010e-01" nType="-99"/>
        </Node>
        <Node pos="r" depth="1" NCoef="0" IVar="-1" Cut="0.0000000000000000e+00" cType="1" res="-3.1920799519866705e-03" rms="4.4002640247344971e-01" purity="4.1617998480796814e-01" nType="-99"/>
      </Node>
    </BinaryTree>
    <BinaryTree type="DecisionTree" boostWeight="1.0000000000000000e+00" itree="269">
      <Node pos="s" depth="0" NCoef="0" IVar="6" Cut="1.0878917694091797e+02" cType="1" res="4.2585004121065140e-03" rms="4.5402848720550537e-01" purity="5.0338518619537354e-01" nType="0">
        <Node pos="l" depth="1" NCoef="0" IVar="3" Cut="1.0985625457763672e+02" cType="1" res="-7.7106058597564697e-03" rms="4.5515939593315125e-01" purity="4.7995370626449585e-01" nType="0">
          <Node pos="l" depth="2" NCoef="0" IVar="-1" Cut="0.0000000000000000e+00" cType="1" res="-4.1975597850978374e-03" rms="4.2367956042289734e-01" purity="3.2796800136566162e-01" nType="-99"/>
          <Node pos="r" depth="2" NCoef="0" IVar="-1" Cut="0.0000000000000000e+00" cType="1" res="1.2314220657572150e-04" rms="4.5760443806648254e-01" purity="4.9831759929656982e-01" nType="-99"/>
        </Node>
        <Node pos="r" depth="1" NCoef="0" IVar="5" Cut="9.5835763216018677e-01" cType="1" res="1.0444955527782440e-01" rms="4.3162193894386292e-01" purity="6.9952529668807983e-01" nType="0">
          <Node pos="l" depth="2" NCoef="0" IVar="-1" Cut="0.0000000000000000e+00" cType="1" res="4.4139628298580647e-03" rms="4.4505789875984192e-01" purity="6.7038249969482422e-01" nType="-99"/>
          <Node pos="r" depth="2" NCoef="0" IVar="-1" Cut="0.0000000000000000e+00" cType="1" res="3.3900726120918989e-03" rms="4.1742655634880066e-01" purity="7.2805094718933105e-01" nType="-99"/>
        </Node>
      </Node>
    </BinaryTree>
    <BinaryTree type="DecisionTree" boostWeight="1.0000000000000000e+00" itree="270">
      <Node pos="s" depth="0" NCoef="0" IVar="9" Cut="3.3967602252960205e+00" cType="1" res="7.8054065816104412e-03" rms="4.5701560378074646e-01" purity="5.0377964973449707e-01" nType="0">
        <Node pos="l" depth="1" NCoef="0" IVar="6" Cut="3.8243736267089844e+01" cType="1" res="1.9107326865196228e-02" rms="4.5672667026519775e-01" purity="5.4465472698211670e-01" nType="0">
          <Node pos="l" depth="2" NCoef="0" IVar="-1" Cut="0.0000000000000000e+00" cType="1" res="-7.2461180388927460e-04" rms="4.5659670233726501e-01" purity="4.0710449218750000e-01" nType="-99"/>
          <Node pos="r" depth="2" NCoef="0" IVar="-1" Cut="0.0000000000000000e+00" cType="1" res="1.2797708623111248e-03" rms="4.5587593317031860e-01" purity="6.0315525531768799e-01" nType="-99"/>
        </Node>
        <Node pos="r" depth="1" NCoef="0" IVar="10" Cut="4.9940949678421021e-01" cType="1" res="-3.7757087498903275e-02" rms="4.5534232258796692e-01" purity="3.3899620175361633e-01" nType="0">
          <Node pos="l" depth="2" NCoef="0" IVar="-1" Cut="0.0000000000000000e+00" cType="1" res="6.5775471739470959e-04" rms="4.5184108614921570e-01" purity="3.4540790319442749e-01" nType="-99"/>
          <Node pos="r" depth="2" NCoef="0" IVar="-1" Cut="0.0000000000000000e+00" cType="1" res="-4.3552462011575699e-03" rms="4.5064571499824524e-01" purity="3.3063304424285889e-01" nType="-99"/>
        </Node>
      </Node>
    </BinaryTree>
    <BinaryTree type="DecisionTree" boostWeight="1.0000000000000000e+00" itree="271">
      <Node pos="s" depth="0" NCoef="0" IVar="5" Cut="9.3055450916290283e-01" cType="1" res="1.2570575810968876e-02" rms="4.5445781946182251e-01" purity="5.1165366172790527e-01" nType="0">
        <Node pos="l" depth="1" NCoef="0" IVar="1" Cut="1.3434884643554688e+02" cType="1" res="-5.3649134933948517e-02" rms="4.5140659809112549e-01" purity="3.3810859918594360e-01" nType="0">
          <Node pos="l" depth="2" NCoef="0" IVar="-1" Cut="0.0000000000000000e+00" cType="1" res="-3.8037789054214954e-03" rms="4.3580153584480286e-01" purity="2.9403740167617798e-01" nType="-99"/>
          <Node pos="r" depth="2" NCoef="0" IVar="-1" Cut="0.0000000000000000e+00" cType="1" res="6.7055784165859222e-04" rms="4.6592256426811218e-01" purity="4.0717798471450806e-01" nType="-99"/>
        </Node>
        <Node pos="r" depth="1" NCoef="0" IVar="0" Cut="3.5511241912841797e+01" cType="1" res="2.5496013462543488e-02" rms="4.5392557978630066e-01" purity="5.4552799463272095e-01" nType="0">
          <Node pos="l" depth="2" NCoef="0" IVar="-1" Cut="0.0000000000000000e+00" cType="1" res="-2.3228407371789217e-03" rms="4.2854645848274231e-01" purity="2.9035559296607971e-01" nType="-99"/>
          <Node pos="r" depth="2" NCoef="0" IVar="-1" Cut="0.0000000000000000e+00" cType="1" res="1.4745856169611216e-03" rms="4.5698696374893188e-01" purity="5.9205293655395508e-01" nType="-99"/>
        </Node>
      </Node>
    </BinaryTree>
    <BinaryTree type="DecisionTree" boostWeight="1.0000000000000000e+00" itree="272">
      <Node pos="s" depth="0" NCoef="0" IVar="4" Cut="5.1475775146484375e+02" cType="1" res="-3.2837754115462303e-03" rms="4.5369121432304382e-01" purity="4.9658495187759399e-01" nType="0">
        <Node pos="l" depth="1" NCoef="0" IVar="0" Cut="5.6114238739013672e+01" cType="1" res="7.2555202059447765e-03" rms="4.5276671648025513e-01" purity="5.0298696756362915e-01" nType="0">
          <Node pos="l" depth="2" NCoef="0" IVar="-1" Cut="0.0000000000000000e+00" cType="1" res="-1.3867119560018182e-03" rms="4.5538643002510071e-01" purity="3.7514364719390869e-01" nType="-99"/>
          <Node pos="r" depth="2" NCoef="0" IVar="-1" Cut="0.0000000000000000e+00" cType="1" res="1.4704953646287322e-03" rms="4.4794967770576477e-01" purity="6.0312575101852417e-01" nType="-99"/>
        </Node>
        <Node pos="r" depth="1" NCoef="0" IVar="9" Cut="2.5468809604644775e+00" cType="1" res="-9.6612609922885895e-02" rms="4.5117938518524170e-01" purity="4.3989294767379761e-01" nType="0">
          <Node pos="l" depth="2" NCoef="0" IVar="-1" Cut="0.0000000000000000e+00" cType="1" res="-4.3745515868067741e-03" rms="4.5691558718681335e-01" purity="4.9370095133781433e-01" nType="-99"/>
          <Node pos="r" depth="2" NCoef="0" IVar="-1" Cut="0.0000000000000000e+00" cType="1" res="-3.3056146930903196e-03" rms="4.4503828883171082e-01" purity="3.8761436939239502e-01" nType="-99"/>
        </Node>
      </Node>
    </BinaryTree>
    <BinaryTree type="DecisionTree" boostWeight="1.0000000000000000e+00" itree="273">
      <Node pos="s" depth="0" NCoef="0" IVar="5" Cut="9.2838025093078613e-01" cType="1" res="-8.4280408918857574e-03" rms="4.5364674925804138e-01" purity="4.8642539978027344e-01" nType="0">
        <Node pos="l" depth="1" NCoef="0" IVar="10" Cut="6.4220416545867920e-01" cType="1" res="-7.8793495893478394e-02" rms="4.2463967204093933e-01" purity="3.0428847670555115e-01" nType="0">
          <Node pos="l" depth="2" NCoef="0" IVar="-1" Cut="0.0000000000000000e+00" cType="1" res="-5.8858534321188927e-03" rms="3.9347636699676514e-01" purity="2.0459926128387451e-01" nType="-99"/>
          <Node pos="r" depth="2" NCoef="0" IVar="-1" Cut="0.0000000000000000e+00" cType="1" res="3.7185428664088249e-04" rms="4.5862787961959839e-01" purity="4.7200030088424683e-01" nType="-99"/>
        </Node>
        <Node pos="r" depth="1" NCoef="0" IVar="8" Cut="3.9693347167968750e+02" cType="1" res="3.9185527712106705e-03" rms="4.5743238925933838e-01" purity="5.1838380098342896e-01" nType="0">
          <Node pos="l" depth="2" NCoef="0" IVar="-1" Cut="0.0000000000000000e+00" cType="1" res="7.3380419053137302e-04" rms="4.5861676335334778e-01" purity="5.5193656682968140e-01" nType="-99"/>
          <Node pos="r" depth="2" NCoef="0" IVar="-1" Cut="0.0000000000000000e+00" cType="1" res="-3.3219205215573311e-03" rms="4.4179463386535645e-01" purity="3.3542829751968384e-01" nType="-99"/>
        </Node>
      </Node>
    </BinaryTree>
    <BinaryTree type="DecisionTree" boostWeight="1.0000000000000000e+00" itree="274">
      <Node pos="s" depth="0" NCoef="0" IVar="11" Cut="8.4393423795700073e-01" cType="1" res="-2.3338841274380684e-02" rms="4.5151677727699280e-01" purity="4.7301223874092102e-01" nType="0">
        <Node pos="l" depth="1" NCoef="0" IVar="0" Cut="3.7956535339355469e+01" cType="1" res="-3.6003760993480682e-02" rms="4.5276844501495361e-01" purity="4.4008791446685791e-01" nType="0">
          <Node pos="l" depth="2" NCoef="0" IVar="-1" Cut="0.0000000000000000e+00" cType="1" res="-4.3841931037604809e-03" rms="4.0101215243339539e-01" purity="2.1939355134963989e-01" nType="-99"/>
          <Node pos="r" depth="2" NCoef="0" IVar="-1" Cut="0.0000000000000000e+00" cType="1" res="-9.1418373631313443e-04" rms="4.6229329705238342e-01" purity="4.8754960298538208e-01" nType="-99"/>
        </Node>
        <Node pos="r" depth="1" NCoef="0" IVar="4" Cut="3.3417718505859375e+02" cType="1" res="5.6652788072824478e-02" rms="4.3509414792060852e-01" purity="6.8096208572387695e-01" nType="0">
          <Node pos="l" depth="2" NCoef="0" IVar="-1" Cut="0.0000000000000000e+00" cType="1" res="-1.0583199327811599e-03" rms="4.6119171380996704e-01" purity="5.5573290586471558e-01" nType="-99"/>
          <Node pos="r" depth="2" NCoef="0" IVar="-1" Cut="0.0000000000000000e+00" cType="1" res="4.9271532334387302e-03" rms="3.9422541856765747e-01" purity="7.9607975482940674e-01" nType="-99"/>
        </Node>
      </Node>
    </BinaryTree>
    <BinaryTree type="DecisionTree" boostWeight="1.0000000000000000e+00" itree="275">
      <Node pos="s" depth="0" NCoef="0" IVar="0" Cut="1.4207278442382812e+02" cType="1" res="3.3543608151376247e-03" rms="4.5717766880989075e-01" purity="4.9873778223991394e-01" nType="0">
        <Node pos="l" depth="1" NCoef="0" IVar="5" Cut="9.2801779508590698e-01" cType="1" res="1.3130425475537777e-02" rms="4.5663172006607056e-01" purity="5.1134860515594482e-01" nType="0">
          <Node pos="l" depth="2" NCoef="0" IVar="-1" Cut="0.0000000000000000e+00" cType="1" res="-2.9945427086204290e-03" rms="4.3359142541885376e-01" purity="3.1831085681915283e-01" nType="-99"/>
          <Node pos="r" depth="2" NCoef="0" IVar="-1" Cut="0.0000000000000000e+00" cType="1" res="1.0295266984030604e-03" rms="4.5837011933326721e-01" purity="5.3985857963562012e-01" nType="-99"/>
        </Node>
        <Node pos="r" depth="1" NCoef="0" IVar="-1" Cut="0.0000000000000000e+00" cType="1" res="-5.3001833148300648e-03" rms="4.4286957383155823e-01" purity="3.2334259152412415e-01" nType="-99"/>
      </Node>
    </BinaryTree>
    <BinaryTree type="DecisionTree" boostWeight="1.0000000000000000e+00" itree="276">
      <Node pos="s" depth="0" NCoef="0" IVar="9" Cut="1.3671994209289551e+00" cType="1" res="-2.7106951456516981e-03" rms="4.5173391699790955e-01" purity="4.9360057711601257e-01" nType="0">
        <Node pos="l" depth="1" NCoef="0" IVar="9" Cut="1.0784769058227539e+00" cType="1" res="9.4977483153343201e-02" rms="4.1918057203292847e-01" purity="7.3159450292587280e-01" nType="0">
          <Node pos="l" depth="2" NCoef="0" IVar="-1" Cut="0.0000000000000000e+00" cType="1" res="1.9101348007097840e-03" rms="4.4516143202781677e-01" purity="6.7597150802612305e-01" nType="-99"/>
          <Node pos="r" depth="2" NCoef="0" IVar="-1" Cut="0.0000000000000000e+00" cType="1" res="4.9658538773655891e-03" rms="3.8875582814216614e-01" purity="7.8374975919723511e-01" nType="-99"/>
        </Node>
        <Node pos="r" depth="1" NCoef="0" IVar="0" Cut="8.6539375305175781e+01" cType="1" res="-1.5472413040697575e-02" rms="4.5426613092422485e-01" purity="4.6250969171524048e-01" nType="0">
          <Node pos="l" depth="2" NCoef="0" IVar="-1" Cut="0.0000000000000000e+00" cType="1" res="-1.5450798673555255e-03" rms="4.5217433571815491e-01" purity="4.0087747573852539e-01" nType="-99"/>
          <Node pos="r" depth="2" NCoef="0" IVar="-1" Cut="0.0000000000000000e+00" cType="1" res="1.3054881710559130e-03" rms="4.5464032888412476e-01" purity="5.9589493274688721e-01" nType="-99"/>
        </Node>
      </Node>
    </BinaryTree>
    <BinaryTree type="DecisionTree" boostWeight="1.0000000000000000e+00" itree="277">
      <Node pos="s" depth="0" NCoef="0" IVar="3" Cut="1.3724240112304688e+02" cType="1" res="1.6740834340453148e-02" rms="4.5064288377761841e-01" purity="5.1879405975341797e-01" nType="0">
        <Node pos="l" depth="1" NCoef="0" IVar="10" Cut="8.2785135507583618e-01" cType="1" res="2.4376224726438522e-02" rms="4.5308786630630493e-01" purity="5.3300297260284424e-01" nType="0">
          <Node pos="l" depth="2" NCoef="0" IVar="-1" Cut="0.0000000000000000e+00" cType="1" res="6.5087230177596211e-04" rms="4.5700314640998840e-01" purity="5.1422888040542603e-01" nType="-99"/>
          <Node pos="r" depth="2" NCoef="0" IVar="-1" Cut="0.0000000000000000e+00" cType="1" res="4.5802914537489414e-03" rms="3.8432508707046509e-01" purity="7.8446173667907715e-01" nType="-99"/>
        </Node>
        <Node pos="r" depth="1" NCoef="0" IVar="-1" Cut="0.0000000000000000e+00" cType="1" res="-4.4608693569898605e-03" rms="3.9461892843246460e-01" purity="3.0488550662994385e-01" nType="-99"/>
      </Node>
    </BinaryTree>
    <BinaryTree type="DecisionTree" boostWeight="1.0000000000000000e+00" itree="278">
      <Node pos="s" depth="0" NCoef="0" IVar="2" Cut="3.4323003292083740e+00" cType="1" res="1.6069178236648440e-03" rms="4.5968711376190186e-01" purity="4.9301093816757202e-01" nType="0">
        <Node pos="l" depth="1" NCoef="0" IVar="9" Cut="2.9930791854858398e+00" cType="1" res="1.0473587550222874e-02" rms="4.6589767932891846e-01" purity="5.1635909080505371e-01" nType="0">
          <Node pos="l" depth="2" NCoef="0" IVar="-1" Cut="0.0000000000000000e+00" cType="1" res="-2.5355847901664674e-04" rms="4.6547016501426697e-01" purity="5.3234446048736572e-01" nType="-99"/>
          <Node pos="r" depth="2" NCoef="0" IVar="-1" Cut="0.0000000000000000e+00" cType="1" res="1.8865516176447272e-03" rms="4.6456813812255859e-01" purity="4.8036313056945801e-01" nType="-99"/>
        </Node>
        <Node pos="r" depth="1" NCoef="0" IVar="-1" Cut="0.0000000000000000e+00" cType="1" res="-7.6037775725126266e-03" rms="3.1197223067283630e-01" purity="1.1768738180398941e-01" nType="-99"/>
      </Node>
    </BinaryTree>
    <BinaryTree type="DecisionTree" boostWeight="1.0000000000000000e+00" itree="279">
      <Node pos="s" depth="0" NCoef="0" IVar="5" Cut="9.3134337663650513e-01" cType="1" res="-8.2146906061097980e-04" rms="4.5196121931076050e-01" purity="5.0161439180374146e-01" nType="0">
        <Node pos="l" depth="1" NCoef="0" IVar="11" Cut="6.8381166458129883e-01" cType="1" res="-7.1116439998149872e-02" rms="4.1893032193183899e-01" purity="3.1653296947479248e-01" nType="0">
          <Node pos="l" depth="2" NCoef="0" IVar="-1" Cut="0.0000000000000000e+00" cType="1" res="-4.4899871572852135e-03" rms="3.9160910248756409e-01" purity="2.2038130462169647e-01" nType="-99"/>
          <Node pos="r" depth="2" NCoef="0" IVar="-1" Cut="0.0000000000000000e+00" cType="1" res="-1.7820761422626674e-04" rms="4.5823821425437927e-01" purity="4.9513342976570129e-01" nType="-99"/>
        </Node>
        <Node pos="r" depth="1" NCoef="0" IVar="1" Cut="8.5573738098144531e+01" cType="1" res="1.3170761056244373e-02" rms="4.5696336030960083e-01" purity="5.3845489025115967e-01" nType="0">
          <Node pos="l" depth="2" NCoef="0" IVar="-1" Cut="0.0000000000000000e+00" cType="1" res="-1.9619436934590340e-03" rms="4.7361665964126587e-01" purity="4.4641023874282837e-01" nType="-99"/>
          <Node pos="r" depth="2" NCoef="0" IVar="-1" Cut="0.0000000000000000e+00" cType="1" res="8.8284199591726065e-04" rms="4.5348688960075378e-01" purity="5.5297452211380005e-01" nType="-99"/>
        </Node>
      </Node>
    </BinaryTree>
    <BinaryTree type="DecisionTree" boostWeight="1.0000000000000000e+00" itree="280">
      <Node pos="s" depth="0" NCoef="0" IVar="3" Cut="1.1902488708496094e+02" cType="1" res="-9.3429458502214402e-05" rms="4.5135530829429626e-01" purity="4.9921306967735291e-01" nType="0">
        <Node pos="l" depth="1" NCoef="0" IVar="9" Cut="2.6281201839447021e+00" cType="1" res="-4.7201350331306458e-02" rms="4.5758342742919922e-01" purity="4.3028071522712708e-01" nType="0">
          <Node pos="l" depth="2" NCoef="0" IVar="-1" Cut="0.0000000000000000e+00" cType="1" res="-3.3204993233084679e-03" rms="4.6312111616134644e-01" purity="4.3476316332817078e-01" nType="-99"/>
          <Node pos="r" depth="2" NCoef="0" IVar="-1" Cut="0.0000000000000000e+00" cType="1" res="4.7743774484843016e-04" rms="4.4261193275451660e-01" purity="4.2347645759582520e-01" nType="-99"/>
        </Node>
        <Node pos="r" depth="1" NCoef="0" IVar="3" Cut="1.2838764953613281e+02" cType="1" res="1.7415724694728851e-02" rms="4.4775679707527161e-01" purity="5.2483397722244263e-01" nType="0">
          <Node pos="l" depth="2" NCoef="0" IVar="-1" Cut="0.0000000000000000e+00" cType="1" res="1.8458014819771051e-03" rms="4.5167404413223267e-01" purity="5.7782137393951416e-01" nType="-99"/>
          <Node pos="r" depth="2" NCoef="0" IVar="-1" Cut="0.0000000000000000e+00" cType="1" res="-1.7375774914398789e-03" rms="4.3410718441009521e-01" purity="4.2698389291763306e-01" nType="-99"/>
        </Node>
      </Node>
    </BinaryTree>
    <BinaryTree type="DecisionTree" boostWeight="1.0000000000000000e+00" itree="281">
      <Node pos="s" depth="0" NCoef="0" IVar="10" Cut="4.1789305210113525e-01" cType="1" res="7.0954100228846073e-03" rms="4.5550128817558289e-01" purity="5.0647366046905518e-01" nType="0">
        <Node pos="l" depth="1" NCoef="0" IVar="-1" Cut="0.0000000000000000e+00" cType="1" res="-3.8135363720357418e-03" rms="4.0682223439216614e-01" purity="2.3543830215930939e-01" nType="-99"/>
        <Node pos="r" depth="1" NCoef="0" IVar="5" Cut="9.6180576086044312e-01" cType="1" res="1.5713306143879890e-02" rms="4.5867183804512024e-01" purity="5.3097277879714966e-01" nType="0">
          <Node pos="l" depth="2" NCoef="0" IVar="-1" Cut="0.0000000000000000e+00" cType="1" res="-2.6540851104073226e-04" rms="4.5965668559074402e-01" purity="4.7175729274749756e-01" nType="-99"/>
          <Node pos="r" depth="2" NCoef="0" IVar="-1" Cut="0.0000000000000000e+00" cType="1" res="1.9348275382071733e-03" rms="4.5513126254081726e-01" purity="6.1826890707015991e-01" nType="-99"/>
        </Node>
      </Node>
    </BinaryTree>
    <BinaryTree type="DecisionTree" boostWeight="1.0000000000000000e+00" itree="282">
      <Node pos="s" depth="0" NCoef="0" IVar="7" Cut="6.7666931152343750e+01" cType="1" res="-9.0010231360793114e-05" rms="4.5820829272270203e-01" purity="4.9703994393348694e-01" nType="0">
        <Node pos="l" depth="1" NCoef="0" IVar="9" Cut="3.5466923713684082e+00" cType="1" res="-1.7502373084425926e-02" rms="4.5826873183250427e-01" purity="4.4282108545303345e-01" nType="0">
          <Node pos="l" depth="2" NCoef="0" IVar="-1" Cut="0.0000000000000000e+00" cType="1" res="-9.1054746008012444e-05" rms="4.6533858776092529e-01" purity="4.8038089275360107e-01" nType="-99"/>
          <Node pos="r" depth="2" NCoef="0" IVar="-1" Cut="0.0000000000000000e+00" cType="1" res="-4.3796421959996223e-03" rms="4.0914800763130188e-01" purity="2.4212901294231415e-01" nType="-99"/>
        </Node>
        <Node pos="r" depth="1" NCoef="0" IVar="1" Cut="1.4710229492187500e+02" cType="1" res="4.0872663259506226e-02" rms="4.5544847846031189e-01" purity="6.2458992004394531e-01" nType="0">
          <Node pos="l" depth="2" NCoef="0" IVar="-1" Cut="0.0000000000000000e+00" cType="1" res="3.3262707293033600e-03" rms="4.3353015184402466e-01" purity="7.1644139289855957e-01" nType="-99"/>
          <Node pos="r" depth="2" NCoef="0" IVar="-1" Cut="0.0000000000000000e+00" cType="1" res="-1.5190358681138605e-04" rms="4.7020393610000610e-01" purity="5.4031199216842651e-01" nType="-99"/>
        </Node>
      </Node>
    </BinaryTree>
    <BinaryTree type="DecisionTree" boostWeight="1.0000000000000000e+00" itree="283">
      <Node pos="s" depth="0" NCoef="0" IVar="11" Cut="7.2129523754119873e-01" cType="1" res="-4.2101056315004826e-03" rms="4.5236250758171082e-01" purity="4.8948732018470764e-01" nType="0">
        <Node pos="l" depth="1" NCoef="0" IVar="5" Cut="9.2497032880783081e-01" cType="1" res="-2.6365045458078384e-02" rms="4.5109319686889648e-01" purity="4.1361472010612488e-01" nType="0">
          <Node pos="l" depth="2" NCoef="0" IVar="-1" Cut="0.0000000000000000e+00" cType="1" res="-5.2139167673885822e-03" rms="3.9334595203399658e-01" purity="1.9524735212326050e-01" nType="-99"/>
          <Node pos="r" depth="2" NCoef="0" IVar="-1" Cut="0.0000000000000000e+00" cType="1" res="-4.4869486009702086e-04" rms="4.5668151974678040e-01" purity="4.4433945417404175e-01" nType="-99"/>
        </Node>
        <Node pos="r" depth="1" NCoef="0" IVar="11" Cut="7.5567638874053955e-01" cType="1" res="3.4673195332288742e-02" rms="4.5196360349655151e-01" purity="6.2264859676361084e-01" nType="0">
          <Node pos="l" depth="2" NCoef="0" IVar="-1" Cut="0.0000000000000000e+00" cType="1" res="5.4675894789397717e-03" rms="4.1932499408721924e-01" purity="7.0707482099533081e-01" nType="-99"/>
          <Node pos="r" depth="2" NCoef="0" IVar="-1" Cut="0.0000000000000000e+00" cType="1" res="4.0201615775004029e-04" rms="4.5466655492782593e-01" purity="6.0526788234710693e-01" nType="-99"/>
        </Node>
      </Node>
    </BinaryTree>
    <BinaryTree type="DecisionTree" boostWeight="1.0000000000000000e+00" itree="284">
      <Node pos="s" depth="0" NCoef="0" IVar="1" Cut="2.0177217102050781e+02" cType="1" res="1.8662255024537444e-03" rms="4.4954946637153625e-01" purity="4.9708354473114014e-01" nType="0">
        <Node pos="l" depth="1" NCoef="0" IVar="10" Cut="4.1702044010162354e-01" cType="1" res="1.2327183969318867e-02" rms="4.5051848888397217e-01" purity="5.1404243707656860e-01" nType="0">
          <Node pos="l" depth="2" NCoef="0" IVar="-1" Cut="0.0000000000000000e+00" cType="1" res="-3.8718585856258869e-03" rms="3.8558995723724365e-01" purity="2.4771369993686676e-01" nType="-99"/>
          <Node pos="r" depth="2" NCoef="0" IVar="-1" Cut="0.0000000000000000e+00" cType="1" res="7.9768389696255326e-04" rms="4.5431187748908997e-01" purity="5.3581005334854126e-01" nType="-99"/>
        </Node>
        <Node pos="r" depth="1" NCoef="0" IVar="-1" Cut="0.0000000000000000e+00" cType="1" res="-4.6298354864120483e-03" rms="4.2396533489227295e-01" purity="3.1913739442825317e-01" nType="-99"/>
      </Node>
    </BinaryTree>
    <BinaryTree type="DecisionTree" boostWeight="1.0000000000000000e+00" itree="285">
      <Node pos="s" depth="0" NCoef="0" IVar="5" Cut="9.1838979721069336e-01" cType="1" res="1.2174562551081181e-02" rms="4.4824704527854919e-01" purity="5.1173937320709229e-01" nType="0">
        <Node pos="l" depth="1" NCoef="0" IVar="-1" Cut="0.0000000000000000e+00" cType="1" res="-3.8111810572445393e-03" rms="4.1664114594459534e-01" purity="2.6975795626640320e-01" nType="-99"/>
        <Node pos="r" depth="1" NCoef="0" IVar="2" Cut="3.3867056369781494e+00" cType="1" res="1.9643211737275124e-02" rms="4.4934999942779541e-01" purity="5.2823877334594727e-01" nType="0">
          <Node pos="l" depth="2" NCoef="0" IVar="-1" Cut="0.0000000000000000e+00" cType="1" res="1.0247096652165055e-03" rms="4.5430344343185425e-01" purity="5.5233263969421387e-01" nType="-99"/>
          <Node pos="r" depth="2" NCoef="0" IVar="-1" Cut="0.0000000000000000e+00" cType="1" res="-4.3387520126998425e-03" rms="3.4815144538879395e-01" purity="1.6309031844139099e-01" nType="-99"/>
        </Node>
      </Node>
    </BinaryTree>
    <BinaryTree type="DecisionTree" boostWeight="1.0000000000000000e+00" itree="286">
      <Node pos="s" depth="0" NCoef="0" IVar="1" Cut="1.6283410644531250e+02" cType="1" res="1.6306597739458084e-02" rms="4.5646375417709351e-01" purity="5.2067947387695312e-01" nType="0">
        <Node pos="l" depth="1" NCoef="0" IVar="0" Cut="2.8004745483398438e+01" cType="1" res="2.8816608712077141e-02" rms="4.5837754011154175e-01" purity="5.3859061002731323e-01" nType="0">
          <Node pos="l" depth="2" NCoef="0" IVar="-1" Cut="0.0000000000000000e+00" cType="1" res="-4.4447765685617924e-03" rms="3.8306459784507751e-01" purity="1.9007004797458649e-01" nType="-99"/>
          <Node pos="r" depth="2" NCoef="0" IVar="-1" Cut="0.0000000000000000e+00" cType="1" res="1.4342226786538959e-03" rms="4.6296384930610657e-01" purity="5.6853073835372925e-01" nType="-99"/>
        </Node>
        <Node pos="r" depth="1" NCoef="0" IVar="7" Cut="9.3694007873535156e+01" cType="1" res="-3.5294339060783386e-02" rms="4.4477999210357666e-01" purity="4.4680002331733704e-01" nType="0">
          <Node pos="l" depth="2" NCoef="0" IVar="-1" Cut="0.0000000000000000e+00" cType="1" res="-3.2427248079329729e-03" rms="4.3522602319717407e-01" purity="3.5053455829620361e-01" nType="-99"/>
          <Node pos="r" depth="2" NCoef="0" IVar="-1" Cut="0.0000000000000000e+00" cType="1" res="1.1545836459845304e-03" rms="4.5173916220664978e-01" purity="5.9759938716888428e-01" nType="-99"/>
        </Node>
      </Node>
    </BinaryTree>
    <BinaryTree type="DecisionTree" boostWeight="1.0000000000000000e+00" itree="287">
      <Node pos="s" depth="0" NCoef="0" IVar="3" Cut="1.0551641082763672e+02" cType="1" res="1.2706601992249489e-03" rms="4.5125725865364075e-01" purity="5.0087606906890869e-01" nType="0">
        <Node pos="l" depth="1" NCoef="0" IVar="-1" Cut="0.0000000000000000e+00" cType="1" res="-5.4983394220471382e-03" rms="4.0170624852180481e-01" purity="2.8391581773757935e-01" nType="-99"/>
        <Node pos="r" depth="1" NCoef="0" IVar="11" Cut="4.4583433866500854e-01" cType="1" res="1.0509820654988289e-02" rms="4.5305827260017395e-01" purity="5.1597231626510620e-01" nType="0">
          <Node pos="l" depth="2" NCoef="0" IVar="-1" Cut="0.0000000000000000e+00" cType="1" res="-3.6066810134798288e-03" rms="3.8259577751159668e-01" purity="2.3448395729064941e-01" nType="-99"/>
          <Node pos="r" depth="2" NCoef="0" IVar="-1" Cut="0.0000000000000000e+00" cType="1" res="8.3185406401753426e-04" rms="4.6065574884414673e-01" purity="5.5464684963226318e-01" nType="-99"/>
        </Node>
      </Node>
    </BinaryTree>
    <BinaryTree type="DecisionTree" boostWeight="1.0000000000000000e+00" itree="288">
      <Node pos="s" depth="0" NCoef="0" IVar="0" Cut="6.1423625946044922e+01" cType="1" res="-1.1214162223041058e-03" rms="4.5508751273155212e-01" purity="4.9801421165466309e-01" nType="0">
        <Node pos="l" depth="1" NCoef="0" IVar="5" Cut="9.2339628934860229e-01" cType="1" res="-2.7656070888042450e-02" rms="4.5202365517616272e-01" purity="3.9501649141311646e-01" nType="0">
          <Node pos="l" depth="2" NCoef="0" IVar="-1" Cut="0.0000000000000000e+00" cType="1" res="-6.5499735064804554e-03" rms="3.1462904810905457e-01" purity="1.4103394746780396e-01" nType="-99"/>
          <Node pos="r" depth="2" NCoef="0" IVar="-1" Cut="0.0000000000000000e+00" cType="1" res="-5.4164126049727201e-04" rms="4.6405684947967529e-01" purity="4.2603018879890442e-01" nType="-99"/>
        </Node>
        <Node pos="r" depth="1" NCoef="0" IVar="3" Cut="1.3421696472167969e+02" cType="1" res="2.3601539433002472e-02" rms="4.5653796195983887e-01" purity="5.9397959709167480e-01" nType="0">
          <Node pos="l" depth="2" NCoef="0" IVar="-1" Cut="0.0000000000000000e+00" cType="1" res="1.2377795064821839e-03" rms="4.5668208599090576e-01" purity="6.1909538507461548e-01" nType="-99"/>
          <Node pos="r" depth="2" NCoef="0" IVar="-1" Cut="0.0000000000000000e+00" cType="1" res="-2.6589194312691689e-03" rms="4.4613298773765564e-01" purity="3.7333846092224121e-01" nType="-99"/>
        </Node>
      </Node>
    </BinaryTree>
    <BinaryTree type="DecisionTree" boostWeight="1.0000000000000000e+00" itree="289">
      <Node pos="s" depth="0" NCoef="0" IVar="9" Cut="1.8234001398086548e+00" cType="1" res="1.1766185052692890e-02" rms="4.5429357886314392e-01" purity="5.1002305746078491e-01" nType="0">
        <Node pos="l" depth="1" NCoef="0" IVar="3" Cut="1.1464686584472656e+02" cType="1" res="6.7179910838603973e-02" rms="4.4103685021400452e-01" purity="6.8037843704223633e-01" nType="0">
          <Node pos="l" depth="2" NCoef="0" IVar="-1" Cut="0.0000000000000000e+00" cType="1" res="-7.6076836558058858e-04" rms="4.7716721892356873e-01" purity="5.4644191265106201e-01" nType="-99"/>
          <Node pos="r" depth="2" NCoef="0" IVar="-1" Cut="0.0000000000000000e+00" cType="1" res="3.5124253481626511e-03" rms="4.2521703243255615e-01" purity="7.2296106815338135e-01" nType="-99"/>
        </Node>
        <Node pos="r" depth="1" NCoef="0" IVar="0" Cut="8.6701881408691406e+01" cType="1" res="-6.9233891554176807e-03" rms="4.5716610550880432e-01" purity="4.5256665349006653e-01" nType="0">
          <Node pos="l" depth="2" NCoef="0" IVar="-1" Cut="0.0000000000000000e+00" cType="1" res="-1.2895357795059681e-03" rms="4.5551910996437073e-01" purity="3.8319644331932068e-01" nType="-99"/>
          <Node pos="r" depth="2" NCoef="0" IVar="-1" Cut="0.0000000000000000e+00" cType="1" res="1.5247866977006197e-03" rms="4.5652109384536743e-01" purity="5.9321761131286621e-01" nType="-99"/>
        </Node>
      </Node>
    </BinaryTree>
    <BinaryTree type="DecisionTree" boostWeight="1.0000000000000000e+00" itree="290">
      <Node pos="s" depth="0" NCoef="0" IVar="1" Cut="7.5714035034179688e+01" cType="1" res="1.3462002971209586e-04" rms="4.5752167701721191e-01" purity="4.9748966097831726e-01" nType="0">
        <Node pos="l" depth="1" NCoef="0" IVar="-1" Cut="0.0000000000000000e+00" cType="1" res="-3.9658453315496445e-03" rms="4.5026436448097229e-01" purity="3.4303927421569824e-01" nType="-99"/>
        <Node pos="r" depth="1" NCoef="0" IVar="0" Cut="1.3472377014160156e+02" cType="1" res="6.8967025727033615e-03" rms="4.5734328031539917e-01" purity="5.0905340909957886e-01" nType="0">
          <Node pos="l" depth="2" NCoef="0" IVar="-1" Cut="0.0000000000000000e+00" cType="1" res="5.8175792219117284e-04" rms="4.5596322417259216e-01" purity="5.1821506023406982e-01" nType="-99"/>
          <Node pos="r" depth="2" NCoef="0" IVar="-1" Cut="0.0000000000000000e+00" cType="1" res="-3.3992950338870287e-03" rms="4.6266555786132812e-01" purity="4.0771958231925964e-01" nType="-99"/>
        </Node>
      </Node>
    </BinaryTree>
    <BinaryTree type="DecisionTree" boostWeight="1.0000000000000000e+00" itree="291">
      <Node pos="s" depth="0" NCoef="0" IVar="5" Cut="9.1801422834396362e-01" cType="1" res="1.4215148054063320e-02" rms="4.5044055581092834e-01" purity="5.1657915115356445e-01" nType="0">
        <Node pos="l" depth="1" NCoef="0" IVar="-1" Cut="0.0000000000000000e+00" cType="1" res="-3.6011526826769114e-03" rms="3.9379855990409851e-01" purity="2.5483754277229309e-01" nType="-99"/>
        <Node pos="r" depth="1" NCoef="0" IVar="11" Cut="4.4793799519538879e-01" cType="1" res="2.1549297496676445e-02" rms="4.5352113246917725e-01" purity="5.3606963157653809e-01" nType="0">
          <Node pos="l" depth="2" NCoef="0" IVar="-1" Cut="0.0000000000000000e+00" cType="1" res="-2.4491983931511641e-03" rms="4.0506142377853394e-01" purity="2.8281986713409424e-01" nType="-99"/>
          <Node pos="r" depth="2" NCoef="0" IVar="-1" Cut="0.0000000000000000e+00" cType="1" res="1.1861427919939160e-03" rms="4.5890003442764282e-01" purity="5.7116144895553589e-01" nType="-99"/>
        </Node>
      </Node>
    </BinaryTree>
    <BinaryTree type="DecisionTree" boostWeight="1.0000000000000000e+00" itree="292">
      <Node pos="s" depth="0" NCoef="0" IVar="2" Cut="2.0301277637481689e+00" cType="1" res="-4.7695743851363659e-03" rms="4.5138680934906006e-01" purity="4.8977866768836975e-01" nType="0">
        <Node pos="l" depth="1" NCoef="0" IVar="3" Cut="1.1938015747070312e+02" cType="1" res="2.1836958825588226e-02" rms="4.5725217461585999e-01" purity="6.0368525981903076e-01" nType="0">
          <Node pos="l" depth="2" NCoef="0" IVar="-1" Cut="0.0000000000000000e+00" cType="1" res="-1.8779453821480274e-03" rms="4.6967396140098572e-01" purity="5.1320821046829224e-01" nType="-99"/>
          <Node pos="r" depth="2" NCoef="0" IVar="-1" Cut="0.0000000000000000e+00" cType="1" res="1.8649767152965069e-03" rms="4.4879096746444702e-01" purity="6.4006614685058594e-01" nType="-99"/>
        </Node>
        <Node pos="r" depth="1" NCoef="0" IVar="4" Cut="4.5134387207031250e+02" cType="1" res="-3.8582779467105865e-02" rms="4.4151332974433899e-01" purity="3.4501928091049194e-01" nType="0">
          <Node pos="l" depth="2" NCoef="0" IVar="-1" Cut="0.0000000000000000e+00" cType="1" res="-2.1343838889151812e-03" rms="4.3709191679954529e-01" purity="3.3291149139404297e-01" nType="-99"/>
          <Node pos="r" depth="2" NCoef="0" IVar="-1" Cut="0.0000000000000000e+00" cType="1" res="1.4502222184091806e-03" rms="4.5955491065979004e-01" purity="4.1513583064079285e-01" nType="-99"/>
        </Node>
      </Node>
    </BinaryTree>
    <BinaryTree type="DecisionTree" boostWeight="1.0000000000000000e+00" itree="293">
      <Node pos="s" depth="0" NCoef="0" IVar="7" Cut="1.1101226806640625e+02" cType="1" res="2.7117552235722542e-03" rms="4.5379230380058289e-01" purity="5.0379019975662231e-01" nType="0">
        <Node pos="l" depth="1" NCoef="0" IVar="1" Cut="1.5669488525390625e+02" cType="1" res="-5.4885218851268291e-03" rms="4.5395448803901672e-01" purity="4.8417234420776367e-01" nType="0">
          <Node pos="l" depth="2" NCoef="0" IVar="-1" Cut="0.0000000000000000e+00" cType="1" res="4.5029466855339706e-04" rms="4.5555883646011353e-01" purity="5.1298701763153076e-01" nType="-99"/>
          <Node pos="r" depth="2" NCoef="0" IVar="-1" Cut="0.0000000000000000e+00" cType="1" res="-3.4954582806676626e-03" rms="4.3841901421546936e-01" purity="3.5458683967590332e-01" nType="-99"/>
        </Node>
        <Node pos="r" depth="1" NCoef="0" IVar="-1" Cut="0.0000000000000000e+00" cType="1" res="2.8488207608461380e-03" rms="4.4565916061401367e-01" purity="6.7950099706649780e-01" nType="-99"/>
      </Node>
    </BinaryTree>
    <BinaryTree type="DecisionTree" boostWeight="1.0000000000000000e+00" itree="294">
      <Node pos="s" depth="0" NCoef="0" IVar="7" Cut="9.6814758300781250e+01" cType="1" res="7.0272302255034447e-03" rms="4.5162847638130188e-01" purity="5.0425827503204346e-01" nType="0">
        <Node pos="l" depth="1" NCoef="0" IVar="8" Cut="3.9693347167968750e+02" cType="1" res="-4.6502957120537758e-03" rms="4.5330467820167542e-01" purity="4.7576546669006348e-01" nType="0">
          <Node pos="l" depth="2" NCoef="0" IVar="-1" Cut="0.0000000000000000e+00" cType="1" res="1.8538374570198357e-04" rms="4.5742806792259216e-01" purity="5.0580376386642456e-01" nType="-99"/>
          <Node pos="r" depth="2" NCoef="0" IVar="-1" Cut="0.0000000000000000e+00" cType="1" res="-2.8152717277407646e-03" rms="4.2295312881469727e-01" purity="2.9385289549827576e-01" nType="-99"/>
        </Node>
        <Node pos="r" depth="1" NCoef="0" IVar="5" Cut="9.5530605316162109e-01" cType="1" res="8.3330102264881134e-02" rms="4.3283215165138245e-01" purity="6.9043481349945068e-01" nType="0">
          <Node pos="l" depth="2" NCoef="0" IVar="-1" Cut="0.0000000000000000e+00" cType="1" res="5.3837029263377190e-03" rms="4.4998231530189514e-01" purity="6.9302964210510254e-01" nType="-99"/>
          <Node pos="r" depth="2" NCoef="0" IVar="-1" Cut="0.0000000000000000e+00" cType="1" res="1.1921370169147849e-03" rms="4.1085162758827209e-01" purity="6.8836933374404907e-01" nType="-99"/>
        </Node>
      </Node>
    </BinaryTree>
    <BinaryTree type="DecisionTree" boostWeight="1.0000000000000000e+00" itree="295">
      <Node pos="s" depth="0" NCoef="0" IVar="10" Cut="4.1854706406593323e-01" cType="1" res="6.5238047391176224e-03" rms="4.5739582180976868e-01" purity="5.0674617290496826e-01" nType="0">
        <Node pos="l" depth="1" NCoef="0" IVar="-1" Cut="0.0000000000000000e+00" cType="1" res="-3.1753461807966232e-03" rms="4.1676831245422363e-01" purity="2.6634386181831360e-01" nType="-99"/>
        <Node pos="r" depth="1" NCoef="0" IVar="0" Cut="3.8193191528320312e+01" cType="1" res="1.5097694471478462e-02" rms="4.6067395806312561e-01" purity="5.3229737281799316e-01" nType="0">
          <Node pos="l" depth="2" NCoef="0" IVar="-1" Cut="0.0000000000000000e+00" cType="1" res="-1.6900429036468267e-03" rms="4.3669238686561584e-01" purity="3.1252938508987427e-01" nType="-99"/>
          <Node pos="r" depth="2" NCoef="0" IVar="-1" Cut="0.0000000000000000e+00" cType="1" res="9.8994735162705183e-04" rms="4.6481782197952271e-01" purity="5.7915520668029785e-01" nType="-99"/>
        </Node>
      </Node>
    </BinaryTree>
    <BinaryTree type="DecisionTree" boostWeight="1.0000000000000000e+00" itree="296">
      <Node pos="s" depth="0" NCoef="0" IVar="3" Cut="1.1673335266113281e+02" cType="1" res="8.2587804645299911e-03" rms="4.5218917727470398e-01" purity="5.1176899671554565e-01" nType="0">
        <Node pos="l" depth="1" NCoef="0" IVar="4" Cut="3.1156838989257812e+02" cType="1" res="-4.9597259610891342e-02" rms="4.6195551753044128e-01" purity="4.2995193600654602e-01" nType="0">
          <Node pos="l" depth="2" NCoef="0" IVar="-1" Cut="0.0000000000000000e+00" cType="1" res="-9.9747005151584744e-05" rms="4.5668247342109680e-01" purity="4.4942733645439148e-01" nType="-99"/>
          <Node pos="r" depth="2" NCoef="0" IVar="-1" Cut="0.0000000000000000e+00" cType="1" res="-4.3965834192931652e-03" rms="4.6167933940887451e-01" purity="4.0522122383117676e-01" nType="-99"/>
        </Node>
        <Node pos="r" depth="1" NCoef="0" IVar="5" Cut="9.7687578201293945e-01" cType="1" res="2.1810432896018028e-02" rms="4.4879415631294250e-01" purity="5.3093302249908447e-01" nType="0">
          <Node pos="l" depth="2" NCoef="0" IVar="-1" Cut="0.0000000000000000e+00" cType="1" res="2.9913618345744908e-04" rms="4.5219323039054871e-01" purity="5.0021278858184814e-01" nType="-99"/>
          <Node pos="r" depth="2" NCoef="0" IVar="-1" Cut="0.0000000000000000e+00" cType="1" res="3.4652350004762411e-03" rms="4.2505112290382385e-01" purity="6.8173718452453613e-01" nType="-99"/>
        </Node>
      </Node>
    </BinaryTree>
    <BinaryTree type="DecisionTree" boostWeight="1.0000000000000000e+00" itree="297">
      <Node pos="s" depth="0" NCoef="0" IVar="0" Cut="1.4017739868164062e+02" cType="1" res="1.1951216729357839e-03" rms="4.5885184407234192e-01" purity="4.9665874242782593e-01" nType="0">
        <Node pos="l" depth="1" NCoef="0" IVar="6" Cut="2.3712835311889648e+01" cType="1" res="8.9785987511277199e-03" rms="4.5980563759803772e-01" purity="5.0667846202850342e-01" nType="0">
          <Node pos="l" depth="2" NCoef="0" IVar="-1" Cut="0.0000000000000000e+00" cType="1" res="-4.8087346367537975e-03" rms="3.8653546571731567e-01" purity="2.4869629740715027e-01" nType="-99"/>
          <Node pos="r" depth="2" NCoef="0" IVar="-1" Cut="0.0000000000000000e+00" cType="1" res="6.0845754342153668e-04" rms="4.6306467056274414e-01" purity="5.2258455753326416e-01" nType="-99"/>
        </Node>
        <Node pos="r" depth="1" NCoef="0" IVar="-1" Cut="0.0000000000000000e+00" cType="1" res="-4.2959777638316154e-03" rms="4.3113371729850769e-01" purity="3.5760506987571716e-01" nType="-99"/>
      </Node>
    </BinaryTree>
    <BinaryTree type="DecisionTree" boostWeight="1.0000000000000000e+00" itree="298">
      <Node pos="s" depth="0" NCoef="0" IVar="9" Cut="1.3274067640304565e+00" cType="1" res="-4.4102044776082039e-03" rms="4.5531082153320312e-01" purity="4.9587416648864746e-01" nType="0">
        <Node pos="l" depth="1" NCoef="0" IVar="-1" Cut="0.0000000000000000e+00" cType="1" res="2.8551674913614988e-03" rms="4.4351068139076233e-01" purity="7.1321755647659302e-01" nType="-99"/>
        <Node pos="r" depth="1" NCoef="0" IVar="8" Cut="2.7232348632812500e+02" cType="1" res="-1.3748582452535629e-02" rms="4.5581954717636108e-01" purity="4.6973159909248352e-01" nType="0">
          <Node pos="l" depth="2" NCoef="0" IVar="-1" Cut="0.0000000000000000e+00" cType="1" res="1.8122687470167875e-04" rms="4.5521435141563416e-01" purity="5.1692819595336914e-01" nType="-99"/>
          <Node pos="r" depth="2" NCoef="0" IVar="-1" Cut="0.0000000000000000e+00" cType="1" res="-1.7667774809524417e-03" rms="4.5523399114608765e-01" purity="3.9454972743988037e-01" nType="-99"/>
        </Node>
      </Node>
    </BinaryTree>
    <BinaryTree type="DecisionTree" boostWeight="1.0000000000000000e+00" itree="299">
      <Node pos="s" depth="0" NCoef="0" IVar="2" Cut="1.4960935115814209e+00" cType="1" res="1.6898484900593758e-02" rms="4.4930720329284668e-01" purity="5.2154028415679932e-01" nType="0">
        <Node pos="l" depth="1" NCoef="0" IVar="10" Cut="5.6774961948394775e-01" cType="1" res="6.5729029476642609e-02" rms="4.3671065568923950e-01" purity="6.7262291908264160e-01" nType="0">
          <Node pos="l" depth="2" NCoef="0" IVar="-1" Cut="0.0000000000000000e+00" cType="1" res="4.5398455113172531e-03" rms="4.3150269985198975e-01" purity="6.8057638406753540e-01" nType="-99"/>
          <Node pos="r" depth="2" NCoef="0" IVar="-1" Cut="0.0000000000000000e+00" cType="1" res="1.5433849766850471e-03" rms="4.3599650263786316e-01" purity="6.6964405775070190e-01" nType="-99"/>
        </Node>
        <Node pos="r" depth="1" NCoef="0" IVar="3" Cut="1.1851907348632812e+02" cType="1" res="-7.6878503896296024e-03" rms="4.5353209972381592e-01" purity="4.4546970725059509e-01" nType="0">
          <Node pos="l" depth="2" NCoef="0" IVar="-1" Cut="0.0000000000000000e+00" cType="1" res="-3.0261294450610876e-03" rms="4.4494315981864929e-01" purity="3.7141859531402588e-01" nType="-99"/>
          <Node pos="r" depth="2" NCoef="0" IVar="-1" Cut="0.0000000000000000e+00" cType="1" res="5.3173268679529428e-04" rms="4.5421215891838074e-01" purity="4.6949994564056396e-01" nType="-99"/>
        </Node>
      </Node>
    </BinaryTree>
    <BinaryTree type="DecisionTree" boostWeight="1.0000000000000000e+00" itree="300">
      <Node pos="s" depth="0" NCoef="0" IVar="1" Cut="1.7434855651855469e+02" cType="1" res="-4.5912321656942368e-03" rms="4.5227286219596863e-01" purity="4.9356395006179810e-01" nType="0">
        <Node pos="l" depth="1" NCoef="0" IVar="0" Cut="2.9856439590454102e+01" cType="1" res="8.3160474896430969e-03" rms="4.5209768414497375e-01" purity="5.1398831605911255e-01" nType="0">
          <Node pos="l" depth="2" NCoef="0" IVar="-1" Cut="0.0000000000000000e+00" cType="1" res="-4.4380412437021732e-03" rms="3.8125002384185791e-01" purity="1.8647110462188721e-01" nType="-99"/>
          <Node pos="r" depth="2" NCoef="0" IVar="-1" Cut="0.0000000000000000e+00" cType="1" res="7.1744556771591306e-04" rms="4.5810726284980774e-01" purity="5.5072224140167236e-01" nType="-99"/>
        </Node>
        <Node pos="r" depth="1" NCoef="0" IVar="7" Cut="6.6826507568359375e+01" cType="1" res="-7.0759244263172150e-02" rms="4.4735971093177795e-01" purity="3.8886004686355591e-01" nType="0">
          <Node pos="l" depth="2" NCoef="0" IVar="-1" Cut="0.0000000000000000e+00" cType="1" res="-6.8748425692319870e-03" rms="3.9184999465942383e-01" purity="2.2320242226123810e-01" nType="-99"/>
          <Node pos="r" depth="2" NCoef="0" IVar="-1" Cut="0.0000000000000000e+00" cType="1" res="-7.3087238706648350e-04" rms="4.7026085853576660e-01" purity="4.8881909251213074e-01" nType="-99"/>
        </Node>
      </Node>
    </BinaryTree>
    <BinaryTree type="DecisionTree" boostWeight="1.0000000000000000e+00" itree="301">
      <Node pos="s" depth="0" NCoef="0" IVar="3" Cut="1.3934959411621094e+02" cType="1" res="1.9582828972488642e-03" rms="4.5713418722152710e-01" purity="5.0405144691467285e-01" nType="0">
        <Node pos="l" depth="1" NCoef="0" IVar="8" Cut="1.9584188842773438e+02" cType="1" res="8.9313024654984474e-03" rms="4.5953020453453064e-01" purity="5.1978480815887451e-01" nType="0">
          <Node pos="l" depth="2" NCoef="0" IVar="-1" Cut="0.0000000000000000e+00" cType="1" res="1.4090401818975806e-03" rms="4.5988935232162476e-01" purity="5.6842011213302612e-01" nType="-99"/>
          <Node pos="r" depth="2" NCoef="0" IVar="-1" Cut="0.0000000000000000e+00" cType="1" res="-3.1142219086177647e-04" rms="4.5847678184509277e-01" purity="4.9086433649063110e-01" nType="-99"/>
        </Node>
        <Node pos="r" depth="1" NCoef="0" IVar="-1" Cut="0.0000000000000000e+00" cType="1" res="-5.2703102119266987e-03" rms="4.0056174993515015e-01" purity="2.5167658925056458e-01" nType="-99"/>
      </Node>
    </BinaryTree>
    <BinaryTree type="DecisionTree" boostWeight="1.0000000000000000e+00" itree="302">
      <Node pos="s" depth="0" NCoef="0" IVar="1" Cut="8.7461036682128906e+01" cType="1" res="-1.2923972681164742e-03" rms="4.5866361260414124e-01" purity="4.9856829643249512e-01" nType="0">
        <Node pos="l" depth="1" NCoef="0" IVar="6" Cut="4.4702568054199219e+01" cType="1" res="-5.3520590066909790e-02" rms="4.8218682408332825e-01" purity="4.1547092795372009e-01" nType="0">
          <Node pos="l" depth="2" NCoef="0" IVar="-1" Cut="0.0000000000000000e+00" cType="1" res="-2.1532870596274734e-04" rms="4.7532385587692261e-01" purity="4.2593756318092346e-01" nType="-99"/>
          <Node pos="r" depth="2" NCoef="0" IVar="-1" Cut="0.0000000000000000e+00" cType="1" res="-6.2570315785706043e-03" rms="4.7891891002655029e-01" purity="3.9062082767486572e-01" nType="-99"/>
        </Node>
        <Node pos="r" depth="1" NCoef="0" IVar="8" Cut="4.3975131225585938e+02" cType="1" res="9.4996495172381401e-03" rms="4.5290070772171021e-01" purity="5.1573884487152100e-01" nType="0">
          <Node pos="l" depth="2" NCoef="0" IVar="-1" Cut="0.0000000000000000e+00" cType="1" res="8.5255893645808101e-04" rms="4.5123952627182007e-01" purity="5.4942029714584351e-01" nType="-99"/>
          <Node pos="r" depth="2" NCoef="0" IVar="-1" Cut="0.0000000000000000e+00" cType="1" res="-2.6857410557568073e-03" rms="4.5551133155822754e-01" purity="3.2435190677642822e-01" nType="-99"/>
        </Node>
      </Node>
    </BinaryTree>
    <BinaryTree type="DecisionTree" boostWeight="1.0000000000000000e+00" itree="303">
      <Node pos="s" depth="0" NCoef="0" IVar="0" Cut="1.3472377014160156e+02" cType="1" res="-1.4815507456660271e-02" rms="4.5548769831657410e-01" purity="4.8264056444168091e-01" nType="0">
        <Node pos="l" depth="1" NCoef="0" IVar="0" Cut="9.5742889404296875e+01" cType="1" res="-7.3051704093813896e-03" rms="4.5614290237426758e-01" purity="4.9165722727775574e-01" nType="0">
          <Node pos="l" depth="2" NCoef="0" IVar="-1" Cut="0.0000000000000000e+00" cType="1" res="-1.1200334411114454e-03" rms="4.5525246858596802e-01" purity="4.4628012180328369e-01" nType="-99"/>
          <Node pos="r" depth="2" NCoef="0" IVar="-1" Cut="0.0000000000000000e+00" cType="1" res="2.8008855879306793e-03" rms="4.4971081614494324e-01" purity="6.7624849081039429e-01" nType="-99"/>
        </Node>
        <Node pos="r" depth="1" NCoef="0" IVar="-1" Cut="0.0000000000000000e+00" cType="1" res="-4.2587211355566978e-03" rms="4.3664687871932983e-01" purity="3.7070348858833313e-01" nType="-99"/>
      </Node>
    </BinaryTree>
    <BinaryTree type="DecisionTree" boostWeight="1.0000000000000000e+00" itree="304">
      <Node pos="s" depth="0" NCoef="0" IVar="3" Cut="1.0774350738525391e+02" cType="1" res="7.6962281018495560e-03" rms="4.5809563994407654e-01" purity="5.0351303815841675e-01" nType="0">
        <Node pos="l" depth="1" NCoef="0" IVar="-1" Cut="0.0000000000000000e+00" cType="1" res="-4.1088061407208443e-03" rms="4.4963696599006653e-01" purity="3.4236222505569458e-01" nType="-99"/>
        <Node pos="r" depth="1" NCoef="0" IVar="4" Cut="1.7627839660644531e+02" cType="1" res="1.5990136191248894e-02" rms="4.5769724249839783e-01" purity="5.1597237586975098e-01" nType="0">
          <Node pos="l" depth="2" NCoef="0" IVar="-1" Cut="0.0000000000000000e+00" cType="1" res="-4.0075760334730148e-03" rms="3.9523679018020630e-01" purity="2.0883624255657196e-01" nType="-99"/>
          <Node pos="r" depth="2" NCoef="0" IVar="-1" Cut="0.0000000000000000e+00" cType="1" res="8.5319339996203780e-04" rms="4.6019944548606873e-01" purity="5.3355538845062256e-01" nType="-99"/>
        </Node>
      </Node>
    </BinaryTree>
    <BinaryTree type="DecisionTree" boostWeight="1.0000000000000000e+00" itree="305">
      <Node pos="s" depth="0" NCoef="0" IVar="4" Cut="1.7173806762695312e+02" cType="1" res="-1.8619740381836891e-02" rms="4.5355695486068726e-01" purity="4.7818267345428467e-01" nType="0">
        <Node pos="l" depth="1" NCoef="0" IVar="-1" Cut="0.0000000000000000e+00" cType="1" res="-6.6599119454622269e-03" rms="3.5992759466171265e-01" purity="1.6110077500343323e-01" nType="-99"/>
        <Node pos="r" depth="1" NCoef="0" IVar="8" Cut="1.5451837158203125e+02" cType="1" res="-1.2172909453511238e-02" rms="4.5748054981231689e-01" purity="4.9626982212066650e-01" nType="0">
          <Node pos="l" depth="2" NCoef="0" IVar="-1" Cut="0.0000000000000000e+00" cType="1" res="2.0951584447175264e-03" rms="4.5522704720497131e-01" purity="6.0144603252410889e-01" nType="-99"/>
          <Node pos="r" depth="2" NCoef="0" IVar="-1" Cut="0.0000000000000000e+00" cType="1" res="-1.0556019842624664e-03" rms="4.5656028389930725e-01" purity="4.7356030344963074e-01" nType="-99"/>
        </Node>
      </Node>
    </BinaryTree>
    <BinaryTree type="DecisionTree" boostWeight="1.0000000000000000e+00" itree="306">
      <Node pos="s" depth="0" NCoef="0" IVar="8" Cut="3.1788833618164062e+02" cType="1" res="8.0642728134989738e-03" rms="4.5648661255836487e-01" purity="5.0306540727615356e-01" nType="0">
        <Node pos="l" depth="1" NCoef="0" IVar="4" Cut="1.7007197570800781e+02" cType="1" res="2.5600714609026909e-02" rms="4.5592594146728516e-01" purity="5.4666155576705933e-01" nType="0">
          <Node pos="l" depth="2" NCoef="0" IVar="-1" Cut="0.0000000000000000e+00" cType="1" res="-4.3362067081034184e-03" rms="3.9757159352302551e-01" purity="2.0624019205570221e-01" nType="-99"/>
          <Node pos="r" depth="2" NCoef="0" IVar="-1" Cut="0.0000000000000000e+00" cType="1" res="1.2801968259736896e-03" rms="4.5903593301773071e-01" purity="5.7299596071243286e-01" nType="-99"/>
        </Node>
        <Node pos="r" depth="1" NCoef="0" IVar="9" Cut="2.6541657447814941e+00" cType="1" res="-3.9300099015235901e-02" rms="4.5462927222251892e-01" purity="3.8531613349914551e-01" nType="0">
          <Node pos="l" depth="2" NCoef="0" IVar="-1" Cut="0.0000000000000000e+00" cType="1" res="-3.9543556049466133e-03" rms="4.5752251148223877e-01" purity="4.3698036670684814e-01" nType="-99"/>
          <Node pos="r" depth="2" NCoef="0" IVar="-1" Cut="0.0000000000000000e+00" cType="1" res="1.9678159151226282e-04" rms="4.4735044240951538e-01" purity="3.5066750645637512e-01" nType="-99"/>
        </Node>
      </Node>
    </BinaryTree>
    <BinaryTree type="DecisionTree" boostWeight="1.0000000000000000e+00" itree="307">
      <Node pos="s" depth="0" NCoef="0" IVar="3" Cut="1.3329772949218750e+02" cType="1" res="8.7996711954474449e-03" rms="4.5328179001808167e-01" purity="5.0197768211364746e-01" nType="0">
        <Node pos="l" depth="1" NCoef="0" IVar="8" Cut="4.2426333618164062e+02" cType="1" res="1.9280215725302696e-02" rms="4.5712259411811829e-01" purity="5.2634930610656738e-01" nType="0">
          <Node pos="l" depth="2" NCoef="0" IVar="-1" Cut="0.0000000000000000e+00" cType="1" res="1.0470338165760040e-03" rms="4.5792326331138611e-01" purity="5.5124467611312866e-01" nType="-99"/>
          <Node pos="r" depth="2" NCoef="0" IVar="-1" Cut="0.0000000000000000e+00" cType="1" res="-1.6210859175771475e-03" rms="4.4720742106437683e-01" purity="3.5413527488708496e-01" nType="-99"/>
        </Node>
        <Node pos="r" depth="1" NCoef="0" IVar="3" Cut="1.4170135498046875e+02" cType="1" res="-5.8188732713460922e-02" rms="4.2181178927421570e-01" purity="3.4620195627212524e-01" nType="0">
          <Node pos="l" depth="2" NCoef="0" IVar="-1" Cut="0.0000000000000000e+00" cType="1" res="-6.6743011120706797e-04" rms="4.4650250673294067e-01" purity="4.2876422405242920e-01" nType="-99"/>
          <Node pos="r" depth="2" NCoef="0" IVar="-1" Cut="0.0000000000000000e+00" cType="1" res="-5.9959478676319122e-03" rms="3.7346285581588745e-01" purity="2.2339005768299103e-01" nType="-99"/>
        </Node>
      </Node>
    </BinaryTree>
    <BinaryTree type="DecisionTree" boostWeight="1.0000000000000000e+00" itree="308">
      <Node pos="s" depth="0" NCoef="0" IVar="0" Cut="2.6392965316772461e+01" cType="1" res="-1.4910467434674501e-03" rms="4.5253255963325500e-01" purity="4.8639640212059021e-01" nType="0">
        <Node pos="l" depth="1" NCoef="0" IVar="-1" Cut="0.0000000000000000e+00" cType="1" res="-5.6203417479991913e-03" rms="3.7340107560157776e-01" purity="1.6712516546249390e-01" nType="-99"/>
        <Node pos="r" depth="1" NCoef="0" IVar="2" Cut="2.0294327735900879e+00" cType="1" res="4.3952940031886101e-03" rms="4.5605894923210144e-01" purity="5.0510579347610474e-01" nType="0">
          <Node pos="l" depth="2" NCoef="0" IVar="-1" Cut="0.0000000000000000e+00" cType="1" res="9.7290286794304848e-04" rms="4.6278789639472961e-01" purity="6.2031304836273193e-01" nType="-99"/>
          <Node pos="r" depth="2" NCoef="0" IVar="-1" Cut="0.0000000000000000e+00" cType="1" res="-8.5643422789871693e-04" rms="4.4670325517654419e-01" purity="3.6986783146858215e-01" nType="-99"/>
        </Node>
      </Node>
    </BinaryTree>
    <BinaryTree type="DecisionTree" boostWeight="1.0000000000000000e+00" itree="309">
      <Node pos="s" depth="0" NCoef="0" IVar="0" Cut="1.4734533691406250e+02" cType="1" res="-3.7924288772046566e-03" rms="4.5511502027511597e-01" purity="4.9569216370582581e-01" nType="0">
        <Node pos="l" depth="1" NCoef="0" IVar="0" Cut="8.3838760375976562e+01" cType="1" res="2.0619968418031931e-03" rms="4.5578572154045105e-01" purity="5.0397586822509766e-01" nType="0">
          <Node pos="l" depth="2" NCoef="0" IVar="-1" Cut="0.0000000000000000e+00" cType="1" res="-6.4294197363778949e-04" rms="4.5766723155975342e-01" purity="4.4442039728164673e-01" nType="-99"/>
          <Node pos="r" depth="2" NCoef="0" IVar="-1" Cut="0.0000000000000000e+00" cType="1" res="1.8446643371134996e-03" rms="4.4750514626502991e-01" purity="6.5605795383453369e-01" nType="-99"/>
        </Node>
        <Node pos="r" depth="1" NCoef="0" IVar="-1" Cut="0.0000000000000000e+00" cType="1" res="-3.2901559025049210e-03" rms="4.3635788559913635e-01" purity="3.7477090954780579e-01" nType="-99"/>
      </Node>
    </BinaryTree>
    <BinaryTree type="DecisionTree" boostWeight="1.0000000000000000e+00" itree="310">
      <Node pos="s" depth="0" NCoef="0" IVar="3" Cut="1.3324072265625000e+02" cType="1" res="-2.5137562770396471e-03" rms="4.5369756221771240e-01" purity="4.9267303943634033e-01" nType="0">
        <Node pos="l" depth="1" NCoef="0" IVar="8" Cut="3.4569888305664062e+02" cType="1" res="5.7356609031558037e-03" rms="4.5564669370651245e-01" purity="5.1409804821014404e-01" nType="0">
          <Node pos="l" depth="2" NCoef="0" IVar="-1" Cut="0.0000000000000000e+00" cType="1" res="7.8155723167583346e-04" rms="4.5285135507583618e-01" purity="5.4833960533142090e-01" nType="-99"/>
          <Node pos="r" depth="2" NCoef="0" IVar="-1" Cut="0.0000000000000000e+00" cType="1" res="-1.8538357689976692e-03" rms="4.6163713932037354e-01" purity="3.9495971798896790e-01" nType="-99"/>
        </Node>
        <Node pos="r" depth="1" NCoef="0" IVar="9" Cut="2.7727403640747070e+00" cType="1" res="-6.2873117625713348e-02" rms="4.3443265557289124e-01" purity="3.3591046929359436e-01" nType="0">
          <Node pos="l" depth="2" NCoef="0" IVar="-1" Cut="0.0000000000000000e+00" cType="1" res="-4.2674462310969830e-03" rms="4.4654494524002075e-01" purity="3.8116368651390076e-01" nType="-99"/>
          <Node pos="r" depth="2" NCoef="0" IVar="-1" Cut="0.0000000000000000e+00" cType="1" res="-3.6418769741430879e-04" rms="4.1123023629188538e-01" purity="2.7586400508880615e-01" nType="-99"/>
        </Node>
      </Node>
    </BinaryTree>
    <BinaryTree type="DecisionTree" boostWeight="1.0000000000000000e+00" itree="311">
      <Node pos="s" depth="0" NCoef="0" IVar="10" Cut="4.1686841845512390e-01" cType="1" res="5.2908854559063911e-03" rms="4.5158809423446655e-01" purity="5.0568193197250366e-01" nType="0">
        <Node pos="l" depth="1" NCoef="0" IVar="-1" Cut="0.0000000000000000e+00" cType="1" res="-5.5342526175081730e-03" rms="3.7568956613540649e-01" purity="2.0110009610652924e-01" nType="-99"/>
        <Node pos="r" depth="1" NCoef="0" IVar="0" Cut="1.4063874816894531e+02" cType="1" res="1.5204041264951229e-02" rms="4.5585846900939941e-01" purity="5.3074872493743896e-01" nType="0">
          <Node pos="l" depth="2" NCoef="0" IVar="-1" Cut="0.0000000000000000e+00" cType="1" res="8.1404874799773097e-04" rms="4.5527702569961548e-01" purity="5.3851616382598877e-01" nType="-99"/>
          <Node pos="r" depth="2" NCoef="0" IVar="-1" Cut="0.0000000000000000e+00" cType="1" res="-3.2339605968445539e-03" rms="4.5456171035766602e-01" purity="4.0591958165168762e-01" nType="-99"/>
        </Node>
      </Node>
    </BinaryTree>
    <BinaryTree type="DecisionTree" boostWeight="1.0000000000000000e+00" itree="312">
      <Node pos="s" depth="0" NCoef="0" IVar="8" Cut="1.6883226013183594e+02" cType="1" res="7.9715084284543991e-03" rms="4.5680525898933411e-01" purity="5.1283198595046997e-01" nType="0">
        <Node pos="l" depth="1" NCoef="0" IVar="4" Cut="2.0938987731933594e+02" cType="1" res="4.7083176672458649e-02" rms="4.6088343858718872e-01" purity="5.6404185295104980e-01" nType="0">
          <Node pos="l" depth="2" NCoef="0" IVar="-1" Cut="0.0000000000000000e+00" cType="1" res="-3.1878607114776969e-04" rms="4.6821042895317078e-01" purity="3.8533970713615417e-01" nType="-99"/>
          <Node pos="r" depth="2" NCoef="0" IVar="-1" Cut="0.0000000000000000e+00" cType="1" res="3.0253629665821791e-03" rms="4.5253205299377441e-01" purity="6.7998504638671875e-01" nType="-99"/>
        </Node>
        <Node pos="r" depth="1" NCoef="0" IVar="0" Cut="3.9235126495361328e+01" cType="1" res="-5.7898480445146561e-03" rms="4.5456203818321228e-01" purity="4.9481394886970520e-01" nType="0">
          <Node pos="l" depth="2" NCoef="0" IVar="-1" Cut="0.0000000000000000e+00" cType="1" res="-5.0902669318020344e-03" rms="3.9229637384414673e-01" purity="2.0670269429683685e-01" nType="-99"/>
          <Node pos="r" depth="2" NCoef="0" IVar="-1" Cut="0.0000000000000000e+00" cType="1" res="3.5120319807901978e-04" rms="4.6138468384742737e-01" purity="5.3845804929733276e-01" nType="-99"/>
        </Node>
      </Node>
    </BinaryTree>
    <BinaryTree type="DecisionTree" boostWeight="1.0000000000000000e+00" itree="313">
      <Node pos="s" depth="0" NCoef="0" IVar="11" Cut="6.0274934768676758e-01" cType="1" res="1.2980435974895954e-02" rms="4.6014174818992615e-01" purity="5.0518512725830078e-01" nType="0">
        <Node pos="l" depth="1" NCoef="0" IVar="3" Cut="1.2742908477783203e+02" cType="1" res="4.3881602585315704e-02" rms="4.5112836360931396e-01" purity="4.3074718117713928e-01" nType="0">
          <Node pos="l" depth="2" NCoef="0" IVar="-1" Cut="0.0000000000000000e+00" cType="1" res="2.9776934534311295e-03" rms="4.5893236994743347e-01" purity="4.8614680767059326e-01" nType="-99"/>
          <Node pos="r" depth="2" NCoef="0" IVar="-1" Cut="0.0000000000000000e+00" cType="1" res="-6.8478309549391270e-04" rms="4.2999690771102905e-01" purity="3.2690960168838501e-01" nType="-99"/>
        </Node>
        <Node pos="r" depth="1" NCoef="0" IVar="1" Cut="8.4031654357910156e+01" cType="1" res="-8.3828624337911606e-03" rms="4.6507236361503601e-01" purity="5.5664718151092529e-01" nType="0">
          <Node pos="l" depth="2" NCoef="0" IVar="-1" Cut="0.0000000000000000e+00" cType="1" res="-3.6589268129318953e-03" rms="4.6913400292396545e-01" purity="3.9664077758789062e-01" nType="-99"/>
          <Node pos="r" depth="2" NCoef="0" IVar="-1" Cut="0.0000000000000000e+00" cType="1" res="2.6635380345396698e-04" rms="4.6268069744110107e-01" purity="5.8730304241180420e-01" nType="-99"/>
        </Node>
      </Node>
    </BinaryTree>
    <BinaryTree type="DecisionTree" boostWeight="1.0000000000000000e+00" itree="314">
      <Node pos="s" depth="0" NCoef="0" IVar="1" Cut="1.4765199279785156e+02" cType="1" res="-7.0301471278071404e-03" rms="4.5397898554801941e-01" purity="4.9974438548088074e-01" nType="0">
        <Node pos="l" depth="1" NCoef="0" IVar="0" Cut="6.6585845947265625e+01" cType="1" res="1.0394105687737465e-02" rms="4.5454892516136169e-01" purity="5.2804613113403320e-01" nType="0">
          <Node pos="l" depth="2" NCoef="0" IVar="-1" Cut="0.0000000000000000e+00" cType="1" res="-8.2990579539909959e-04" rms="4.6348658204078674e-01" purity="4.3066993355751038e-01" nType="-99"/>
          <Node pos="r" depth="2" NCoef="0" IVar="-1" Cut="0.0000000000000000e+00" cType="1" res="2.2929005790501833e-03" rms="4.3537932634353638e-01" purity="6.8213927745819092e-01" nType="-99"/>
        </Node>
        <Node pos="r" depth="1" NCoef="0" IVar="6" Cut="8.4250747680664062e+01" cType="1" res="-4.8612188547849655e-02" rms="4.4989734888076782e-01" purity="4.3220382928848267e-01" nType="0">
          <Node pos="l" depth="2" NCoef="0" IVar="-1" Cut="0.0000000000000000e+00" cType="1" res="-4.2143417522311211e-03" rms="4.3258571624755859e-01" purity="3.2092314958572388e-01" nType="-99"/>
          <Node pos="r" depth="2" NCoef="0" IVar="-1" Cut="0.0000000000000000e+00" cType="1" res="7.2002393426373601e-04" rms="4.6392130851745605e-01" purity="5.8367848396301270e-01" nType="-99"/>
        </Node>
      </Node>
    </BinaryTree>
    <BinaryTree type="DecisionTree" boostWeight="1.0000000000000000e+00" itree="315">
      <Node pos="s" depth="0" NCoef="0" IVar="2" Cut="1.3752772808074951e+00" cType="1" res="3.9724209345877171e-03" rms="4.5579919219017029e-01" purity="5.0762695074081421e-01" nType="0">
        <Node pos="l" depth="1" NCoef="0" IVar="5" Cut="9.5214951038360596e-01" cType="1" res="5.1437493413686752e-02" rms="4.4506987929344177e-01" purity="6.7326945066452026e-01" nType="0">
          <Node pos="l" depth="2" NCoef="0" IVar="-1" Cut="0.0000000000000000e+00" cType="1" res="4.5044068247079849e-03" rms="4.3689918518066406e-01" purity="7.0145344734191895e-01" nType="-99"/>
          <Node pos="r" depth="2" NCoef="0" IVar="-1" Cut="0.0000000000000000e+00" cType="1" res="-2.8708591707982123e-04" rms="4.4176584482192993e-01" purity="6.5277284383773804e-01" nType="-99"/>
        </Node>
        <Node pos="r" depth="1" NCoef="0" IVar="9" Cut="2.7122459411621094e+00" cType="1" res="-1.3759063556790352e-02" rms="4.5848411321640015e-01" purity="4.4574800133705139e-01" nType="0">
          <Node pos="l" depth="2" NCoef="0" IVar="-1" Cut="0.0000000000000000e+00" cType="1" res="-1.5865343157202005e-03" rms="4.6204245090484619e-01" purity="4.8669683933258057e-01" nType="-99"/>
          <Node pos="r" depth="2" NCoef="0" IVar="-1" Cut="0.0000000000000000e+00" cType="1" res="5.2207824774086475e-04" rms="4.5346766710281372e-01" purity="4.0627616643905640e-01" nType="-99"/>
        </Node>
      </Node>
    </BinaryTree>
    <BinaryTree type="DecisionTree" boostWeight="1.0000000000000000e+00" itree="316">
      <Node pos="s" depth="0" NCoef="0" IVar="11" Cut="4.9963757395744324e-01" cType="1" res="-3.4554535523056984e-03" rms="4.5168748497962952e-01" purity="4.9369001388549805e-01" nType="0">
        <Node pos="l" depth="1" NCoef="0" IVar="8" Cut="2.3472906494140625e+02" cType="1" res="-5.4037909954786301e-02" rms="4.1896694898605347e-01" purity="2.6675644516944885e-01" nType="0">
          <Node pos="l" depth="2" NCoef="0" IVar="-1" Cut="0.0000000000000000e+00" cType="1" res="-5.2193622104823589e-03" rms="4.0761792659759521e-01" purity="2.7014264464378357e-01" nType="-99"/>
          <Node pos="r" depth="2" NCoef="0" IVar="-1" Cut="0.0000000000000000e+00" cType="1" res="-8.2623807247728109e-04" rms="4.2030203342437744e-01" purity="2.6493898034095764e-01" nType="-99"/>
        </Node>
        <Node pos="r" depth="1" NCoef="0" IVar="2" Cut="1.5299447774887085e+00" cType="1" res="9.1330176219344139e-03" rms="4.5860248804092407e-01" purity="5.5016708374023438e-01" nType="0">
          <Node pos="l" depth="2" NCoef="0" IVar="-1" Cut="0.0000000000000000e+00" cType="1" res="1.5886483015492558e-03" rms="4.4689098000526428e-01" purity="6.6195929050445557e-01" nType="-99"/>
          <Node pos="r" depth="2" NCoef="0" IVar="-1" Cut="0.0000000000000000e+00" cType="1" res="-4.9003586173057556e-04" rms="4.6493551135063171e-01" purity="4.7565162181854248e-01" nType="-99"/>
        </Node>
      </Node>
    </BinaryTree>
    <BinaryTree type="DecisionTree" boostWeight="1.0000000000000000e+00" itree="317">
      <Node pos="s" depth="0" NCoef="0" IVar="0" Cut="1.4671531677246094e+02" cType="1" res="-5.8676913613453507e-04" rms="4.5335832238197327e-01" purity="4.9840348958969116e-01" nType="0">
        <Node pos="l" depth="1" NCoef="0" IVar="0" Cut="1.2547277069091797e+02" cType="1" res="6.2911221757531166e-03" rms="4.5383596420288086e-01" purity="5.0847262144088745e-01" nType="0">
          <Node pos="l" depth="2" NCoef="0" IVar="-1" Cut="0.0000000000000000e+00" cType="1" res="-7.5985255534760654e-05" rms="4.5399692654609680e-01" purity="4.9418962001800537e-01" nType="-99"/>
          <Node pos="r" depth="2" NCoef="0" IVar="-1" Cut="0.0000000000000000e+00" cType="1" res="4.9480083398520947e-03" rms="4.3248358368873596e-01" purity="7.2667747735977173e-01" nType="-99"/>
        </Node>
        <Node pos="r" depth="1" NCoef="0" IVar="-1" Cut="0.0000000000000000e+00" cType="1" res="-4.4982405379414558e-03" rms="4.2819586396217346e-01" purity="3.2559540867805481e-01" nType="-99"/>
      </Node>
    </BinaryTree>
    <BinaryTree type="DecisionTree" boostWeight="1.0000000000000000e+00" itree="318">
      <Node pos="s" depth="0" NCoef="0" IVar="10" Cut="8.2477122545242310e-01" cType="1" res="7.3294756002724171e-03" rms="4.5568096637725830e-01" purity="5.0100612640380859e-01" nType="0">
        <Node pos="l" depth="1" NCoef="0" IVar="8" Cut="1.8749679565429688e+02" cType="1" res="1.5503480099141598e-03" rms="4.5773997902870178e-01" purity="4.8448505997657776e-01" nType="0">
          <Node pos="l" depth="2" NCoef="0" IVar="-1" Cut="0.0000000000000000e+00" cType="1" res="1.1408467544242740e-03" rms="4.5259606838226318e-01" purity="5.4778927564620972e-01" nType="-99"/>
          <Node pos="r" depth="2" NCoef="0" IVar="-1" Cut="0.0000000000000000e+00" cType="1" res="-5.1153119420632720e-04" rms="4.5967838168144226e-01" purity="4.5218127965927124e-01" nType="-99"/>
        </Node>
        <Node pos="r" depth="1" NCoef="0" IVar="-1" Cut="0.0000000000000000e+00" cType="1" res="3.2262266613543034e-03" rms="4.2065343260765076e-01" purity="7.1677601337432861e-01" nType="-99"/>
      </Node>
    </BinaryTree>
    <BinaryTree type="DecisionTree" boostWeight="1.0000000000000000e+00" itree="319">
      <Node pos="s" depth="0" NCoef="0" IVar="1" Cut="1.7434855651855469e+02" cType="1" res="8.7652346119284630e-03" rms="4.5358419418334961e-01" purity="5.0891751050949097e-01" nType="0">
        <Node pos="l" depth="1" NCoef="0" IVar="1" Cut="7.5220664978027344e+01" cType="1" res="2.0906612277030945e-02" rms="4.5385438203811646e-01" purity="5.3044134378433228e-01" nType="0">
          <Node pos="l" depth="2" NCoef="0" IVar="-1" Cut="0.0000000000000000e+00" cType="1" res="-3.3866921439766884e-03" rms="4.4857707619667053e-01" purity="3.4400418400764465e-01" nType="-99"/>
          <Node pos="r" depth="2" NCoef="0" IVar="-1" Cut="0.0000000000000000e+00" cType="1" res="1.1843594256788492e-03" rms="4.5316779613494873e-01" purity="5.5013251304626465e-01" nType="-99"/>
        </Node>
        <Node pos="r" depth="1" NCoef="0" IVar="4" Cut="4.0778039550781250e+02" cType="1" res="-5.3630929440259933e-02" rms="4.4702103734016418e-01" purity="3.9830377697944641e-01" nType="0">
          <Node pos="l" depth="2" NCoef="0" IVar="-1" Cut="0.0000000000000000e+00" cType="1" res="-6.3568092882633209e-03" rms="3.9264711737632751e-01" purity="2.3706363141536713e-01" nType="-99"/>
          <Node pos="r" depth="2" NCoef="0" IVar="-1" Cut="0.0000000000000000e+00" cType="1" res="2.7463960577733815e-05" rms="4.7035217285156250e-01" purity="5.0071465969085693e-01" nType="-99"/>
        </Node>
      </Node>
    </BinaryTree>
    <BinaryTree type="DecisionTree" boostWeight="1.0000000000000000e+00" itree="320">
      <Node pos="s" depth="0" NCoef="0" IVar="3" Cut="1.2945495605468750e+02" cType="1" res="6.3098878599703312e-03" rms="4.4983392953872681e-01" purity="5.0581818819046021e-01" nType="0">
        <Node pos="l" depth="1" NCoef="0" IVar="8" Cut="4.6138113403320312e+02" cType="1" res="2.2778475657105446e-02" rms="4.5105838775634766e-01" purity="5.3612333536148071e-01" nType="0">
          <Node pos="l" depth="2" NCoef="0" IVar="-1" Cut="0.0000000000000000e+00" cType="1" res="1.2450180947780609e-03" rms="4.5088440179824829e-01" purity="5.6211459636688232e-01" nType="-99"/>
          <Node pos="r" depth="2" NCoef="0" IVar="-1" Cut="0.0000000000000000e+00" cType="1" res="-3.1089293770492077e-03" rms="4.4212168455123901e-01" purity="3.0260458588600159e-01" nType="-99"/>
        </Node>
        <Node pos="r" depth="1" NCoef="0" IVar="4" Cut="2.4525541687011719e+02" cType="1" res="-6.1951104551553726e-02" rms="4.3817186355590820e-01" purity="3.8020551204681396e-01" nType="0">
          <Node pos="l" depth="2" NCoef="0" IVar="-1" Cut="0.0000000000000000e+00" cType="1" res="8.5464841686189175e-04" rms="4.1874188184738159e-01" purity="3.8506203889846802e-01" nType="-99"/>
          <Node pos="r" depth="2" NCoef="0" IVar="-1" Cut="0.0000000000000000e+00" cType="1" res="-4.2329174466431141e-03" rms="4.4175848364830017e-01" purity="3.7792438268661499e-01" nType="-99"/>
        </Node>
      </Node>
    </BinaryTree>
    <BinaryTree type="DecisionTree" boostWeight="1.0000000000000000e+00" itree="321">
      <Node pos="s" depth="0" NCoef="0" IVar="5" Cut="9.6448606252670288e-01" cType="1" res="-1.4849258586764336e-02" rms="4.5575547218322754e-01" purity="4.8257678747177124e-01" nType="0">
        <Node pos="l" depth="1" NCoef="0" IVar="9" Cut="1.8387668132781982e+00" cType="1" res="-2.9999654740095139e-02" rms="4.5573297142982483e-01" purity="4.3115171790122986e-01" nType="0">
          <Node pos="l" depth="2" NCoef="0" IVar="-1" Cut="0.0000000000000000e+00" cType="1" res="1.0543616954237223e-03" rms="4.6006491780281067e-01" purity="6.1870378255844116e-01" nType="-99"/>
          <Node pos="r" depth="2" NCoef="0" IVar="-1" Cut="0.0000000000000000e+00" cType="1" res="-1.8915701657533646e-03" rms="4.5302820205688477e-01" purity="3.7643709778785706e-01" nType="-99"/>
        </Node>
        <Node pos="r" depth="1" NCoef="0" IVar="2" Cut="1.4252421855926514e+00" cType="1" res="1.2289379723370075e-02" rms="4.5453506708145142e-01" purity="5.7469350099563599e-01" nType="0">
          <Node pos="l" depth="2" NCoef="0" IVar="-1" Cut="0.0000000000000000e+00" cType="1" res="-1.5811945777386427e-03" rms="4.4653475284576416e-01" purity="6.1457502841949463e-01" nType="-99"/>
          <Node pos="r" depth="2" NCoef="0" IVar="-1" Cut="0.0000000000000000e+00" cType="1" res="1.3907069806009531e-03" rms="4.5624190568923950e-01" purity="5.5674946308135986e-01" nType="-99"/>
        </Node>
      </Node>
    </BinaryTree>
    <BinaryTree type="DecisionTree" boostWeight="1.0000000000000000e+00" itree="322">
      <Node pos="s" depth="0" NCoef="0" IVar="0" Cut="8.4221206665039062e+01" cType="1" res="3.5672914236783981e-04" rms="4.5035672187805176e-01" purity="4.9487033486366272e-01" nType="0">
        <Node pos="l" depth="1" NCoef="0" IVar="8" Cut="2.4098820495605469e+02" cType="1" res="-2.7064686641097069e-02" rms="4.5200905203819275e-01" purity="4.2805975675582886e-01" nType="0">
          <Node pos="l" depth="2" NCoef="0" IVar="-1" Cut="0.0000000000000000e+00" cType="1" res="-2.3808114929124713e-04" rms="4.6099248528480530e-01" purity="4.8365795612335205e-01" nType="-99"/>
          <Node pos="r" depth="2" NCoef="0" IVar="-1" Cut="0.0000000000000000e+00" cType="1" res="-2.8659957461059093e-03" rms="4.3259477615356445e-01" purity="3.2695606350898743e-01" nType="-99"/>
        </Node>
        <Node pos="r" depth="1" NCoef="0" IVar="0" Cut="1.3298753356933594e+02" cType="1" res="5.8671634644269943e-02" rms="4.4119229912757874e-01" purity="6.3695096969604492e-01" nType="0">
          <Node pos="l" depth="2" NCoef="0" IVar="-1" Cut="0.0000000000000000e+00" cType="1" res="2.8604560066014528e-03" rms="4.3200239539146423e-01" purity="6.9316905736923218e-01" nType="-99"/>
          <Node pos="r" depth="2" NCoef="0" IVar="-1" Cut="0.0000000000000000e+00" cType="1" res="1.8766218272503465e-04" rms="4.6236371994018555e-01" purity="4.7556766867637634e-01" nType="-99"/>
        </Node>
      </Node>
    </BinaryTree>
    <BinaryTree type="DecisionTree" boostWeight="1.0000000000000000e+00" itree="323">
      <Node pos="s" depth="0" NCoef="0" IVar="8" Cut="1.4021707153320312e+02" cType="1" res="-1.0407700203359127e-02" rms="4.5676529407501221e-01" purity="4.8245379328727722e-01" nType="0">
        <Node pos="l" depth="1" NCoef="0" IVar="4" Cut="2.0690299987792969e+02" cType="1" res="4.9251485615968704e-02" rms="4.6450388431549072e-01" purity="5.2876162528991699e-01" nType="0">
          <Node pos="l" depth="2" NCoef="0" IVar="-1" Cut="0.0000000000000000e+00" cType="1" res="-3.7298741517588496e-04" rms="4.5936632156372070e-01" purity="3.8812288641929626e-01" nType="-99"/>
          <Node pos="r" depth="2" NCoef="0" IVar="-1" Cut="0.0000000000000000e+00" cType="1" res="4.4657685793936253e-03" rms="4.5972281694412231e-01" purity="7.2036665678024292e-01" nType="-99"/>
        </Node>
        <Node pos="r" depth="1" NCoef="0" IVar="0" Cut="8.3224884033203125e+01" cType="1" res="-2.1245559677481651e-02" rms="4.5450562238693237e-01" purity="4.7404134273529053e-01" nType="0">
          <Node pos="l" depth="2" NCoef="0" IVar="-1" Cut="0.0000000000000000e+00" cType="1" res="-1.7354660667479038e-03" rms="4.5611524581909180e-01" purity="4.0387174487113953e-01" nType="-99"/>
          <Node pos="r" depth="2" NCoef="0" IVar="-1" Cut="0.0000000000000000e+00" cType="1" res="5.4111192002892494e-04" rms="4.4965219497680664e-01" purity="5.8647042512893677e-01" nType="-99"/>
        </Node>
      </Node>
    </BinaryTree>
    <BinaryTree type="DecisionTree" boostWeight="1.0000000000000000e+00" itree="324">
      <Node pos="s" depth="0" NCoef="0" IVar="1" Cut="1.3486236572265625e+02" cType="1" res="6.9961696863174438e-03" rms="4.5382207632064819e-01" purity="5.0835680961608887e-01" nType="0">
        <Node pos="l" depth="1" NCoef="0" IVar="11" Cut="5.9028285741806030e-01" cType="1" res="3.0061697587370872e-02" rms="4.5592713356018066e-01" purity="5.4433125257492065e-01" nType="0">
          <Node pos="l" depth="2" NCoef="0" IVar="-1" Cut="0.0000000000000000e+00" cType="1" res="3.5332210827618837e-03" rms="4.4836097955703735e-01" purity="4.9303382635116577e-01" nType="-99"/>
          <Node pos="r" depth="2" NCoef="0" IVar="-1" Cut="0.0000000000000000e+00" cType="1" res="1.2774976494256407e-04" rms="4.5682761073112488e-01" purity="5.6753724813461304e-01" nType="-99"/>
        </Node>
        <Node pos="r" depth="1" NCoef="0" IVar="11" Cut="8.0404663085937500e-01" cType="1" res="-3.3007588237524033e-02" rms="4.4733664393424988e-01" purity="4.4596436619758606e-01" nType="0">
          <Node pos="l" depth="2" NCoef="0" IVar="-1" Cut="0.0000000000000000e+00" cType="1" res="-2.2019243333488703e-03" rms="4.4440335035324097e-01" purity="3.9207300543785095e-01" nType="-99"/>
          <Node pos="r" depth="2" NCoef="0" IVar="-1" Cut="0.0000000000000000e+00" cType="1" res="2.4442598223686218e-03" rms="4.4825893640518188e-01" purity="6.9966763257980347e-01" nType="-99"/>
        </Node>
      </Node>
    </BinaryTree>
    <BinaryTree type="DecisionTree" boostWeight="1.0000000000000000e+00" itree="325">
      <Node pos="s" depth="0" NCoef="0" IVar="7" Cut="1.0703514862060547e+02" cType="1" res="-1.4119743136689067e-03" rms="4.5115348696708679e-01" purity="5.0093901157379150e-01" nType="0">
        <Node pos="l" depth="1" NCoef="0" IVar="8" Cut="4.1667944335937500e+02" cType="1" res="-9.4272792339324951e-03" rms="4.5045667886734009e-01" purity="4.8279434442520142e-01" nType="0">
          <Node pos="l" depth="2" NCoef="0" IVar="-1" Cut="0.0000000000000000e+00" cType="1" res="1.0184609709540382e-04" rms="4.5328792929649353e-01" purity="5.1227247714996338e-01" nType="-99"/>
          <Node pos="r" depth="2" NCoef="0" IVar="-1" Cut="0.0000000000000000e+00" cType="1" res="-4.3906047940254211e-03" rms="4.1951671242713928e-01" purity="2.7140402793884277e-01" nType="-99"/>
        </Node>
        <Node pos="r" depth="1" NCoef="0" IVar="4" Cut="4.2084698486328125e+02" cType="1" res="6.4358778297901154e-02" rms="4.5148843526840210e-01" purity="6.4982765913009644e-01" nType="0">
          <Node pos="l" depth="2" NCoef="0" IVar="-1" Cut="0.0000000000000000e+00" cType="1" res="1.1788571719080210e-03" rms="4.6457442641258240e-01" purity="6.1960047483444214e-01" nType="-99"/>
          <Node pos="r" depth="2" NCoef="0" IVar="-1" Cut="0.0000000000000000e+00" cType="1" res="3.8915055338293314e-03" rms="4.3444979190826416e-01" purity="6.8160128593444824e-01" nType="-99"/>
        </Node>
      </Node>
    </BinaryTree>
    <BinaryTree type="DecisionTree" boostWeight="1.0000000000000000e+00" itree="326">
      <Node pos="s" depth="0" NCoef="0" IVar="3" Cut="1.3812481689453125e+02" cType="1" res="-1.0368777438998222e-02" rms="4.5427083969116211e-01" purity="4.8349034786224365e-01" nType="0">
        <Node pos="l" depth="1" NCoef="0" IVar="8" Cut="4.6671978759765625e+02" cType="1" res="-1.9041256746277213e-03" rms="4.5802408456802368e-01" purity="5.0179922580718994e-01" nType="0">
          <Node pos="l" depth="2" NCoef="0" IVar="-1" Cut="0.0000000000000000e+00" cType="1" res="2.6583310682326555e-04" rms="4.5979005098342896e-01" purity="5.2616620063781738e-01" nType="-99"/>
          <Node pos="r" depth="2" NCoef="0" IVar="-1" Cut="0.0000000000000000e+00" cType="1" res="-3.5642695147544146e-03" rms="4.3445169925689697e-01" purity="2.8637695312500000e-01" nType="-99"/>
        </Node>
        <Node pos="r" depth="1" NCoef="0" IVar="-1" Cut="0.0000000000000000e+00" cType="1" res="-6.5041207708418369e-03" rms="3.7580233812332153e-01" purity="2.2004388272762299e-01" nType="-99"/>
      </Node>
    </BinaryTree>
    <BinaryTree type="DecisionTree" boostWeight="1.0000000000000000e+00" itree="327">
      <Node pos="s" depth="0" NCoef="0" IVar="3" Cut="1.0229013824462891e+02" cType="1" res="1.6763003543019295e-02" rms="4.5488163828849792e-01" purity="5.1371562480926514e-01" nType="0">
        <Node pos="l" depth="1" NCoef="0" IVar="-1" Cut="0.0000000000000000e+00" cType="1" res="-8.4676649421453476e-03" rms="3.7830871343612671e-01" purity="2.2142228484153748e-01" nType="-99"/>
        <Node pos="r" depth="1" NCoef="0" IVar="10" Cut="4.1154700517654419e-01" cType="1" res="2.7393888682126999e-02" rms="4.5616695284843445e-01" purity="5.2930557727813721e-01" nType="0">
          <Node pos="l" depth="2" NCoef="0" IVar="-1" Cut="0.0000000000000000e+00" cType="1" res="-3.0504760798066854e-03" rms="4.1805538535118103e-01" purity="2.4804437160491943e-01" nType="-99"/>
          <Node pos="r" depth="2" NCoef="0" IVar="-1" Cut="0.0000000000000000e+00" cType="1" res="1.3270265189930797e-03" rms="4.5813745260238647e-01" purity="5.5129641294479370e-01" nType="-99"/>
        </Node>
      </Node>
    </BinaryTree>
    <BinaryTree type="DecisionTree" boostWeight="1.0000000000000000e+00" itree="328">
      <Node pos="s" depth="0" NCoef="0" IVar="4" Cut="3.5962390136718750e+02" cType="1" res="5.8250548318028450e-03" rms="4.4770208001136780e-01" purity="4.9970382452011108e-01" nType="0">
        <Node pos="l" depth="1" NCoef="0" IVar="11" Cut="4.3052256107330322e-01" cType="1" res="-1.8476067110896111e-02" rms="4.4657126069068909e-01" purity="4.5884674787521362e-01" nType="0">
          <Node pos="l" depth="2" NCoef="0" IVar="-1" Cut="0.0000000000000000e+00" cType="1" res="-6.0695623978972435e-03" rms="3.3740290999412537e-01" purity="1.7338503897190094e-01" nType="-99"/>
          <Node pos="r" depth="2" NCoef="0" IVar="-1" Cut="0.0000000000000000e+00" cType="1" res="-1.9054180302191526e-04" rms="4.5813715457916260e-01" purity="4.9872356653213501e-01" nType="-99"/>
        </Node>
        <Node pos="r" depth="1" NCoef="0" IVar="0" Cut="1.3926338195800781e+02" cType="1" res="5.4181523621082306e-02" rms="4.4602239131927490e-01" purity="5.8100473880767822e-01" nType="0">
          <Node pos="l" depth="2" NCoef="0" IVar="-1" Cut="0.0000000000000000e+00" cType="1" res="2.8555952012538910e-03" rms="4.4310560822486877e-01" purity="6.1803293228149414e-01" nType="-99"/>
          <Node pos="r" depth="2" NCoef="0" IVar="-1" Cut="0.0000000000000000e+00" cType="1" res="-2.4550969246774912e-03" rms="4.4458329677581787e-01" purity="3.8317522406578064e-01" nType="-99"/>
        </Node>
      </Node>
    </BinaryTree>
    <BinaryTree type="DecisionTree" boostWeight="1.0000000000000000e+00" itree="329">
      <Node pos="s" depth="0" NCoef="0" IVar="11" Cut="6.0486602783203125e-01" cType="1" res="-3.5239572171121836e-03" rms="4.5895117521286011e-01" purity="4.9426597356796265e-01" nType="0">
        <Node pos="l" depth="1" NCoef="0" IVar="11" Cut="4.1543707251548767e-01" cType="1" res="2.9484085738658905e-02" rms="4.4354924559593201e-01" purity="4.1905358433723450e-01" nType="0">
          <Node pos="l" depth="2" NCoef="0" IVar="-1" Cut="0.0000000000000000e+00" cType="1" res="-2.0886247511953115e-03" rms="3.9327943325042725e-01" purity="2.4363616108894348e-01" nType="-99"/>
          <Node pos="r" depth="2" NCoef="0" IVar="-1" Cut="0.0000000000000000e+00" cType="1" res="1.9940696656703949e-03" rms="4.5564416050910950e-01" purity="4.7241383790969849e-01" nType="-99"/>
        </Node>
        <Node pos="r" depth="1" NCoef="0" IVar="1" Cut="9.5405578613281250e+01" cType="1" res="-2.4481087923049927e-02" rms="4.6725863218307495e-01" purity="5.4201906919479370e-01" nType="0">
          <Node pos="l" depth="2" NCoef="0" IVar="-1" Cut="0.0000000000000000e+00" cType="1" res="-3.2666414044797421e-03" rms="4.6959841251373291e-01" purity="4.3177399039268494e-01" nType="-99"/>
          <Node pos="r" depth="2" NCoef="0" IVar="-1" Cut="0.0000000000000000e+00" cType="1" res="-1.5157023153733462e-04" rms="4.6471807360649109e-01" purity="5.8162820339202881e-01" nType="-99"/>
        </Node>
      </Node>
    </BinaryTree>
    <BinaryTree type="DecisionTree" boostWeight="1.0000000000000000e+00" itree="330">
      <Node pos="s" depth="0" NCoef="0" IVar="10" Cut="5.5213028192520142e-01" cType="1" res="-1.8115439452230930e-03" rms="4.5494514703750610e-01" purity="4.9268096685409546e-01" nType="0">
        <Node pos="l" depth="1" NCoef="0" IVar="8" Cut="2.3098214721679688e+02" cType="1" res="-3.5921443253755569e-02" rms="4.3767407536506653e-01" purity="3.4508168697357178e-01" nType="0">
          <Node pos="l" depth="2" NCoef="0" IVar="-1" Cut="0.0000000000000000e+00" cType="1" res="1.3689595107280184e-05" rms="4.5498391985893250e-01" purity="4.4662797451019287e-01" nType="-99"/>
          <Node pos="r" depth="2" NCoef="0" IVar="-1" Cut="0.0000000000000000e+00" cType="1" res="-2.7760632801800966e-03" rms="4.2307737469673157e-01" purity="2.7300694584846497e-01" nType="-99"/>
        </Node>
        <Node pos="r" depth="1" NCoef="0" IVar="2" Cut="1.8371133804321289e+00" cType="1" res="1.6241613775491714e-02" rms="4.6280968189239502e-01" purity="5.7080000638961792e-01" nType="0">
          <Node pos="l" depth="2" NCoef="0" IVar="-1" Cut="0.0000000000000000e+00" cType="1" res="-5.2418932318687439e-04" rms="4.6081623435020447e-01" purity="5.9727281332015991e-01" nType="-99"/>
          <Node pos="r" depth="2" NCoef="0" IVar="-1" Cut="0.0000000000000000e+00" cType="1" res="2.0044827833771706e-03" rms="4.6255981922149658e-01" purity="5.3693979978561401e-01" nType="-99"/>
        </Node>
      </Node>
    </BinaryTree>
    <BinaryTree type="DecisionTree" boostWeight="1.0000000000000000e+00" itree="331">
      <Node pos="s" depth="0" NCoef="0" IVar="4" Cut="2.0697805786132812e+02" cType="1" res="-1.0894695296883583e-02" rms="4.5055478811264038e-01" purity="4.8899167776107788e-01" nType="0">
        <Node pos="l" depth="1" NCoef="0" IVar="0" Cut="3.7574157714843750e+01" cType="1" res="-7.4518449604511261e-02" rms="4.0717965364456177e-01" purity="2.7728924155235291e-01" nType="0">
          <Node pos="l" depth="2" NCoef="0" IVar="-1" Cut="0.0000000000000000e+00" cType="1" res="-7.4116918258368969e-03" rms="3.2776835560798645e-01" purity="1.3121449947357178e-01" nType="-99"/>
          <Node pos="r" depth="2" NCoef="0" IVar="-1" Cut="0.0000000000000000e+00" cType="1" res="-6.0782994842156768e-04" rms="4.5938757061958313e-01" purity="4.0887552499771118e-01" nType="-99"/>
        </Node>
        <Node pos="r" depth="1" NCoef="0" IVar="0" Cut="1.4818598937988281e+02" cType="1" res="3.9228136301971972e-04" rms="4.5689627528190613e-01" purity="5.2654814720153809e-01" nType="0">
          <Node pos="l" depth="2" NCoef="0" IVar="-1" Cut="0.0000000000000000e+00" cType="1" res="2.9467348940670490e-04" rms="4.5696300268173218e-01" purity="5.3902488946914673e-01" nType="-99"/>
          <Node pos="r" depth="2" NCoef="0" IVar="-1" Cut="0.0000000000000000e+00" cType="1" res="-4.5497189275920391e-03" rms="4.4206407666206360e-01" purity="3.4092426300048828e-01" nType="-99"/>
        </Node>
      </Node>
    </BinaryTree>
    <BinaryTree type="DecisionTree" boostWeight="1.0000000000000000e+00" itree="332">
      <Node pos="s" depth="0" NCoef="0" IVar="3" Cut="1.1138548278808594e+02" cType="1" res="1.0366772301495075e-02" rms="4.4619274139404297e-01" purity="5.1036131381988525e-01" nType="0">
        <Node pos="l" depth="1" NCoef="0" IVar="11" Cut="6.7059332132339478e-01" cType="1" res="-7.6038099825382233e-02" rms="4.4954997301101685e-01" purity="3.6352854967117310e-01" nType="0">
          <Node pos="l" depth="2" NCoef="0" IVar="-1" Cut="0.0000000000000000e+00" cType="1" res="1.2620835150300991e-05" rms="4.2214545607566833e-01" purity="3.5754525661468506e-01" nType="-99"/>
          <Node pos="r" depth="2" NCoef="0" IVar="-1" Cut="0.0000000000000000e+00" cType="1" res="-6.5006283111870289e-03" rms="4.6423321962356567e-01" purity="3.7090963125228882e-01" nType="-99"/>
        </Node>
        <Node pos="r" depth="1" NCoef="0" IVar="0" Cut="3.8795501708984375e+01" cType="1" res="2.2323075681924820e-02" rms="4.4440498948097229e-01" purity="5.3067940473556519e-01" nType="0">
          <Node pos="l" depth="2" NCoef="0" IVar="-1" Cut="0.0000000000000000e+00" cType="1" res="-2.0199890714138746e-03" rms="4.2843064665794373e-01" purity="2.9717612266540527e-01" nType="-99"/>
          <Node pos="r" depth="2" NCoef="0" IVar="-1" Cut="0.0000000000000000e+00" cType="1" res="1.4362126821652055e-03" rms="4.4653716683387756e-01" purity="5.8427596092224121e-01" nType="-99"/>
        </Node>
      </Node>
    </BinaryTree>
    <BinaryTree type="DecisionTree" boostWeight="1.0000000000000000e+00" itree="333">
      <Node pos="s" depth="0" NCoef="0" IVar="9" Cut="3.9461076259613037e+00" cType="1" res="9.9263843148946762e-03" rms="4.5686239004135132e-01" purity="5.0578260421752930e-01" nType="0">
        <Node pos="l" depth="1" NCoef="0" IVar="11" Cut="5.8880937099456787e-01" cType="1" res="1.5619090758264065e-02" rms="4.6030053496360779e-01" purity="5.2251118421554565e-01" nType="0">
          <Node pos="l" depth="2" NCoef="0" IVar="-1" Cut="0.0000000000000000e+00" cType="1" res="1.7654484836384654e-03" rms="4.5814719796180725e-01" purity="4.4068044424057007e-01" nType="-99"/>
          <Node pos="r" depth="2" NCoef="0" IVar="-1" Cut="0.0000000000000000e+00" cType="1" res="2.2153621102916077e-05" rms="4.6072515845298767e-01" purity="5.6574589014053345e-01" nType="-99"/>
        </Node>
        <Node pos="r" depth="1" NCoef="0" IVar="-1" Cut="0.0000000000000000e+00" cType="1" res="-2.8838282451033592e-03" rms="4.0070813894271851e-01" purity="2.8307372331619263e-01" nType="-99"/>
      </Node>
    </BinaryTree>
    <BinaryTree type="DecisionTree" boostWeight="1.0000000000000000e+00" itree="334">
      <Node pos="s" depth="0" NCoef="0" IVar="3" Cut="1.0220240783691406e+02" cType="1" res="1.2735606171190739e-02" rms="4.5285913348197937e-01" purity="5.1312571763992310e-01" nType="0">
        <Node pos="l" depth="1" NCoef="0" IVar="-1" Cut="0.0000000000000000e+00" cType="1" res="-4.9662808887660503e-03" rms="4.0976291894912720e-01" purity="2.8074088692665100e-01" nType="-99"/>
        <Node pos="r" depth="1" NCoef="0" IVar="4" Cut="2.1730200195312500e+02" cType="1" res="2.0186997950077057e-02" rms="4.5382750034332275e-01" purity="5.2548629045486450e-01" nType="0">
          <Node pos="l" depth="2" NCoef="0" IVar="-1" Cut="0.0000000000000000e+00" cType="1" res="-1.4447580324485898e-03" rms="4.3569004535675049e-01" purity="3.4343260526657104e-01" nType="-99"/>
          <Node pos="r" depth="2" NCoef="0" IVar="-1" Cut="0.0000000000000000e+00" cType="1" res="1.2589064426720142e-03" rms="4.5684525370597839e-01" purity="5.6562387943267822e-01" nType="-99"/>
        </Node>
      </Node>
    </BinaryTree>
    <BinaryTree type="DecisionTree" boostWeight="1.0000000000000000e+00" itree="335">
      <Node pos="s" depth="0" NCoef="0" IVar="5" Cut="9.7696149349212646e-01" cType="1" res="-1.0127894580364227e-02" rms="4.5202603936195374e-01" purity="4.8899048566818237e-01" nType="0">
        <Node pos="l" depth="1" NCoef="0" IVar="8" Cut="2.8734362792968750e+02" cType="1" res="-2.3126069456338882e-02" rms="4.5275709033012390e-01" purity="4.5803272724151611e-01" nType="0">
          <Node pos="l" depth="2" NCoef="0" IVar="-1" Cut="0.0000000000000000e+00" cType="1" res="-1.4507176820188761e-04" rms="4.5760956406593323e-01" purity="5.0711137056350708e-01" nType="-99"/>
          <Node pos="r" depth="2" NCoef="0" IVar="-1" Cut="0.0000000000000000e+00" cType="1" res="-2.4531187955290079e-03" rms="4.4149053096771240e-01" purity="3.6775699257850647e-01" nType="-99"/>
        </Node>
        <Node pos="r" depth="1" NCoef="0" IVar="7" Cut="6.6166656494140625e+01" cType="1" res="4.9828365445137024e-02" rms="4.4373685121536255e-01" purity="6.3178825378417969e-01" nType="0">
          <Node pos="l" depth="2" NCoef="0" IVar="-1" Cut="0.0000000000000000e+00" cType="1" res="3.3130226656794548e-03" rms="4.2978316545486450e-01" purity="6.3042473793029785e-01" nType="-99"/>
          <Node pos="r" depth="2" NCoef="0" IVar="-1" Cut="0.0000000000000000e+00" cType="1" res="-7.1857019793242216e-04" rms="4.6324151754379272e-01" purity="6.3453954458236694e-01" nType="-99"/>
        </Node>
      </Node>
    </BinaryTree>
    <BinaryTree type="DecisionTree" boostWeight="1.0000000000000000e+00" itree="336">
      <Node pos="s" depth="0" NCoef="0" IVar="8" Cut="1.8362188720703125e+02" cType="1" res="8.8478075340390205e-03" rms="4.5267030596733093e-01" purity="5.0195324420928955e-01" nType="0">
        <Node pos="l" depth="1" NCoef="0" IVar="3" Cut="1.2844528198242188e+02" cType="1" res="6.0671012848615646e-02" rms="4.6059682965278625e-01" purity="5.6779313087463379e-01" nType="0">
          <Node pos="l" depth="2" NCoef="0" IVar="-1" Cut="0.0000000000000000e+00" cType="1" res="3.0145663768053055e-03" rms="4.5460599660873413e-01" purity="5.8869445323944092e-01" nType="-99"/>
          <Node pos="r" depth="2" NCoef="0" IVar="-1" Cut="0.0000000000000000e+00" cType="1" res="1.3342648162506521e-04" rms="4.7468864917755127e-01" purity="5.0108599662780762e-01" nType="-99"/>
        </Node>
        <Node pos="r" depth="1" NCoef="0" IVar="2" Cut="1.4256765842437744e+00" cType="1" res="-1.4690900221467018e-02" rms="4.4704410433769226e-01" purity="4.7204801440238953e-01" nType="0">
          <Node pos="l" depth="2" NCoef="0" IVar="-1" Cut="0.0000000000000000e+00" cType="1" res="1.9266508752480149e-03" rms="4.2397338151931763e-01" purity="7.0155352354049683e-01" nType="-99"/>
          <Node pos="r" depth="2" NCoef="0" IVar="-1" Cut="0.0000000000000000e+00" cType="1" res="-1.4532821951434016e-03" rms="4.5226106047630310e-01" purity="3.9730089902877808e-01" nType="-99"/>
        </Node>
      </Node>
    </BinaryTree>
    <BinaryTree type="DecisionTree" boostWeight="1.0000000000000000e+00" itree="337">
      <Node pos="s" depth="0" NCoef="0" IVar="0" Cut="8.5908470153808594e+01" cType="1" res="6.6534960642457008e-03" rms="4.4941741228103638e-01" purity="5.0357067584991455e-01" nType="0">
        <Node pos="l" depth="1" NCoef="0" IVar="6" Cut="3.7581214904785156e+01" cType="1" res="-1.0964632965624332e-02" rms="4.5351508259773254e-01" purity="4.5034301280975342e-01" nType="0">
          <Node pos="l" depth="2" NCoef="0" IVar="-1" Cut="0.0000000000000000e+00" cType="1" res="-2.1416055969893932e-03" rms="4.4174140691757202e-01" purity="3.2180050015449524e-01" nType="-99"/>
          <Node pos="r" depth="2" NCoef="0" IVar="-1" Cut="0.0000000000000000e+00" cType="1" res="3.7350013735704124e-04" rms="4.5845413208007812e-01" purity="5.2043181657791138e-01" nType="-99"/>
        </Node>
        <Node pos="r" depth="1" NCoef="0" IVar="5" Cut="9.3162733316421509e-01" cType="1" res="4.5193601399660110e-02" rms="4.3785610795021057e-01" purity="6.2000739574432373e-01" nType="0">
          <Node pos="l" depth="2" NCoef="0" IVar="-1" Cut="0.0000000000000000e+00" cType="1" res="-2.6781691703945398e-03" rms="4.4308966398239136e-01" purity="3.9333903789520264e-01" nType="-99"/>
          <Node pos="r" depth="2" NCoef="0" IVar="-1" Cut="0.0000000000000000e+00" cType="1" res="2.6928014121949673e-03" rms="4.3254894018173218e-01" purity="6.6941106319427490e-01" nType="-99"/>
        </Node>
      </Node>
    </BinaryTree>
    <BinaryTree type="DecisionTree" boostWeight="1.0000000000000000e+00" itree="338">
      <Node pos="s" depth="0" NCoef="0" IVar="10" Cut="6.1303895711898804e-01" cType="1" res="2.2942859213799238e-03" rms="4.5768219232559204e-01" purity="5.0358754396438599e-01" nType="0">
        <Node pos="l" depth="1" NCoef="0" IVar="4" Cut="3.0229324340820312e+02" cType="1" res="-2.0379090681672096e-02" rms="4.5299580693244934e-01" purity="4.0618672966957092e-01" nType="0">
          <Node pos="l" depth="2" NCoef="0" IVar="-1" Cut="0.0000000000000000e+00" cType="1" res="-2.1348001901060343e-03" rms="4.4343054294586182e-01" purity="3.5091313719749451e-01" nType="-99"/>
          <Node pos="r" depth="2" NCoef="0" IVar="-1" Cut="0.0000000000000000e+00" cType="1" res="6.2866788357496262e-04" rms="4.6171563863754272e-01" purity="4.7330924868583679e-01" nType="-99"/>
        </Node>
        <Node pos="r" depth="1" NCoef="0" IVar="1" Cut="1.6824197387695312e+02" cType="1" res="2.4135632440447807e-02" rms="4.6109858155250549e-01" purity="5.9741419553756714e-01" nType="0">
          <Node pos="l" depth="2" NCoef="0" IVar="-1" Cut="0.0000000000000000e+00" cType="1" res="1.7398033523932099e-03" rms="4.5831269025802612e-01" purity="6.2138777971267700e-01" nType="-99"/>
          <Node pos="r" depth="2" NCoef="0" IVar="-1" Cut="0.0000000000000000e+00" cType="1" res="-4.5251338742673397e-03" rms="4.5410555601119995e-01" purity="4.4565784931182861e-01" nType="-99"/>
        </Node>
      </Node>
    </BinaryTree>
    <BinaryTree type="DecisionTree" boostWeight="1.0000000000000000e+00" itree="339">
      <Node pos="s" depth="0" NCoef="0" IVar="2" Cut="1.2562319040298462e+00" cType="1" res="4.9558482132852077e-03" rms="4.5757216215133667e-01" purity="5.0529605150222778e-01" nType="0">
        <Node pos="l" depth="1" NCoef="0" IVar="10" Cut="5.6551063060760498e-01" cType="1" res="4.9744676798582077e-02" rms="4.4452205300331116e-01" purity="6.6755533218383789e-01" nType="0">
          <Node pos="l" depth="2" NCoef="0" IVar="-1" Cut="0.0000000000000000e+00" cType="1" res="4.8844111151993275e-03" rms="4.6241351962089539e-01" purity="6.5628415346145630e-01" nType="-99"/>
          <Node pos="r" depth="2" NCoef="0" IVar="-1" Cut="0.0000000000000000e+00" cType="1" res="9.2690746532753110e-04" rms="4.3566530942916870e-01" purity="6.7096149921417236e-01" nType="-99"/>
        </Node>
        <Node pos="r" depth="1" NCoef="0" IVar="9" Cut="2.9149210453033447e+00" cType="1" res="-9.2321727424860001e-03" rms="4.6072196960449219e-01" purity="4.5389622449874878e-01" nType="0">
          <Node pos="l" depth="2" NCoef="0" IVar="-1" Cut="0.0000000000000000e+00" cType="1" res="-1.2689227005466819e-03" rms="4.6608445048332214e-01" purity="4.8563835024833679e-01" nType="-99"/>
          <Node pos="r" depth="2" NCoef="0" IVar="-1" Cut="0.0000000000000000e+00" cType="1" res="1.0114398319274187e-03" rms="4.5083165168762207e-01" purity="4.0845081210136414e-01" nType="-99"/>
        </Node>
      </Node>
    </BinaryTree>
    <BinaryTree type="DecisionTree" boostWeight="1.0000000000000000e+00" itree="340">
      <Node pos="s" depth="0" NCoef="0" IVar="7" Cut="4.3851196289062500e+01" cType="1" res="-1.0543961077928543e-02" rms="4.5856088399887085e-01" purity="4.7841596603393555e-01" nType="0">
        <Node pos="l" depth="1" NCoef="0" IVar="11" Cut="5.9421771764755249e-01" cType="1" res="1.8705617636442184e-02" rms="4.5101058483123779e-01" purity="4.4356420636177063e-01" nType="0">
          <Node pos="l" depth="2" NCoef="0" IVar="-1" Cut="0.0000000000000000e+00" cType="1" res="2.7423275168985128e-03" rms="4.4544160366058350e-01" purity="3.9213505387306213e-01" nType="-99"/>
          <Node pos="r" depth="2" NCoef="0" IVar="-1" Cut="0.0000000000000000e+00" cType="1" res="-3.9411327452398837e-04" rms="4.5252564549446106e-01" purity="4.7886332869529724e-01" nType="-99"/>
        </Node>
        <Node pos="r" depth="1" NCoef="0" IVar="7" Cut="5.4541221618652344e+01" cType="1" res="-3.0250448733568192e-02" rms="4.6253672242164612e-01" purity="5.0189685821533203e-01" nType="0">
          <Node pos="l" depth="2" NCoef="0" IVar="-1" Cut="0.0000000000000000e+00" cType="1" res="-3.5039777867496014e-03" rms="4.6257424354553223e-01" purity="4.0110257267951965e-01" nType="-99"/>
          <Node pos="r" depth="2" NCoef="0" IVar="-1" Cut="0.0000000000000000e+00" cType="1" res="-3.1911124824546278e-04" rms="4.6062898635864258e-01" purity="5.3969430923461914e-01" nType="-99"/>
        </Node>
      </Node>
    </BinaryTree>
    <BinaryTree type="DecisionTree" boostWeight="1.0000000000000000e+00" itree="341">
      <Node pos="s" depth="0" NCoef="0" IVar="5" Cut="9.1801422834396362e-01" cType="1" res="-1.0892316699028015e-02" rms="4.4997563958168030e-01" purity="4.8879033327102661e-01" nType="0">
        <Node pos="l" depth="1" NCoef="0" IVar="-1" Cut="0.0000000000000000e+00" cType="1" res="-4.5643388293683529e-03" rms="3.9080077409744263e-01" purity="2.4831713736057281e-01" nType="-99"/>
        <Node pos="r" depth="1" NCoef="0" IVar="1" Cut="7.8069229125976562e+01" cType="1" res="-3.1940143089741468e-03" rms="4.5303437113761902e-01" purity="5.0634962320327759e-01" nType="0">
          <Node pos="l" depth="2" NCoef="0" IVar="-1" Cut="0.0000000000000000e+00" cType="1" res="-3.6167062353342772e-03" rms="4.5055112242698669e-01" purity="3.6638772487640381e-01" nType="-99"/>
          <Node pos="r" depth="2" NCoef="0" IVar="-1" Cut="0.0000000000000000e+00" cType="1" res="2.2535165771842003e-04" rms="4.5240631699562073e-01" purity="5.2162748575210571e-01" nType="-99"/>
        </Node>
      </Node>
    </BinaryTree>
    <BinaryTree type="DecisionTree" boostWeight="1.0000000000000000e+00" itree="342">
      <Node pos="s" depth="0" NCoef="0" IVar="1" Cut="7.6787170410156250e+01" cType="1" res="2.8480465989559889e-03" rms="4.5518213510513306e-01" purity="4.9535071849822998e-01" nType="0">
        <Node pos="l" depth="1" NCoef="0" IVar="-1" Cut="0.0000000000000000e+00" cType="1" res="-3.0265906825661659e-03" rms="4.5082199573516846e-01" purity="3.5249724984169006e-01" nType="-99"/>
        <Node pos="r" depth="1" NCoef="0" IVar="8" Cut="1.7860334777832031e+02" cType="1" res="9.7656110301613808e-03" rms="4.5496892929077148e-01" purity="5.0865060091018677e-01" nType="0">
          <Node pos="l" depth="2" NCoef="0" IVar="-1" Cut="0.0000000000000000e+00" cType="1" res="1.8537448486313224e-03" rms="4.4541820883750916e-01" purity="6.0751312971115112e-01" nType="-99"/>
          <Node pos="r" depth="2" NCoef="0" IVar="-1" Cut="0.0000000000000000e+00" cType="1" res="-8.1582140410318971e-05" rms="4.5716094970703125e-01" purity="4.7870960831642151e-01" nType="-99"/>
        </Node>
      </Node>
    </BinaryTree>
    <BinaryTree type="DecisionTree" boostWeight="1.0000000000000000e+00" itree="343">
      <Node pos="s" depth="0" NCoef="0" IVar="0" Cut="6.2340850830078125e+01" cType="1" res="7.3054465465247631e-03" rms="4.4591763615608215e-01" purity="5.0443136692047119e-01" nType="0">
        <Node pos="l" depth="1" NCoef="0" IVar="0" Cut="2.6404846191406250e+01" cType="1" res="-1.9260609522461891e-02" rms="4.5291593670845032e-01" purity="3.9624953269958496e-01" nType="0">
          <Node pos="l" depth="2" NCoef="0" IVar="-1" Cut="0.0000000000000000e+00" cType="1" res="-5.3256410174071789e-03" rms="3.6369428038597107e-01" purity="1.6170726716518402e-01" nType="-99"/>
          <Node pos="r" depth="2" NCoef="0" IVar="-1" Cut="0.0000000000000000e+00" cType="1" res="-3.7835948751308024e-04" rms="4.6178889274597168e-01" purity="4.2520058155059814e-01" nType="-99"/>
        </Node>
        <Node pos="r" depth="1" NCoef="0" IVar="2" Cut="2.5363378524780273e+00" cType="1" res="3.2781157642602921e-02" rms="4.3758955597877502e-01" purity="6.0817301273345947e-01" nType="0">
          <Node pos="l" depth="2" NCoef="0" IVar="-1" Cut="0.0000000000000000e+00" cType="1" res="2.2080866619944572e-03" rms="4.3087252974510193e-01" purity="7.0710158348083496e-01" nType="-99"/>
          <Node pos="r" depth="2" NCoef="0" IVar="-1" Cut="0.0000000000000000e+00" cType="1" res="-1.7039419617503881e-03" rms="4.4781073927879333e-01" purity="3.2769346237182617e-01" nType="-99"/>
        </Node>
      </Node>
    </BinaryTree>
    <BinaryTree type="DecisionTree" boostWeight="1.0000000000000000e+00" itree="344">
      <Node pos="s" depth="0" NCoef="0" IVar="8" Cut="2.3472906494140625e+02" cType="1" res="-1.1660763062536716e-02" rms="4.5771178603172302e-01" purity="4.8786729574203491e-01" nType="0">
        <Node pos="l" depth="1" NCoef="0" IVar="10" Cut="7.0720511674880981e-01" cType="1" res="1.3874578289687634e-02" rms="4.5837312936782837e-01" purity="5.4947805404663086e-01" nType="0">
          <Node pos="l" depth="2" NCoef="0" IVar="-1" Cut="0.0000000000000000e+00" cType="1" res="-4.8741797218099236e-04" rms="4.6441870927810669e-01" purity="4.8881101608276367e-01" nType="-99"/>
          <Node pos="r" depth="2" NCoef="0" IVar="-1" Cut="0.0000000000000000e+00" cType="1" res="2.5151902809739113e-03" rms="4.4165810942649841e-01" purity="6.6832494735717773e-01" nType="-99"/>
        </Node>
        <Node pos="r" depth="1" NCoef="0" IVar="7" Cut="1.0908649444580078e+02" cType="1" res="-3.8672115653753281e-02" rms="4.5545569062232971e-01" purity="4.2269527912139893e-01" nType="0">
          <Node pos="l" depth="2" NCoef="0" IVar="-1" Cut="0.0000000000000000e+00" cType="1" res="-2.6241296436637640e-03" rms="4.5105382800102234e-01" purity="3.7376719713211060e-01" nType="-99"/>
          <Node pos="r" depth="2" NCoef="0" IVar="-1" Cut="0.0000000000000000e+00" cType="1" res="3.0904756858944893e-03" rms="4.5782488584518433e-01" purity="6.6676741838455200e-01" nType="-99"/>
        </Node>
      </Node>
    </BinaryTree>
    <BinaryTree type="DecisionTree" boostWeight="1.0000000000000000e+00" itree="345">
      <Node pos="s" depth="0" NCoef="0" IVar="8" Cut="1.8362188720703125e+02" cType="1" res="-7.3979520238935947e-03" rms="4.5745557546615601e-01" purity="4.9094924330711365e-01" nType="0">
        <Node pos="l" depth="1" NCoef="0" IVar="3" Cut="1.2361653137207031e+02" cType="1" res="2.3046966642141342e-02" rms="4.6282419562339783e-01" purity="5.5281150341033936e-01" nType="0">
          <Node pos="l" depth="2" NCoef="0" IVar="-1" Cut="0.0000000000000000e+00" cType="1" res="-1.2892938684672117e-03" rms="4.8210358619689941e-01" purity="4.7438302636146545e-01" nType="-99"/>
          <Node pos="r" depth="2" NCoef="0" IVar="-1" Cut="0.0000000000000000e+00" cType="1" res="2.7618070598691702e-03" rms="4.3908709287643433e-01" purity="6.2217348814010620e-01" nType="-99"/>
        </Node>
        <Node pos="r" depth="1" NCoef="0" IVar="1" Cut="1.1793180084228516e+02" cType="1" res="-2.1558949723839760e-02" rms="4.5424208045005798e-01" purity="4.6217498183250427e-01" nType="0">
          <Node pos="l" depth="2" NCoef="0" IVar="-1" Cut="0.0000000000000000e+00" cType="1" res="-3.0225296504795551e-03" rms="4.4677215814590454e-01" purity="4.1055688261985779e-01" nType="-99"/>
          <Node pos="r" depth="2" NCoef="0" IVar="-1" Cut="0.0000000000000000e+00" cType="1" res="5.6601751566631719e-05" rms="4.5551687479019165e-01" purity="4.8450237512588501e-01" nType="-99"/>
        </Node>
      </Node>
    </BinaryTree>
    <BinaryTree type="DecisionTree" boostWeight="1.0000000000000000e+00" itree="346">
      <Node pos="s" depth="0" NCoef="0" IVar="1" Cut="7.7356224060058594e+01" cType="1" res="4.5367693528532982e-03" rms="4.5172771811485291e-01" purity="5.0143730640411377e-01" nType="0">
        <Node pos="l" depth="1" NCoef="0" IVar="-1" Cut="0.0000000000000000e+00" cType="1" res="-3.6316432524472475e-03" rms="4.3377235531806946e-01" purity="3.3445975184440613e-01" nType="-99"/>
        <Node pos="r" depth="1" NCoef="0" IVar="10" Cut="3.9905124902725220e-01" cType="1" res="1.2755497358739376e-02" rms="4.5255601406097412e-01" purity="5.1742291450500488e-01" nType="0">
          <Node pos="l" depth="2" NCoef="0" IVar="-1" Cut="0.0000000000000000e+00" cType="1" res="-4.0631177835166454e-03" rms="3.6846390366554260e-01" purity="2.4622347950935364e-01" nType="-99"/>
          <Node pos="r" depth="2" NCoef="0" IVar="-1" Cut="0.0000000000000000e+00" cType="1" res="7.3401373811066151e-04" rms="4.5672214031219482e-01" purity="5.3477931022644043e-01" nType="-99"/>
        </Node>
      </Node>
    </BinaryTree>
    <BinaryTree type="DecisionTree" boostWeight="1.0000000000000000e+00" itree="347">
      <Node pos="s" depth="0" NCoef="0" IVar="10" Cut="7.7290314435958862e-01" cType="1" res="3.2052488531917334e-03" rms="4.4655990600585938e-01" purity="5.0265288352966309e-01" nType="0">
        <Node pos="l" depth="1" NCoef="0" IVar="1" Cut="7.7356224060058594e+01" cType="1" res="-1.0060417465865612e-02" rms="4.4867664575576782e-01" purity="4.6509462594985962e-01" nType="0">
          <Node pos="l" depth="2" NCoef="0" IVar="-1" Cut="0.0000000000000000e+00" cType="1" res="-4.7778668813407421e-03" rms="4.2134362459182739e-01" purity="2.9168277978897095e-01" nType="-99"/>
          <Node pos="r" depth="2" NCoef="0" IVar="-1" Cut="0.0000000000000000e+00" cType="1" res="-7.4792886152863503e-05" rms="4.4988885521888733e-01" purity="4.7937288880348206e-01" nType="-99"/>
        </Node>
        <Node pos="r" depth="1" NCoef="0" IVar="5" Cut="9.5749598741531372e-01" cType="1" res="7.3682397603988647e-02" rms="4.2830634117126465e-01" purity="7.0219039916992188e-01" nType="0">
          <Node pos="l" depth="2" NCoef="0" IVar="-1" Cut="0.0000000000000000e+00" cType="1" res="1.2081832392141223e-03" rms="4.7131839394569397e-01" purity="6.1408418416976929e-01" nType="-99"/>
          <Node pos="r" depth="2" NCoef="0" IVar="-1" Cut="0.0000000000000000e+00" cType="1" res="4.4366577640175819e-03" rms="3.7756130099296570e-01" purity="7.8787028789520264e-01" nType="-99"/>
        </Node>
      </Node>
    </BinaryTree>
    <BinaryTree type="DecisionTree" boostWeight="1.0000000000000000e+00" itree="348">
      <Node pos="s" depth="0" NCoef="0" IVar="10" Cut="8.2898044586181641e-01" cType="1" res="4.5014498755335808e-03" rms="4.5187029242515564e-01" purity="5.0698620080947876e-01" nType="0">
        <Node pos="l" depth="1" NCoef="0" IVar="3" Cut="1.0692326354980469e+02" cType="1" res="-4.8389085568487644e-03" rms="4.5516264438629150e-01" purity="4.8565053939819336e-01" nType="0">
          <Node pos="l" depth="2" NCoef="0" IVar="-1" Cut="0.0000000000000000e+00" cType="1" res="-3.9946711622178555e-03" rms="4.1504627466201782e-01" purity="3.1255242228507996e-01" nType="-99"/>
          <Node pos="r" depth="2" NCoef="0" IVar="-1" Cut="0.0000000000000000e+00" cType="1" res="3.1422045140061527e-05" rms="4.5698750019073486e-01" purity="4.9655938148498535e-01" nType="-99"/>
        </Node>
        <Node pos="r" depth="1" NCoef="0" IVar="-1" Cut="0.0000000000000000e+00" cType="1" res="4.3401275761425495e-03" rms="3.9452624320983887e-01" purity="7.5924903154373169e-01" nType="-99"/>
      </Node>
    </BinaryTree>
    <BinaryTree type="DecisionTree" boostWeight="1.0000000000000000e+00" itree="349">
      <Node pos="s" depth="0" NCoef="0" IVar="11" Cut="4.0518712997436523e-01" cType="1" res="1.7382489517331123e-02" rms="4.5265167951583862e-01" purity="5.1546919345855713e-01" nType="0">
        <Node pos="l" depth="1" NCoef="0" IVar="-1" Cut="0.0000000000000000e+00" cType="1" res="-4.0567433461546898e-03" rms="3.8466730713844299e-01" purity="2.1569034457206726e-01" nType="-99"/>
        <Node pos="r" depth="1" NCoef="0" IVar="0" Cut="1.3472377014160156e+02" cType="1" res="2.6471262797713280e-02" rms="4.5743355154991150e-01" purity="5.4347836971282959e-01" nType="0">
          <Node pos="l" depth="2" NCoef="0" IVar="-1" Cut="0.0000000000000000e+00" cType="1" res="1.3169625308364630e-03" rms="4.5697328448295593e-01" purity="5.5231600999832153e-01" nType="-99"/>
          <Node pos="r" depth="2" NCoef="0" IVar="-1" Cut="0.0000000000000000e+00" cType="1" res="-3.0134581029415131e-03" rms="4.5055967569351196e-01" purity="4.3188509345054626e-01" nType="-99"/>
        </Node>
      </Node>
    </BinaryTree>
    <BinaryTree type="DecisionTree" boostWeight="1.0000000000000000e+00" itree="350">
      <Node pos="s" depth="0" NCoef="0" IVar="8" Cut="1.8939866638183594e+02" cType="1" res="1.4247858896851540e-02" rms="4.5593127608299255e-01" purity="5.1350700855255127e-01" nType="0">
        <Node pos="l" depth="1" NCoef="0" IVar="4" Cut="2.4039022827148438e+02" cType="1" res="5.9726942330598831e-02" rms="4.5236325263977051e-01" purity="5.8876168727874756e-01" nType="0">
          <Node pos="l" depth="2" NCoef="0" IVar="-1" Cut="0.0000000000000000e+00" cType="1" res="1.1871135793626308e-03" rms="4.6968454122543335e-01" purity="4.8650243878364563e-01" nType="-99"/>
          <Node pos="r" depth="2" NCoef="0" IVar="-1" Cut="0.0000000000000000e+00" cType="1" res="3.7617860361933708e-03" rms="4.2237430810928345e-01" purity="7.3671609163284302e-01" nType="-99"/>
        </Node>
        <Node pos="r" depth="1" NCoef="0" IVar="6" Cut="2.7498292922973633e+01" cType="1" res="-9.6682878211140633e-03" rms="4.5598018169403076e-01" purity="4.7393274307250977e-01" nType="0">
          <Node pos="l" depth="2" NCoef="0" IVar="-1" Cut="0.0000000000000000e+00" cType="1" res="-6.5952129662036896e-03" rms="3.7967440485954285e-01" purity="2.1577696502208710e-01" nType="-99"/>
          <Node pos="r" depth="2" NCoef="0" IVar="-1" Cut="0.0000000000000000e+00" cType="1" res="5.5939177400432527e-05" rms="4.6090602874755859e-01" purity="4.9804860353469849e-01" nType="-99"/>
        </Node>
      </Node>
    </BinaryTree>
    <BinaryTree type="DecisionTree" boostWeight="1.0000000000000000e+00" itree="351">
      <Node pos="s" depth="0" NCoef="0" IVar="1" Cut="1.7434855651855469e+02" cType="1" res="2.6523780543357134e-03" rms="4.5322102308273315e-01" purity="5.0334137678146362e-01" nType="0">
        <Node pos="l" depth="1" NCoef="0" IVar="1" Cut="7.5299995422363281e+01" cType="1" res="1.5398920513689518e-02" rms="4.5606571435928345e-01" purity="5.2674776315689087e-01" nType="0">
          <Node pos="l" depth="2" NCoef="0" IVar="-1" Cut="0.0000000000000000e+00" cType="1" res="-4.7135362401604652e-03" rms="4.4946733117103577e-01" purity="2.9601600766181946e-01" nType="-99"/>
          <Node pos="r" depth="2" NCoef="0" IVar="-1" Cut="0.0000000000000000e+00" cType="1" res="1.0359789011999965e-03" rms="4.5496615767478943e-01" purity="5.4778832197189331e-01" nType="-99"/>
        </Node>
        <Node pos="r" depth="1" NCoef="0" IVar="9" Cut="3.2730627059936523e+00" cType="1" res="-6.4980812370777130e-02" rms="4.3156483769416809e-01" purity="3.7914717197418213e-01" nType="0">
          <Node pos="l" depth="2" NCoef="0" IVar="-1" Cut="0.0000000000000000e+00" cType="1" res="-4.5446059666574001e-03" rms="4.3096476793289185e-01" purity="3.7256279587745667e-01" nType="-99"/>
          <Node pos="r" depth="2" NCoef="0" IVar="-1" Cut="0.0000000000000000e+00" cType="1" res="-1.1061543045798317e-04" rms="4.2451196908950806e-01" purity="3.8824054598808289e-01" nType="-99"/>
        </Node>
      </Node>
    </BinaryTree>
    <BinaryTree type="DecisionTree" boostWeight="1.0000000000000000e+00" itree="352">
      <Node pos="s" depth="0" NCoef="0" IVar="7" Cut="1.2380715179443359e+02" cType="1" res="9.4504002481698990e-03" rms="4.5125776529312134e-01" purity="5.0317245721817017e-01" nType="0">
        <Node pos="l" depth="1" NCoef="0" IVar="5" Cut="9.1801422834396362e-01" cType="1" res="2.9777081217616796e-03" rms="4.5074245333671570e-01" purity="4.9151280522346497e-01" nType="0">
          <Node pos="l" depth="2" NCoef="0" IVar="-1" Cut="0.0000000000000000e+00" cType="1" res="-4.2865690775215626e-03" rms="3.9635071158409119e-01" purity="2.2578634321689606e-01" nType="-99"/>
          <Node pos="r" depth="2" NCoef="0" IVar="-1" Cut="0.0000000000000000e+00" cType="1" res="4.4964923290535808e-04" rms="4.5373663306236267e-01" purity="5.1273947954177856e-01" nType="-99"/>
        </Node>
        <Node pos="r" depth="1" NCoef="0" IVar="-1" Cut="0.0000000000000000e+00" cType="1" res="4.5539722777903080e-03" rms="4.4597300887107849e-01" purity="6.9931590557098389e-01" nType="-99"/>
      </Node>
    </BinaryTree>
    <BinaryTree type="DecisionTree" boostWeight="1.0000000000000000e+00" itree="353">
      <Node pos="s" depth="0" NCoef="0" IVar="4" Cut="5.0859945678710938e+02" cType="1" res="1.6143394634127617e-02" rms="4.5536053180694580e-01" purity="5.1016223430633545e-01" nType="0">
        <Node pos="l" depth="1" NCoef="0" IVar="4" Cut="3.6052923583984375e+02" cType="1" res="2.6651844382286072e-02" rms="4.5366799831390381e-01" purity="5.1747649908065796e-01" nType="0">
          <Node pos="l" depth="2" NCoef="0" IVar="-1" Cut="0.0000000000000000e+00" cType="1" res="4.9931433750316501e-04" rms="4.5432844758033752e-01" purity="4.9188080430030823e-01" nType="-99"/>
          <Node pos="r" depth="2" NCoef="0" IVar="-1" Cut="0.0000000000000000e+00" cType="1" res="2.5802853051573038e-03" rms="4.4899013638496399e-01" purity="5.9438776969909668e-01" nType="-99"/>
        </Node>
        <Node pos="r" depth="1" NCoef="0" IVar="5" Cut="9.5310628414154053e-01" cType="1" res="-7.6060824096202850e-02" rms="4.5976349711418152e-01" purity="4.4598504900932312e-01" nType="0">
          <Node pos="l" depth="2" NCoef="0" IVar="-1" Cut="0.0000000000000000e+00" cType="1" res="-4.6435469994321465e-04" rms="4.6155333518981934e-01" purity="4.7530201077461243e-01" nType="-99"/>
          <Node pos="r" depth="2" NCoef="0" IVar="-1" Cut="0.0000000000000000e+00" cType="1" res="-5.6747598573565483e-03" rms="4.4884899258613586e-01" purity="4.1655653715133667e-01" nType="-99"/>
        </Node>
      </Node>
    </BinaryTree>
    <BinaryTree type="DecisionTree" boostWeight="1.0000000000000000e+00" itree="354">
      <Node pos="s" depth="0" NCoef="0" IVar="10" Cut="8.4018731117248535e-01" cType="1" res="-2.4776294594630599e-04" rms="4.5269668102264404e-01" purity="4.9681943655014038e-01" nType="0">
        <Node pos="l" depth="1" NCoef="0" IVar="8" Cut="3.1340469360351562e+02" cType="1" res="-6.7258579656481743e-03" rms="4.5348602533340454e-01" purity="4.8110362887382507e-01" nType="0">
          <Node pos="l" depth="2" NCoef="0" IVar="-1" Cut="0.0000000000000000e+00" cType="1" res="3.3093092497438192e-04" rms="4.5715403556823730e-01" purity="5.2373933792114258e-01" nType="-99"/>
          <Node pos="r" depth="2" NCoef="0" IVar="-1" Cut="0.0000000000000000e+00" cType="1" res="-1.8801668193191290e-03" rms="4.4194567203521729e-01" purity="3.7504336237907410e-01" nType="-99"/>
        </Node>
        <Node pos="r" depth="1" NCoef="0" IVar="-1" Cut="0.0000000000000000e+00" cType="1" res="3.9988979697227478e-03" rms="4.2624375224113464e-01" purity="7.5118851661682129e-01" nType="-99"/>
      </Node>
    </BinaryTree>
    <BinaryTree type="DecisionTree" boostWeight="1.0000000000000000e+00" itree="355">
      <Node pos="s" depth="0" NCoef="0" IVar="9" Cut="2.4181442260742188e+00" cType="1" res="-8.4704451728612185e-04" rms="4.5534956455230713e-01" purity="4.9384117126464844e-01" nType="0">
        <Node pos="l" depth="1" NCoef="0" IVar="2" Cut="1.7725412845611572e+00" cType="1" res="-3.0810033902525902e-02" rms="4.6304967999458313e-01" purity="5.4944044351577759e-01" nType="0">
          <Node pos="l" depth="2" NCoef="0" IVar="-1" Cut="0.0000000000000000e+00" cType="1" res="-2.5553331943228841e-04" rms="4.6028822660446167e-01" purity="6.0533761978149414e-01" nType="-99"/>
          <Node pos="r" depth="2" NCoef="0" IVar="-1" Cut="0.0000000000000000e+00" cType="1" res="-3.1377724371850491e-03" rms="4.6470510959625244e-01" purity="4.3512186408042908e-01" nType="-99"/>
        </Node>
        <Node pos="r" depth="1" NCoef="0" IVar="7" Cut="1.1090728759765625e+02" cType="1" res="2.2809015586972237e-02" rms="4.4776284694671631e-01" purity="4.4994506239891052e-01" nType="0">
          <Node pos="l" depth="2" NCoef="0" IVar="-1" Cut="0.0000000000000000e+00" cType="1" res="4.7090067528188229e-04" rms="4.4808015227317810e-01" purity="4.2551460862159729e-01" nType="-99"/>
          <Node pos="r" depth="2" NCoef="0" IVar="-1" Cut="0.0000000000000000e+00" cType="1" res="4.6450039371848106e-03" rms="4.3212622404098511e-01" purity="6.6962498426437378e-01" nType="-99"/>
        </Node>
      </Node>
    </BinaryTree>
    <BinaryTree type="DecisionTree" boostWeight="1.0000000000000000e+00" itree="356">
      <Node pos="s" depth="0" NCoef="0" IVar="1" Cut="2.0796330261230469e+02" cType="1" res="-1.7562042921781540e-02" rms="4.5268866419792175e-01" purity="4.8800981044769287e-01" nType="0">
        <Node pos="l" depth="1" NCoef="0" IVar="0" Cut="1.2275798797607422e+02" cType="1" res="-9.8804030567407608e-03" rms="4.5448368787765503e-01" purity="5.0108700990676880e-01" nType="0">
          <Node pos="l" depth="2" NCoef="0" IVar="-1" Cut="0.0000000000000000e+00" cType="1" res="-7.4645032873377204e-04" rms="4.5550870895385742e-01" purity="4.8643374443054199e-01" nType="-99"/>
          <Node pos="r" depth="2" NCoef="0" IVar="-1" Cut="0.0000000000000000e+00" cType="1" res="2.6317609008401632e-03" rms="4.3710726499557495e-01" purity="6.3234466314315796e-01" nType="-99"/>
        </Node>
        <Node pos="r" depth="1" NCoef="0" IVar="-1" Cut="0.0000000000000000e+00" cType="1" res="-5.1309531554579735e-03" rms="4.1551059484481812e-01" purity="3.1650832295417786e-01" nType="-99"/>
      </Node>
    </BinaryTree>
    <BinaryTree type="DecisionTree" boostWeight="1.0000000000000000e+00" itree="357">
      <Node pos="s" depth="0" NCoef="0" IVar="11" Cut="8.8022464513778687e-01" cType="1" res="1.6268173232674599e-02" rms="4.5157599449157715e-01" purity="5.1564264297485352e-01" nType="0">
        <Node pos="l" depth="1" NCoef="0" IVar="10" Cut="7.9043793678283691e-01" cType="1" res="2.4244977161288261e-02" rms="4.4979375600814819e-01" purity="5.1327592134475708e-01" nType="0">
          <Node pos="l" depth="2" NCoef="0" IVar="-1" Cut="0.0000000000000000e+00" cType="1" res="5.1647709915414453e-04" rms="4.5420879125595093e-01" purity="4.8718559741973877e-01" nType="-99"/>
          <Node pos="r" depth="2" NCoef="0" IVar="-1" Cut="0.0000000000000000e+00" cType="1" res="4.8921904526650906e-03" rms="3.8993248343467712e-01" purity="7.6219654083251953e-01" nType="-99"/>
        </Node>
        <Node pos="r" depth="1" NCoef="0" IVar="-1" Cut="0.0000000000000000e+00" cType="1" res="-3.2508366275578737e-03" rms="4.6181398630142212e-01" purity="5.4405617713928223e-01" nType="-99"/>
      </Node>
    </BinaryTree>
    <BinaryTree type="DecisionTree" boostWeight="1.0000000000000000e+00" itree="358">
      <Node pos="s" depth="0" NCoef="0" IVar="10" Cut="5.6386238336563110e-01" cType="1" res="9.9599333480000496e-03" rms="4.4988402724266052e-01" purity="5.1276516914367676e-01" nType="0">
        <Node pos="l" depth="1" NCoef="0" IVar="11" Cut="5.5777394771575928e-01" cType="1" res="-2.3572213947772980e-02" rms="4.2961999773979187e-01" purity="3.7784767150878906e-01" nType="0">
          <Node pos="l" depth="2" NCoef="0" IVar="-1" Cut="0.0000000000000000e+00" cType="1" res="2.6696143322624266e-04" rms="4.1703107953071594e-01" purity="3.6826074123382568e-01" nType="-99"/>
          <Node pos="r" depth="2" NCoef="0" IVar="-1" Cut="0.0000000000000000e+00" cType="1" res="-3.3224013168364763e-03" rms="4.4898992776870728e-01" purity="3.9850220084190369e-01" nType="-99"/>
        </Node>
        <Node pos="r" depth="1" NCoef="0" IVar="9" Cut="3.1025671958923340e+00" cType="1" res="2.9592853039503098e-02" rms="4.6020293235778809e-01" purity="5.9175878763198853e-01" nType="0">
          <Node pos="l" depth="2" NCoef="0" IVar="-1" Cut="0.0000000000000000e+00" cType="1" res="6.9238379364833236e-04" rms="4.6111997961997986e-01" purity="5.8739548921585083e-01" nType="-99"/>
          <Node pos="r" depth="2" NCoef="0" IVar="-1" Cut="0.0000000000000000e+00" cType="1" res="3.6631054244935513e-03" rms="4.4810679554939270e-01" purity="6.1908334493637085e-01" nType="-99"/>
        </Node>
      </Node>
    </BinaryTree>
    <BinaryTree type="DecisionTree" boostWeight="1.0000000000000000e+00" itree="359">
      <Node pos="s" depth="0" NCoef="0" IVar="0" Cut="8.3288345336914062e+01" cType="1" res="-2.6397618930786848e-03" rms="4.5032259821891785e-01" purity="4.9711161851882935e-01" nType="0">
        <Node pos="l" depth="1" NCoef="0" IVar="11" Cut="8.4393423795700073e-01" cType="1" res="-2.4536978453397751e-02" rms="4.5241832733154297e-01" purity="4.3372803926467896e-01" nType="0">
          <Node pos="l" depth="2" NCoef="0" IVar="-1" Cut="0.0000000000000000e+00" cType="1" res="-1.5896407421678305e-03" rms="4.5057472586631775e-01" purity="3.9681410789489746e-01" nType="-99"/>
          <Node pos="r" depth="2" NCoef="0" IVar="-1" Cut="0.0000000000000000e+00" cType="1" res="2.2327115293592215e-03" rms="4.5361220836639404e-01" purity="6.4903873205184937e-01" nType="-99"/>
        </Node>
        <Node pos="r" depth="1" NCoef="0" IVar="0" Cut="1.4195913696289062e+02" cType="1" res="4.4474974274635315e-02" rms="4.4211795926094055e-01" purity="6.3348978757858276e-01" nType="0">
          <Node pos="l" depth="2" NCoef="0" IVar="-1" Cut="0.0000000000000000e+00" cType="1" res="2.3407756816595793e-03" rms="4.4024014472961426e-01" purity="6.7849451303482056e-01" nType="-99"/>
          <Node pos="r" depth="2" NCoef="0" IVar="-1" Cut="0.0000000000000000e+00" cType="1" res="-1.0587854776531458e-03" rms="4.4295808672904968e-01" purity="4.4817191362380981e-01" nType="-99"/>
        </Node>
      </Node>
    </BinaryTree>
    <BinaryTree type="DecisionTree" boostWeight="1.0000000000000000e+00" itree="360">
      <Node pos="s" depth="0" NCoef="0" IVar="1" Cut="7.5981750488281250e+01" cType="1" res="-3.1934240832924843e-03" rms="4.5040866732597351e-01" purity="4.9859100580215454e-01" nType="0">
        <Node pos="l" depth="1" NCoef="0" IVar="-1" Cut="0.0000000000000000e+00" cType="1" res="-4.9178712069988251e-03" rms="4.4889780879020691e-01" purity="3.0128887295722961e-01" nType="-99"/>
        <Node pos="r" depth="1" NCoef="0" IVar="9" Cut="1.7265356779098511e+00" cType="1" res="6.4780386164784431e-03" rms="4.4925934076309204e-01" purity="5.1599580049514771e-01" nType="0">
          <Node pos="l" depth="2" NCoef="0" IVar="-1" Cut="0.0000000000000000e+00" cType="1" res="2.5549887213855982e-03" rms="4.2322075366973877e-01" purity="7.2184830904006958e-01" nType="-99"/>
          <Node pos="r" depth="2" NCoef="0" IVar="-1" Cut="0.0000000000000000e+00" cType="1" res="-3.4627184504643083e-04" rms="4.5445287227630615e-01" purity="4.6321228146553040e-01" nType="-99"/>
        </Node>
      </Node>
    </BinaryTree>
    <BinaryTree type="DecisionTree" boostWeight="1.0000000000000000e+00" itree="361">
      <Node pos="s" depth="0" NCoef="0" IVar="1" Cut="7.9711334228515625e+01" cType="1" res="-5.4133329540491104e-03" rms="4.5497283339500427e-01" purity="4.9250289797782898e-01" nType="0">
        <Node pos="l" depth="1" NCoef="0" IVar="0" Cut="3.8906665802001953e+01" cType="1" res="-8.5315510630607605e-02" rms="4.3805387616157532e-01" purity="3.3627527952194214e-01" nType="0">
          <Node pos="l" depth="2" NCoef="0" IVar="-1" Cut="0.0000000000000000e+00" cType="1" res="-6.5108779817819595e-03" rms="3.7568622827529907e-01" purity="1.8332299590110779e-01" nType="-99"/>
          <Node pos="r" depth="2" NCoef="0" IVar="-1" Cut="0.0000000000000000e+00" cType="1" res="-1.4376619365066290e-03" rms="4.8863783478736877e-01" purity="4.9131983518600464e-01" nType="-99"/>
        </Node>
        <Node pos="r" depth="1" NCoef="0" IVar="8" Cut="1.4406825256347656e+02" cType="1" res="3.8466625846922398e-03" rms="4.5598867535591125e-01" purity="5.1060837507247925e-01" nType="0">
          <Node pos="l" depth="2" NCoef="0" IVar="-1" Cut="0.0000000000000000e+00" cType="1" res="4.0307505987584591e-03" rms="4.3995350599288940e-01" purity="6.4234566688537598e-01" nType="-99"/>
          <Node pos="r" depth="2" NCoef="0" IVar="-1" Cut="0.0000000000000000e+00" cType="1" res="-3.7076132139191031e-04" rms="4.5625689625740051e-01" purity="4.9404996633529663e-01" nType="-99"/>
        </Node>
      </Node>
    </BinaryTree>
    <BinaryTree type="DecisionTree" boostWeight="1.0000000000000000e+00" itree="362">
      <Node pos="s" depth="0" NCoef="0" IVar="4" Cut="3.1053030395507812e+02" cType="1" res="-3.8499964284710586e-04" rms="4.5387607812881470e-01" purity="4.9743598699569702e-01" nType="0">
        <Node pos="l" depth="1" NCoef="0" IVar="0" Cut="9.4975288391113281e+01" cType="1" res="-2.1259512752294540e-02" rms="4.4922998547554016e-01" purity="4.4646596908569336e-01" nType="0">
          <Node pos="l" depth="2" NCoef="0" IVar="-1" Cut="0.0000000000000000e+00" cType="1" res="-1.2919863220304251e-03" rms="4.4945910573005676e-01" purity="4.2179584503173828e-01" nType="-99"/>
          <Node pos="r" depth="2" NCoef="0" IVar="-1" Cut="0.0000000000000000e+00" cType="1" res="2.2633799817413092e-03" rms="4.3931102752685547e-01" purity="6.3511282205581665e-01" nType="-99"/>
        </Node>
        <Node pos="r" depth="1" NCoef="0" IVar="7" Cut="3.7068218231201172e+01" cType="1" res="2.2369436919689178e-02" rms="4.5780402421951294e-01" purity="5.5299621820449829e-01" nType="0">
          <Node pos="l" depth="2" NCoef="0" IVar="-1" Cut="0.0000000000000000e+00" cType="1" res="4.1573299095034599e-03" rms="4.1421353816986084e-01" purity="5.8927249908447266e-01" nType="-99"/>
          <Node pos="r" depth="2" NCoef="0" IVar="-1" Cut="0.0000000000000000e+00" cType="1" res="6.3935767684597522e-05" rms="4.6440815925598145e-01" purity="5.4493325948715210e-01" nType="-99"/>
        </Node>
      </Node>
    </BinaryTree>
    <BinaryTree type="DecisionTree" boostWeight="1.0000000000000000e+00" itree="363">
      <Node pos="s" depth="0" NCoef="0" IVar="0" Cut="6.3275581359863281e+01" cType="1" res="1.1393694207072258e-02" rms="4.4687935709953308e-01" purity="5.1049041748046875e-01" nType="0">
        <Node pos="l" depth="1" NCoef="0" IVar="11" Cut="4.8810896277427673e-01" cType="1" res="-2.2778155282139778e-02" rms="4.4939479231834412e-01" purity="3.8894730806350708e-01" nType="0">
          <Node pos="l" depth="2" NCoef="0" IVar="-1" Cut="0.0000000000000000e+00" cType="1" res="-6.0509103350341320e-03" rms="3.4576407074928284e-01" purity="1.4642590284347534e-01" nType="-99"/>
          <Node pos="r" depth="2" NCoef="0" IVar="-1" Cut="0.0000000000000000e+00" cType="1" res="-1.7096781448344700e-05" rms="4.7049853205680847e-01" purity="4.5309147238731384e-01" nType="-99"/>
        </Node>
        <Node pos="r" depth="1" NCoef="0" IVar="5" Cut="9.6442329883575439e-01" cType="1" res="4.3949846178293228e-02" rms="4.4201901555061340e-01" purity="6.2628680467605591e-01" nType="0">
          <Node pos="l" depth="2" NCoef="0" IVar="-1" Cut="0.0000000000000000e+00" cType="1" res="8.9579971972852945e-04" rms="4.5897802710533142e-01" purity="5.6576955318450928e-01" nType="-99"/>
          <Node pos="r" depth="2" NCoef="0" IVar="-1" Cut="0.0000000000000000e+00" cType="1" res="2.9909498989582062e-03" rms="4.1108238697052002e-01" purity="7.2419995069503784e-01" nType="-99"/>
        </Node>
      </Node>
    </BinaryTree>
    <BinaryTree type="DecisionTree" boostWeight="1.0000000000000000e+00" itree="364">
      <Node pos="s" depth="0" NCoef="0" IVar="0" Cut="1.4126876831054688e+02" cType="1" res="-8.0938320606946945e-03" rms="4.5056417584419250e-01" purity="4.9397483468055725e-01" nType="0">
        <Node pos="l" depth="1" NCoef="0" IVar="0" Cut="1.1742901611328125e+02" cType="1" res="-8.1315782153978944e-04" rms="4.5202228426933289e-01" purity="5.0544208288192749e-01" nType="0">
          <Node pos="l" depth="2" NCoef="0" IVar="-1" Cut="0.0000000000000000e+00" cType="1" res="-4.4739877921529114e-04" rms="4.5360285043716431e-01" purity="4.8233094811439514e-01" nType="-99"/>
          <Node pos="r" depth="2" NCoef="0" IVar="-1" Cut="0.0000000000000000e+00" cType="1" res="4.3069184757769108e-03" rms="4.1644847393035889e-01" purity="7.6271378993988037e-01" nType="-99"/>
        </Node>
        <Node pos="r" depth="1" NCoef="0" IVar="-1" Cut="0.0000000000000000e+00" cType="1" res="-4.6561770141124725e-03" rms="4.1529855132102966e-01" purity="3.2952579855918884e-01" nType="-99"/>
      </Node>
    </BinaryTree>
    <BinaryTree type="DecisionTree" boostWeight="1.0000000000000000e+00" itree="365">
      <Node pos="s" depth="0" NCoef="0" IVar="9" Cut="3.1451570987701416e+00" cType="1" res="-1.1954614892601967e-02" rms="4.5777317881584167e-01" purity="4.8410600423812866e-01" nType="0">
        <Node pos="l" depth="1" NCoef="0" IVar="1" Cut="1.7544813537597656e+02" cType="1" res="-2.4330766871571541e-02" rms="4.6244597434997559e-01" purity="5.1494926214218140e-01" nType="0">
          <Node pos="l" depth="2" NCoef="0" IVar="-1" Cut="0.0000000000000000e+00" cType="1" res="-4.7825055662542582e-04" rms="4.6377620100975037e-01" purity="5.3043782711029053e-01" nType="-99"/>
          <Node pos="r" depth="2" NCoef="0" IVar="-1" Cut="0.0000000000000000e+00" cType="1" res="-5.0444598309695721e-03" rms="4.3934020400047302e-01" purity="3.8770434260368347e-01" nType="-99"/>
        </Node>
        <Node pos="r" depth="1" NCoef="0" IVar="4" Cut="3.5626062011718750e+02" cType="1" res="1.9417820498347282e-02" rms="4.4416624307632446e-01" purity="4.0592113137245178e-01" nType="0">
          <Node pos="l" depth="2" NCoef="0" IVar="-1" Cut="0.0000000000000000e+00" cType="1" res="-9.0445054229348898e-04" rms="4.3313875794410706e-01" purity="3.3923658728599548e-01" nType="-99"/>
          <Node pos="r" depth="2" NCoef="0" IVar="-1" Cut="0.0000000000000000e+00" cType="1" res="3.4032871481031179e-03" rms="4.5468124747276306e-01" purity="5.2363306283950806e-01" nType="-99"/>
        </Node>
      </Node>
    </BinaryTree>
    <BinaryTree type="DecisionTree" boostWeight="1.0000000000000000e+00" itree="366">
      <Node pos="s" depth="0" NCoef="0" IVar="5" Cut="9.2131346464157104e-01" cType="1" res="1.5418800525367260e-02" rms="4.4978776574134827e-01" purity="5.1769995689392090e-01" nType="0">
        <Node pos="l" depth="1" NCoef="0" IVar="-1" Cut="0.0000000000000000e+00" cType="1" res="-2.9186815954744816e-03" rms="4.1464358568191528e-01" purity="2.9802885651588440e-01" nType="-99"/>
        <Node pos="r" depth="1" NCoef="0" IVar="0" Cut="8.6701881408691406e+01" cType="1" res="2.3731393739581108e-02" rms="4.5209938287734985e-01" purity="5.3854107856750488e-01" nType="0">
          <Node pos="l" depth="2" NCoef="0" IVar="-1" Cut="0.0000000000000000e+00" cType="1" res="1.7953646602109075e-04" rms="4.6128734946250916e-01" purity="4.7478613257408142e-01" nType="-99"/>
          <Node pos="r" depth="2" NCoef="0" IVar="-1" Cut="0.0000000000000000e+00" cType="1" res="2.4483085144311190e-03" rms="4.2935627698898315e-01" purity="6.7270833253860474e-01" nType="-99"/>
        </Node>
      </Node>
    </BinaryTree>
    <BinaryTree type="DecisionTree" boostWeight="1.0000000000000000e+00" itree="367">
      <Node pos="s" depth="0" NCoef="0" IVar="7" Cut="1.0868331909179688e+02" cType="1" res="-2.7260149363428354e-03" rms="4.5852115750312805e-01" purity="4.9439829587936401e-01" nType="0">
        <Node pos="l" depth="1" NCoef="0" IVar="8" Cut="2.7232348632812500e+02" cType="1" res="-1.0854122228920460e-02" rms="4.5935451984405518e-01" purity="4.7527065873146057e-01" nType="0">
          <Node pos="l" depth="2" NCoef="0" IVar="-1" Cut="0.0000000000000000e+00" cType="1" res="3.0808697920292616e-04" rms="4.6387776732444763e-01" purity="5.2983039617538452e-01" nType="-99"/>
          <Node pos="r" depth="2" NCoef="0" IVar="-1" Cut="0.0000000000000000e+00" cType="1" res="-1.9509573467075825e-03" rms="4.4860813021659851e-01" purity="3.7282237410545349e-01" nType="-99"/>
        </Node>
        <Node pos="r" depth="1" NCoef="0" IVar="-1" Cut="0.0000000000000000e+00" cType="1" res="2.8250531759113073e-03" rms="4.4381755590438843e-01" purity="6.7065846920013428e-01" nType="-99"/>
      </Node>
    </BinaryTree>
    <BinaryTree type="DecisionTree" boostWeight="1.0000000000000000e+00" itree="368">
      <Node pos="s" depth="0" NCoef="0" IVar="9" Cut="2.5304875373840332e+00" cType="1" res="5.2370759658515453e-03" rms="4.5584410429000854e-01" purity="5.0315099954605103e-01" nType="0">
        <Node pos="l" depth="1" NCoef="0" IVar="7" Cut="3.4552146911621094e+01" cType="1" res="-2.0842541009187698e-02" rms="4.5760315656661987e-01" purity="5.4712736606597900e-01" nType="0">
          <Node pos="l" depth="2" NCoef="0" IVar="-1" Cut="0.0000000000000000e+00" cType="1" res="-3.5894871689379215e-03" rms="4.4856691360473633e-01" purity="3.5437515377998352e-01" nType="-99"/>
          <Node pos="r" depth="2" NCoef="0" IVar="-1" Cut="0.0000000000000000e+00" cType="1" res="5.6541892263339832e-05" rms="4.5856943726539612e-01" purity="6.1374020576477051e-01" nType="-99"/>
        </Node>
        <Node pos="r" depth="1" NCoef="0" IVar="1" Cut="1.5840493774414062e+02" cType="1" res="3.1070312485098839e-02" rms="4.5261588692665100e-01" purity="4.5959001779556274e-01" nType="0">
          <Node pos="l" depth="2" NCoef="0" IVar="-1" Cut="0.0000000000000000e+00" cType="1" res="2.1687597036361694e-03" rms="4.5510169863700867e-01" purity="4.9520152807235718e-01" nType="-99"/>
          <Node pos="r" depth="2" NCoef="0" IVar="-1" Cut="0.0000000000000000e+00" cType="1" res="-1.0967701673507690e-03" rms="4.4153639674186707e-01" purity="3.7568846344947815e-01" nType="-99"/>
        </Node>
      </Node>
    </BinaryTree>
    <BinaryTree type="DecisionTree" boostWeight="1.0000000000000000e+00" itree="369">
      <Node pos="s" depth="0" NCoef="0" IVar="1" Cut="1.7814675903320312e+02" cType="1" res="1.4950430952012539e-02" rms="4.5247879624366760e-01" purity="5.0972938537597656e-01" nType="0">
        <Node pos="l" depth="1" NCoef="0" IVar="0" Cut="6.5862487792968750e+01" cType="1" res="2.4583412334322929e-02" rms="4.5272308588027954e-01" purity="5.2999585866928101e-01" nType="0">
          <Node pos="l" depth="2" NCoef="0" IVar="-1" Cut="0.0000000000000000e+00" cType="1" res="5.6847591622499749e-05" rms="4.5919001102447510e-01" purity="4.3541681766510010e-01" nType="-99"/>
          <Node pos="r" depth="2" NCoef="0" IVar="-1" Cut="0.0000000000000000e+00" cType="1" res="2.1097087301313877e-03" rms="4.4155564904212952e-01" purity="6.6154080629348755e-01" nType="-99"/>
        </Node>
        <Node pos="r" depth="1" NCoef="0" IVar="8" Cut="3.5686145019531250e+02" cType="1" res="-3.7558756768703461e-02" rms="4.4751387834548950e-01" purity="3.9925763010978699e-01" nType="0">
          <Node pos="l" depth="2" NCoef="0" IVar="-1" Cut="0.0000000000000000e+00" cType="1" res="-4.6478393487632275e-03" rms="4.4089716672897339e-01" purity="4.1016072034835815e-01" nType="-99"/>
          <Node pos="r" depth="2" NCoef="0" IVar="-1" Cut="0.0000000000000000e+00" cType="1" res="3.5341782495379448e-04" rms="4.4567695260047913e-01" purity="3.9233225584030151e-01" nType="-99"/>
        </Node>
      </Node>
    </BinaryTree>
    <BinaryTree type="DecisionTree" boostWeight="1.0000000000000000e+00" itree="370">
      <Node pos="s" depth="0" NCoef="0" IVar="9" Cut="1.3542481660842896e+00" cType="1" res="-7.5677908025681973e-03" rms="4.5460063219070435e-01" purity="4.9254229664802551e-01" nType="0">
        <Node pos="l" depth="1" NCoef="0" IVar="11" Cut="8.0515569448471069e-01" cType="1" res="7.0203796029090881e-02" rms="4.2876237630844116e-01" purity="7.2398078441619873e-01" nType="0">
          <Node pos="l" depth="2" NCoef="0" IVar="-1" Cut="0.0000000000000000e+00" cType="1" res="4.4900677166879177e-03" rms="4.3042987585067749e-01" purity="7.5256574153900146e-01" nType="-99"/>
          <Node pos="r" depth="2" NCoef="0" IVar="-1" Cut="0.0000000000000000e+00" cType="1" res="7.6565699419006705e-04" rms="4.2087936401367188e-01" purity="6.9436877965927124e-01" nType="-99"/>
        </Node>
        <Node pos="r" depth="1" NCoef="0" IVar="0" Cut="1.4671531677246094e+02" cType="1" res="-1.7526246607303619e-02" rms="4.5684868097305298e-01" purity="4.6290716528892517e-01" nType="0">
          <Node pos="l" depth="2" NCoef="0" IVar="-1" Cut="0.0000000000000000e+00" cType="1" res="-4.2098358971998096e-04" rms="4.5699095726013184e-01" purity="4.7205975651741028e-01" nType="-99"/>
          <Node pos="r" depth="2" NCoef="0" IVar="-1" Cut="0.0000000000000000e+00" cType="1" res="-5.0423522479832172e-03" rms="4.3999513983726501e-01" purity="3.1710377335548401e-01" nType="-99"/>
        </Node>
      </Node>
    </BinaryTree>
    <BinaryTree type="DecisionTree" boostWeight="1.0000000000000000e+00" itree="371">
      <Node pos="s" depth="0" NCoef="0" IVar="1" Cut="2.1365220642089844e+02" cType="1" res="-4.9028219655156136e-03" rms="4.4974589347839355e-01" purity="4.9288934469223022e-01" nType="0">
        <Node pos="l" depth="1" NCoef="0" IVar="0" Cut="2.9619745254516602e+01" cType="1" res="1.0726009495556355e-03" rms="4.4972786307334900e-01" purity="5.0384157896041870e-01" nType="0">
          <Node pos="l" depth="2" NCoef="0" IVar="-1" Cut="0.0000000000000000e+00" cType="1" res="-4.1031576693058014e-03" rms="3.7769570946693420e-01" purity="1.8398514389991760e-01" nType="-99"/>
          <Node pos="r" depth="2" NCoef="0" IVar="-1" Cut="0.0000000000000000e+00" cType="1" res="3.2757897861301899e-04" rms="4.5517715811729431e-01" purity="5.3369069099426270e-01" nType="-99"/>
        </Node>
        <Node pos="r" depth="1" NCoef="0" IVar="-1" Cut="0.0000000000000000e+00" cType="1" res="-3.9886897429823875e-03" rms="4.4108796119689941e-01" purity="3.3488419651985168e-01" nType="-99"/>
      </Node>
    </BinaryTree>
    <BinaryTree type="DecisionTree" boostWeight="1.0000000000000000e+00" itree="372">
      <Node pos="s" depth="0" NCoef="0" IVar="10" Cut="7.7451616525650024e-01" cType="1" res="1.0776026174426079e-02" rms="4.4830155372619629e-01" purity="5.1245158910751343e-01" nType="0">
        <Node pos="l" depth="1" NCoef="0" IVar="8" Cut="4.6138113403320312e+02" cType="1" res="-1.3658674433827400e-03" rms="4.5052510499954224e-01" purity="4.7793278098106384e-01" nType="0">
          <Node pos="l" depth="2" NCoef="0" IVar="-1" Cut="0.0000000000000000e+00" cType="1" res="2.7901190333068371e-04" rms="4.5159474015235901e-01" purity="5.0454896688461304e-01" nType="-99"/>
          <Node pos="r" depth="2" NCoef="0" IVar="-1" Cut="0.0000000000000000e+00" cType="1" res="-2.8077587485313416e-03" rms="4.3772503733634949e-01" purity="2.8498938679695129e-01" nType="-99"/>
        </Node>
        <Node pos="r" depth="1" NCoef="0" IVar="11" Cut="8.0611550807952881e-01" cType="1" res="7.5499191880226135e-02" rms="4.3051791191101074e-01" purity="6.9645637273788452e-01" nType="0">
          <Node pos="l" depth="2" NCoef="0" IVar="-1" Cut="0.0000000000000000e+00" cType="1" res="4.6920282766222954e-03" rms="4.2188408970832825e-01" purity="7.0946097373962402e-01" nType="-99"/>
          <Node pos="r" depth="2" NCoef="0" IVar="-1" Cut="0.0000000000000000e+00" cType="1" res="1.8354142084717751e-03" rms="4.3243935704231262e-01" purity="6.8955045938491821e-01" nType="-99"/>
        </Node>
      </Node>
    </BinaryTree>
    <BinaryTree type="DecisionTree" boostWeight="1.0000000000000000e+00" itree="373">
      <Node pos="s" depth="0" NCoef="0" IVar="8" Cut="4.1667944335937500e+02" cType="1" res="9.1930106282234192e-03" rms="4.5445355772972107e-01" purity="5.0888431072235107e-01" nType="0">
        <Node pos="l" depth="1" NCoef="0" IVar="11" Cut="5.8561509847640991e-01" cType="1" res="1.9183909520506859e-02" rms="4.5550820231437683e-01" purity="5.3764367103576660e-01" nType="0">
          <Node pos="l" depth="2" NCoef="0" IVar="-1" Cut="0.0000000000000000e+00" cType="1" res="2.0650031510740519e-03" rms="4.5991256833076477e-01" purity="4.6165484189987183e-01" nType="-99"/>
          <Node pos="r" depth="2" NCoef="0" IVar="-1" Cut="0.0000000000000000e+00" cType="1" res="1.4207804633770138e-04" rms="4.5260587334632874e-01" purity="5.7323068380355835e-01" nType="-99"/>
        </Node>
        <Node pos="r" depth="1" NCoef="0" IVar="10" Cut="5.0447064638137817e-01" cType="1" res="-5.0251059234142303e-02" rms="4.4349807500839233e-01" purity="3.3777111768722534e-01" nType="0">
          <Node pos="l" depth="2" NCoef="0" IVar="-1" Cut="0.0000000000000000e+00" cType="1" res="2.2512390278279781e-03" rms="4.3710133433341980e-01" purity="3.1356689333915710e-01" nType="-99"/>
          <Node pos="r" depth="2" NCoef="0" IVar="-1" Cut="0.0000000000000000e+00" cType="1" res="-4.9097044393420219e-03" rms="4.3463969230651855e-01" purity="3.5591539740562439e-01" nType="-99"/>
        </Node>
      </Node>
    </BinaryTree>
    <BinaryTree type="DecisionTree" boostWeight="1.0000000000000000e+00" itree="374">
      <Node pos="s" depth="0" NCoef="0" IVar="6" Cut="9.7499580383300781e+01" cType="1" res="3.3995462581515312e-03" rms="4.5410060882568359e-01" purity="5.0503265857696533e-01" nType="0">
        <Node pos="l" depth="1" NCoef="0" IVar="9" Cut="1.2484990358352661e+00" cType="1" res="-8.9859412983059883e-03" rms="4.5558631420135498e-01" purity="4.7632908821105957e-01" nType="0">
          <Node pos="l" depth="2" NCoef="0" IVar="-1" Cut="0.0000000000000000e+00" cType="1" res="2.4447599425911903e-03" rms="4.6258541941642761e-01" purity="6.8716299533843994e-01" nType="-99"/>
          <Node pos="r" depth="2" NCoef="0" IVar="-1" Cut="0.0000000000000000e+00" cType="1" res="-6.7745364503934979e-04" rms="4.5410406589508057e-01" purity="4.5386978983879089e-01" nType="-99"/>
        </Node>
        <Node pos="r" depth="1" NCoef="0" IVar="4" Cut="3.9109844970703125e+02" cType="1" res="7.7038750052452087e-02" rms="4.3799197673797607e-01" purity="6.7569249868392944e-01" nType="0">
          <Node pos="l" depth="2" NCoef="0" IVar="-1" Cut="0.0000000000000000e+00" cType="1" res="6.7007626057602465e-05" rms="4.5560133457183838e-01" purity="6.1065220832824707e-01" nType="-99"/>
          <Node pos="r" depth="2" NCoef="0" IVar="-1" Cut="0.0000000000000000e+00" cType="1" res="4.7658151015639305e-03" rms="4.1961354017257690e-01" purity="7.1672391891479492e-01" nType="-99"/>
        </Node>
      </Node>
    </BinaryTree>
    <BinaryTree type="DecisionTree" boostWeight="1.0000000000000000e+00" itree="375">
      <Node pos="s" depth="0" NCoef="0" IVar="8" Cut="1.4684439086914062e+02" cType="1" res="6.8079400807619095e-03" rms="4.5072361826896667e-01" purity="5.0826644897460938e-01" nType="0">
        <Node pos="l" depth="1" NCoef="0" IVar="4" Cut="2.0979782104492188e+02" cType="1" res="6.3911683857440948e-02" rms="4.5645311474800110e-01" purity="5.6541061401367188e-01" nType="0">
          <Node pos="l" depth="2" NCoef="0" IVar="-1" Cut="0.0000000000000000e+00" cType="1" res="5.8222888037562370e-04" rms="4.7037577629089355e-01" purity="4.2069950699806213e-01" nType="-99"/>
          <Node pos="r" depth="2" NCoef="0" IVar="-1" Cut="0.0000000000000000e+00" cType="1" res="4.4469255954027176e-03" rms="4.3164557218551636e-01" purity="7.3979884386062622e-01" nType="-99"/>
        </Node>
        <Node pos="r" depth="1" NCoef="0" IVar="7" Cut="3.8681453704833984e+01" cType="1" res="-4.2574456892907619e-03" rms="4.4876527786254883e-01" purity="4.9719321727752686e-01" nType="0">
          <Node pos="l" depth="2" NCoef="0" IVar="-1" Cut="0.0000000000000000e+00" cType="1" res="-2.0923216361552477e-03" rms="4.2969039082527161e-01" purity="3.6305493116378784e-01" nType="-99"/>
          <Node pos="r" depth="2" NCoef="0" IVar="-1" Cut="0.0000000000000000e+00" cType="1" res="4.3890281813219190e-04" rms="4.5454123616218567e-01" purity="5.4610568284988403e-01" nType="-99"/>
        </Node>
      </Node>
    </BinaryTree>
    <BinaryTree type="DecisionTree" boostWeight="1.0000000000000000e+00" itree="376">
      <Node pos="s" depth="0" NCoef="0" IVar="6" Cut="2.4874250411987305e+01" cType="1" res="-8.2328991265967488e-04" rms="4.5086255669593811e-01" purity="4.9689978361129761e-01" nType="0">
        <Node pos="l" depth="1" NCoef="0" IVar="-1" Cut="0.0000000000000000e+00" cType="1" res="-6.3519380055367947e-03" rms="3.7001258134841919e-01" purity="2.0401757955551147e-01" nType="-99"/>
        <Node pos="r" depth="1" NCoef="0" IVar="5" Cut="9.1981720924377441e-01" cType="1" res="1.0738815180957317e-02" rms="4.5559957623481750e-01" purity="5.2304702997207642e-01" nType="0">
          <Node pos="l" depth="2" NCoef="0" IVar="-1" Cut="0.0000000000000000e+00" cType="1" res="-2.2863445337861776e-03" rms="4.4882893562316895e-01" purity="3.3628112077713013e-01" nType="-99"/>
          <Node pos="r" depth="2" NCoef="0" IVar="-1" Cut="0.0000000000000000e+00" cType="1" res="6.5703137079253793e-04" rms="4.5562192797660828e-01" purity="5.3847074508666992e-01" nType="-99"/>
        </Node>
      </Node>
    </BinaryTree>
    <BinaryTree type="DecisionTree" boostWeight="1.0000000000000000e+00" itree="377">
      <Node pos="s" depth="0" NCoef="0" IVar="7" Cut="2.8298721313476562e+01" cType="1" res="-2.5306851603090763e-03" rms="4.4888541102409363e-01" purity="4.9148619174957275e-01" nType="0">
        <Node pos="l" depth="1" NCoef="0" IVar="4" Cut="2.6096093750000000e+02" cType="1" res="5.4900173097848892e-02" rms="4.3051412701606750e-01" purity="4.3308138847351074e-01" nType="0">
          <Node pos="l" depth="2" NCoef="0" IVar="-1" Cut="0.0000000000000000e+00" cType="1" res="-8.8568706996738911e-04" rms="3.9958041906356812e-01" purity="2.9605871438980103e-01" nType="-99"/>
          <Node pos="r" depth="2" NCoef="0" IVar="-1" Cut="0.0000000000000000e+00" cType="1" res="5.9307944029569626e-03" rms="4.5098438858985901e-01" purity="6.2396812438964844e-01" nType="-99"/>
        </Node>
        <Node pos="r" depth="1" NCoef="0" IVar="2" Cut="2.2298803329467773e+00" cType="1" res="-1.2207377701997757e-02" rms="4.5118826627731323e-01" purity="5.0132697820663452e-01" nType="0">
          <Node pos="l" depth="2" NCoef="0" IVar="-1" Cut="0.0000000000000000e+00" cType="1" res="3.6759770591743290e-04" rms="4.5513889193534851e-01" purity="6.0872066020965576e-01" nType="-99"/>
          <Node pos="r" depth="2" NCoef="0" IVar="-1" Cut="0.0000000000000000e+00" cType="1" res="-2.3045772686600685e-03" rms="4.4069269299507141e-01" purity="2.9975041747093201e-01" nType="-99"/>
        </Node>
      </Node>
    </BinaryTree>
  </Weights>
</MethodSetup>
